{"<s>":0,"<pad>":1,"</s>":2,"<unk>":3,"<mask>":4,"!":5,"\"":6,"#":7,"$":8,"%":9,"&":10,"'":11,"(":12,")":13,"*":14,"+":15,",":16,"-":17,".":18,"/":19,"0":20,"1":21,"2":22,"3":23,"4":24,"5":25,"6":26,"7":27,"8":28,"9":29,":":30,";":31,"<":32,"=":33,">":34,"?":35,"@":36,"A":37,"B":38,"C":39,"D":40,"E":41,"F":42,"G":43,"H":44,"I":45,"J":46,"K":47,"L":48,"M":49,"N":50,"O":51,"P":52,"Q":53,"R":54,"S":55,"T":56,"U":57,"V":58,"W":59,"X":60,"Y":61,"Z":62,"[":63,"\\":64,"]":65,"^":66,"_":67,"`":68,"a":69,"b":70,"c":71,"d":72,"e":73,"f":74,"g":75,"h":76,"i":77,"j":78,"k":79,"l":80,"m":81,"n":82,"o":83,"p":84,"q":85,"r":86,"s":87,"t":88,"u":89,"v":90,"w":91,"x":92,"y":93,"z":94,"{":95,"|":96,"}":97,"~":98,"¡":99,"¢":100,"£":101,"¤":102,"¥":103,"¦":104,"§":105,"¨":106,"©":107,"ª":108,"«":109,"¬":110,"®":111,"¯":112,"°":113,"±":114,"²":115,"³":116,"´":117,"µ":118,"¶":119,"·":120,"¸":121,"¹":122,"º":123,"»":124,"¼":125,"½":126,"¾":127,"¿":128,"À":129,"Á":130,"Â":131,"Ã":132,"Ä":133,"Å":134,"Æ":135,"Ç":136,"È":137,"É":138,"Ê":139,"Ë":140,"Ì":141,"Í":142,"Î":143,"Ï":144,"Ð":145,"Ñ":146,"Ò":147,"Ó":148,"Ô":149,"Õ":150,"Ö":151,"×":152,"Ø":153,"Ù":154,"Ú":155,"Û":156,"Ü":157,"Ý":158,"Þ":159,"ß":160,"à":161,"á":162,"â":163,"ã":164,"ä":165,"å":166,"æ":167,"ç":168,"è":169,"é":170,"ê":171,"ë":172,"ì":173,"í":174,"î":175,"ï":176,"ð":177,"ñ":178,"ò":179,"ó":180,"ô":181,"õ":182,"ö":183,"÷":184,"ø":185,"ù":186,"ú":187,"û":188,"ü":189,"ý":190,"þ":191,"ÿ":192,"Ā":193,"ā":194,"Ă":195,"ă":196,"Ą":197,"ą":198,"Ć":199,"ć":200,"Ĉ":201,"ĉ":202,"Ċ":203,"ċ":204,"Č":205,"č":206,"Ď":207,"ď":208,"Đ":209,"đ":210,"Ē":211,"ē":212,"Ĕ":213,"ĕ":214,"Ė":215,"ė":216,"Ę":217,"ę":218,"Ě":219,"ě":220,"Ĝ":221,"ĝ":222,"Ğ":223,"ğ":224,"Ġ":225,"ġ":226,"Ģ":227,"ģ":228,"Ĥ":229,"ĥ":230,"Ħ":231,"ħ":232,"Ĩ":233,"ĩ":234,"Ī":235,"ī":236,"Ĭ":237,"ĭ":238,"Į":239,"į":240,"İ":241,"ı":242,"Ĳ":243,"ĳ":244,"Ĵ":245,"ĵ":246,"Ķ":247,"ķ":248,"ĸ":249,"Ĺ":250,"ĺ":251,"Ļ":252,"ļ":253,"Ľ":254,"ľ":255,"Ŀ":256,"ŀ":257,"Ł":258,"ł":259,"Ń":260,"Ġt":261,"Ġa":262,"he":263,"Ġâ":264,"Ġi":265,"on":266,"Ġthe":267,"ti":268,"re":269,"Ġs":270,"Ġ(":271,"Ġo":272,"Ġc":273,"in":274,"er":275,"ĠâĪ":276,"Ġf":277,"or":278,"Ġw":279,"en":280,"Ġp":281,"Ġof":282,"nd":283,"at":284,"Ġ1":285,"tion":286,"al":287,"Ġd":288,"Ġb":289,"es":290,"ĠÎ":291,"Ġ2":292,"Ġn":293,"Ġin":294,"ed":295,"Ġm":296,"ro":297,"Ġ=":298,"Ġand":299,"it":300,"Ġis":301,"Ġth":302,"ar":303,"Ġe":304,"ĠT":305,"an":306,"Ġ)":307,"le":308,"is":309,"Ġ,":310,"ĠâĪĴ":311,"Ġ.":312,"Ġto":313,"ing":314,"ic":315,"Ġ0":316,"ĠÏ":317,"et":318,"Ġthat":319,"om":320,"Ġfor":321,"ĠâĢ":322,"ve":323,"Ġre":324,"as":325,"ly":326,"Ġh":327,"Ġg":328,"Ġ+":329,"Ġl":330,"Ġu":331,"ation":332,"ec":333,"Ġcon":334,"Ġwe":335,"ll":336,"âĪ":337,"ac":338,"ent":339,"Ġk":340,"ĠA":341,"ĠS":342,"ĠThe":343,"ĠL":344,"st":345,"ow":346,"si":347,"Ġv":348,"ĠI":349,"Ġon":350,"ĠF":351,"ith":352,"Ġpro":353,"im":354,"Ġq":355,"ĠC":356,"ce":357,"ot":358,"ĠP":359,"ou":360,"Ġbe":361,"Ġsu":362,"Ġ[":363,"Ġr":364,"ĠâĪĪ":365,"Ġâī":366,"Ġas":367,"Ġx":368,"se":369,"ul":370,"Ġwith":371,"Ġan":372,"ĠR":373,"ol":374,"Ġby":375,"Ġj":376,"ĠW":377,"Ġ3":378,"ĠN":379,"ĠâĢ²":380,"Ġst":381,"Ġex":382,"qu":383,"ĠB":384,"am":385,"ver":386,"ĠH":387,"Ġ|":388,"ĠM":389,"ig":390,"ĠâĢ¢":391,"ore":392,"ts":393,"od":394,"um":395,"âĪĴ":396,"ri":397,"Ġare":398,"ur":399,"Ġde":400,"ĠE":401,"ut":402,"ĠG":403,"ab":404,"em":405,"ĠD":406,"Ġcom":407,"ch":408,"ain":409,").":410,"res":411,"pp":412,"ity":413,"),":414,"Ġal":415,"ĠX":416,"ction":417,"tic":418,"il":419,"ate":420,"Ġâī¤":421,"tin":422,"Ġwh":423,"Ġwhe":424,"ap":425,"Ġ*":426,"fin":427,"iv":428,"Ġpo":429,"Ġ4":430,"Ġthis":431,"ct":432,"el":433,"ter":434,"Ġcan":435,"Ġ:":436,"Ġcomp":437,"ĠWe":438,"if":439,"ir":440,"ure":441,"Ġha":442,"ge":443,"un":444,"ĠÎ±":445,"ĨĴ":446,"Ġy":447,"tive":448,"rom":449,"oll":450,"ĠâĬ":451,"Ġï":452,"pl":453,"Ġï£":454,"ĠK":455,"ich":456,"ĠIn":457,"Ġor":458,"ting":459,"Ġle":460,"her":461,"te":462,"id":463,"Ġall":464,"ĠÂ":465,"Ġwhich":466,"Ġfrom":467,"iz":468,"ĠV":469,"per":470,"Ġres":471,"Ġhave":472,"us":473,"Ġif":474,"Ġsp":475,"ĠO":476,"Ġ{":477,"og":478,"ollow":479,"ĠâĨĴ":480,"ad":481,"Ġwhere":482,"ition":483,"orm":484,"Ġnot":485,"Ġfollow":486,"Ġit":487,"Ġz":488,"ay":489,"Ġat":490,"Ġdis":491,"ĠâĦ":492,"Ġset":493,"Ġpar":494,"ĠÎ»":495,"ĠâĪ¥":496,"ma":497,"Ġse":498,"Ġsh":499,"sion":500,"ble":501,"Ġus":502,"der":503,"ence":504,"ari":505,"ĠTh":506,"orem":507,"ect":508,"ĠU":509,"Ġdefin":510,"of":511,"ally":512,"po":513,"end":514,"unction":515,"ess":516,"Ġsuch":517,"oc":518,"ant":519,"ach":520,"ations":521,"Ġun":522,"Ġtr":523,"Ġch":524,"ener":525,"ection":526,"tain":527,"Ġcl":528,"Ġfunction":529,"ĠLet":530,"Ġequ":531,"ound":532,"Ġob":533,"Ġapp":534,"all":535,"ase":536,"Ġthen":537,"ple":538,"ĠPro":539,"Ġco":540,"ution":541,"ere":542,"ary":543,"able":544,"ment":545,"str":546,"ies":547,"ĠÃ":548,"ated":549,"Ġâī¥":550,"du":551,"act":552,"ĠQ":553,"ĠÏĥ":554,"igh":555,"Ġthere":556,"ĠÂµ":557,"Ġ>":558,"rou":559,"Ġ5":560,"Ġne":561,"and":562,"ĠZ":563,"Ġ<":564,"Ġsub":565,"ĠÎ²":566,"tim":567,"ĠÎ³":568,"ĠFor":569,"Ġone":570,"ite":571,"ace":572,"Ġbound":573,"Ġmod":574,"erm":575,"Ġma":576,"ĠTheorem":577,"ine":578,"ĠÎ´":579,"ati":580,"ĠâĪŀ":581,"ther":582,"Ġgener":583,"Ġsy":584,"Ġqu":585,"ond":586,"Ġim":587,"ĠY":588,"Ġany":589,"Ġtw":590,"Ġhas":591,"ill":592,"sition":593,"Ġform":594,"ber":595,"Ġass":596,"Ġind":597,"Ġgiv":598,"Ġshow":599,"alu":600,"Ġresul":601,"Ġver":602,"ric":603,"))":604,"ĠÎµ":605,"ĠÏģ":606,"Ġeach":607,"ome":608,"ĠâĪĤ":609,"Ġtwo":610,"Ġpoin":611,"ous":612,"ĠÎ¸":613,"].":614,"ĠThis":615,"ff":616,"so":617,"emma":618,"ĠÏĦ":619,"ince":620,"form":621,"os":622,"th":623,"Ġsim":624,"Ġfin":625,"ds":626,"ĠÏĢ":627,"ose":628,"ĠLemma":629,"ular":630,"gor":631,"ĠâĦĵ":632,"Ġcase":633,"ial":634,"Ġnum":635,"Ġad":636,"rib":637,"Ġden":638,"ĠÃĹ":639,"Î±":640,"dition":641,"Ġab":642,"],":643,"Ġexp":644,"Ġwill":645,"ree":646,"Ġar":647,"iff":648,"ame":649,"Ġfollowing":650,"Ġstr":651,"Ġgr":652,"Ġmat":653,"Ġsol":654,"Ġme":655,"Ġnon":656,"Ġ6":657,"âĪ¥":658,"ans":659,"irst":660,"ĠJ":661,"ote":662,"eren":663,"ical":664,"Ł©":665,"ĠThen":666,"ud":667,"Ġ),":668,"Ġonly":669,"gr":670,"Ġsome":671,"aph":672,"Ġalso":673,"ator":674,"Ġcor":675,"âĪĪ":676,"Ġdiff":677,"Ġfi":678,"ep":679,"ithm":680,"position":681,"Ġint":682,"Ġgiven":683,"ates":684,"cl":685,"ak":686,"Ġtim":687,"âĢ":688,"ight":689,"Ġ]":690,"Ġ}":691,"abil":692,"etw":693,"blem":694,"ers":695,"Ġnumber":696,"ass":697,"Ġinter":698,"ance":699,"Ġexis":700,"ĠÎĵ":701,"ĠFig":702,"ĠÏķ":703,"Ġ).":704,"ire":705,"Ġdist":706,"ph":707,"Ġes":708,"resent":709,"atis":710,"Ġpre":711,"enti":712,"Ġvari":713,"sider":714,"âĦ":715,"Ġ-":716,"Ġmin":717,"ork":718,"gorithm":719,"Ġlog":720,"ĠÏī":721,"ra":722,"Ġproblem":723,"ĠÏµ":724,"Ġfollows":725,"Ġassum":726,"ension":727,"xim":728,"Ġobtain":729,"Ġ:=":730,"Ġcomple":731,"Ġmodel":732,"Ġfirst":733,"ĠâĪĨ":734,"ative":735,"ĠIf":736,"Ġop":737,"Ġ/":738,"Ġcondition":739,"Ġso":740,"ard":741,"roup":742,"Î»":743,"ges":744,"ĠÎ·":745,"Ġrel":746,"ĠÏĨ":747,"Ġour":748,"ient":749,"Ł¨":750,"Ġno":751,"ong":752,"ctor":753,"op":754,"Ġmet":755,"Ġvalu":756,"ves":757,"Ġinte":758,"Ġtime":759,"Ġconstr":760,"resp":761,"ty":762,"stem":763,"atisf":764,"uct":765,"orph":766,"Ġover":767,"ability":768,".,":769,"ĠProof":770,"Ġsatisf":771,"Ġproof":772,"ĠAs":773,"ality":774,"Ġother":775,"Ġcont":776,"oth":777,"Ġdes":778,"ise":779,"ties":780,"Ġappro":781,"Ġhe":782,"Ġgraph":783,"Ġwhen":784,"Ġper":785,"Ġrep":786,"ĠÎ¾":787,"Ġsc":788,"ĠâĦ¦":789,"Ġdifferen":790,"very":791,"Ġac":792,"Ġsm":793,"Ġsystem":794,"ffic":795,"ĠÏĪ":796,"ective":797,"Ġlet":798,"Ġid":799,"Ġsolution":800,"ðĿ":801,"Ġspace":802,"Ġits":803,"ust":804,"Ġterm":805,"ang":806,"ĠÎ½":807,"yp":808,"Ġresp":809,"Ġalgorithm":810,"Ġdet":811,"Ġline":812,"ĠâĬĹ":813,"ie":814,"ast":815,"Ġpoint":816,"Ġ\"":817,"Ġdo":818,"fore":819,"Ġdefined":820,"ort":821,"ove":822,"Ġuse":823,"ĠIt":824,"ism":825,"Ġorder":826,"gh":827,"sis":828,"Ġev":829,"Ġtrans":830,"Ġconsider":831,"ample":832,"Ġmap":833,"ue":834,"Ġfact":835,"imension":836,"nder":837,"Ġevery":838,"Ġsame":839,"respond":840,"Ġve":841,"Ġreg":842,"ord":843,"Ġoper":844,"ces":845,"lement":846,"ced":847,"Ġen":848,"Ġhol":849,"ied":850,"Ġcorrespond":851,"ĠFigure":852,"Ġthese":853,"Î¸":854,"ÏĢ":855,"Ġusing":856,"Ġproper":857,"Ġlim":858,"Ġgeneral":859,"vi":860,"amet":861,"Ġdec":862,"ark":863,"Ġprov":864,"Ġestim":865,"Ġ7":866,"omorph":867,"Ġclass":868,"ÏĦ":869,"âŁ©":870,"ost":871,"ĠProposition":872,"ser":873,"rix":874,"ents":875,"00":876,"ld":877,"Ġro":878,"Ì¸":879,"ĠBy":880,"ion":881,"Ġout":882,"Ġgroup":883,"Ġfinite":884,"Ġed":885,"ĠâĪļ":886,"Ġdistrib":887,"Âµ":888,"Î²":889,"ĠâŁ¨":890,"Ġext":891,"ĠÎ£":892,"een":893,"Ġcomput":894,"etween":895,"ĠSince":896,"Ġ8":897,"ack":898,"Ġbetween":899,"now":900,"ia":901,"cess":902,"Ġdisc":903,"Ïĥ":904,"Ġloc":905,"our":906,"ization":907,"Ġunder":908,"au":909,"Ġprob":910,"ption":911,"les":912,"Ġbas":913,"Î³":914,"Ġpl":915,"Ġmeas":916,"Ġsubs":917,"Ġmatrix":918,"Ġvector":919,"ĠThere":920,"'s":921,"Ġelement":922,"Ġrec":923,"fficient":924,"Ġthan":925,"Ġresult":926,"efin":927,"ĠâĪ©":928,"Ġresults":929,"Ġanal":930,"are":931,"Ġabove":932,"Ġpartic":933,"Ġsee":934,"Ġmore":935,"ould":936,"tial":937,"Ġsequ":938,"Ġconst":939,"Ġdat":940,"ign":941,"Ġexists":942,"10":943,"âĪŀ":944,"hod":945,"geb":946,"xt":947,"âĢ¢":948,"plic":949,"ĠSection":950,"ide":951,"ĠÌ¸":952,"Ġrepresent":953,"Ġcontain":954,"ĠÎ¦":955,"age":956,"ĠCon":957,"ize":958,"mm":959,"ted":960,"Ġsince":961,"Ġparamet":962,"iqu":963,"ĠÎĽ":964,"Ġman":965,"ulti":966,"Ġmethod":967,"ip":968,"out":969,"ĠâĬĤ":970,"andom":971,"Ġbut":972,"Ġoptim":973,"ke":974,"Ġpoly":975,"ðĿĳ":976,"ever":977,"Ġcur":978,"Ġï£´":979,"Ïģ":980,"Ġ;":981,"Ġlar":982,"ian":983,"Ġdistribution":984,"nt":985,"ized":986,"Ġdefine":987,"vari":988,"Ġâĸ":989,"Ġmay":990,"Ġsection":991,"Î´":992,"Ġdenote":993,"ival":994,"ilar":995,"Ġlinear":996,"Ġrandom":997,"ĠÎº":998,"Î¾":999,"ann":1000,"11":1001,"est":1002,"Ġtyp":1003,"âĨĴ":1004,"Ġfunctions":1005,"Ġstate":1006,"Ġdep":1007,"sitive":1008,"Ġmulti":1009,"tical":1010,"Ġsec":1011,"ower":1012,"âī":1013,"Ġprobability":1014,"Ġpoints":1015,"ected":1016,"equ":1017,"Ġoperator":1018,"âĦ¦":1019,"Ġinto":1020,"sed":1021,"Ġsmall":1022,"ĠThus":1023,"rodu":1024,"Ġ))":1025,"Ġpr":1026,"bit":1027,"Ġconver":1028,"olog":1029,"Ġprove":1030,"Ġstruct":1031,"pt":1032,"Ġused":1033,"ory":1034,"Ġpat":1035,"air":1036,"low":1037,"Ġminim":1038,"tinu":1039,"ĠTo":1040,"Ġmax":1041,"ors":1042,"12":1043,"vel":1044,"ĠSu":1045,"Ġdefinition":1046,"Ġparticular":1047,"Ġdesc":1048,"Ġdata":1049,"Ġtak":1050,"int":1051,"Ġcho":1052,"Ġboth":1053,"ating":1054,"ĠDefin":1055,"Ġnorm":1056,"Ġcol":1057,"Ġimp":1058,"Ġrem":1059,"Ġprocess":1060,")|":1061,"ero":1062,"Ġnow":1063,"Ġconstant":1064,"uction":1065,"Ġsupp":1066,"Ġknow":1067,"Ġanaly":1068,"Ïī":1069,"ĠNote":1070,"Ġfix":1071,"Ġconn":1072,"gebra":1073,"Îµ":1074,"Ġcomplex":1075,"omial":1076,"Ġequival":1077,"Ġmeasure":1078,"Ġdeg":1079,"over":1080,"Ġbec":1081,"ĠÄ":1082,"Ġinc":1083,"Ġtri":1084,"Ġtheorem":1085,"ication":1086,"Ġformul":1087,"ures":1088,"etric":1089,"Ġimpl":1090,"Ġem":1091,"Ġnod":1092,"Ġwell":1093,"Ġpap":1094,"sible":1095,"ail":1096,"ĠâĪª":1097,"ix":1098,"ual":1099,"par":1100,"ving":1101,"epend":1102,"Ġdire":1103,"Ġpos":1104,"Ġwork":1105,"Ġassume":1106,"Ġsequence":1107,"ĠAl":1108,"omorphism":1109,"âĢ²":1110,"Ġcorresponding":1111,"clud":1112,"Ã©":1113,"Ġdifferent":1114,"Ġ10":1115,"Ġequation":1116,"Ġobser":1117,"Ġvalue":1118,"sing":1119,"ĠâĪĩ":1120,"Ġholds":1121,"aces":1122,"Ġimplies":1123,"Ġcall":1124,"Ġprodu":1125,"Ġpositive":1126,"Ġder":1127,"Ġsecond":1128,"ĠâŁ©":1129,"Ġneed":1130,"owever":1131,"Ġmaxim":1132,"ne":1133,"Ġcomm":1134,"Ïķ":1135,"Ġsing":1136,"ob":1137,"Ġsur":1138,"Ġpaper":1139,"formation":1140,"âĦĵ":1141,"ile":1142,"ten":1143,"ject":1144,"Ġup":1145,"Ġag":1146,"Ġdepend":1147,"Ġreal":1148,"put":1149,"Ġ9":1150,"Ġspec":1151,"Ġ\\":1152,"see":1153,"ĠÏĩ":1154,"Ġcontinu":1155,"ii":1156,"Ġij":1157,"ĠâĪ¼":1158,"Ġapproxim":1159,"Ġdoes":1160,"Ġexample":1161,"Ġrequ":1162,"Î·":1163,"Ġwas":1164,"urther":1165,"Ġer":1166,"als":1167,"tex":1168,"ique":1169,"Ġpair":1170,"tices":1171,"Ġdimension":1172,"ved":1173,"old":1174,"ases":1175,"ĠâĬĨ":1176,"Ġappl":1177,"Ġmost":1178,"13":1179,"Ġtheir":1180,"ause":1181,"ĠMore":1182,"Ġchar":1183,"Ġredu":1184,"Ġinequ":1185,"nomial":1186,"ive":1187,"ampl":1188,"Ġbounded":1189,"eld":1190,"ice":1191,"ependent":1192,"Ġâĸ¡":1193,"ĥĹ":1194,"Ġpath":1195,"Ġstud":1196,"Ġterms":1197,"ood":1198,"Ġcompon":1199,"ectively":1200,"Ġsign":1201,")(":1202,"Ġâĭ":1203,"Ġet":1204,"Ġdeterm":1205,"Ġstructure":1206,"ĠTherefore":1207,"wise":1208,"ger":1209,"Ġpresent":1210,"Ġ(âĪĴ":1211,"Ġlarge":1212,"Ġpolynomial":1213,"ens":1214,"nce":1215,"Ġstep":1216,"Ġinst":1217,"etwork":1218,"Ġacc":1219,"Ġclos":1220,"Ġidenti":1221,"Ġget":1222,"ĠðĿĳ":1223,"Ġintrodu":1224,"Ġsatisfy":1225,"hed":1226,"Ġref":1227,"ĠDefinition":1228,"Ġintegr":1229,"Ġhom":1230,"oci":1231,"ĠHence":1232,"gy":1233,"Ïµ":1234,"Ġarg":1235,"ĠÎ¶":1236,"sum":1237,"Î½":1238,"Ġvertices":1239,"ex":1240,"ry":1241,"Ġobtained":1242,"ables":1243,"ÏĪ":1244,"ough":1245,"ily":1246,"Ġexist":1247,"âĪĨ":1248,"20":1249,"Ġwr":1250,"14":1251,"Ġvertex":1252,"Ġvalues":1253,"Ġlat":1254,"ĠâĢ²âĢ²":1255,"Ġsimilar":1256,"Ġdenot":1257,"Ġran":1258,"Ġboundary":1259,"loc":1260,"ks":1261,"eng":1262,"15":1263,"Ġnetwork":1264,"Ġ12":1265,"not":1266,"Ġdom":1267,"Ġalgebra":1268,"its":1269,"Ġassumption":1270,"sid":1271,"Ġconditions":1272,"Ġlocal":1273,"Ġdia":1274,"Ġfind":1275,"Ġent":1276,"ays":1277,"Ġfixed":1278,"ered":1279,"action":1280,"acter":1281,"gram":1282,"ech":1283,"ell":1284,"Ġassoci":1285,"me":1286,"Ġerr":1287,"rough":1288,"vious":1289,")-":1290,"Ġtype":1291,"Ġperform":1292,"Ġbeen":1293,"ft":1294,"ature":1295,"eed":1296,"istic":1297,"ÏĨ":1298,"Ġend":1299,"Ġzero":1300,"aus":1301,"ĠNow":1302,"Ġindependent":1303,"Ġrespectively":1304,"Ġdescrib":1305,"valu":1306,"Ġleast":1307,"ational":1308,"Ġsatisfies":1309,"ist":1310,"Ġá":1311,"ollary":1312,"Ġfr":1313,"ern":1314,"Îĵ":1315,"Ġedge":1316,"âī¤":1317,"Ġrespect":1318,"ov":1319,"Ġderiv":1320,"ential":1321,"ically":1322,"Ġcharacter":1323,"16":1324,"Ġthey":1325,"Ġinf":1326,"Ġsymm":1327,"Ġeig":1328,"tice":1329,"hen":1330,"ength":1331,"und":1332,"ull":1333,"ĠHowever":1334,"yn":1335,"Ġâ©":1336,"cy":1337,"Ġinequality":1338,"Ġoptimal":1339,"Ġsize":1340,"ĠâĨ":1341,"Ġcontr":1342,"..":1343,"Ġsets":1344,"vers":1345,"ĠSupp":1346,"ym":1347,"Ġge":1348,"ness":1349,"ĠRem":1350,"con":1351,"âĪĩ":1352,"Ġexact":1353,"Ġequivalent":1354,"ĠÂ±":1355,"Ġtop":1356,"tr":1357,"vex":1358,"iform":1359,"âĪĤ":1360,"here":1361,"hes":1362,"bin":1363,"Ġmust":1364,"inc":1365,"Ġmain":1366,"ish":1367,"Ġsum":1368,"Ġstand":1369,"Ġeigen":1370,"Ġcontinuous":1371,"ib":1372,"Ġtheory":1373,"19":1374,"ĠâĪ§":1375,"Ġini":1376,"Ġsimple":1377,"Ġaut":1378,"ag":1379,"ĠâĪĢ":1380,"Ġthus":1381,"Ġright":1382,"Ġsubset":1383,"ooth":1384,"Ġph":1385,"ĠÎ¨":1386,"atur":1387,"Ġaf":1388,"Ġsup":1389,"ĠAssum":1390,"Ġcou":1391,"}.":1392,"Ġconsis":1393,"Ġexpres":1394,"ĠCor":1395,"17":1396,"Ġnew":1397,"Ġdetermin":1398,"Ġhy":1399,"iction":1400,"Ġshown":1401,"sequ":1402,"Ġcod":1403,"ule":1404,"gence":1405,"Ġedges":1406,"ĠRemark":1407,"ology":1408,"Ġpossible":1409,"Ġpropo":1410,"Ġvariables":1411,"Ġconstrain":1412,"ĠMoreover":1413,"Ġproperties":1414,"Ġelements":1415,"Ġmon":1416,"Ġunique":1417,"ĠâĥĹ":1418,"Ġbecause":1419,"ĠSuppose":1420,"Ġproperty":1421,"lying":1422,"Ġlength":1423,"Ġeas":1424,"Ġeven":1425,"ĠÅ":1426,"Ġlimit":1427,"Ġthree":1428,"Ġaction":1429,"Ġhand":1430,"Ġinfin":1431,"ful":1432,"variant":1433,"Ġ20":1434,"Ġam":1435,"imensional":1436,"ning":1437,"Ġincre":1438,"round":1439,"ike":1440,"get":1441,"Ġindu":1442,"ĠEx":1443,"Ġdegree":1444,"Ġwould":1445,"ement":1446,"Ġgives":1447,"Ġshows":1448,"Ġdirect":1449,"Ġproj":1450,"Ġpart":1451,"ĠAn":1452,"Ġcalled":1453,"Ġparameter":1454,"onal":1455,"Ġlin":1456,"Ġfield":1457,"ĠÎł":1458,"Ġsche":1459,"elds":1460,"ĠâĭĨ":1461,"Ġcontro":1462,"tern":1463,"oint":1464,"Ġuniform":1465,"Ġfe":1466,"18":1467,"olic":1468,"Ġassociated":1469,"Ġcy":1470,"Ġsem":1471,"},":1472,"cc":1473,"ear":1474,"Ġerror":1475,"Ġdiscus":1476,"red":1477,"ding":1478,"line":1479,"ral":1480,"Ġbased":1481,"Ġinitial":1482,"Ġscal":1483,"dimensional":1484,"ible":1485,"ither":1486,"Ġsmooth":1487,"ck":1488,"art":1489,"tal":1490,"Ġwhile":1491,"ub":1492,"Ġclosed":1493,"Ġhence":1494,"ities":1495,"Ġstandard":1496,"Ġrequire":1497,"Ġrestr":1498,"Ġequal":1499,"Ġhyper":1500,"ĠCorollary":1501,"Ġstates":1502,"Ġway":1503,"Ġinformation":1504,"Ġproduct":1505,"efficient":1506,"Ġleft":1507,"Ġformula":1508,"ĠÎĺ":1509,"Ġrate":1510,"ynam":1511,"Ġallow":1512,"Ġthrough":1513,"Ġargum":1514,"antum":1515,"one":1516,"Ġï£¬":1517,"Ġapproach":1518,"lear":1519,"Ġfam":1520,"Ġnormal":1521,"Ġ11":1522,"Ġextend":1523,"Ġregular":1524,"Ġnatur":1525,"Ġmany":1526,"ulation":1527,"Ġmetric":1528,"Ġconstruction":1529,"mod":1530,"Ġconstruct":1531,"ven":1532,"ics":1533,"Ġconvex":1534,"ides":1535,"Ġï£·":1536,"Ġlower":1537,"Ġconnected":1538,"urn":1539,"Ġaddition":1540,"Ġremain":1541,"Ġser":1542,"Ġcontains":1543,"ighb":1544,"ategor":1545,"Ġeff":1546,"Ġcoefficient":1547,"Ġsurf":1548,"inal":1549,"anti":1550,"otic":1551,"usion":1552,"Ġcomplete":1553,"rop":1554,"ants":1555,"amples":1556,"ments":1557,"ects":1558,"gn":1559,"ane":1560,"Ġide":1561,"Ġsetting":1562,"Ġcompact":1563,"Ġdx":1564,"pper":1565,"Ġequations":1566,"Ġcases":1567,"tition":1568,"ange":1569,"Ġmean":1570,"val":1571,"ÃĹ":1572,"com":1573,"the":1574,"ĠFin":1575,"Ġknown":1576,"mma":1577,"iew":1578,"Ġsolutions":1579,"Ġsufficient":1580,"Ġunit":1581,"vial":1582,"Ġmo":1583,"Ġwhose":1584,"Ġanalysis":1585,"ordin":1586,"rices":1587,"Ġlemma":1588,"vol":1589,"Ġquantum":1590,"Ġcorre":1591,"Ġyi":1592,"Ġestimate":1593,"Ġiter":1594,"ward":1595,"Ġstudy":1596,"Ġprevious":1597,"tiv":1598,"ros":1599,"Ġarbit":1600,"Ġest":1601,"aim":1602,"annel":1603,"Ġ)(":1604,"Ġconf":1605,"Ġlo":1606,"plicit":1607,"ĠConsider":1608,"ympt":1609,"Ġnote":1610,"Ġsingle":1611,"Ġarbitr":1612,"alc":1613,"Ġ||":1614,"verse":1615,"bed":1616,"Ġima":1617,"clude":1618,"gative":1619,"Ġwor":1620,"row":1621,"ĠâĬķ":1622,"Ġdecom":1623,"Ġconvergence":1624,"Ġâī¡":1625,"omorphic":1626,"Ġeither":1627,"Ġnode":1628,"Ġdomain":1629,"Ġneighb":1630,"ymptotic":1631,"ifold":1632,"Ġsen":1633,"Ġpres":1634,"Ġcent":1635,"for":1636,"Ġparameters":1637,"ĠApp":1638,"Ġprec":1639,"Ġfl":1640,"ĠHere":1641,"Ġweight":1642,"ier":1643,"ha":1644,"etry":1645,"Ġmodels":1646,"sp":1647,"Ġrank":1648,"Ġopen":1649,"ĠOn":1650,"Ġlead":1651,"Ġsl":1652,"Ġstrong":1653,"Ġdynam":1654,"Ġgraphs":1655,"Ġgive":1656,"Ġcombin":1657,"cle":1658,"Ġwrite":1659,"Ġupper":1660,"âŁ¨":1661,"ings":1662,"ĠFrom":1663,"Ġrepresentation":1664,"])":1665,"Ġweak":1666,"ner":1667,"The":1668,"Ġconc":1669,"Ġpower":1670,"Ġsystems":1671,"Ġlevel":1672,"iven":1673,"echn":1674,"ĠâĮ":1675,"Ġtree":1676,"lection":1677,"Ġdistance":1678,"Ġchannel":1679,"asing":1680,"ific":1681,"Ġorig":1682,"Ġdiv":1683,"Ġnodes":1684,"Ġsay":1685,"Ġsupport":1686,"Ġexpl":1687,"Î£":1688,"sive":1689,"Ġhere":1690,"Ġener":1691,"ĠRe":1692,"Ġspect":1693,"to":1694,"ecess":1695,"Ġfactor":1696,"Ġbelow":1697,"Ġdiscre":1698,"Ġadd":1699,"Ġcoordin":1700,"Ġsym":1701,"ĠFurther":1702,"Ġlast":1703,"Ġinters":1704,"Ġgenerated":1705,"abel":1706,"Ġvariable":1707,"ually":1708,"Ġquanti":1709,"ording":1710,"Ġcalc":1711,")/":1712,"ertain":1713,"Ġasymptotic":1714,"Ġgl":1715,"]).":1716,"sity":1717,"ĠCom":1718,"Ġgo":1719,"Ġmethods":1720,"Ġâ©½":1721,"ately":1722,"Îº":1723,"Ġhow":1724,"iod":1725,"ton":1726,"chie":1727,"Ġbasis":1728,"Ġbloc":1729,"Ġroot":1730,"ĠGiven":1731,"Ġmeans":1732,"Ġnatural":1733,"Ġmatrices":1734,"Ġmaps":1735,"ĠFinally":1736,"Ġproposed":1737,"Ġidentif":1738,"ĠâĬ¤":1739,"Ġabout":1740,"Ġtrue":1741,"ĠÂ´":1742,"ĠNe":1743,"Ġhigh":1744,"hood":1745,"Ġachie":1746,"ĠUsing":1747,"Ġeigenvalu":1748,"ind":1749,"Ġenergy":1750,"ug":1751,"Ġcos":1752,"Ġtherefore":1753,"ently":1754,"Ġcost":1755,"Ġproblems":1756,"Ġgeom":1757,"Ġthem":1758,"Ġpartition":1759,"ĠË":1760,"jective":1761,"ified":1762,"Ġla":1763,"ĠRec":1764,"Ġbounds":1765,"Ġcomponent":1766,"Ġcurve":1767,"Ġtechn":1768,"lect":1769,"Ġ)|":1770,"ĠOur":1771,"Ġindex":1772,"Ġchoice":1773,"Ġwithout":1774,"Î¶":1775,"Ġrelation":1776,"Ġvery":1777,"Ġspaces":1778,"Ġexpon":1779,"Ġgrad":1780,"Ġche":1781,"Ġnext":1782,"22":1783,"Ġnecess":1784,"Ġ'":1785,"ased":1786,"ÎĽ":1787,"Ġobserv":1788,"Ġcontrol":1789,"Ġprim":1790,"Ġcategor":1791,"Ġapproximation":1792,"Ġinfinite":1793,"Ġfamily":1794,"sian":1795,"Ġsin":1796,"Ġalong":1797,"Ġtake":1798,"ene":1799,"ĠâĪħ":1800,"Ġdenotes":1801,"Ġside":1802,"ave":1803,"group":1804,"ĠSo":1805,"Ġregion":1806,"Ġtotal":1807,"Ġsymmetric":1808,"mit":1809,"Ġfurther":1810,")]":1811,"Ġstrate":1812,"Ġâĩ":1813,"ute":1814,"log":1815,"oss":1816,"Ġtre":1817,"ify":1818,"ĠâĪĴâĨĴ":1819,"Ġdetail":1820,"joint":1821,"iter":1822,"ĠCh":1823,"Ġnotation":1824,"Ġcir":1825,"Ġcompute":1826,"more":1827,"ĠSim":1828,"Ġbel":1829,"Ġcomponents":1830,"Ġembed":1831,"Ġindic":1832,"Ġdue":1833,"most":1834,"ences":1835,"Ġinvariant":1836,"Ġgu":1837,"pping":1838,"Ġstat":1839,"Ġsatisfying":1840,"ĠII":1841,"ĠSp":1842,"ĠFirst":1843,"Î¦":1844,"man":1845,"Ġextension":1846,"Ġalgorithms":1847,"Ġimport":1848,"led":1849,"ision":1850,"ules":1851,"Ġthose":1852,"Ġscheme":1853,"Ġapply":1854,"Ġnumer":1855,"erence":1856,"Ġread":1857,"Ġafter":1858,"ets":1859,"Ġtransform":1860,"Ġpri":1861,"Ġarbitrary":1862,"21":1863,"Ġinteger":1864,"ency":1865,"arch":1866,"Ġargument":1867,"ĠWhen":1868,"Ġfree":1869,"ĠInd":1870,"Ġtriang":1871,"Ġrepl":1872,"ead":1873,"ĠĠ":1874,"Ġexpression":1875,"verage":1876,"ĠâĢł":1877,"Ġdt":1878,"ĠâĬ¥":1879,"Ġshould":1880,"Ġgroups":1881,"Ġocc":1882,"Ġsepar":1883,"Ġbeha":1884,"Ġappear":1885,"Ġdensity":1886,"up":1887,"mon":1888,"Ġdiagram":1889,"ernel":1890,"edi":1891,"Ġclassical":1892,"Ġinput":1893,"Ġoperators":1894,"Ġbeing":1895,"plit":1896,"Ġlear":1897,"Ġexplicit":1898,"Ġconsid":1899,"Ġspecial":1900,"ax":1901,"Ġï£¯":1902,"Ġclaim":1903,"Ġtran":1904,"ys":1905,"Ġsurface":1906,"abl":1907,"Ġproved":1908,"Ġbi":1909,"Ġcap":1910,"Ġ13":1911,"ĠAlgorithm":1912,"Ġcannot":1913,"Ġbr":1914,"Ġke":1915,"Ġagain":1916,"Ġloss":1917,"inary":1918,"Ġsqu":1919,"Ġconsidered":1920,"Ġisomorphism":1921,"ided":1922,"Ġï£º":1923,"Ġclear":1924,"Ġmaximum":1925,"ĠAssume":1926,"Ġdecomposition":1927,"mis":1928,"Ġdescribed":1929,"Ġvia":1930,"ĠEq":1931,"Ġlabel":1932,"Ġ((":1933,"23":1934,"orphism":1935,"âĨĴâĪŀ":1936,"Ġ19":1937,"ries":1938,"Ġyields":1939,")âĪ¥":1940,")).":1941,"ways":1942,"25":1943,"Ġperformance":1944,"Ġprecise":1945,"Ġcoefficients":1946,"Ġinvol":1947,"perim":1948,"Ġinstance":1949,"ĠThese":1950,"Ġwere":1951,"ĠGaus":1952,"cept":1953,"clusion":1954,"24":1955,"Ġchoose":1956,"Ġenough":1957,"Ġexactly":1958,"Ġhold":1959,"oid":1960,"astic":1961,"Ġperiod":1962,"Ġversion":1963,"Ġflow":1964,"af":1965,"âī¥":1966,"Ġsense":1967,"Ġdi":1968,"Ġdirection":1969,"Ġlike":1970,"Ġpred":1971,"Ġalways":1972,"Ġir":1973,"Ġrun":1974,"Ġrelative":1975,"uting":1976,"Ġdiag":1977,"Ġav":1978,"Ġinterval":1979,"velop":1980,"Ġintegral":1981,"Ġkernel":1982,"eg":1983,"Ġprojection":1984,"ole":1985,"och":1986,"uch":1987,"Ġframe":1988,"ĠâĪ¨":1989,"Ġstar":1990,"ons":1991,"Ġcalcul":1992,"ĠOne":1993,"Ġ..":1994,"less":1995,"Ġdenoted":1996,"Ġcheck":1997,"rict":1998,"Ġestabl":1999,"ĠðĿ":2000,"ior":2001,"acy":2002,"ators":2003,"Ġvectors":2004,"til":2005,"umn":2006,"ult":2007,"Ġ16":2008,"linear":2009,"read":2010,"ok":2011,"Ġinterp":2012,"Ġcr":2013,"Ġview":2014,"Ġrelations":2015,"Ġhyp":2016,"Ġmake":2017,"Ġconclude":2018,"Ġexistence":2019,"endix":2020,"uc":2021,"sc":2022,"Ġcertain":2023,"ĠWith":2024,"Ġln":2025,"Ġ#":2026,"emp":2027,"ĠRecall":2028,"Ġstrict":2029,"Ġsubgroup":2030,"Ġimportant":2031,"Ġperm":2032,"Ġtra":2033,"We":2034,"Ġsuper":2035,"Ġbund":2036,"ĠExample":2037,"ared":2038,"estion":2039,"Ġtimes":2040,"izing":2041,"Ġrow":2042,"Ġhig":2043,"ĠFurthermore":2044,"Ġminimal":2045,"Ġprovide":2046,"Ġimm":2047,"ret":2048,"Ġbehavi":2049,"Ġevalu":2050,"osen":2051,"Ġdim":2052,"till":2053,"ĠSt":2054,"Ġcomplexity":2055,"Ġquad":2056,"Ġcomputation":2057,"Ġorth":2058,"Ġ([":2059,"Ġcolumn":2060,"Ġdiscrete":2061,"Ġintroduce":2062,"âĮ":2063,"Ġoccur":2064,"ante":2065,"sequence":2066,"Ġglob":2067,"ental":2068,"Ġrelated":2069,"ensor":2070,"ological":2071,"itten":2072,"Ġtor":2073,"Ġdifferential":2074,"Ġfound":2075,"Ġimage":2076,"Ġmaximal":2077,"Ġ`":2078,"Ġrefer":2079,"Ġpot":2080,"olution":2081,"Ġ...,":2082,"Ġatt":2083,"pr":2084,"Ġproced":2085,"graph":2086,"sif":2087,"sign":2088,"Ġchange":2089,"Ġmanifold":2090,"Ġlong":2091,"ĠSimilar":2092,"ility":2093,"Ġï£«":2094,"Ġï£Ń":2095,"Ġcontrad":2096,"otop":2097,"Ġï£¸":2098,"Ġï£¶":2099,"ĠTable":2100,"uted":2101,"(âĪĴ":2102,"Ġrad":2103,"rest":2104,"ĠâĻ":2105,"Ġ14":2106,"Ġchain":2107,"Ġdual":2108,"Ġsingular":2109,"itive":2110,"ON":2111,"Ġmorphism":2112,"Ġclasses":2113,"ict":2114,"Ġcould":2115,"Ġaccording":2116,"Ġ[?":2117,"Ġblock":2118,"Ġinduced":2119,"Ġidentity":2120,"Ġchosen":2121,"ching":2122,"Ġdevelop":2123,"ĠTr":2124,"Ġval":2125,"arily":2126,"Ġmultiplic":2127,"ĠGaussian":2128,"tri":2129,"Ġneighbor":2130,"son":2131,"hom":2132,"ired":2133,"Ġnumbers":2134,"rient":2135,"Ġimpro":2136,"ply":2137,"Ġclust":2138,"pos":2139,"other":2140,"ĠâĨĲ":2141,"Ġdesign":2142,"Ġnotion":2143,"Ġanalog":2144,"Ġemp":2145,"ĠIndeed":2146,"av":2147,"duc":2148,"igur":2149,"tit":2150,"Ġcell":2151,"Ġestimates":2152,"Ġbelong":2153,"Ġreas":2154,"Ġexperim":2155,"ron":2156,"Ġuniformly":2157,"odes":2158,"Ġback":2159,"Ġinterest":2160,"Ġcode":2161,"Ïĩ":2162,"Ġclose":2163,"Ġguar":2164,"Ġorient":2165,"Ġalmost":2166,");":2167,"ications":2168,"izes":2169,"Ġstill":2170,"Ġstable":2171,"Ġtrivial":2172,"Ġaverage":2173,"Ġjust":2174,"Ġfull":2175,"Ġcorresponds":2176,"time":2177,"Ġfour":2178,"entially":2179,"Ġgre":2180,"side":2181,"Ġeasy":2182,"Ġprinc":2183,"Ġequivalence":2184,"ource":2185,"Ġprogram":2186,"Ġintroduced":2187,"Ġcover":2188,"Ġtest":2189,"Ġquestion":2190,"Ġsimpl":2191,"Ġhypot":2192,"Ġcurves":2193,"assif":2194,"Ġrecall":2195,"Ġinclud":2196,"Ġbefore":2197,"ade":2198,"dd":2199,"Ġill":2200,"Ġstatement":2201,"Ġplay":2202,"gether":2203,"ivers":2204,"Ġtogether":2205,"Ġguarante":2206,"26":2207,"Ġrece":2208,"sel":2209,"Ġturn":2210,"ustr":2211,"Ġminimum":2212,"):":2213,"âĬ":2214,"Ġstrategy":2215,"Ġexamples":2216,"Ġcategory":2217,"Ġposition":2218,"Ġimple":2219,"rent":2220,"Ġconstraints":2221,"ritical":2222,"Ġotherwise":2223,"Ġirre":2224,"Ġcoun":2225,"Ġsubsp":2226,"know":2227,"Ġmom":2228,"Ġoptimization":2229,"sib":2230,"zero":2231,"Ġcros":2232,"tically":2233,"ick":2234,"Ġnumerical":2235,"Ġsample":2236,"ĠCl":2237,"Ġvan":2238,"ĠNo":2239,"Ġ(âĢ¢":2240,"ount":2241,"Ġconfigur":2242,"Ġsufficiently":2243,"lation":2244,"ee":2245,"Ġphase":2246,"ĠPo":2247,"text":2248,"ances":2249,"Ġ],":2250,"Ġtransition":2251,"Ġenc":2252,"Ġseries":2253,"Ġvol":2254,"Ġsever":2255,"vant":2256,"Ġcommun":2257,"Ġeasily":2258,"Ġprocedure":2259,")),":2260,"Ġ15":2261,"Ġcontained":2262,"bol":2263,"Ġseveral":2264,"Ġless":2265,"Ġ},":2266,"Ġwords":2267,"jecture":2268,"Ġintersection":2269,"Ġquas":2270,"ĠOb":2271,"Ġmak":2272,"Ġsuppose":2273,"Ġconven":2274,"ogene":2275,"ĠHam":2276,"27":2277,"Ġexpected":2278,"Ġassumptions":2279,"Ġbu":2280,"Ġact":2281,"Ġwhether":2282,"Ġconstraint":2283,"Ġadj":2284,"Ġdepends":2285,"TI":2286,"hesis":2287,"ĠPr":2288,"ochastic":2289,"Ġfre":2290,"amely":2291,"28":2292,"unctor":2293,"ĠAppendix":2294,"Ġlow":2295,"work":2296,"Ġglobal":2297,"ius":2298,"Ġrestriction":2299,"Ġcycl":2300,"rid":2301,"Ġassign":2302,"gin":2303,"Ġdifference":2304,"Ġoriginal":2305,"olds":2306,"Ġanother":2307,"Ġapplied":2308,"Ġnoise":2309,"Ġwhat":2310,"Ġcommon":2311,"Ġ{(":2312,"tics":2313,"Ġrule":2314,"wh":2315,"Ġfil":2316,"tivity":2317,"Ġallows":2318,"Ġsimply":2319,"ik":2320,"ink":2321,"Ġbo":2322,"Ġess":2323,"Ġpreser":2324,"Ġdecre":2325,"Ġwithin":2326,"Ġnegative":2327,"tur":2328,"Ġhigher":2329,"Ġobserve":2330,"Ġorbit":2331,"Ġ}.":2332,"Ġcompar":2333,"Ġrequired":2334,"ention":2335,"bolic":2336,"Ġsit":2337,"Ġord":2338,"order":2339,"Ġillustr":2340,"Ġclassif":2341,"Ġáº":2342,"elf":2343,"Ġpairs":2344,"Ġlattice":2345,"Ġupd":2346,"ras":2347,"ages":2348,"Ġlocally":2349,"Ġcanon":2350,"Ġel":2351,"ilton":2352,"Ġds":2353,"ĠâĪŀ.":2354,"Ġgeometric":2355,"Ġsampl":2356,"Ġimplement":2357,"Ġstochastic":2358,"Ġsatisfied":2359,"Ġdistin":2360,"Ġlearning":2361,"Ġcontext":2362,"Ġsumm":2363,"ĠâĪŀ,":2364,"Ġabs":2365,"ĠEqu":2366,"Ġimmedi":2367,"30":2368,"ansion":2369,"Ġconj":2370,"ĠGr":2371,"Ġexpect":2372,"known":2373,"ĠInt":2374,"Ġpresented":2375,"Ġgradient":2376,")}":2377,"Ġshall":2378,"Ġoutput":2379,"Ġreplac":2380,"Ġauth":2381,"Ġdistributions":2382,"Ġproposition":2383,"Ġlink":2384,"ĠLie":2385,"Ġcomputed":2386,"Ġbecom":2387,"Ġstatis":2388,"ilib":2389,"Ġtaking":2390,"Ġtensor":2391,"Ġodd":2392,"Ġconverges":2393,"Ġdetermined":2394,"ĠSimilarly":2395,"Ġbundle":2396,"icted":2397,"Ġvalid":2398,"Ġconsists":2399,"Ġconnection":2400,"ĠÎ¹":2401,"Ġreason":2402,"Ġalgebraic":2403,"Ġembedding":2404,"ĠSte":2405,"Ġdu":2406,"Ġcoordinates":2407,"Ġpolynomials":2408,"Ġeigenvalues":2409,"Ġframework":2410,"Ġnecessary":2411,"DE":2412,"off":2413,"variance":2414,"Ġsplit":2415,"Ġpermut":2416,"Ġdynamics":2417,"tig":2418,"Ġmultiple":2419,"Ġsymbol":2420,"ips":2421,"ĠLe":2422,"pro":2423,"ilibri":2424,"Ġadditional":2425,"aves":2426,"cing":2427,"...,":2428,"ready":2429,"Ġprop":2430,"Ġsimplic":2431,"||":2432,"29":2433,"Ġinstead":2434,"ater":2435,"Ġbecomes":2436,"/(":2437,"Ġmuch":2438,"Ġprecisely":2439,"Ġpartial":2440,"Ġgood":2441,"Ġprovided":2442,"Ġfunctor":2443,"Ġshort":2444,"uring":2445,"Ġsteps":2446,"Ġequality":2447,"Ġ?":2448,"ceed":2449,"Ġdiagonal":2450,"Ġalready":2451,"Ġwritten":2452,"gebras":2453,"Ġincreasing":2454,"ĠNext":2455,"itz":2456,"Ġexpansion":2457,"Ġmodul":2458,"lo":2459,"Ġdirectly":2460,"Ġevent":2461,"Ġax":2462,"Ġcontrib":2463,"Ġ200":2464,"Ġcommut":2465,"ocus":2466,"Ġorthog":2467,"Ġseen":2468,"Ġmark":2469,"Ġnetworks":2470,"Ġspectral":2471,"ĠLa":2472,"Ġpaths":2473,"ĠHamilton":2474,"Ġcritical":2475,"tif":2476,"fine":2477,"Î¨":2478,"Ġfund":2479,"oun":2480,"Ġlarger":2481,"ogeneous":2482,"ĠÂ§":2483,"Ġunion":2484,"Ġreduced":2485,"ification":2486,"ĠWh":2487,"Ġself":2488,"Ġinves":2489,"Ġâ©¾":2490,"ropy":2491,"ĠBut":2492,"Ġsquare":2493,"alle":2494,"Ġaltern":2495,".)":2496,"Ġgeneralized":2497,"Ġpotential":2498,"Ġstrictly":2499,"Ġrob":2500,"Ġprior":2501,"Ġbase":2502,"Ġdisjoint":2503,"Ġconstants":2504,"ights":2505,"ĠSch":2506,"reg":2507,"Ġrecur":2508,"Ġdistinct":2509,"ather":2510,"Ġmeasures":2511,"Ġstudied":2512,"Ġkey":2513,"bert":2514,"Ġens":2515,"Ġcanonical":2516,"uts":2517,"edu":2518,"Ġcharacteristic":2519,"Ġreduction":2520,"ĠAssumption":2521,"Ġconsequence":2522,"Ġdescribe":2523,"ducible":2524,"ires":2525,"fer":2526,"Ġaccur":2527,"Ġprovides":2528,"Ġ+âĪŀ":2529,"Ġinverse":2530,"ild":2531,"Ġbl":2532,"Ġï£³":2533,"Ġï£±":2534,"Ġresulting":2535,"Ġremains":2536,"negative":2537,"Ġï£²":2538,"Ġinduction":2539,"In":2540,"ety":2541,"Ġprac":2542,"Ġprot":2543,"ĠUn":2544,"Ġhowever":2545,"Ġ)]":2546,"Ġlines":2547,"ĠMark":2548,"Ġfocus":2549,"Ġmem":2550,"Ġequilibri":2551,"amental":2552,"Ġdistributed":2553,"Ġdesired":2554,"Ġefficient":2555,"Ã¶":2556,"Ġpolic":2557,"Ġadap":2558,"Ġcontaining":2559,"Ġdetails":2560,"ished":2561,"Ġneighborhood":2562,"ress":2563,"resting":2564,"ĠËĨ":2565,"jects":2566,"Ġloop":2567,"Ġcluster":2568,"ĠAlso":2569,"Ġ21":2570,"Ġuseful":2571,"Ġâī²":2572,"Ġformal":2573,"Ġdel":2574,"echan":2575,"war":2576,"Ġret":2577,"Ġquer":2578,"ĠDefine":2579,"ze":2580,"Ġmapping":2581,"oti":2582,"Ġtrain":2583,"Ġfields":2584,"algebra":2585,"32":2586,"Ġsuc":2587,"Ġsmaller":2588,"31":2589,"Ġbet":2590,"imin":2591,"Ġestimation":2592,"Ġcop":2593,"Ġrational":2594,"Ġcycle":2595,"ratic":2596,"Ġbest":2597,"Ġbehavior":2598,"Ġnear":2599,"Ġplane":2600,"Ġconstructed":2601,"(âĢ¢":2602,"Ġextended":2603,"Ġestimator":2604,"Ġcurrent":2605,"Ġuser":2606,"Ġhal":2607,"Ġlaw":2608,"Ġdiscussion":2609,"own":2610,"point":2611,"trivial":2612,"Ġgeodes":2613,"Ġtas":2614,"resh":2615,"Ġsuffic":2616,"ren":2617,"Ġlatter":2618,"Ġmonot":2619,"ope":2620,"Ġhypothesis":2621,"34":2622,"ormal":2623,"Ġapplications":2624,"Ġpertur":2625,"Ġbran":2626,"Ġstart":2627,"pped":2628,"ler":2629,"Ġideal":2630,"Ġsitu":2631,"Ġarc":2632,"ifolds":2633,"Ġ22":2634,"back":2635,"Ġleads":2636,"Ġtransformation":2637,"Ġsequences":2638,"otopy":2639,"âĥĹ":2640,"gest":2641,"Ġapplying":2642,"ale":2643,"Ġirreducible":2644,"ression":2645,"ĠAt":2646,"][":2647,"Ġcollection":2648,"Ġconjug":2649,"aight":2650,"Ġliter":2651,"Ġprocesses":2652,"Ġforms":2653,"Ġgrow":2654,"pose":2655,"ĠâīĪ":2656,"based":2657,"Ġâīĥ":2658,"Ġcontradiction":2659,"though":2660,"Ġsignal":2661,"Ġprobabil":2662,"Ġcirc":2663,"Ġfundamental":2664,"allel":2665,"Ġstraight":2666,"Ġsubspace":2667,"Ġhyperbolic":2668,"Ġamong":2669,"Ġ].":2670,"Ġsymmetry":2671,"ription":2672,"ĠAd":2673,"Ġrange":2674,"ĠâĪĴ(":2675,"iem":2676,"33":2677,"iii":2678,"Ġball":2679,"ĠâĪĳ":2680,"hema":2681,"Ġderived":2682,"ortion":2683,"sh":2684,"Ġtang":2685,"Ġorthogonal":2686,"Ġphys":2687,"dx":2688,"arget":2689,"Ġentries":2690,"Ġremark":2691,"Ġapplication":2692,"Ġmention":2693,"Ġshe":2694,"ird":2695,"âĢ¢âĢ¢":2696,"Ġtypes":2697,"Ġrequires":2698,"Ġmechan":2699,"Ġmoment":2700,"atives":2701,"Ġinvestig":2702,"Ġhor":2703,"ift":2704,"ably":2705,"Ġbasic":2706,"Ġspar":2707,"iques":2708,"Ġdone":2709,"Ġpi":2710,"Ġseg":2711,"Ġreturn":2712,"Ġsource":2713,"Ġtakes":2714,"ters":2715,"Ġsolve":2716,"Ġisomorphic":2717,"Ġsignific":2718,"iemann":2719,"forward":2720,"ER":2721,"pri":2722,"where":2723,"llip":2724,"Ġweights":2725,"Ġsimul":2726,"ux":2727,"Ġring":2728,"ocol":2729,"oy":2730,"Ġbegin":2731,"Ġ[âĪĴ":2732,"Ġhaving":2733,"ishes":2734,"Ġang":2735,"ĠSet":2736,"Ġfunctional":2737,"Ġunderst":2738,"Ġbetter":2739,"Ġfrequ":2740,"Ġiteration":2741,"Ġcorrect":2742,"Ġderive":2743,"Ġ)âĪ¥":2744,"atic":2745,"min":2746,"((":2747,"Ġdou":2748,"Ġderivative":2749,"Ġinteresting":2750,"Ġtes":2751,"Ġque":2752,"ices":2753,"Ġdedu":2754,"Ġcoinc":2755,"Ġaffine":2756,"sequently":2757,"with":2758,"Ġconsist":2759,"Ġtopological":2760,"ondition":2761,"Ġquasi":2762,"free":2763,"aches":2764,"Ġdef":2765,"Ġquoti":2766,"Ġvariance":2767,"raw":2768,"ison":2769,"Ġexponential":2770,"Ġmar":2771,"Ġquadratic":2772,"lec":2773,"ath":2774,"Ġmess":2775,"we":2776,"seud":2777,"Ġcar":2778,"Ġgen":2779,"Ġorigin":2780,"Ġtarget":2781,"ĠMarkov":2782,"gers":2783,"Ġsuit":2784,"Ġexplain":2785,"Ġbinary":2786,"ĠSub":2787,"rier":2788,"ilbert":2789,"ĠThat":2790,"Ġcons":2791,"ĠâĩĴ":2792,"Ġ100":2793,"Ġstability":2794,"Ġhalf":2795,"Ġdomin":2796,"Ġrest":2797,"IN":2798,"Ġapproximate":2799,"Ġtopology":2800,"ins":2801,"Ġrati":2802,"Ġvarious":2803,")-(":2804,"Ġlay":2805,"Ġcut":2806,"Ġnamely":2807,"Ġutil":2808,"ĠFix":2809,"ĠObser":2810,"rees":2811,"Ġpost":2812,"rum":2813,"Ġstructures":2814,"Ġspecific":2815,"Ġeigenvalue":2816,"ĠÏĳ":2817,"II":2818,"35":2819,"Ġstation":2820,"Ġperiodic":2821,"Ġobjects":2822,"izon":2823,"Ġidea":2824,"sem":2825,"Ġsuffices":2826,"Ġ18":2827,"oding":2828,"Ġpossib":2829,"Ġdiffic":2830,"AR":2831,"ously":2832,"ĠCase":2833,"igure":2834,"Ġconfiguration":2835,"ivid":2836,"Ġcurv":2837,"Ġ(|":2838,"Ġobserved":2839,"ored":2840,"Ġuses":2841,"ĠSec":2842,"alities":2843,"ĠHamiltonian":2844,"lin":2845,"Ġstarting":2846,"ends":2847,"Ġentropy":2848,"Ġfac":2849,"isk":2850,"Ġsa":2851,"Ġunivers":2852,"ĠSpec":2853,"ecting":2854,"self":2855,"ĠDen":2856,"Ġdescription":2857,"bound":2858,"Ġconjecture":2859,"Ġgame":2860,"Ġsupported":2861,"hand":2862,"eness":2863,"âĪĪ[":2864,"ĠNotice":2865,"Ġfraction":2866,"ised":2867,"Ġaround":2868,"su":2869,"Ġsug":2870,"ymm":2871,"Ġpattern":2872,"wer":2873,"Ġpur":2874,"Ġwave":2875,"Ġtheore":2876,"Ġequilibrium":2877,"chitz":2878,"by":2879,"Ġoff":2880,"Ġestablish":2881,"Ġparallel":2882,"Ġrot":2883,"Ġcoordinate":2884,"ĠEach":2885,"Ġdy":2886,"Ġdiscussed":2887,"Ġprotocol":2888,"Ġavail":2889,"Ġround":2890,"zation":2891,"Ġcentral":2892,"Ġunc":2893,"ĠStep":2894,"Ġidentify":2895,"Ġdivis":2896,"Ġpass":2897,"mes":2898,"ST":2899,"36":2900,"ipschitz":2901,"Îł":2902,"200":2903,"defin":2904,"Ġassumed":2905,"ems":2906,"Ġdimensional":2907,"Ġinver":2908,"jection":2909,"Ġsamples":2910,"valued":2911,"monstr":2912,"Ġful":2913,"Ġcapac":2914,"SI":2915,"Ġdiscuss":2916,"Ġmass":2917,"SE":2918,"Ġtransmit":2919,"aking":2920,"ĠHom":2921,"ĠRiemann":2922,"Ġobjective":2923,"Ġthresh":2924,"vector":2925,"Ġsignificant":2926,"angu":2927,"Ġobject":2928,"Ġ17":2929,"Ġmix":2930,"Ġrather":2931,"Ġfiber":2932,"Ġobservation":2933,"Ġsubsets":2934,"OR":2935,"Ġdefinitions":2936,"Ġdetermine":2937,"Ġintegers":2938,"Ġeffect":2939,"Ġthird":2940,"Ġperturb":2941,"ef":2942,"Ġfinal":2943,"Ġsampling":2944,"Ġmade":2945,"Ġscalar":2946,"Theorem":2947,"Ġellip":2948,"Ġfinitely":2949,"ĠHilbert":2950,"ĠSee":2951,"Ġappropri":2952,"Ġcontroll":2953,"atures":2954,"isc":2955,"Ġdraw":2956,"Ġfib":2957,"ĠRes":2958,"Ġfail":2959,"Ġoften":2960,"Ġlater":2961,"aries":2962,"LE":2963,"mits":2964,"ĠIntrodu":2965,"ories":2966,"Ġcomputing":2967,"Ġparts":2968,"Ġadjac":2969,"Ġpure":2970,"Ġpolicy":2971,"Ġtaken":2972,"Ġpop":2973,"Ġrele":2974,"Ġpseud":2975,"Ġliterature":2976,"Ġans":2977,"Ġtraject":2978,"Ġarguments":2979,"Ġprinci":2980,"struction":2981,"Ġoperations":2982,"ĠAll":2983,"Ġanalytic":2984,"Â´":2985,"Ġrepresented":2986,"ume":2987,"Ġdepending":2988,"ivari":2989,"Ġgoal":2990,"ements":2991,"enari":2992,"zed":2993,"Ġgeneric":2994,"module":2995,"Ġconditional":2996,"Ġrepresentations":2997,"Ġ(âĪĤ":2998,"Ġspectrum":2999,"Ġplan":3000,"Ġsemi":3001,"ps":3002,"Ġagent":3003,"Ġmakes":3004,"Ġcoll":3005,"mand":3006,"Ġrepresents":3007,"Ġcontribution":3008,"Ġhorizon":3009,"Ġindivid":3010,"Ġdatas":3011,"Ġpack":3012,"ration":3013,"which":3014,"Ġmight":3015,"Ġcurvature":3016,"pe":3017,"ĠâĮĬ":3018,"Ġcoupl":3019,"37":3020,"Ġlangu":3021,"ape":3022,"ste":3023,"Ġavailable":3024,"Ġá¹":3025,"osition":3026,"Ġgenerality":3027,"ake":3028,"Ġcommunication":3029,"Ġknot":3030,"ference":3031,"Ġusual":3032,"like":3033,"Ġoperation":3034,"Ġselect":3035,"Ġautom":3036,"Ġremaining":3037,"Ġradius":3038,"osing":3039,"Ġcomputational":3040,"fect":3041,"idth":3042,"Ġdown":3043,"Ġsearch":3044,"tible":3045,"Ġtechniques":3046,"Ġdemonstr":3047,"Ġusers":3048,"Ġunderlying":3049,"Ġquotient":3050,"ĠGL":3051,"ĠIm":3052,"Ġcolor":3053,"ott":3054,"Ġable":3055,"Ġprime":3056,"Ġ24":3057,"Ġproofs":3058,"Ġcone":3059,"Ġimprove":3060,"izer":3061,"raph":3062,"Ġinequalities":3063,"mission":3064,"Ġenti":3065,"Ġ23":3066,"Ġsw":3067,"Îĺ":3068,"Ġprojective":3069,"Ġratio":3070,"ĠâĬ¢":3071,"Th":3072,"Ġwal":3073,"Ġrepe":3074,"Ġdeduce":3075,"olute":3076,"Ġrules":3077,"Ġfactors":3078,"Ġneeded":3079,"tingu":3080,"Ġcohom":3081,"Ġinner":3082,"Ġworks":3083,"Ġtrees":3084,"Ġitself":3085,"Ġinterpret":3086,"Ġdifferenti":3087,"Ġimply":3088,"Ġvariety":3089,"let":3090,"Ġobvious":3091,"iting":3092,"Ġtrace":3093,"Ġscenari":3094,"Ġextre":3095,"Ġsurfaces":3096,"Ġstrongly":3097,"ime":3098,"view":3099,"vals":3100,"Ġcomposition":3101,"ising":3102,"Ġimmediately":3103,"Ġjoint":3104,"Ġdefines":3105,"Ġnonlinear":3106,"(|":3107,"ank":3108,"puts":3109,"Ġalgebras":3110,"Ġ!":3111,"plec":3112,"Ġregard":3113,"ledge":3114,"iver":3115,"Ġverify":3116,"Ġiden":3117,"Ġinteraction":3118,"Ġstraightforward":3119,"Ġtriangle":3120,"Ġhel":3121,"Ġword":3122,"ĠAB":3123,"âĩ":3124,"DP":3125,"Ġï£°":3126,"Pro":3127,"Ġonto":3128,"Ġï£®":3129,"ĠIntroduction":3130,"Ġcapacity":3131,"Ġhomomorphism":3132,"CA":3133,"Ġgeodesic":3134,"Ġcount":3135,"Ġsolving":3136,"Ġï£»":3137,"Ġï£¹":3138,"ging":3139,"ĠÎŀ":3140,"stein":3141,"Ġfeas":3142,"Ġflat":3143,"Ġadmits":3144,"Ġpermutation":3145,"Ġabsolute":3146,"ĠEquation":3147,"Ġhomotopy":3148,"ames":3149,"Ġ...":3150,"isson":3151,"Ġthreshold":3152,"Ġwant":3153,"SP":3154,"Ġpiec":3155,"ĠMod":3156,"Ġsituation":3157,"Ġnecessarily":3158,"Ġindividual":3159,"ints":3160,"Ġuniversal":3161,"ots":3162,"Ġhomogeneous":3163,"cf":3164,"ĠEu":3165,"ĠDenote":3166,"40":3167,"Ġwhenever":3168,"plectic":3169,"38":3170,"Ġconsidering":3171,"way":3172,"Ġcomplement":3173,"Ġscale":3174,"ĠSh":3175,"Ġcub":3176,"Ġstationary":3177,"Ġsuitable":3178,"function":3179,")âĪĴ":3180,"ĠÏ±":3181,"Ġones":3182,"AT":3183,"Ġweighted":3184,"Ġindeed":3185,"invariant":3186,"Ġlies":3187,"ecause":3188,"Ġcriter":3189,"Ġincreases":3190,"ĠLagr":3191,"Ġexplicitly":3192,"ash":3193,"apl":3194,"ming":3195,"Ġgeometry":3196,"ifically":3197,"elian":3198,"Ġinclusion":3199,"ĠUnder":3200,"Ġinterior":3201,"ude":3202,"Ġmotion":3203,"ĠIII":3204,"wards":3205,"Ġcre":3206,"Ġfar":3207,"Ġdeterministic":3208,"TION":3209,"Ġmatching":3210,"ode":3211,"Ġtraining":3212,"ĠÈ":3213,"wr":3214,"Ġbelongs":3215,"Ġagents":3216,"Ġempty":3217,"ĠâĪŀ)":3218,"print":3219,"Ġauthors":3220,"Ġapproaches":3221,"ploy":3222,"Ġproves":3223,"RO":3224,"Ġalloc":3225,"Ġvanish":3226,"Ġprinciple":3227,"Ġmach":3228,"âĪĴâĪĴ":3229,"Ġgenerating":3230,"ural":3231,"Ġmotiv":3232,"Ġcaus":3233,"39":3234,"Ġschemes":3235,"enerate":3236,"app":3237,"Ġproceed":3238,"ĠAr":3239,"Ġlist":3240,"Ġdimensions":3241,"ĠðĿľ":3242,"Ġappropriate":3243,"Ġevolution":3244,"Ġcompared":3245,"Ġexcept":3246,"Ġrobust":3247,"ock":3248,"Ġmeasurement":3249,"Ġslight":3250,"Ġinduces":3251,"ata":3252,"AC":3253,"ĠQu":3254,"Ġdecision":3255,"Ġ)}":3256,"Ġvolume":3257,"Ġ)/":3258,"ĠâĪĥ":3259,"idence":3260,"empty":3261,"Ġmechanism":3262,"tes":3263,"ĠObserve":3264,"Ġexperiments":3265,")+":3266,"Ġformulation":3267,"Ġsimilarly":3268,"lic":3269,"ĠSL":3270,"Ġpric":3271,"Ġtransmission":3272,"anges":3273,"clide":3274,"Ġband":3275,"Ġknowledge":3276,"clidean":3277,"Ġachieve":3278,"Ġgap":3279,"co":3280,"Ġrates":3281,"ourier":3282,"Ġcovariance":3283,"uture":3284,"Ġempir":3285,"den":3286,"Ġautomorphism":3287,"ĠDir":3288,"Ġtangent":3289,"ience":3290,"ĠPoisson":3291,"Ġdouble":3292,"max":3293,"ially":3294,"Ġrestricted":3295,"Ġthough":3296,"sim":3297,"Ġarea":3298,"Ġnull":3299,"Ġsubgraph":3300,"Ġacts":3301,"âĩĴ":3302,"Ġspin":3303,"Ġduring":3304,"Ġexpressed":3305,"ĠCo":3306,"ĠMat":3307,"Ġcompati":3308,"Ġresi":3309,"Ġrig":3310,"ameter":3311,"ches":3312,"ĠAcc":3313,"Ġá¸":3314,"Ġconcern":3315,"Ġderivatives":3316,"Ġformulas":3317,"Ġinfinity":3318,"ometric":3319,"learly":3320,"Ġ25":3321,"Ġsuccess":3322,"ĠâĪĨ(":3323,"Ġexpectation":3324,"ĠLipschitz":3325,"iding":3326,"Ġpol":3327,"Ġcomparison":3328,"enc":3329,"Ġaccuracy":3330,"Ã¨":3331,"Ġcard":3332,"missible":3333,"posed":3334,"deg":3335,"Ġunitary":3336,"Ġhard":3337,"Ġcodes":3338,"Ġtermin":3339,"Ġlook":3340,"Ġtask":3341,"comp":3342,"EN":3343,"Ġcross":3344,"Ġsugges":3345,"Ġhar":3346,"Ġpropose":3347,"Ġmanifolds":3348,"Ġdistingu":3349,"ĠFourier":3350,"ctive":3351,"Ġreceiv":3352,"Ġarr":3353,"Ġmentioned":3354,"Ġexec":3355,"ES":3356,"Ġsimulation":3357,"Ġmathema":3358,"Ġyield":3359,"comple":3360,"Ġincluding":3361,"AN":3362,"uler":3363,"Ġdev":3364,"Ġcompare":3365,"Ġinclude":3366,"Ġperfect":3367,"izations":3368,",...,":3369,"Ġarri":3370,"call":3371,"Ġmove":3372,"ares":3373,"Ġreach":3374,"Ġcompletely":3375,"Ġelliptic":3376,"dt":3377,"ĠCP":3378,"Ġhomology":3379,"ĠAf":3380,"ĠClearly":3381,"Ġdeveloped":3382,"Ġsaid":3383,"Ġ(âĪĨ":3384,"Ġupdate":3385,"Ġtheoretical":3386,"inear":3387,"Ġonce":3388,"col":3389,"Ġconsistent":3390,"Ġunderstand":3391,"Ġvis":3392,"Ġear":3393,"Ġtreat":3394,"Ġeffective":3395,"struct":3396,"Ġcohomology":3397,"Ġgain":3398,"Ġstated":3399,"âĮĭ":3400,"osed":3401,"Ġspati":3402,"tially":3403,"Ġinside":3404,"Ġsymplectic":3405,"ĠBe":3406,"Ġrole":3407,"enting":3408,"gies":3409,"rel":3410,"cts":3411,"Ġ|âĪĩ":3412,"Ġcircle":3413,"Ġmut":3414,"Ġsmallest":3415,"Ġaff":3416,"Ġprof":3417,"Ġfew":3418,"umer":3419,"ĠSc":3420,"Ġface":3421,"Ġrecon":3422,"Ġsubstit":3423,"Ġatom":3424,"ples":3425,"Ġcombinator":3426,"Ġobservations":3427,"face":3428,"Ġcombination":3429,"Ġintervals":3430,"Ġblocks":3431,"Ġdense":3432,"Ġsections":3433,"Ġred":3434,"]),":3435,"onic":3436,"Ġconclusion":3437,"Ġdefining":3438,"Ġcolumns":3439,"ĠÃĳ":3440,"Ġappears":3441,"ĠLapl":3442,"})":3443,"stable":3444,"Ġreduce":3445,"Ġpriv":3446,"Ġsphere":3447,"Ġcenter":3448,"sk":3449,"Ġclearly":3450,"eli":3451,"Â±":3452,"Ġstabil":3453,"Ġactually":3454,"Ġrelevant":3455,"Ġreader":3456,"ĠProblem":3457,"urable":3458,"ĠOther":3459,"Ġfuture":3460,"Ġtorus":3461,"Ġquery":3462,"Ġentire":3463,"lu":3464,"ĠÎ¼":3465,"Ġresidu":3466,"Ġaccount":3467,"Ġlargest":3468,"Ġadjacent":3469,"Ġalternative":3470,"Ġ)).":3471,"Ġclassification":3472,"ij":3473,"Ġindices":3474,"Ġâīľ":3475,"([":3476,"ĠBecause":3477,"Ġremo":3478,"Ġtool":3479,"ĠThey":3480,"Ġgeneralization":3481,"Ġcour":3482,"ymmetric":3483,"Ġfeasible":3484,"ĠAccording":3485,"Ġentang":3486,"Ġdeal":3487,"Ġholomorphic":3488,"Ġnonzero":3489,"Ġrese":3490,"ĠAut":3491,"Ġroots":3492,"ĠWhile":3493,"arithm":3494,"Ġfeatures":3495,"Ġselection":3496,"Ġâīª":3497,"ĠEuclidean":3498,"Ġasser":3499,"Ġincrease":3500,"ded":3501,"formal":3502,"Ġscaling":3503,"Ġâª":3504,"Ġshowed":3505,"vable":3506,"ĠSuch":3507,"ili":3508,"Ġopp":3509,"Ġlanguage":3510,"Ġgenerators":3511,"ĠÄı":3512,"Ġunknown":3513,"ipal":3514,"AL":3515,"cep":3516,"Ġprobabilities":3517,"Ġsubsection":3518,"Ġaim":3519,"Ġiff":3520,"Ġâİ":3521,"tite":3522,"IM":3523,"ĠBS":3524,"Ġpe":3525,"ĠdÂµ":3526,"Ġavoid":3527,"Ġenv":3528,"Ġgenus":3529,"Ġphysical":3530,"Ġessentially":3531,"Ġpers":3532,"ĠðĿĲ":3533,"Ġchanges":3534,"Ġsegment":3535,"ram":3536,"ystem":3537,"Ġrecent":3538,"set":3539,"Ġrisk":3540,"Ġestimated":3541,"Ġsubject":3542,"ĠIV":3543,"Ġgenerally":3544,"mat":3545,"Ġclosure":3546,"arities":3547,"Ġsparse":3548,"ĠAfter":3549,"ited":3550,"isation":3551,"Ġdirected":3552,"Ġgenerate":3553,"Ġvi":3554,"ont":3555,"ticle":3556,"Ġ&":3557,"cell":3558,"Ġiterations":3559,"Ġtable":3560,"Ġgau":3561,"Ġempirical":3562,"oli":3563,"ĠâĪĴâĪŀ":3564,"Ġdiver":3565,"Ġconsisting":3566,"tions":3567,"isted":3568,"Ġabelian":3569,"45":3570,"Ġgreater":3571,"defined":3572,"Ġreplaced":3573,"ross":3574,"ĠAg":3575,"lex":3576,"manifold":3577,"Ġerrors":3578,"41":3579,"Ġtechnique":3580,"ext":3581,"Ġmemory":3582,"exp":3583,"iom":3584,"Ġhelp":3585,"Ġstring":3586,"ĠPar":3587,"Ġtoo":3588,"type":3589,"Ġregularity":3590,"osite":3591,"Ġanalogous":3592,"Ġrewr":3593,"Ġensure":3594,"oin":3595,"Ġhapp":3596,"Ġcircu":3597,"|)":3598,"Ġinterested":3599,"Ġweakly":3600,"Ġregression":3601,"variants":3602,"ises":3603,"Ġmeasurements":3604,"Ġproving":3605,"Ġcorrelation":3606,"Ġspann":3607,"Ġachieved":3608,"ĠSU":3609,"Ġrelax":3610,"ĠâĻ¯":3611,"ĠConsequently":3612,"ĠClaim":3613,"Ġdependence":3614,"Ġput":3615,"SS":3616,"ĠSO":3617,"ĠGal":3618,"ivariant":3619,"Ġwalk":3620,"Ġcompletes":3621,"Ġregions":3622,"bounded":3623,"Ġ|=":3624,"ĠEuler":3625,"Ġmessage":3626,"Ġoccurs":3627,"Ġactions":3628,"Ġequals":3629,"Ġadmissible":3630,"Ġfeature":3631,"ikeli":3632,"Ġmodule":3633,"ikelihood":3634,"Ġâĸł":3635,"Ġconverge":3636,"Ġbit":3637,"Ġfully":3638,"Ġattack":3639,"Ġsk":3640,"Ġdz":3641,"Ġsimplicity":3642,"Ġcyclic":3643,"Ġlif":3644,"Ġund":3645,"Ġfinding":3646,"Ġwhole":3647,"Ġcourse":3648,"ĠLagrang":3649,"MP":3650,"iency":3651,"Ġreference":3652,"ading":3653,"Ġspeed":3654,"Ġuntil":3655,"esian":3656,"FT":3657,"ĠâĢ¢)":3658,"Ġmultiplication":3659,"Ġorientation":3660,"ĠâĪ¥âĪĩ":3661,"Ġanswer":3662,"Ġjum":3663,"Ġii":3664,"Ġcontrast":3665,"Ġcycles":3666,"cent":3667,"42":3668,"iron":3669,"unc":3670,"Ġgrid":3671,"ipar":3672,"Ġbox":3673,"âĪ©":3674,"Ġneeds":3675,"Ġrows":3676,"Ġestablished":3677,"Ġleading":3678,"Ġvertical":3679,"Ġgenerator":3680,"Ġasymptotically":3681,"Ġwhereas":3682,"Ġshowing":3683,"Ġfrequency":3684,"Ġcounter":3685,"50":3686,"Ġkeep":3687,"ĠHe":3688,"Ġidentified":3689,"nected":3690,"vity":3691,"Ġ)-":3692,"Ġdecreasing":3693,"Ġordered":3694,"Ġembedded":3695,"Ġproducts":3696,")!":3697,"icts":3698,"Ġhome":3699,"Ġcrossing":3700,"erences":3701,"Ġoriented":3702,"Ġconstruc":3703,"Ġprincipal":3704,"Ġslightly":3705,"Ġrecover":3706,"ident":3707,"Ġemploy":3708,"Ġdifficult":3709,"Ġpolyt":3710,"Ġpiece":3711,"ĠCombin":3712,"Ġplace":3713,"Ġconcept":3714,"Ġguarantee":3715,"Ġground":3716,"Ġsummar":3717,"44":3718,"01":3719,"Ġdevi":3720,"anging":3721,"Ġbuil":3722,"Ġvir":3723,"Ġlayer":3724,"Ġreplace":3725,"Ġann":3726,"anced":3727,"PT":3728,"Ġcontinuity":3729,"Ġprice":3730,"Ġdri":3731,"Ġgauge":3732,"Ġanti":3733,"monic":3734,"plane":3735,"iqueness":3736,"apter":3737,"erior":3738,"sively":3739,"Ġparticle":3740,"Ġlie":3741,"ĠÃ©":3742,"Ġâīº":3743,"Ġleaves":3744,"Ġreduces":3745,"Ġtransl":3746,"port":3747,"Ġdecay":3748,"Ġhis":3749,"berg":3750,"Ġdiffe":3751,"roid":3752,"points":3753,"aly":3754,"ending":3755,"Ġbits":3756,")âŁ©":3757,"Ġdisk":3758,"Ġquantity":3759,"Ġabstr":3760,"ched":3761,"roxim":3762,"Ġdynamic":3763,"Ġproportion":3764,"Ġspatial":3765,"AB":3766,"aps":3767,"space":3768,"Ġconcent":3769,"aw":3770,"Ġcorrel":3771,"Ġ(âĢ¢)":3772,"NR":3773,"ring":3774,"dle":3775,"MC":3776,"Ġguarantees":3777,"Ġvariation":3778,"Ġelementary":3779,"Ġbal":3780,"ĠLagrangian":3781,"Ġbecome":3782,"Ġsolved":3783,"Ġsymbols":3784,"Ġextr":3785,"Ġexh":3786,"Ġhorizontal":3787,"Ġcovering":3788,"Ġ30":3789,"ifferen":3790,"Ġintern":3791,"ĠId":3792,"âĨ":3793,"ultane":3794,"Ġshape":3795,"43":3796,"Ġperformed":3797,"Ġpseudo":3798,"Ġprediction":3799,"fi":3800,"Ġmis":3801,"Ġshar":3802,"Ġexplo":3803,"ograph":3804,"99":3805,"Ġenviron":3806,"Ġadding":3807,"herent":3808,"Ġfigure":3809,"Ġchannels":3810,"Ġker":3811,"EM":3812,"auch":3813,"Ġ32":3814,"itt":3815,"ĠCondition":3816,"Ġexpressions":3817,"Ġchoices":3818,"irect":3819,"ĠSubs":3820,"Ġsplitting":3821,"Ġtight":3822,"ources":3823,"Ġ])":3824,"Ġbre":3825,"Ġnaturally":3826,"gan":3827,"Ġadvant":3828,"Ġ({":3829,"Ġmer":3830,"Ġcomes":3831,"Ġquite":3832,"Ġcommutative":3833,"ĠPl":3834,"Ġxy":3835,"ĠJac":3836,"Ġnormalized":3837,"sur":3838,"Ġresearch":3839,"Ġsure":3840,"Ġoutside":3841,"Ġtu":3842,"Ġjk":3843,"Ġpractice":3844,"Ġtransformations":3845,"orel":3846,"PP":3847,"wo":3848,"Ġpreprint":3849,"olation":3850,"oring":3851,"bits":3852,"come":3853,"Ġchoosing":3854,"Ġsides":3855,"Ġangle":3856,"ĠÂ¬":3857,"Ġblack":3858,"auchy":3859,"Ġik":3860,"Ġassuming":3861,"Ġinvariants":3862,"Ġimplementation":3863,"eck":3864,"Ġcorollary":3865,"iti":3866,"Ġelect":3867,"Ġfa":3868,"ĠDe":3869,"Ġneighbour":3870,"Ġbott":3871,"andid":3872,"jor":3873,"Ġidentical":3874,"Ġlinearly":3875,"Ġaccess":3876,"Ġdegrees":3877,"Ġstatistical":3878,"ling":3879,"Ġdynamical":3880,"ĠPh":3881,"volution":3882,"Ġtechnical":3883,"Ġcompatible":3884,"IC":3885,"Ġamount":3886,"48":3887,"Ġrunning":3888,"Ġapplies":3889,"Ġgrowth":3890,"ody":3891,"categor":3892,"Ġcriterion":3893,"ĠAlthough":3894,"Ġstrategies":3895,"MA":3896,"Ġlogarithm":3897,"Ġintegration":3898,"Ġinterpretation":3899,"Ġcombinatorial":3900,"etries":3901,"Ġmeaning":3902,"Ġessential":3903,"Ġturns":3904,"Ġsimultane":3905,"Ġrelationsh":3906,"Ġextends":3907,"Ġtranslation":3908,"ĠSecond":3909,"46":3910,"Ġactive":3911,"Ġbro":3912,"ĠÎ¥":3913,"rown":3914,"Ġcalculation":3915,"Ġnonnegative":3916,"ĠCho":3917,"IT":3918,"Ġdataset":3919,"Ġvanishes":3920,"Ġomit":3921,"Ġplanar":3922,",âĪŀ":3923,"ĠâĹ":3924,"che":3925,"Ġspan":3926,"Ġusually":3927,"Ġfeed":3928,"Ġparticles":3929,"ĠCauchy":3930,"ipped":3931,"lier":3932,"Ġarbitrarily":3933,"Ġreview":3934,"fficiency":3935,"Ġmachine":3936,"rief":3937,"Ġforward":3938,"Ġpay":3939,"Ġlinks":3940,"Ġswit":3941,"cles":3942,"Ġmodified":3943,"Ġmixed":3944,"acting":3945,"Ġgoes":3946,"Ġdivisor":3947,"Ġuniquely":3948,"Ġdr":3949,"Ġselected":3950,"Ġcells":3951,"Ġcandid":3952,"Ġ)),":3953,"Ġcontact":3954,"Ġmeasurable":3955,"times":3956,"Ġdomains":3957,"Ġanalyze":3958,"Ġpen":3959,"47":3960,"Ġdiscreti":3961,"ĠâĨĵ":3962,"Ġfast":3963,"ception":3964,"ĠBorel":3965,"sub":3966,"Ġcalculate":3967,"Ġmonoid":3968,"Ġlearn":3969,"ĠOF":3970,"Ġreport":3971,"norm":3972,"Ġdelay":3973,"ilies":3974,"rob":3975,"div":3976,"Ġcore":3977,"Ġtriple":3978,"cur":3979,"timal":3980,"Ġvirt":3981,"This":3982,"Ġauthor":3983,"aster":3984,"Ġscenario":3985,"Ġaxiom":3986,"dy":3987,"Ġeigenvector":3988,"Ġorbits":3989,"Ġpref":3990,"Ġexisting":3991,"Ġplayer":3992,"Ġindependently":3993,"Ġevaluation":3994,"Ġincom":3995,"Ġá»":3996,"Ġconser":3997,"Ġlabels":3998,"Ġordering":3999,"Ġ);":4000,"Ġdetailed":4001,"Ġplot":4002,"RE":4003,"Ġuncertain":4004,"ĠApplying":4005,"utes":4006,"Ġbelie":4007,"Ġattr":4008,"Ġperturbation":4009,"Ġpropag":4010,"ĠOp":4011,"utive":4012,"|,":4013,"Ġneg":4014,"Ġuniqueness":4015,"Ġrefin":4016,"ĠâĮĪ":4017,"Ġmoduli":4018,"Ġske":4019,"Ġmes":4020,"ĠÃĥ":4021,"Ġallocation":4022,"LS":4023,"Ġ[(":4024,"Ġmonotone":4025,"Ġadditive":4026,"called":4027,"Ġpractical":4028,"ularities":4029,"chron":4030,"Ġbig":4031,"vation":4032,"acle":4033,"Ġcapt":4034,"ĠAN":4035,"Ġdepth":4036,"ĠBay":4037,"Ġnotice":4038,"Ġimages":4039,"ĠEn":4040,"Ġbrief":4041,"Ġinterference":4042,"Ġacross":4043,"Lemma":4044,"Ġinvertible":4045,"Ġsimplicial":4046,"oper":4047,"Ġresolution":4048,"Ġinjective":4049,"Ġcoincides":4050,"arent":4051,"Ġconvention":4052,"PS":4053,"Ġvary":4054,"Ġdiffusion":4055,"Ġbranch":4056,"MS":4057,"ĠCombining":4058,"ĠExt":4059,"Ġpull":4060,"âĭ":4061,"Ġfilter":4062,"Ġexpand":4063,"Ġ,...,":4064,"Ġspecified":4065,"Ġcategories":4066,"Ġbipar":4067,"ĠCar":4068,"Ġutility":4069,"Xiv":4070,"Sch":4071,"ctang":4072,"Ġentry":4073,"ines":4074,"Ġpopulation":4075,"ĠIN":4076,"ta":4077,"Ġinstances":4078,"Ġsynt":4079,"Ġrespon":4080,"bo":4081,"sitivity":4082,"Ġfamilies":4083,"Ġ27":4084,"Ġcorrespondence":4085,"normal":4086,"vent":4087,"ĠâĬĶ":4088,"ĠâĪħ.":4089,"Ġlogic":4090,"Ġexperiment":4091,"Ġcharacterization":4092,"(âĪĨ":4093,"Ġinternal":4094,"anged":4095,"Ġaux":4096,"mal":4097,"Ġposterior":4098,"Ġbijection":4099,"000":4100,"hol":4101,"Ġcomputations":4102,"olated":4103,"sm":4104,"Ġseman":4105,"Ġreplacing":4106,"Ġequivalently":4107,"RA":4108,"tency":4109,"Ġmi":4110,"Ġassignment":4111,"Ġleaf":4112,"odic":4113,"width":4114,"HS":4115,"Ġtail":4116,"ermin":4117,"Ġtheorems":4118,"Ġtrajectory":4119,"MM":4120,"ibility":4121,"ĠRiemannian":4122,"ĠAnd":4123,"Ġarticle":4124,"ĠBo":4125,"ached":4126,"Ġzer":4127,".(":4128,"Ġadvers":4129,"Ġmathematical":4130,"Ġrelatively":4131,",âĪĴ":4132,"Ġcoupling":4133,"lim":4134,"hn":4135,"mann":4136,"Ġimmediate":4137,"atter":4138,"Ġmodulo":4139,"Ġchall":4140,"rete":4141,"ĠPer":4142,"Ġconjugate":4143,"Ġconformal":4144,"Ġcardin":4145,"ĠÃł":4146,"ĠOr":4147,"Ġaddress":4148,"Ġmaking":4149,"]:":4150,"Ġquantities":4151,"Ġpresence":4152,"Ġsimulations":4153,"Ġfit":4154,"âĸ":4155,"HE":4156,"Ġlight":4157,"Ġdifferentiable":4158,"pec":4159,"Ġinvestigate":4160,"Ġconfigurations":4161,"Ġshift":4162,"âĪª":4163,"Ġheight":4164,"change":4165,"Ġdiagrams":4166,"ĠLem":4167,"Ġpredic":4168,"ĠFollow":4169,"ledg":4170,"otent":4171,"local":4172,"Ġlabeled":4173,"godic":4174,"ground":4175,"Ġgraded":4176,"Ġveloc":4177,"Ġvelocity":4178,"Ġmorphisms":4179,"Ġosc":4180,"ĠOtherwise":4181,"ĠSP":4182,"Ġfore":4183,"49":4184,"els":4185,"Ġarcs":4186,"Ġdispl":4187,"pres":4188,"riting":4189,"overy":4190,"ĠBrown":4191,"ĠMon":4192,"Ġrotation":4193,"regular":4194,"nother":4195,"Ġproven":4196,"yl":4197,"grad":4198,"ites":4199,"ĠAgain":4200,"Ġrecently":4201,"Ġevents":4202,"Ġconclud":4203,"ley":4204,"rence":4205,"Ġbehaviour":4206,"|.":4207,"Ġwho":4208,"Ġsingularities":4209,"Ġjoin":4210,"Ġâĸ³":4211,"Ġ28":4212,"Ġaway":4213,"sue":4214,"Ġkind":4215,"Ġmarked":4216,"Ġparab":4217,"atively":4218,"ĠSpecifically":4219,"Ġefficiency":4220,"Ġestimators":4221,"Ġeffects":4222,"qq":4223,"Ġpartitions":4224,"Ġmajor":4225,"Ġnontrivial":4226,"Ġevaluate":4227,"CC":4228,"ĠTheorems":4229,"Ġwide":4230,"Ġ|,":4231,"Ġtrunc":4232,"Ġlimits":4233,"imal":4234,"Ġmonomial":4235,"ying":4236,"Ġaver":4237,"tinuous":4238,"ush":4239,"05":4240,")))":4241,"Ġlikelihood":4242,"ĠMor":4243,"Ġ[[":4244,"Ġpurpose":4245,"ĠPre":4246,"Ġextensions":4247,"modules":4248,"Ġlocation":4249,"ĠAnother":4250,"ÏĢi":4251,"ured":4252,"Ġfaces":4253,"Ġpreserves":4254,"Ġseems":4255,"Ġblow":4256,"Ġstage":4257,"Ġconvenient":4258,"Ġrectang":4259,"Ġdirections":4260,"Ġduality":4261,"Ġisom":4262,"Ã¼":4263,"Ġmodules":4264,"Ġatten":4265,"ĠNot":4266,"ĠMa":4267,"ierarch":4268,"IS":4269,"finite":4270,"Ġpenal":4271,"ĠJacob":4272,"Ġintu":4273,"Ġimplicit":4274,"mer":4275,"Ġdemand":4276,"igroup":4277,"Ã¤":4278,"Ġproduce":4279,"Ġdefinite":4280,"ependence":4281,"ĠNP":4282,"ĠRep":4283,"Ġfeedback":4284,"oting":4285,"Ġdiffeomorphism":4286,"Ġeq":4287,"omen":4288,"Ġpairwise":4289,"Ġexponent":4290,"be":4291,"omin":4292,"Ġcoding":4293,"ginal":4294,"Ġadded":4295,"Ġcruc":4296,"ering":4297,"orts":4298,"Ġillustrate":4299,"CP":4300,"Ġenvironment":4301,"Ïĳ":4302,"case":4303,"Ġhist":4304,"reasing":4305,"Ġentanglement":4306,"convex":4307,"tw":4308,"ĠAck":4309,"Ġregime":4310,"Ġdig":4311,"Ġinflu":4312,"Ġnever":4313,"Ġpolar":4314,"(âĢ¢)":4315,"Ġtil":4316,"Ġscore":4317,"Ġcopies":4318,"Ġdistinguish":4319,"Ġsignificantly":4320,"Ġreceived":4321,"Ġinductive":4322,"tree":4323,"ĠAny":4324,"Ġtransfer":4325,"fully":4326,"ifies":4327,"Ġlevels":4328,"ectivity":4329,"Ġthank":4330,"Ġlemm":4331,"Ġallowed":4332,"eties":4333,"Ġensures":4334,"Ġequipped":4335,"Ġsubgroups":4336,"poses":4337,"iers":4338,"Ġextreme":4339,"Ġtem":4340,"Ġfractional":4341,"cal":4342,"]]":4343,"Ġagainst":4344,"Ġdetection":4345,"Ġrandomly":4346,"Ġparametri":4347,"ĠSome":4348,"Ġderivation":4349,"fold":4350,"ĠGener":4351,"Ġadop":4352,"ream":4353,"âŁ©,":4354,"ĠBr":4355,"herical":4356,"Ġbipartite":4357,"Ġstatistics":4358,"Ġpolyg":4359,"etermin":4360,"actor":4361,"Ġ50":4362,"Ġdiscon":4363,"ĠAb":4364,"Ġouter":4365,"nowledg":4366,"Ġles":4367,"Ġmetrics":4368,"Ġarrow":4369,"Ġalthough":4370,"Ġqueries":4371,"inter":4372,"Ġnotations":4373,"ichlet":4374,"ĠTwo":4375,"ĠâĦı":4376,"ĠAcknowledg":4377,"ĠðĿĳĸ":4378,"bes":4379,"Ġcardinality":4380,"Ġexponentially":4381,"Ġearlier":4382,"\".":4383,"Ġexception":4384,"Ġpossibly":4385,"Ġdele":4386,"Ġruns":4387,"Ġbin":4388,"Ġbottom":4389,"part":4390,"Ġinference":4391,"Ġtypical":4392,"ĠBrownian":4393,"Ġintroduction":4394,"Ġcoincide":4395,"âĮī":4396,"iliary":4397,"Ġfinally":4398,"ĠâĪħ,":4399,"âĢ¢âĢ¢âĢ¢":4400,"Ġelimin":4401,"Ġdemonstrate":4402,"ĠÅ©":4403,"â©":4404,"ĠFollowing":4405,"ĠNew":4406,"ĠConjecture":4407,"Ġaxis":4408,"ĠST":4409,"Ġpreviously":4410,"vice":4411,"ĠRel":4412,"IG":4413,"Ġcare":4414,"Ġzeros":4415,"wor":4416,"Ġ|.":4417,"ĠÎ±Î²":4418,"Ġpx":4419,"Ġcircuit":4420,"Ġadvantage":4421,"Ġinvolved":4422,"Ġ26":4423,"Ġinfinitely":4424,"ĠarXiv":4425,"Ġ(âĪĩ":4426,"Ġergodic":4427,"ĠAlice":4428,"Ġintegrals":4429,"Ġrestrict":4430,"oder":4431,"Ġonline":4432,"ror":4433,"ĠdÃ©":4434,"Ġinv":4435,"iag":4436,"Ġindicates":4437,"Ġabstract":4438,"Ġow":4439,"Ġmoves":4440,"Ġstack":4441,"Ġdetermines":4442,"ternal":4443,"ĠBob":4444,"Ġways":4445,"alse":4446,"Ġincludes":4447,"ms":4448,"resenting":4449,"adic":4450,"amin":4451,"Ġinputs":4452,"que":4453,"Ġfiltr":4454,"ĠËļ":4455,"ĠVar":4456,"ĠâĻ£":4457,"uth":4458,"Ġadmit":4459,"Ġmultiplicity":4460,"...":4461,"Ġapproximations":4462,"Ġtesting":4463,"ĠâĪ¥(":4464,"Ġgoing":4465,"Ġinser":4466,"ĠâĪ¶":4467,"Ġnor":4468,"ropic":4469,"Ġstatements":4470,"Ġtowards":4471,"ector":4472,"Ġagg":4473,"Ġacting":4474,"Ġgames":4475,"Ġupon":4476,"Ġsettings":4477,"ĠLi":4478,"Ġâª¯":4479,"ski":4480,"ilinear":4481,"Ġpick":4482,"Ġextra":4483,"Ġ|(":4484,"Ġmultipl":4485,"Ġharmonic":4486,"Ġvanishing":4487,"encies":4488,"onom":4489,"henomen":4490,"Ġquantif":4491,"Ġmember":4492,"Ġtemp":4493,"Ġrelationship":4494,"idden":4495,"Ġinvolving":4496,"class":4497,"DF":4498,"ĠDirichlet":4499,"Ġsched":4500,"Ġsignals":4501,"Ġsimplify":4502,"Ġdeterminant":4503,"56":4504,")âĪĪ":4505,"ĠTaking":4506,"br":4507,"Ġmarginal":4508,"];":4509,"Ġoscill":4510,"Ġitem":4511,"Ġtot":4512,"Ġgiving":4513,"Ġrepresenting":4514,"ĠâĮĭ":4515,"ĠStr":4516,"ĠSe":4517,"Ġtends":4518,"Ġrise":4519,"Ġexplained":4520,"Ġorgan":4521,"ged":4522,"Ġhierarch":4523,"Ġvers":4524,"Ġviewed":4525,"AP":4526,"ois":4527,"ĠBefore":4528,"Ġneighbors":4529,"tegr":4530,"Ġnature":4531,"Ġbundles":4532,"Ġadaptive":4533,"Ġmanner":4534,"Ġphenomen":4535,"âĪ¼":4536,"Ġsums":4537,"Ġsizes":4538,"Ġtrack":4539,"ĠReg":4540,"Ġattention":4541,"Ġinterpre":4542,"level":4543,"ĠDue":4544,"forms":4545,"Ġstronger":4546,"rank":4547,"gue":4548,"connected":4549,"Ġoverall":4550,"acian":4551,"âĬĹ":4552,"Ġclustering":4553,"go":4554,"dec":4555,"Ġworst":4556,"Ġmonotonic":4557,"Ġprobabilistic":4558,"âĪŀ,":4559,"Ġ199":4560,"ĠAC":4561,"ĠWithout":4562,"period":4563,"Ġintegrable":4564,"ulations":4565,"Ġtrajectories":4566,"Ġsingularity":4567,"semble":4568,"ĠForm":4569,"Ġprimitive":4570,"Ġcrucial":4571,"Ġresponse":4572,"edy":4573,"Ġexpress":4574,"Ġ(âĢ¢,":4575,"Ġparabolic":4576,"heses":4577,"ean":4578,"Ġauxiliary":4579,"Ġexecution":4580,"Ġintersect":4581,"teness":4582,")[":4583,"DS":4584,"\",":4585,"abell":4586,"As":4587,"Â¨":4588,"Ġsubsequence":4589,"iable":4590,"Ġelse":4591,"EC":4592,"ĠÎ©":4593,"Ġmoments":4594,"Ġincident":4595,"oted":4596,"Ġexhi":4597,"60":4598,"Ġmodular":4599,"ĠEvery":4600,"Ġ31":4601,"Ġjump":4602,"de":4603,"Ġdecoding":4604,"symmetric":4605,"ativity":4606,"gent":4607,"ensors":4608,"AS":4609,"Ġune":4610,"Ġadjoint":4611,"BS":4612,"TS":4613,"Ġsyn":4614,"ype":4615,"olean":4616,"Ġbra":4617,"Ġsurjective":4618,"Ġmid":4619,"ĠHa":4620,"Ġdeformation":4621,"Ġissue":4622,"51":4623,"mas":4624,"Ġpresentation":4625,"Ġconnecting":4626,"ĠOut":4627,"Ġbias":4628,"For":4629,"approxim":4630,"Ġintr":4631,"ĠÅ«":4632,"Ġends":4633,"Ġdependent":4634,"Ġinvolves":4635,"]-":4636,"Ġpositions":4637,"Ġrequirement":4638,"itian":4639,"Ġsurely":4640,"Ġmatch":4641,"ĠComput":4642,"Ġsimultaneously":4643,"Ġtypically":4644,"55":4645,"cri":4646,"atch":4647,"ĠThrough":4648,"Ġreceiver":4649,"mark":4650,"Ġassigned":4651,"Ġreflection":4652,"Ġconsum":4653,"Ġimproved":4654,"Ġpiecewise":4655,"Ġcalculated":4656,"Ġfoli":4657,"Ġsemigroup":4658,"reng":4659,"Ġunbounded":4660,"Ġlonger":4661,"Ġstudies":4662,"NN":4663,"Ġreferred":4664,"Ġpermutations":4665,"tered":4666,"Ġfair":4667,"Ġrepeated":4668,"Ġattain":4669,"Ġtreatment":4670,"Ġshif":4671,"Ġtorsion":4672,"Ġpolytope":4673,"Ġquadr":4674,"reen":4675,"Ġcontraction":4676,"illing":4677,"Ġlift":4678,"category":4679,"Ġideas":4680,"Ġpict":4681,"ithme":4682,"ĠÂ¨":4683,"hest":4684,"Ġtasks":4685,"Ġlimiting":4686,"Ġitems":4687,"active":4688,"Ġwhy":4689,"versely":4690,"tor":4691,"clic":4692,"Ġidentification":4693,"variate":4694,"Ġmode":4695,"optimal":4696,"Ġimplemented":4697,"Ġclusters":4698,"Ġproject":4699,"ogn":4700,"Ġpub":4701,"opf":4702,"Ġbroad":4703,"Ġplayers":4704,"hing":4705,"Ġoutcome":4706,"Ġchild":4707,"Ġfacts":4708,"Ġsquares":4709,"Ġcoc":4710,"Ġillustrated":4711,"tz":4712,"Ġcentered":4713,"tingale":4714,"Ġresol":4715,"Ġwin":4716,"Ġmessages":4717,"Ġdivergence":4718,"Ġ/(":4719,"ĠComp":4720,"ĠPS":4721,"Ġsubspaces":4722,"ĠBan":4723,"vially":4724,"ayer":4725,"Ġoutputs":4726,"Ġoverl":4727,"Ġvarieties":4728,"Ġaggreg":4729,"umul":4730,"Ġpartially":4731,"tima":4732,"Ġregularization":4733,"Ġprivacy":4734,"Ġdrawn":4735,"non":4736,"Ġep":4737,"medi":4738,"Ġopposite":4739,"Ġcomplic":4740,"Ġ()":4741,"Ġthroughout":4742,"Ġlimited":4743,"Ġformally":4744,"Ġbrack":4745,"ustif":4746,"52":4747,"ressed":4748,"stead":4749,"Ġyet":4750,"ĠEr":4751,"Ġsoc":4752,"Ġdifficul":4753,"Î¹":4754,"Ġdescent":4755,"ci":4756,"Ġquestions":4757,"Ġask":4758,"Ġtheories":4759,"Ġ[?,":4760,"Ġmaintain":4761,"Ġdescribes":4762,"Ġcf":4763,"ĠLy":4764,"Ġcomplexes":4765,"Ġrespective":4766,"Ġetc":4767,"'t":4768,"poly":4769,"Ġmagn":4770,"mut":4771,"Ġ=âĩĴ":4772,"onormal":4773,"ists":4774,"Ġefficiently":4775,"Ġremainder":4776,"algebras":4777,"ĠHerm":4778,"Ġexternal":4779,"Ġdecreases":4780,"rimin":4781,"Ġsent":4782,"Ġconsistency":4783,"Ġcharacterized":4784,"Ġstreng":4785,"path":4786,"step":4787,"UC":4788,"ĠâĨĳ":4789,"ĠBoth":4790,"right":4791,"Ġfalse":4792,"ittle":4793,"Ġordinary":4794,"Ġlemmas":4795,"state":4796,"besgue":4797,"57":4798,"Ġuncertainty":4799,"Ġsemantics":4800,"ĠLaplacian":4801,"Ġsegments":4802,"Ġasp":4803,"Ġrewrite":4804,"Ġtests":4805,"Ġblue":4806,"Ġprofile":4807,"Ġminimization":4808,"ðĿľ":4809,"Ġrigid":4810,"Ġcountable":4811,"Ġfiltration":4812,"AM":4813,"ried":4814,"Ġpatterns":4815,"Ġwidth":4816,"Ġhypersur":4817,"Ġ[?]":4818,"Ġcombined":4819,"uing":4820,"ĠSym":4821,"Ġothers":4822,"0000":4823,"urity":4824,"ĠÏĸ":4825,"Ġdans":4826,"eter":4827,"Ġconvolution":4828,"ĠÃĤ":4829,"uristic":4830,"Ġincluded":4831,"Ġáºĭ":4832,"itude":4833,"Ġassertion":4834,"ĠTHE":4835,"Ġsheaf":4836,"overed":4837,"Ġoptimality":4838,"ĠOf":4839,"Ġactual":4840,"Ġtransport":4841,"(âĢ¢,":4842,"ensity":4843,"Ġhandle":4844,"ĠBern":4845,"Ġarithme":4846,"ĠFr":4847,"Ġpour":4848,"Ġ|)":4849,"âŁ©.":4850,"ults":4851,"ĠÂµÎ½":4852,"Ġhomeomorphism":4853,"¿½":4854,"Ġcopy":4855,"Ġprogramming":4856,"ĠProper":4857,"Ġbackground":4858,"Ġ??":4859,"Ġslow":4860,"Ġseparable":4861,"Ġmeasured":4862,"Ġbar":4863,"imod":4864,"Ġ})":4865,"09":4866,"Ġcandidate":4867,"Ġregret":4868,"Ġul":4869,"Ġreconstruction":4870,"orff":4871,"Ġevaluated":4872,"Figure":4873,"Ġreferences":4874,"Ġminimize":4875,"Ġher":4876,"Ġamplit":4877,"Ġgets":4878,"Ġvariational":4879,"atically":4880,",(":4881,"53":4882,"Ġjob":4883,"Ġcus":4884,"Ġnond":4885,"Ġcounting":4886,"AG":4887,"edge":4888,"Ġspherical":4889,"CS":4890,"spec":4891,"ĠLebesgue":4892,"sities":4893,"Ġalph":4894,"lor":4895,"Ġâĸ·":4896,"Ġachieves":4897,"Ġenumer":4898,"Ġreturns":4899,"Ġ(âĪ":4900,"functions":4901,"Ġsends":4902,"Ġinterpreted":4903,"Ġcome":4904,"ĠEs":4905,"Ġnotions":4906,"Ġload":4907,"owers":4908,"Ġhappens":4909,"Ġresource":4910,"Ġ{âĪĴ":4911,"54":4912,"kin":4913,"Ġrelay":4914,"bi":4915,"olev":4916,"Ġ01":4917,"Ġnois":4918,"Ġunstable":4919,"periodic":4920,"Ġimplic":4921,"Ġsto":4922,"Ġindependence":4923,"ĠMulti":4924,"Ġprojections":4925,"Ġjustif":4926,"RS":4927,"Ġbeginning":4928,"Ġcausal":4929,"plan":4930,"ĠBanach":4931,"Ġproportional":4932,"Ġinvariance":4933,"ians":4934,"plex":4935,"dorff":4936,"Ġdeviation":4937,"istrib":4938,"Ġmarket":4939,"lder":4940,"ortun":4941,"ĠÂº":4942,"Ġorthonormal":4943,"netic":4944,"aton":4945,"Ġindicate":4946,"Ġencoding":4947,"ĠEnd":4948,"amp":4949,"ĠModel":4950,"Ġendpoints":4951,"Ġcombining":4952,"Ġminimizing":4953,"Ġpolyhed":4954,"ausdorff":4955,"Ġbriefly":4956,"Ġneural":4957,"ecti":4958,"Ġneighbourhood":4959,"Ġrecovery":4960,"Ġaug":4961,"Ġachievable":4962,"Ġpredict":4963,"Ġapplic":4964,"Ġbid":4965,"ĠBes":4966,"cd":4967,"199":4968,"oded":4969,"Ġown":4970,"Ġgenerates":4971,"timating":4972,"Ġhypotheses":4973,"Ġapproximately":4974,"Ġstri":4975,"Ġhighest":4976,"Ġuv":4977,"bre":4978,"Ġarise":4979,"adjoint":4980,"otropic":4981,"ĠAND":4982,"Ġtriangles":4983,"lock":4984,"Ġorders":4985,"Con":4986,"Ġincor":4987,"lli":4988,"Ġmultiplicative":4989,"Ġverified":4990,"Ġmatter":4991,"ĠAx":4992,"Ġcoar":4993,"ibb":4994,"58":4995,"Ġcomplicated":4996,"Ġinsp":4997,"erial":4998,"Ġhad":4999,"Ġconvenience":5000,"Ġconnections":5001,"ĠSNR":5002,"Ġdatasets":5003,"ĠGe":5004,"Ġqq":5005,"that":5006,"Ġ(âĥĹ":5007,"Ġshare":5008,"ĠLemmas":5009,"Ġcharacterize":5010,"ensive":5011,"ĠâĬĻ":5012,"Ġxx":5013,"iring":5014,"theless":5015,"Ġquality":5016,"Ï±":5017,"ecutive":5018,"Ġcompletion":5019,"Ã©s":5020,"Ġ29":5021,"({":5022,"use":5023,"Ġdiscrimin":5024,"linder":5025,"oral":5026,"Ġqueue":5027,"cepts":5028,"08":5029,"Ġtemper":5030,"Ġpreserving":5031,"Ġfactorization":5032,"Ġconcludes":5033,"Ġplac":5034,"Ġcalculations":5035,"ĠBayesian":5036,"mediate":5037,"lecting":5038,"Section":5039,"umann":5040,"Ġsof":5041,"enef":5042,"ĠLP":5043,"Ch":5044,"Ġguaranteed":5045,"ĠPRO":5046,"ĠTake":5047,"LP":5048,"Ġmomentum":5049,"ĠChoose":5050,"Ġmic":5051,"Ġreve":5052,"Ġrealization":5053,"Ġprocessing":5054,"Ġnonempty":5055,"ĠChapter":5056,"Ġunless":5057,"ulus":5058,"ogen":5059,"Proposition":5060,"âĭĨ":5061,"aylor":5062,"Ġaverag":5063,"ĠâĪĴâĪĴâĪĴ":5064,"edom":5065,"Ġintersects":5066,"Ġvariant":5067,"Ġrever":5068,"ĠCR":5069,"dependent":5070,"Ġspe":5071,"ĠRic":5072,"Ġtrade":5073,"bl":5074,"ĠBased":5075,"roben":5076,"Ġrough":5077,"Ġskew":5078,"xy":5079,"icon":5080,"cop":5081,"Ġsket":5082,"Ġji":5083,"Ġflows":5084,"pecially":5085,"ĠÄĢ":5086,"ah":5087,"Ġgeneralize":5088,"Ġdiam":5089,"Ġclosely":5090,"Ġsetup":5091,"Ġrecursive":5092,"ses":5093,"Ġdifferences":5094,"Ġdv":5095,"Ġmesh":5096,"Ġsolves":5097,"unov":5098,"Ġloops":5099,"arÃ©":5100,"Ġsuggests":5101,"obolev":5102,"Ġâī«":5103,"unct":5104,"Ġbody":5105,"ET":5106,"field":5107,"Ġproduces":5108,"matrix":5109,"zing":5110,"ED":5111,"phas":5112,"lected":5113,"Ġanalogue":5114,"ĠNon":5115,"ĠMC":5116,"+âĪŀ":5117,"ĠIs":5118,"Ġcontent":5119,"Ġunits":5120,"robenius":5121,"brid":5122,"Ġmoreover":5123,"Ġmed":5124,"Ġadapt":5125,"na":5126,"rag":5127,"Ġconsecutive":5128,"GL":5129,"Ġsimpler":5130,"Ġappearing":5131,"Ġvirtual":5132,"Ġpassing":5133,"Ġbuild":5134,"Ġstream":5135,"Ġoracle":5136,"Ġmn":5137,"ĠVI":5138,"Ġalphab":5139,"Ġcoherent":5140,"ĠRef":5141,"Ġamb":5142,"Ġneither":5143,"Ġfaster":5144,"Ġnoted":5145,"scale":5146,"Ġimpos":5147,"ĠThroughout":5148,"erc":5149,"Ġinvolution":5150,"Ġlogarithmic":5151,"Ġarithmetic":5152,"Ġthink":5153,"Ġsynchron":5154,"Ġdistances":5155,"Ġpriori":5156,"ĠHopf":5157,"chain":5158,"incarÃ©":5159,"ĠÄĽ":5160,"Ġnorms":5161,"Ġsays":5162,"ĠIts":5163,"75":5164,"Ġisolated":5165,"Ġrelies":5166,"Ġconstrained":5167,"Ġconverse":5168,"ĠBl":5169,"Ġ00":5170,"Ġbenef":5171,"Ġsubsequ":5172,"Ġcompe":5173,"Ġsignature":5174,"Ġcosts":5175,"Ġheuristic":5176,"izable":5177,"gru":5178,"strain":5179,"Ġemphas":5180,"Ġcontradicts":5181,"Ġsubstitution":5182,"yond":5183,"Ã¶lder":5184,"âĪ§":5185,"por":5186,"ĠSC":5187,"Ġservice":5188,"ĠâĩĲ":5189,"Ġremove":5190,"Al":5191,"otopic":5192,"avity":5193,"diag":5194,"Ġendow":5195,"Ġformer":5196,"Ġcorrection":5197,"complex":5198,"Ġ33":5199,"Ġsaf":5200,"Ġremoved":5201,"ĠCompar":5202,"Ġschedul":5203,"Ġwire":5204,"Ġinterpolation":5205,"Ġscenarios":5206,"Ġunderstood":5207,"Ġapproximated":5208,"Ġther":5209,"Ġdon":5210,"Ġplus":5211,"Ġaccurate":5212,"no":5213,"Ġpreced":5214,"irected":5215,"Ġpowers":5216,"Ġfive":5217,"apunov":5218,"roupo":5219,"Ġmixt":5220,"opes":5221,"Ġtools":5222,"Ġlocus":5223,"Ġsocial":5224,"--":5225,"hard":5226,"Ġchains":5227,"Ġconfidence":5228,"ĠVer":5229,"Ġlabell":5230,"ulated":5231,"Ġcontributions":5232,"mar":5233,"Ġyear":5234,"Re":5235,"Ġreward":5236,"âŁ©âŁ¨":5237,"Ġanten":5238,"fl":5239,"Ġpq":5240,"ĠBC":5241,"Ġfreedom":5242,"cor":5243,"tu":5244,"06":5245,"LU":5246,"ĠâĪĨ,":5247,"ibr":5248,"roupoid":5249,"Ġlengths":5250,"Ġboundaries":5251,"Ġimpact":5252,"Ġshortest":5253,"Ġtuple":5254,"Ġtransitions":5255,"Ġmaterial":5256,"Ġnovel":5257,"Ġinteractions":5258,"Ġexchange":5259,"Ġintermediate":5260,"](":5261,"Ġmodes":5262,"Ġcylinder":5263,"Ġobtains":5264,"Ġtrivially":5265,"ĠInstead":5266,"Ġ40":5267,"ĠTaylor":5268,"ĠMin":5269,"ĠDes":5270,"Ġinfluence":5271,"Ġgeneration":5272,"ĠâŁ©,":5273,"Ġtrad":5274,"Ġspecify":5275,"Ġmoving":5276,"Ġconstructions":5277,"Ġsampled":5278,"Ġappendix":5279,"Ġespecially":5280,"ĠÃ»":5281,"59":5282,"Ġpossibility":5283,"Ġmatroid":5284,"Ġinfer":5285,"Ġsharp":5286,"ĠCO":5287,"ĠExp":5288,"Ġâī»":5289,"ĠAD":5290,"Ġunderstanding":5291,"Ġkl":5292,"paramet":5293,"ĠSV":5294,"complete":5295,"rem":5296,"Ã¡":5297,"selves":5298,"ĠAP":5299,"Ġprog":5300,"Proof":5301,"Ġsparsity":5302,"istence":5303,"Ġcovers":5304,"ĠUp":5305,"parameter":5306,"ĠConversely":5307,"Ġpush":5308,"Ġarises":5309,"Ġconvexity":5310,"zz":5311,"ĠChe":5312,"Ġmag":5313,"ĠðĿĳĽ":5314,"equival":5315,"Ġexperimental":5316,"ĠNewton":5317,"Ġdegenerate":5318,"gener":5319,"Ġconstit":5320,"isim":5321,"ĠCart":5322,"Ġsummand":5323,"Ġimag":5324,"icting":5325,"ai":5326,"head":5327,"ĠÄħ":5328,"Ġfulf":5329,"ĠÅľ":5330,"Ġcalculus":5331,"Ġtrop":5332,"Ġdecrease":5333,"Ġdiameter":5334,"Ġfollowed":5335,"Ġhyperplane":5336,"Ġte":5337,"Ġstarts":5338,"Ġestimating":5339,"Ġpapers":5340,"ĠLyapunov":5341,"ĠCF":5342,"Ġequivariant":5343,"GD":5344,"ĠWeyl":5345,"Ġdiffer":5346,"Ġsix":5347,"Ġballs":5348,"Ġconstructing":5349,"Ġwind":5350,"Let":5351,"Ġdeform":5352,"Ġdid":5353,"Ġadapted":5354,"ĠCS":5355,"64":5356,"Ġtan":5357,"Ġtotally":5358,"ï¸":5359,"Ġformed":5360,"Ġ34":5361,"Ġhighly":5362,"Ġtriangulation":5363,"Ġimportance":5364,"Ġvaluation":5365,"ula":5366,"Ġnoting":5367,"ĠâĩĶ":5368,"versal":5369,"Ġbases":5370,"Ġkernels":5371,"Ġspl":5372,"bility":5373,"Ġnil":5374,"Ġfails":5375,"Ġsources":5376,"ĠMathema":5377,"Ġsolid":5378,"Ġcodimension":5379,"Ġspanning":5380,"Ġcontinuously":5381,"80":5382,"Ġbeam":5383,"ĠâĨĴâĪŀ":5384,"ĠNamely":5385,"ancy":5386,"abor":5387,"Ġparticularly":5388,"Ġparity":5389,"erving":5390,"IP":5391,"67":5392,"Ġrepresentative":5393,"St":5394,"Ġrestrictions":5395,"Ġseparately":5396,"ensus":5397,"itively":5398,"sigh":5399,"left":5400,"Ġpointwise":5401,"singular":5402,"Ġ{|":5403,"ether":5404,"Ġsimplex":5405,"Ġprograms":5406,"Ġpp":5407,"manifolds":5408,"uli":5409,"ĠÄ¤":5410,"ions":5411,"Ġcondu":5412,"weight":5413,"02":5414,"theore":5415,"rep":5416,"Ġtransitive":5417,"ĠÄĥ":5418,"Ġeventually":5419,"ĠBound":5420,"ĠHausdorff":5421,"Ġcontroller":5422,"Ġimprovement":5423,"Ġfibration":5424,"Ġdeep":5425,"attering":5426,"Ġign":5427,"FS":5428,"Ġresidual":5429,"Ġxi":5430,"Ġindexed":5431,"Ġlikely":5432,"rian":5433,"Ġtoric":5434,"Ġcubic":5435,"acts":5436,"Ġmagnitude":5437,"Ġtext":5438,"term":5439,"ĠSobolev":5440,"ey":5441,"Ġnumerically":5442,"Ġpicture":5443,"Ġflu":5444,"Ġkn":5445,"Ġnormalization":5446,"ĠNeumann":5447,"Ġarch":5448,"Ġiterative":5449,"anc":5450,"Ġrandomized":5451,"ĠDirac":5452,"hler":5453,"Ex":5454,"Ġcomputer":5455,"Ġwhite":5456,"ĠDec":5457,"Ġreasonable":5458,"faces":5459,"ĠGraph":5460,"aten":5461,"Ġcomputes":5462,"Ġrigor":5463,"ĠResults":5464,"ĠPO":5465,"Ġversions":5466,"ĠCON":5467,"tro":5468,"Ġcontin":5469,"Ġminimizer":5470,"ended":5471,"ested":5472,"herence":5473,"cos":5474,"ĠMo":5475,"ues":5476,")}.":5477,"Ġprecision":5478,"ĠÈ³":5479,"ĠSubsection":5480,"Ġcompleteness":5481,"instein":5482,"Ġvarying":5483,"Ġbilinear":5484,"dz":5485,"Ġfunctors":5486,"ĠÄ¥":5487,"Ġknots":5488,"Ġthesis":5489,"Ġpayoff":5490,"Ġrooted":5491,"equivariant":5492,"odrom":5493,"Ġ(?":5494,"Ġeverywhere":5495,"Ġslope":5496,"â©½":5497,"ĠMan":5498,"ĠBoolean":5499,"Ġ)âĪĴ":5500,"Ġaugment":5501,"ĠPoincarÃ©":5502,"ev":5503,"ĠPart":5504,"ounts":5505,"Ġattrib":5506,"Ġmonotonicity":5507,"ĠAddition":5508,"Ġcongru":5509,"Ġbreak":5510,"Ġcircles":5511,"orn":5512,"Ġpointed":5513,"Ġcomb":5514,"Ġconcentr":5515,"ĠKL":5516,"66":5517,"Ġcontrolled":5518,"Ġhidden":5519,"ĠLaplace":5520,"arity":5521,"Ġimpossible":5522,"Ġplays":5523,"Ġterminal":5524,"gl":5525,"Ġstead":5526,"Ġpt":5527,"Ġhull":5528,"Ġformulated":5529,"Ġsi":5530,"Ġdensities":5531,"Ġmixing":5532,"itness":5533,"Ġbif":5534,"Ġarray":5535,"aut":5536,"Ġcommutes":5537,"07":5538,"arc":5539,"Ġ|âĪĤ":5540,"IR":5541,"Ġchanging":5542,"Ġthanks":5543,"ĠWr":5544,"ĠðĿĳĺ":5545,"Ġtemperature":5546,"ĠGalois":5547,"Ġlayers":5548,"Ġlocations":5549,"\\{":5550,"Ġstopping":5551,"Ġspanned":5552,"entials":5553,"Ġsymmetries":5554,"ĠÏħ":5555,"Ġbeyond":5556,"acted":5557,"this":5558,"ĠdÏĦ":5559,"Ġconcerning":5560,"Ġcharge":5561,"ashed":5562,"Ġreads":5563,"eas":5564,"umber":5565,"Ġremoving":5566,"Ġinvestigated":5567,"Ġtopolog":5568,"ken":5569,"Ġbraid":5570,"Ġupdates":5571,"Ġpacket":5572,"Ġidentically":5573,"Ġpast":5574,"Ġseparation":5575,"Ġá¹½":5576,"Ġcarry":5577,"Ġstructural":5578,"ker":5579,"Ġperforms":5580,"alog":5581,"Ġdesigned":5582,"Ġintroducing":5583,"ĠCher":5584,"Ġensemble":5585,"ĠPDE":5586,"Ġcomputable":5587,"Ġsituations":5588,"Ġchallen":5589,"Ġdiscretization":5590,"Ġvac":5591,"Ġcolors":5592,"Ġargue":5593,"bles":5594,"68":5595,"Ġproperly":5596,"Ġsn":5597,"word":5598,"izers":5599,"ĠCH":5600,"Ġspacetime":5601,"preserving":5602,"ĠGeneral":5603,"Ġspecifically":5604,"Ġbalanced":5605,"Ġrecogn":5606,"hic":5607,"Ġdepicted":5608,"Ġtell":5609,"Ġtruth":5610,"iability":5611,"uk":5612,"Ġnoisy":5613,"ycle":5614,"UL":5615,"ĠPic":5616,"Ġworth":5617,"Ġscales":5618,"Ġsometimes":5619,"ĠFrobenius":5620,"ĠDo":5621,"Ġrounds":5622,"Ġdrop":5623,"ĠâĩĲâĩĴ":5624,"tine":5625,"Ġalternating":5626,"Ġadv":5627,"Ġtreated":5628,"Ġfibers":5629,"Ġopt":5630,"Ġtun":5631,"Ġ(âĪ¥":5632,"Ġarrive":5633,"Ġappe":5634,"Ġsteady":5635,"Ġtriangular":5636,"Ġreasoning":5637,"Ġeigenvectors":5638,"ATION":5639,"Ġprivate":5640,"ious":5641,"Ġtwice":5642,"Ġisometry":5643,"100":5644,"size":5645,"arr":5646,"Ġclique":5647,"Ġmodify":5648,"Ġcorrelations":5649,"meas":5650,"Ġrelaxation":5651,"ands":5652,"ĠProp":5653,"Ġseparate":5654,"ĠTrans":5655,"Ġinstant":5656,"ĠMet":5657,"Ġcontinue":5658,"ital":5659,"Ġidentities":5660,"Ġalphabet":5661,"ĠâĬĥ":5662,"Ġcollision":5663,"ĠSum":5664,"Ġprefix":5665,"âĪŀ)":5666,"Ġforce":5667,"Ġpa":5668,"heres":5669,"Ġmodification":5670,"Ġsecurity":5671,"Ġabsolutely":5672,"Ġpopular":5673,"Ġbuilding":5674,"(âĪĤ":5675,"efinite":5676,"ilities":5677,"ĠBer":5678,"Ġsuff":5679,"Ġmodeling":5680,"Ġlittle":5681,"Ġdiscussions":5682,"Ġglobally":5683,"Ġpenalty":5684,"orting":5685,"Ġisomorphisms":5686,"ĠSE":5687,"Ġrequirements":5688,"Ġ=:":5689,"urc":5690,"ĠHÃ¶lder":5691,"pective":5692,"evertheless":5693,"ĠSm":5694,"Ġorganized":5695,"04":5696,"Ġgeodesics":5697,"Ġserver":5698,"Ġrou":5699,"trans":5700,"Ġrecursion":5701,"Ġobtaining":5702,"loop":5703,"ĠOnce":5704,"Ġorb":5705,"Ġcusp":5706,"98":5707,"ifferential":5708,"Ġ)+":5709,"warz":5710,"Ġcolour":5711,"comes":5712,"lects":5713,"ĠFIG":5714,"irm":5715,"Ġcoupled":5716,"Ġissu":5717,"ĠÃ¿":5718,"yper":5719,"Ġsubst":5720,"Ġqubits":5721,"Ġexper":5722,"ĠâĨĶ":5723,"65":5724,"dis":5725,"Ġbad":5726,"Ġexceptional":5727,"degenerate":5728,"Ġgrows":5729,"oses":5730,"ĠdÎ¸":5731,"Ġcoarse":5732,"Ġautomaton":5733,"Ġseem":5734,"Ġtwisted":5735,"Ġregarding":5736,"Ġextremal":5737,"Ġbandwidth":5738,"owski":5739,"omp":5740,"DI":5741,"Ġfluid":5742,")=":5743,"Ġcoloring":5744,"61":5745,"Ġcombinations":5746,"ocal":5747,"Ġflux":5748,"Ġcube":5749,"ĠNevertheless":5750,"Ġname":5751,"yclic":5752,"homogeneous":5753,"Ġphysics":5754,"Ġseparated":5755,"Ġce":5756,"Ġweaker":5757,"Ġmul":5758,"uniform":5759,"Ġgreat":5760,"ĠâĦľ":5761,"Ġprimary":5762,"Ġtwist":5763,"Ġstatic":5764,"BC":5765,"Ġwa":5766,"ĠType":5767,"Ġleave":5768,"78":5769,"Ġtransverse":5770,"95":5771,"Ġwish":5772,"itect":5773,"Ġstands":5774,"70":5775,"Ġperturbations":5776,"Ġinsigh":5777,"process":5778,"Ġpage":5779,"Ġrescal":5780,"Ġadversary":5781,"Ġatoms":5782,"actions":5783,"Ġmartingale":5784,"Ġgroupoid":5785,"ĠâŁ©.":5786,"ĠÅ¨":5787,"Ġnice":5788,"Ġpropagation":5789,"Ġsort":5790,"Ġworking":5791,")].":5792,"Ġheter":5793,"Ġwitness":5794,"Ġrealized":5795,"Ġdescribing":5796,"Ġsad":5797,"62":5798,"Ġcarried":5799,"Ġtraffic":5800,"smooth":5801,"Ġ[?].":5802,"Ġsucces":5803,"Ġconcave":5804,"Ġperspective":5805,"ĠAnaly":5806,"Ġembeddings":5807,"ethe":5808,"Ġletting":5809,"Ġpolicies":5810,"Ġmixture":5811,"Ġcreate":5812,"Ġparent":5813,"ube":5814,"Ġá»¹":5815,"Ġcontour":5816,"Ġstore":5817,"Ġsake":5818,"Ġexhibit":5819,"Ġdegener":5820,"Ġexceed":5821,"Ġoutper":5822,"Ġperforming":5823,"cript":5824,"Ġscattering":5825,"Ã¤hler":5826,"Ġá¹¼":5827,"Ġdatab":5828,"Ġslot":5829,"ĠDisc":5830,"Ġdoub":5831,"illed":5832,"Ġ.)":5833,"63":5834,"Ġpresents":5835,"ĠCC":5836,"ĠEven":5837,"orage":5838,"Ġincorpor":5839,"Ġrely":5840,"ĠâĭĬ":5841,"ĠChern":5842,"ĠHermitian":5843,"Ġreverse":5844,"sure":5845,"vered":5846,"Ġheat":5847,"Ġ[?],":5848,"Ġdominated":5849,"Ġlattices":5850,"Ġpara":5851,"ĠKer":5852,"ĠÄĿ":5853,"[(":5854,"Ġconcrete":5855,"ĠMonte":5856,"Ġactiv":5857,"Ġáº¼":5858,",+":5859,"Ġsensor":5860,"Ġsimilarity":5861,"Ġstudying":5862,"iminaries":5863,"ĠSS":5864,"77":5865,"Ġimaginary":5866,"Ġreasons":5867,"egend":5868,"AD":5869,"Ġsequential":5870,"Ġproviding":5871,"Ġcovered":5872,"ĠMax":5873,"Ġsubsequent":5874,"px":5875,"Ġposs":5876,"Ġgreedy":5877,"Ġassociate":5878,"Ġideals":5879,"arest":5880,"Ġminor":5881,"Ġreported":5882,"since":5883,"Ġaccept":5884,"Ġvehic":5885,"Ġalign":5886,"Ġdominant":5887,"Ġyears":5888,"roduct":5889,"Ġdetect":5890,"Ġangles":5891,"ĠâĪŀ),":5892,"lar":5893,"aching":5894,"88":5895,"Ġbir":5896,"Ġrepeat":5897,"Ġbranching":5898,"Ġpurposes":5899,"Ġpurely":5900,"Ġport":5901,"OM":5902,"ĠSections":5903,"Ġbifurc":5904,"Ġprefer":5905,"Ġhappen":5906,"Ġil":5907,"earch":5908,"Ġmonoidal":5909,"Ġforest":5910,"Ġapplicable":5911,"vergence":5912,"âĪĪ{":5913,"Ġá»¸":5914,"umerical":5915,"Ġcooper":5916,"Ġdg":5917,"Ġallowing":5918,"ĠConclusion":5919,"Ġstrings":5920,"Ġshared":5921,"Ġpreserve":5922,"ðĿĲ":5923,"Ġconvergent":5924,"Ġoutcomes":5925,"BM":5926,"Ġhypergraph":5927,"Ġproduced":5928,"Ġpu":5929,"compact":5930,"âĮĬ":5931,"Ġsimplified":5932,"03":5933,"ĠDel":5934,"Ġ36":5935,"Ġrings":5936,"ĠAssuming":5937,"ulate":5938,"Ġsite":5939,"Ġconcentration":5940,"Ġmapped":5941,"Ġformulate":5942,"Ġpullback":5943,"gs":5944,"io":5945,"commut":5946,"ille":5947,"AV":5948,"king":5949,"ench":5950,"Ġarchitect":5951,"Ġdifficulty":5952,"Ġtropical":5953,"Ġfoliation":5954,"Ġmultivariate":5955,"Ġquantization":5956,"Ġvalued":5957,"69":5958,"prising":5959,"Ġstrength":5960,"Ġ|||":5961,"oung":5962,"Ġconsensus":5963,"Ġarising":5964,"Ġ|âŁ¨":5965,"87":5966,"ales":5967,"Ġpunct":5968,"respectively":5969,"Ġanalytical":5970,"Ġmargin":5971,"uctu":5972,"Ġisometric":5973,"Ġfourth":5974,"LL":5975,"Ġâĭħ":5976,"ĠHod":5977,"Ġmaximize":5978,"Ġsatur":5979,"crib":5980,"Ġinfinites":5981,"lig":5982,"Ġevol":5983,"ĠPut":5984,"apping":5985,"Ġcomparing":5986,"link":5987,"theoretic":5988,"Îŀ":5989,"istance":5990,"sided":5991,"Ġtemporal":5992,"89":5993,"ĠâĭĦ":5994,"changed":5995,"ĠÅµ":5996,"Ġ35":5997,"asso":5998,"Ġsimulated":5999,"posable":6000,"Ġconcepts":6001,"separ":6002,"Ġthroughput":6003,"Ġna":6004,"orth":6005,"ĠÃ£":6006,"fortun":6007,"Ġconsideration":6008,"ones":6009,"ystems":6010,"sip":6011,"Ġsemid":6012,"ĠiÎ¸":6013,"[[":6014,"Ġpreceding":6015,"Ġcumul":6016,"Ġcoverage":6017,"Ġ_":6018,"¾±":6019,"Ġsummation":6020,"sibly":6021,"Ġextending":6022,"going":6023,"Sp":6024,"Ġbuilt":6025,"Ġhead":6026,"Ġcorner":6027,"ĠOP":6028,"celer":6029,"ĠÄľ":6030,"ĠÄĪ":6031,"Ġdisplay":6032,"ĠRad":6033,"tt":6034,"integr":6035,"Ġparametric":6036,"Ġready":6037,"Ġstorage":6038,"Ġcomposite":6039,"Ġautomorphisms":6040,"Ġreprodu":6041,"âĸ¡":6042,"IMO":6043,"Ġcosh":6044,"ert":6045,"andard":6046,"Ġcommute":6047,"Ġmiddle":6048,"ĠðĿĽ":6049,"vy":6050,"degree":6051,"Ġcriteria":6052,"Ġbelief":6053,"ishing":6054,"Ġconsiders":6055,"ĠExamples":6056,"Ġreadily":6057,"Ġbracket":6058,"what":6059,"Ġpan":6060,"Ġwireless":6061,"Ġflag":6062,"ĠÄģ":6063,"It":6064,"Ġaxioms":6065,"Ġtransformed":6066,"Ġwindow":6067,"ln":6068,"Ġmissing":6069,"copic":6070,"Ġphenomenon":6071,"viously":6072,"eff":6073,"ĠUnivers":6074,"Ġspeaking":6075,"ĠdÎ¾":6076,"ĠAm":6077,"III":6078,"Ġsubt":6079,"Ġintuition":6080,"Ġfailure":6081,"actable":6082,"oks":6083,"Ġdivided":6084,"Ġrefinement":6085,"Ġsaddle":6086,"ifications":6087,"ĠThm":6088,"Ġpreserved":6089,"igu":6090,"cluding":6091,"ĠMR":6092,"ĠLegend":6093,"Ġaffect":6094,"Ġadjust":6095,"Ġobviously":6096,"Ġspread":6097,"ĠIR":6098,"84":6099,"Ġletters":6100,"ĠSol":6101,"Ġamplitude":6102,"Ġcoming":6103,"Cor":6104,"insic":6105,"Ġtherein":6106,"terior":6107,"Ġcolored":6108,"structure":6109,"Ġhypersurface":6110,"Ġ)âŁ©":6111,"Ġrewritten":6112,"Ġpossess":6113,"Ġinvolve":6114,"Ġmonodrom":6115,"Ġguess":6116,"ING":6117,"Ġstatistic":6118,"az":6119,"ĠWhat":6120,"Ġcharacters":6121,"ĠWrite":6122,"Ġ@":6123,"Ġobservable":6124,"Ġcapture":6125,"97":6126,"Ġhelpful":6127,"fortunately":6128,"oulli":6129,"ðĿĳ¥":6130,"Ġsubdiv":6131,"df":6132,"ĠNotation":6133,"Ġasymptotics":6134,"Ġkin":6135,"Ġith":6136,"aling":6137,"Ġpairing":6138,"assive":6139,"Ġdistortion":6140,"Ġmotivated":6141,"ĠNash":6142,"Ġlabelled":6143,"itary":6144,"Ġendowed":6145,"Ġissues":6146,"tific":6147,"Tr":6148,"Ġfluctu":6149,"Ġmutual":6150,"Ġkj":6151,"Ġnone":6152,"ĠSubstit":6153,"Ġresources":6154,"amed":6155,"Ġworld":6156,"Ġpolygon":6157,"alls":6158,"Ġsinh":6159,"diagonal":6160,"Ġsubmanifold":6161,"bund":6162,"ĠâĬº":6163,"enchmark":6164,"ĠCM":6165,"ximal":6166,"atory":6167,"ustom":6168,"ĠBell":6169,"Ġreplic":6170,"Ġdivide":6171,"ĠÏĤ":6172,"Ġfinds":6173,"Ġsgn":6174,"Ġscheduling":6175,"Ġqubit":6176,"Ġsmoothness":6177,"Ġestablishes":6178,"Ġcomposed":6179,"âĪħ":6180,"Ġexam":6181,"vey":6182,"Ġchecking":6183,"ller":6184,"itting":6185,"ĠNS":6186,"Ġnet":6187,"ĠâĢ¢,":6188,"Ġexploit":6189,"Ġflex":6190,"ĠSM":6191,")],":6192,"ĠÅ·":6193,"Ġprotocols":6194,"Ġing":6195,"ĠHodge":6196,"Ġwidely":6197,"ĠProperty":6198,"Ġcorrelated":6199,"Ġwaves":6200,"Ġdevelopment":6201,"ĠEstim":6202,"ĠRS":6203,"Ġprimes":6204,"Ġemployed":6205,"Ġexplore":6206,"LO":6207,"potent":6208,"ĠCN":6209,"Ġcof":6210,"kes":6211,"Ġposet":6212,"72":6213,"96":6214,"enberg":6215,"ĠâĦİ":6216,"Ġverification":6217,"Ġconcaten":6218,"Ġtradition":6219,"85":6220,"ĠML":6221,"Ġpn":6222,"Ġsheaves":6223,"ih":6224,"Ġ.,":6225,"ographic":6226,"plying":6227,"Ġendpoint":6228,"Ġeasier":6229,"ĠRE":6230,")/(":6231,"forming":6232,"independent":6233,"ĠBel":6234,"ogether":6235,"ĠâĮī":6236,"Ġautomatically":6237,"Ġagree":6238,"ĠâĪŀ).":6239,"ĠSto":6240,"Ġconjugacy":6241,"axis":6242,"ĠPrel":6243,"amma":6244,"positive":6245,"ĠLS":6246,"Ġsketch":6247,"Ġfaith":6248,"Ġcomputationally":6249,"Ġdetermining":6250,"Ġray":6251,"ĠÐ":6252,"Ġoption":6253,"Ġprimal":6254,"Ġquick":6255,"Ġcombine":6256,"pite":6257,"Ġsquared":6258,"ĠGreen":6259,"Ġ1000":6260,"Ġphases":6261,"ĠLo":6262,"ache":6263,"Ġexc":6264,"neighb":6265,"Ġmac":6266,"DM":6267,"Ġhistory":6268,"Ġviol":6269,"ĠâĻŃ":6270,"dual":6271,"ĠGP":6272,"Ġmeet":6273,"ĠODE":6274,"actif":6275,"Ġdisks":6276,"ĠâĪĴâĪĴ":6277,"Ġchecked":6278,"Ġrobustness":6279,"ĠðĿĳĹ":6280,"Ġwalks":6281,"Ġconduct":6282,"oration":6283,"ky":6284,"Ġlaws":6285,"Ġram":6286,"Ġanalyzed":6287,"Ġ](":6288,"sen":6289,"Ã©n":6290,"ĠAdditionally":6291,"ĠMS":6292,"sibility":6293,"If":6294,"cast":6295,"imum":6296,"ĠLO":6297,"Ġclaimed":6298,"similar":6299,"TL":6300,"ĠCr":6301,"Ġlocalization":6302,"Ġtransforms":6303,"Ġmainly":6304,"Ġcas":6305,"ĠMorse":6306,"Ġformulae":6307,"Ġinversion":6308,"Ġlogical":6309,"Ġdistinguished":6310,"Ġlocated":6311,"Ġwriting":6312,"Ġunity":6313,"86":6314,"Ġsummarized":6315,"OF":6316,"Ġ):":6317,"udget":6318,"value":6319,"Ġ]]":6320,"oot":6321,"Ġdrift":6322,"Ġï£¦":6323,"ĠÅ¼":6324,"ĠCarlo":6325,"Ġradial":6326,"Ġ64":6327,"Ġcustom":6328,"ĠEX":6329,"Ġterminology":6330,"Ġferm":6331,"79":6332,"well":6333,"Ġsubalgebra":6334,"ĠHes":6335,"sche":6336,"Ġinterface":6337,"ĠYoung":6338,"Ġrk":6339,"veness":6340,"Ġarrang":6341,"ĠBernoulli":6342,"Ġpotentials":6343,"Ġshr":6344,"ĠGauss":6345,"squ":6346,"|âī¤":6347,"omain":6348,"IF":6349,"Ġtruncated":6350,"Ġsuprem":6351,"ĠVol":6352,"ĠAR":6353,"Ġmob":6354,"avi":6355,"Ġindicator":6356,"Î¼":6357,"Ġoccup":6358,"PC":6359,"Ġbackward":6360,"ĠdB":6361,"ĠDu":6362,"Ġevidence":6363,"Le":6364,"Ġremarks":6365,"EE":6366,"Ġâª°":6367,"Ġconv":6368,"Ġsuggest":6369,"otstr":6370,"har":6371,"DA":6372,"top":6373,"Ġgate":6374,"76":6375,"Ġseed":6376,"Ġconnectivity":6377,"light":6378,"sch":6379,"ĠâĬł":6380,"Ġarrival":6381,"ware":6382,"Ġbrid":6383,"Ġspecies":6384,"Ġcharacteristics":6385,"Ġmonodromy":6386,"ĠAssumptions":6387,"Ġreform":6388,"Ġmodeled":6389,"Ġra":6390,"sequences":6391,"Ġarrows":6392,"ryst":6393,"Ġpackets":6394,"possibly":6395,"ĠJacobian":6396,"Ġundirected":6397,"Ġsummarize":6398,"Ġbenchmark":6399,"Ġindicated":6400,"ĠâĪĸ":6401,"closed":6402,"Ġvacu":6403,"vertex":6404,"Ġintensity":6405,"Ġbounding":6406,"Ġimpose":6407,"iner":6408,"commutative":6409,"Ġnothing":6410,"ampling":6411,"Ġrecord":6412,"Ġdevoted":6413,"acing":6414,"ordan":6415,"73":6416,"DG":6417,"planes":6418,"Ġsupremum":6419,"Ġdenomin":6420,"mid":6421,"ĠMain":6422,"Ġss":6423,"Ġacyclic":6424,"ĠNumerical":6425,"See":6426,"Ġfibre":6427,"ĠðĿĳ¡":6428,"Ġtend":6429,"Ġswitching":6430,"Fig":6431,"Ġaccep":6432,"Ġconsequently":6433,"Ġpoles":6434,"Ġequilibria":6435,"ĠMar":6436,"Ġvariants":6437,"Ġacceler":6438,"redient":6439,"Ġsimplest":6440,"Ġreached":6441,"Ġprocedures":6442,"omm":6443,"reement":6444,"Ġindividuals":6445,"Ġ(âĪĴâĪŀ,":6446,"Ġijk":6447,"eline":6448,"Ġtableau":6449,"Ġhybrid":6450,"))|":6451,"modular":6452,"Ġ:\"":6453,"DR":6454,"aussian":6455,"Ġisotopy":6456,"eta":6457,"Ġsuggested":6458,"Ġexterior":6459,"di":6460,"Ġhierarchy":6461,"ĠSR":6462,"âĪĴ(":6463,"Ġsomewhat":6464,"Ġlatent":6465,"71":6466,"ynamic":6467,"Ġbelonging":6468,"Ġeffectively":6469,"Ġlowest":6470,"Ġredund":6471,"Ġrev":6472,"ĠFe":6473,"Ġtry":6474,"Ġautomata":6475,"Ġ(,":6476,"represent":6477,"Ġatomic":6478,"Ġcones":6479,"onent":6480,"âĨĴ+âĪŀ":6481,"biased":6482,"Ġidentifying":6483,"Ġlack":6484,"length":6485,"Ġsummary":6486,"tent":6487,"iss":6488,"Ġillustrates":6489,"Ġformalism":6490,"ivariate":6491,"ĠdÏĥ":6492,"Ġnearest":6493,"Ġcompactif":6494,"leton":6495,"Ġconjugation":6496,"ĠPa":6497,"ĠFOR":6498,"avy":6499,"rÃ¶":6500,"ymmetry":6501,"Ġsensing":6502,"ĠObviously":6503,"det":6504,"Ġcomments":6505,"Ġdivisors":6506,"Ġstress":6507,"Ġstabilizer":6508,"Ġparameterized":6509,"Å©":6510,"Ġlanguages":6511,"OP":6512,"ĠLore":6513,"Ġresidue":6514,"Ġmagnetic":6515,"74":6516,"(âĪ¥":6517,"omic":6518,"Ġaspects":6519,"Ġrenormal":6520,"Ġreceive":6521,"Ġrandomness":6522,"Ġroughly":6523,"Ġexamine":6524,")},":6525,"Ġadjacency":6526,"mp":6527,"âĢ¢,":6528,"Ġclock":6529,"Ġslice":6530,"CH":6531,"Ġspecification":6532,"gine":6533,"Ġrectangle":6534,"ĠCox":6535,"Ġpieces":6536,"atif":6537,"Ġmir":6538,"load":6539,"Ġregarded":6540,"Ġversus":6541,"Ġadopt":6542,"Ġsites":6543,"Ġinitially":6544,"orient":6545,"ĠÃķ":6546,"titive":6547,"Ġfading":6548,"critical":6549,"sol":6550,"Ġshad":6551,"Ġgluing":6552,"ĠÅ¶":6553,"ĠËĺ":6554,"Ġ2017":6555,"CE":6556,"Ġinfinitesimal":6557,"Ġmutually":6558,"Ġfrequencies":6559,"90":6560,"83":6561,"Ġcellular":6562,"ĠâĪĴâĪĨ":6563,"posing":6564,"ĠâĪĨ)":6565,"Ġfunctionals":6566,"Ġá¸¡":6567,"Ġobservables":6568,"Ġrecursively":6569,"Ġtransmitter":6570,"Ġintersections":6571,"tere":6572,"ards":6573,"Ġomitted":6574,"using":6575,"Ġbelieve":6576,"Ġedition":6577,"Ġangular":6578,"Sh":6579,"plete":6580,"pre":6581,"Ġupdated":6582,"Ġsequel":6583,"ĠRP":6584,"Ġtransmitted":6585,"ĠCal":6586,"Ġcompleted":6587,"Ġdecompose":6588,"Ġbudget":6589,"Ġinduce":6590,"ĠCL":6591,"Ð¾":6592,"Ġconsumption":6593,"but":6594,"iles":6595,"osp":6596,"ru":6597,"Ġenables":6598,"ĠâĢ²âĢ²âĢ²":6599,"ĠFact":6600,"Ġrecurrence":6601,"âŁ©)":6602,"ners":6603,"ĠSk":6604,"Ġingredient":6605,"Ġexplan":6606,"entioned":6607,"ĠAcknowledgements":6608,"Ġbul":6609,"Ġencoded":6610,"Ġreduc":6611,"82":6612,"ĠTechn":6613,"ĠDF":6614,"ĠâĬĵ":6615,"Ġcompactness":6616,"Ġprices":6617,"Ġvs":6618,"ĠTe":6619,"Ġcorrectly":6620,"ĠdÎ»":6621,"Ġstop":6622,"ĠFunction":6623,"ĠLog":6624,"Ġjumps":6625,"=âĪĴ":6626,"81":6627,"ĠKÃ¤hler":6628,"bal":6629,"Ġ(âŁ¨":6630,"li":6631,"Ġunlike":6632,"Ġoptimum":6633,"Å«":6634,"Ġá¾±":6635,"Ġthought":6636,"tinuity":6637,"van":6638,"ĠâĪ«":6639,"Ġtensors":6640,"Ġparagraph":6641,"Ġreson":6642,"Ġpossibilities":6643,"Ġgcd":6644,"Ġexpansions":6645,"ĠâŁ©âŁ¨":6646,"ĠIni":6647,"Ġps":6648,"cycle":6649,"label":6650,"ĠðĿĳ¥":6651,"ĠIntu":6652,"ĠĠĠ":6653,"urb":6654,"Ġï¿½":6655,"Ġï£¾":6656,"Ġelectric":6657,"SION":6658,"Ġdot":6659,"Ġscaled":6660,"approximation":6661,"Ġki":6662,"Ġï£¼":6663,"ĠTop":6664,"Ġcompactly":6665,"Ġphot":6666,"ĠCol":6667,"ppings":6668,"Ġspectra":6669,"tale":6670,")||":6671,"Ġ(??":6672,"ĠDP":6673,"ault":6674,"Ġparticip":6675,"Ġeigenfunctions":6676,"ĠDiff":6677,"romatic":6678,"Ġmanip":6679,"roscopic":6680,"net":6681,"Ġletter":6682,"Ġbootstr":6683,"Ġdecompositions":6684,"Ġgrant":6685,"Ġ2016":6686,"ĠTheir":6687,"tra":6688,"Ġimmer":6689,"ĠSubstituting":6690,"Ġreducing":6691,"stant":6692,"Ġcoherence":6693,"atz":6694,"Ġisotropic":6695,"flow":6696,"ĠHessian":6697,"ĠINT":6698,"Ġ)[":6699,"Ġspheres":6700,"ĠAnalysis":6701,"ĠAL":6702,"Ġcrossings":6703,"Ġemer":6704,"Ġexponents":6705,"Ġgeneralizes":6706,"Ġoverlap":6707,"Ġclause":6708,"idel":6709,"Ġnearly":6710,"(âĥĹ":6711,"Ġcircular":6712,"Ġrigorous":6713,"Ġsynthe":6714,"Ġdil":6715,"Ġbranches":6716,"Ã¶b":6717,"Ġmechanics":6718,"ĠEinstein":6719,"ĠXY":6720,"arial":6721,"Ġï£½":6722,"ister":6723,"Ïĸ":6724,"An":6725,"ĠRF":6726,"Ġ\\{":6727,"ashion":6728,"Ġprepar":6729,"Ġsurprising":6730,"Ġtet":6731,"sl":6732,"Ġcompression":6733,"Ġdatabase":6734,"Ġamounts":6735,"Ġcomplementary":6736,"Ġmotivation":6737,"âĦı":6738,"Ġtraditional":6739,"Ġchalleng":6740,"Ġpressure":6741,"Ġsend":6742,"Ã©vy":6743,"Ġcircuits":6744,"Ġsending":6745,"ML":6746,"alit":6747,"ĠHF":6748,"inkowski":6749,"problem":6750,"Ġcovari":6751,"ĠâĨ¾":6752,"eb":6753,"ĠUnfortunately":6754,"Ġreconstruct":6755,"Ġlying":6756,"),(":6757,"index":6758,"Ġ$":6759,"note":6760,"ĠâĪĨ.":6761,"Ġclassifier":6762,"ĠIC":6763,"Ġmicro":6764,"Ġvisual":6765,"Ġrefers":6766,"ordism":6767,"Ġdecomposed":6768,"Ġmappings":6769,"Ġconcerned":6770,"ibbs":6771,"Ġdecoder":6772,"Ġpeak":6773,"Ġconditioned":6774,"Ġdecide":6775,"Ġsurger":6776,"Ġobst":6777,"Ġcreated":6778,"Ġhole":6779,"ĠFlo":6780,"Ġattached":6781,"Ġbeh":6782,"ĠOver":6783,"ĠVari":6784,"dro":6785,"dim":6786,"ĠBP":6787,"Ġimmersion":6788,"Ġ)))":6789,"Ã©e":6790,"ĠAppl":6791,"multi":6792,"ĠSetting":6793,"BP":6794,"Ġvisc":6795,"ĠDC":6796,"Ġentangled":6797,"Ġconservation":6798,"dinger":6799,"Ġabsor":6800,"VM":6801,"mn":6802,"Ġnilpotent":6803,"Ġsuccessful":6804,"Ġvar":6805,"Defin":6806,"BF":6807,"ĠMM":6808,"Ġlabeling":6809,"Ġpotentially":6810,"Ġcollap":6811,"Ġthin":6812,"ham":6813,"Ġgates":6814,"Ġdigraph":6815,"haps":6816,"94":6817,"Ġemphasize":6818,"By":6819,"ĠCSI":6820,"Ġchildren":6821,"ĠEquival":6822,"ĠInter":6823,"Ġnested":6824,"istribution":6825,"Ġchallenging":6826,"ĠMIMO":6827,"urs":6828,"Ġtrig":6829,"Ġdemonstrated":6830,"elling":6831,"Ġgover":6832,"ï¸ģ":6833,"amb":6834,"Ġtells":6835,"Ġconnect":6836,"Ġcer":6837,"//":6838,"Ġlifting":6839,"âĨĵ":6840,"Ġapproximating":6841,"Ġforces":6842,"ĠSing":6843,"Ġmonomials":6844,"fr":6845,"Ġboundedness":6846,"Ġâľ":6847,"ĠLÃ©vy":6848,"Ġfrag":6849,"ĠNetwork":6850,"dÂµ":6851,"disc":6852,"rad":6853,"Ġcot":6854,"Ġneglig":6855,"Ġendomorphism":6856,"ĠSchrÃ¶":6857,"Ġ+âĪŀ.":6858,"Ġbook":6859,"Ġfashion":6860,"Ġsolvable":6861,"ĠJacobi":6862,"ĠRandom":6863,"ĠDG":6864,"Ġclient":6865,"Ġhope":6866,"constrain":6867,"Ġ2015":6868,"ecom":6869,"ĠâĪĤ(":6870,"ĠAPP":6871,"ĠAS":6872,"ĠâĢº":6873,"Ġtravel":6874,"Ġperturbed":6875,"sets":6876,"Ġannulus":6877,"parametric":6878,"Ġprescrib":6879,"Ġrobot":6880,"Ëĩ":6881,"Ġdashed":6882,"Ġdp":6883,"Ġboxes":6884,"ĠIntuitively":6885,"Ġentirely":6886,"Ġenfor":6887,"image":6888,"Ġcommunity":6889,"Ġidemp":6890,"section":6891,"Ġplots":6892,"Ġrelate":6893,"entif":6894,"OT":6895,"ander":6896,"etri":6897,"CD":6898,"ĠInput":6899,"Ġarm":6900,"Ġgave":6901,"lat":6902,"Ġpredicate":6903,"anning":6904,"ĠÃ¢":6905,"ĠBas":6906,"xx":6907,"Ġsupports":6908,"ĠMA":6909,"ĠÃĽ":6910,"Ġinform":6911,"Â¬":6912,"ĠAltern":6913,"oupl":6914,"nas":6915,"Ġsplits":6916,"Ġsubd":6917,"Ġpole":6918,"irable":6919,"rect":6920,"Ġansw":6921,"MR":6922,"ship":6923,"ĠFigures":6924,"Ġmaximization":6925,"ĠâĬĩ":6926,"Ġvariations":6927,"Ġsubgraphs":6928,"parse":6929,"continuous":6930,"Es":6931,"Ã©r":6932,"Ġillustration":6933,"ĠâĬĳ":6934,"Ġsmoothing":6935,"Ġlisted":6936,"ryp":6937,"udes":6938,"Ġtopic":6939,"IV":6940,"Ġholonom":6941,"Ġobstruction":6942,"ĠResearch":6943,"Ġbehind":6944,"ĠDet":6945,"Ġmechanisms":6946,"Ġsharing":6947,"|=":6948,"lementary":6949,"hedron":6950,"Ġconsiderations":6951,"Ġ2014":6952,"Ġcontinuation":6953,"Ġlooking":6954,"Ġcolim":6955,"ĠSchur":6956,"Ġintrinsic":6957,"Ġdenoting":6958,"Ġgene":6959,"ordered":6960,"weighted":6961,"Ġcha":6962,"))(":6963,"Ġimplication":6964,"Ġrecovered":6965,"anks":6966,"Ġconventional":6967,"Ġabsence":6968,"ĠPreliminaries":6969,"Ġcontrols":6970,"Ġ60":6971,"Ġlex":6972,"Ġsubtree":6973,"Ġplaces":6974,"Ġthick":6975,"+(":6976,"related":6977,"Ġpublic":6978,"une":6979,"92":6980,"Lipschitz":6981,"Ġsound":6982,"Ġhomeomorphic":6983,"Ġdf":6984,"Ġmedi":6985,"ĠJordan":6986,"Ġstored":6987,"yi":6988,"Ġjointly":6989,"words":6990,"ĠProb":6991,"Ġincreased":6992,"Ġsubstituting":6993,"ĠdÎ½":6994,"graded":6995,"Ġleg":6996,"ails":6997,"Ġcomparable":6998,"Ġchord":6999,"Ġreceives":7000,"ĠSer":7001,"Ġsafe":7002,"Ġconserv":7003,"Ġsemidefinite":7004,"âĬ¥":7005,"ĠLike":7006,"Ġfixing":7007,"atil":7008,"romov":7009,"Ġquantit":7010,"ider":7011,"Ðµ":7012,"ĠÃĬ":7013,"Ġste":7014,"Ġenh":7015,"Ġvon":7016,"Ġcloser":7017,"lf":7018,"Ġsurvey":7019,"ĠZh":7020,"ung":7021,"Ġmonoton":7022,"lective":7023,"ĠLR":7024,"93":7025,"ĠâĹģ":7026,"zy":7027,"des":7028,")ÃĹ":7029,"ouv":7030,"ĠÄ±":7031,"ĠMO":7032,"Ġprogress":7033,"Ġcontrary":7034,"ĠÃ©tale":7035,"Ġbalance":7036,"Ġimplying":7037,"Ġstrip":7038,"Ġâİª":7039,"apid":7040,"Ġmind":7041,"after":7042,"Ġnegligible":7043,"Ġintroduces":7044,"Ġincrement":7045,"ued":7046,"ĠGibbs":7047,"aracter":7048,"ĠQuestion":7049,"ntz":7050,"Ġreaches":7051,"Ġfaithful":7052,"ĠâĪĭ":7053,"then":7054,"Ġconfirm":7055,"Ġdiffers":7056,"super":7057,"ðĿĳ¡":7058,"theory":7059,"Ġ|{":7060,"ĠdP":7061,"ĠBesides":7062,"uff":7063,"Ġdestin":7064,"Ġdro":7065,"Ġsensitivity":7066,"recall":7067,"ĠSchrÃ¶dinger":7068,"Ġconsequences":7069,"ĠMinkowski":7070,"Ġspir":7071,"Ġdevices":7072,"uri":7073,"ID":7074,"Ġsubdivision":7075,"ĠPC":7076,"ĠâĪŀ-":7077,"ĠExperim":7078,"ĠâĪĿ":7079,"Ġdevice":7080,"Ġfront":7081,"ĠUniversity":7082,"Ġminimizes":7083,"Ġcuts":7084,"PR":7085,"Ġmy":7086,"Definition":7087,"ĠâĪ¥âĪĤ":7088,"Ġchooses":7089,"Ġdissip":7090,"down":7091,"Ġpubl":7092,"ĠData":7093,"Ġsigns":7094,"Ġaveraging":7095,"Ġfine":7096,"Ġau":7097,"Ġ45":7098,"ano":7099,"Ġmodulus":7100,"ument":7101,"Ġswitch":7102,"Ġneur":7103,"Ġtoler":7104,"Ġbifurcation":7105,"Ġbuy":7106,"increasing":7107,"Ġvalidity":7108,"Ġpowerful":7109,"Ġimproves":7110,"Ġparametrized":7111,"ĠHig":7112,"Ġsigned":7113,"body":7114,"osity":7115,"aving":7116,"ĠMethod":7117,"Ġlifts":7118,"UCTION":7119,"ectives":7120,"Ġ2013":7121,"Ġsolver":7122,"Ġpanel":7123,"Ġinj":7124,"ynchron":7125,"ĠAug":7126,"Ġstructured":7127,"Ġimplicitly":7128,"Ġforcing":7129,"pace":7130,"Ġ48":7131,"Ġprelim":7132,"Ġalgebraically":7133,"vec":7134,"Ġcorrectness":7135,"isting":7136,"Ġassumes":7137,"requ":7138,"Ġreaction":7139,"Ġcommonly":7140,"Ġconverging":7141,"ĠLinear":7142,"almost":7143,"elle":7144,"ords":7145,"Ġantennas":7146,"Ġrays":7147,"Ġtetra":7148,"ĠComparison":7149,"ĠCay":7150,"Ġareas":7151,"ita":7152,"adget":7153,"Ġtuples":7154,"Ġcovariant":7155,"Ã³":7156,"DD":7157,"Ġpreliminary":7158,"ĠAct":7159,"ĠCT":7160,"Ã´":7161,"ĠWork":7162,"Ġequivalences":7163,"Ġsector":7164,"dr":7165,"Ġimplied":7166,"ĠEM":7167,"Ġvacuum":7168,"Ne":7169,"Ġqui":7170,"eterministic":7171,"Ġbootstrap":7172,"Ġcounts":7173,"Ġ+,":7174,"Ġimposed":7175,"diff":7176,"bundle":7177,"UT":7178,"Ġhum":7179,"Ġorbifold":7180,"Ġ2018":7181,"Â¨Â¨":7182,"Ġnom":7183,"ĠSA":7184,"condition":7185,"Ġreveal":7186,"ĠMost":7187,"ests":7188,"Ġshrink":7189,"Ġconclusions":7190,"Ġtn":7191,"Ġwinning":7192,"Ġgraphical":7193,"Ã¨me":7194,"Ġheavy":7195,"Ġpolytopes":7196,"GS":7197,"Ġpropos":7198,"ĠKle":7199,"iteness":7200,"Ġda":7201,"Ġrecalling":7202,"Ġportion":7203,"Ġrapid":7204,"Ġneut":7205,"ĠRob":7206,"Ġyielding":7207,"redu":7208,"ĠPropositions":7209,"ĠTheory":7210,"(âĪĩ":7211,"onality":7212,"Ġaccom":7213,"INR":7214,"ox":7215,"Ġ];":7216,"Ġseparating":7217,"Ġfig":7218,"Ġobserving":7219,"Ġmatches":7220,"Ġsoft":7221,"Ġgreen":7222,"Ġcause":7223,"Ġrequiring":7224,"ills":7225,"Ġdenominator":7226,"Id":7227,"isher":7228,"Ġsensors":7229,"Ġearly":7230,"Ġ42":7231,"Ġ|âĪĨ":7232,"Ġcob":7233,"Ġability":7234,"thing":7235,"Ġ2012":7236,"Ġdisper":7237,"ĠCA":7238,"âĬ¤":7239,"Ġmultiplier":7240,"Ġoccurrence":7241,"ogeneity":7242,"terex":7243,"Ġcache":7244,"ĠConstruction":7245,"Ġnm":7246,"ĠRecently":7247,"ĠGromov":7248,"user":7249,"Ġclosest":7250,"irection":7251,"Ġ2022":7252,"ĠBV":7253,"ĠLagrange":7254,"orov":7255,"Ġintegrating":7256,"trie":7257,"Ġfibr":7258,"91":7259,"Ġsubcategory":7260,"Ġbulk":7261,"Corollary":7262,"new":7263,"oh":7264,"Ġfurthermore":7265,"Ġextract":7266,"Ġalgorithmic":7267,"Ġinspired":7268,"Ġcompatibility":7269,"Ġthemselves":7270,"Ġmachines":7271,"ĠCartan":7272,"Ġjoining":7273,"On":7274,"ĠLorentz":7275,"ĠâĪĵ":7276,"geometric":7277,"atility":7278,"orementioned":7279,"ads":7280,"Ġpositivity":7281,"Ġrelaxed":7282,"actible":7283,"Ġattacks":7284,"Im":7285,"Ġcance":7286,"To":7287,"ĠMSE":7288,"Ġadversarial":7289,"Ġrealizations":7290,"supp":7291,"Ġaforementioned":7292,"ĠâĪĴ|":7293,"Our":7294,"ĠCompute":7295,"ĠTV":7296,"ĠDM":7297,"Ġcryst":7298,"Ġagrees":7299,"Ġcongruence":7300,"len":7301,"Ġquickly":7302,"ki":7303,"sphere":7304,"Ġelastic":7305,"Ġ2010":7306,"Ġlearned":7307,"kh":7308,"Ġthereby":7309,"poch":7310,"ember":7311,"sistent":7312,"ĠÈ²":7313,"Ġdoing":7314,"illi":7315,"Ġfile":7316,"Ġranges":7317,"urst":7318,"Ġquiver":7319,"Ġfav":7320,"Ġmaximizing":7321,"ĠRed":7322,"Ġagreement":7323,"ĠGu":7324,"timate":7325,"ĠEqs":7326,"Ġsecure":7327,"model":7328,"Ġvor":7329,"empt":7330,"ĠPR":7331,"Po":7332,"Ġunchanged":7333,"ĠMc":7334,"Ġgains":7335,"ns":7336,"Ġfusion":7337,"hyper":7338,"Ġtruncation":7339,"ĠRicci":7340,"ĠBi":7341,"ĠLocal":7342,"qubit":7343,"stit":7344,"Ġarchitecture":7345,"Ġmirror":7346,"IST":7347,"ani":7348,"cut":7349,"UM":7350,"box":7351,"Note":7352,"ĠdW":7353,"Ġhyperplanes":7354,"ĠIP":7355,"2013":7356,"Ġshifted":7357,"typ":7358,"ĠWi":7359,"IL":7360,"ĠMany":7361,"Ġevaluating":7362,"ĠBu":7363,"Ġunbiased":7364,"Ġcle":7365,"Ġsuccessive":7366,"elike":7367,"Ġaugmented":7368,"ĠInte":7369,"ĠÃ©t":7370,"Ġplaced":7371,"ĠAlex":7372,"Ġuni":7373,"Ġdivision":7374,"Ġmolec":7375,"Ġmatched":7376,"Ġá¸ł":7377,"Ġsingleton":7378,"Ġ2011":7379,"Ġdivides":7380,"ecke":7381,"Ġexten":7382,"ump":7383,"Ġfinish":7384,"ĠDE":7385,"ĠBar":7386,"Ġ37":7387,"âĪĨ)":7388,"Ġpredicted":7389,"ateral":7390,"Ġdealing":7391,"Ġbc":7392,"Ġattained":7393,"Ġprecondition":7394,"Ġsont":7395,"Ġequally":7396,"ĠFormally":7397,"Ġchallenge":7398,"KS":7399,"Ġdefinable":7400,"Ġiterated":7401,"Ġmild":7402,"Ġrefined":7403,"Ġrequest":7404,"Ġdiction":7405,"ĠrÃ©":7406,"Ġfold":7407,"onym":7408,"Ġplanes":7409,"Ġexploration":7410,"venue":7411,"Ġvot":7412,"âĬĨ":7413,"Ġformation":7414,"hedral":7415,"rossing":7416,"ĠSpin":7417,"Ġjobs":7418,"ĠGrass":7419,"entral":7420,"ROD":7421,"OS":7422,"Ġcandidates":7423,"vised":7424,"Ġambigu":7425,"Ġcumulative":7426,"NS":7427,"Ġgeometrically":7428,"Ġencoun":7429,"Ġcounterpart":7430,"Ġbatch":7431,"ĠHar":7432,"alth":7433,"Ġdivisible":7434,"ĠPol":7435,"Ġpk":7436,"processing":7437,"Ġabuse":7438,"menting":7439,"ĠPreprint":7440,"Ġrouting":7441,"Ġattempt":7442,"ibration":7443,"Ġcontribute":7444,"lling":7445,"tier":7446,"Ãł":7447,"auses":7448,"Ġtraces":7449,"Ġdividing":7450,"Ġstratif":7451,"aire":7452,"Ġintersecting":7453,"ĠGro":7454,"ĠâĦĺ":7455,"âĻ":7456,"Ġenvelop":7457,"Ġvaries":7458,"foli":7459,"block":7460,"constrained":7461,"ĠðĿĳĿ":7462,"âĬĤ":7463,"{|":7464,"Ġdrawing":7465,"Ġni":7466,"ĠApproxim":7467,"+|":7468,"Ġsemisim":7469,"Ġbinomial":7470,"Ġanalytically":7471,"Ġcontinuum":7472,"Ġkeeping":7473,"aneous":7474,"Ġcommunic":7475,"Sim":7476,"Ġoutline":7477,"Ġsubtr":7478,"ĠSD":7479,"Ġextremely":7480,"bas":7481,"Ġcancell":7482,"world":7483,"ĠÅĿ":7484,"dule":7485,"Ġdw":7486,"arting":7487,"Ġsuccessfully":7488,"Ġmedian":7489,"ĠDL":7490,"Ġcarries":7491,"Ġpacking":7492,"ĠEd":7493,"Ġmonotonically":7494,"Ġgrading":7495,"onential":7496,"Ġcounterex":7497,"Ġgradients":7498,"texts":7499,"Ġregularized":7500,"Ġauction":7501,"Ġá¸¢":7502,"ĠCD":7503,"NC":7504,"ĠER":7505,"Ġtriples":7506,"Ġfiltered":7507,"Ġinher":7508,"Ġsurgery":7509,"Ġmultic":7510,"Ġassess":7511,"ĠDef":7512,"Ġconservative":7513,"product":7514,"Ġchapter":7515,"ĠConvergence":7516,"att":7517,"Ġti":7518,"anding":7519,"ĠINTROD":7520,"Then":7521,"://":7522,"ĠObservation":7523,"Ġsimulate":7524,"ihil":7525,"ao":7526,"Ġ500":7527,"Ġdesirable":7528,"ĠDS":7529,"Ġhomomorphisms":7530,"ĠINTRODUCTION":7531,"aced":7532,"cks":7533,"ĠFloer":7534,"rational":7535,"ĠLip":7536,"2015":7537,"Ġarrangement":7538,"Ġreducible":7539,"such":7540,"ned":7541,"Ġnp":7542,"struc":7543,"Ġexpanding":7544,"Ġestablishing":7545,"Ġinterpol":7546,"Ġdiscriminant":7547,"Ġdur":7548,"Ġecon":7549,"Ġadditionally":7550,"ongest":7551,"Ġframes":7552,"Ġfewer":7553,"OL":7554,"Ġorientable":7555,"ĠGH":7556,"tre":7557,"Ġcat":7558,"ugging":7559,"ercise":7560,"Ġepoch":7561,"Ġgadget":7562,"ĠZar":7563,"ĠOPT":7564,"Ġfixes":7565,"Ġbos":7566,"Ġ41":7567,"Ġequalities":7568,"ask":7569,"Ġoutperforms":7570,"asser":7571,"Ġ+(":7572,"ĠOutput":7573,"Ġinductively":7574,"Ġobj":7575,"Ġoverview":7576,"ĠGF":7577,"Ġshap":7578,"Ġrecip":7579,"ĠID":7580,"Ġcocycle":7581,"iton":7582,"Ġbaseline":7583,"ĠMap":7584,"ĠQuantum":7585,"Ġpercol":7586,"ĠCoxeter":7587,"Ġgravity":7588,"ï¿½":7589,"Ġperiods":7590,"Ġprescribed":7591,"Ġquantitative":7592,"oud":7593,"ĠAnalog":7594,"ĠIntegr":7595,"ĠÅ´":7596,"Ġoutgoing":7597,"ixed":7598,"from":7599,"Ġdeformations":7600,"Ġmodifications":7601,"ĠâŁ¨âĪĩ":7602,"ĠMean":7603,"Ġcal":7604,"RT":7605,"Ġcompr":7606,"ĠMDP":7607,"2016":7608,"âĬķ":7609,"ohn":7610,"Ġvolatility":7611,"2014":7612,"Ġkine":7613,"Ġappeared":7614,"Ġnondeg":7615,"atern":7616,"values":7617,"Ġ+âĪŀ,":7618,"|(":7619,"ĠDifferen":7620,"GM":7621,"factor":7622,"irc":7623,"sembles":7624,"Ġpxq":7625,"Ġpreference":7626,"Î¥":7627,"ĠÄĤ":7628,"Ġcircum":7629,"omposition":7630,"ĠâĹĭ":7631,"Ġanalogy":7632,"Ġlinearized":7633,"Ġinsight":7634,"Ġmembers":7635,"rec":7636,"ening":7637,"Ġhash":7638,"matic":7639,"Ġtractable":7640,"US":7641,"ĠpX":7642,"Ġanalogously":7643,"polynomial":7644,"ĠInitial":7645,"Ġwall":7646,"Ġretrie":7647,"Ġâīį":7648,"Ġold":7649,"ĠKn":7650,"()":7651,"Ġ(âĪŀ)":7652,"decreasing":7653,"ĠNE":7654,"Ġanom":7655,"Ġincoming":7656,"Ġcodeword":7657,"Ġaveraged":7658,"Ġparametrization":7659,"brevi":7660,"Ġrecomm":7661,"ĠSi":7662,"Ã©or":7663,"Ġclaims":7664,"Ġsoon":7665,"ĠâĪ¶=":7666,"âŁ©|":7667,"ĠBayes":7668,")|.":7669,"random":7670,"Ġ43":7671,"Ġinfimum":7672,"arm":7673,"2012":7674,"Ġdestination":7675,"ĠÄī":7676,"Ġchart":7677,"Ġ(+":7678,"rs":7679,"Ã©t":7680,"Ġmaximally":7681,"rate":7682,"ĠTime":7683,"Ġrobots":7684,"midt":7685,"ba":7686,"Ġpredictions":7687,"artz":7688,"ovi":7689,"Ġded":7690,"Ġtout":7691,"uck":7692,"Ġaddressed":7693,"amination":7694,"Ġbuff":7695,"Schwarz":7696,"formally":7697,"Ġcalls":7698,"ĠCov":7699,"ĠDT":7700,"Ġunimod":7701,"Ġschedule":7702,"rences":7703,"UR":7704,"Ġcenters":7705,"partite":7706,"Ġpricing":7707,"2017":7708,"oidal":7709,"dv":7710,"Ġvice":7711,"ĠPT":7712,"ĠSN":7713,"ĠConsidering":7714,"Ġpasses":7715,"tuple":7716,"sin":7717,"ĠðĿĳļ":7718,"Ġreplacement":7719,"Ġnu":7720,"Ġselecting":7721,"ĠBelow":7722,"Ġanalyzing":7723,"ĠIS":7724,"Ġbenefit":7725,"Ġprojected":7726,"Ġminimax":7727,"ĠDR":7728,"Ġnaive":7729,"writing":7730,"ogram":7731,"Net":7732,"Ġ{{":7733,"alk":7734,"inf":7735,"2011":7736,"Ġhierarchical":7737,"Ġcd":7738,"Ġrs":7739,"Ġoptimize":7740,"Ġcontradicting":7741,"Ġtori":7742,"ams":7743,"Ġcaptures":7744,"while":7745,"Ġrepresentatives":7746,"ouville":7747,"MF":7748,"ĠGl":7749,"edges":7750,"conn":7751,"ĠâŁ©|":7752,")âĪĤ":7753,"Ġsemisimple":7754,"Ġhighlight":7755,"Ġhtt":7756,"Ġpreparation":7757,"Ġbis":7758,"Ġcurrently":7759,"Ġsecret":7760,"ĠPoly":7761,"asting":7762,"ecker":7763,"Ġ38":7764,"ĠEquations":7765,"Ġpy":7766,"idable":7767,"Ġconcerns":7768,"strong":7769,"Ġbridge":7770,"Ġfluctuations":7771,"Cl":7772,"Ġchecks":7773,"Ġhomotopic":7774,"ĠdÏī":7775,"ĠâĩĿ":7776,"Ġsecre":7777,"Ġmere":7778,"ĠÅª":7779,"analy":7780,"Ġ44":7781,"ĠLast":7782,"Ã¨re":7783,"Ġhex":7784,"âĮĪ":7785,"Ġinvestigation":7786,"ME":7787,"ectral":7788,"Ġqualit":7789,"Ġserve":7790,"Ġ2009":7791,"abi":7792,"fil":7793,"Ġfan":7794,"Ġsensitive":7795,"Ġcobordism":7796,"ĠSH":7797,"split":7798,"ĠAugust":7799,"Ġtiling":7800,"Ġclauses":7801,"KL":7802,"sig":7803,"crossing":7804,"ĠSDP":7805,"Ġcouple":7806,"ĠBB":7807,"emic":7808,"Ġdefault":7809,"Ġregardless":7810,"ĠUAV":7811,"constant":7812,"ighting":7813,"ders":7814,"ÑĤ":7815,"Ġlot":7816,"Ġchanged":7817,"Ġservers":7818,"Ġiterates":7819,"ĠGrassmann":7820,"Ġdependency":7821,"usive":7822,"Ġled":7823,"iski":7824,"âĪĴ|":7825,"cover":7826,"isons":7827,"da":7828,"Ġ000":7829,"Ġindecom":7830,"Ax":7831,"Ġoverhead":7832,"ĠCayley":7833,"Ġmobile":7834,"Ġapparent":7835,"Ġcoin":7836,"aff":7837,"Ġannihil":7838,"Ġ::":7839,"ney":7840,"Gaussian":7841,"Ġmeets":7842,"Ġcompetitive":7843,"Ġ?,":7844,"tware":7845,"Ġcorners":7846,"Ġoriginally":7847,"ĠâĪ¥âĪĨ":7848,"ford":7849,"Ġscores":7850,"Ġreachable":7851,"Ã»":7852,"ĠáºĲ":7853,"Ġexplanation":7854,"Ġtrained":7855,"Ġvec":7856,"ĠES":7857,"Ġ++":7858,"Ġthermod":7859,"pi":7860,"Ġpartitioned":7861,"Ġconcur":7862,"Ġoccurring":7863,"Ġparties":7864,"arding":7865,"ĠRam":7866,"oi":7867,"Ġdoc":7868,"Ġcareful":7869,"oul":7870,"bing":7871,"Ġxn":7872,"neighbor":7873,"ĠCat":7874,"Ġworse":7875,"ĠHyp":7876,"Ġfinishes":7877,"asi":7878,"ĠHad":7879,"Ġmultiplying":7880,"urning":7881,"ĠdÃ©fin":7882,"Ġbroadcast":7883,"Ġconjunction":7884,")âĪĨ":7885,"dÎ¸":7886,"pass":7887,"Ġquotients":7888,"Ġwt":7889,"Ġunital":7890,"vability":7891,"Ã©ri":7892,"Ġlists":7893,"spaces":7894,"Ð°":7895,"Ġdeviations":7896,"ĠLetting":7897,"Ġconjectured":7898,"inters":7899,"Ġruntime":7900,"Ġranking":7901,"ĠScience":7902,"Ġcommuting":7903,"hev":7904,"Ġfreely":7905,"Ġlocalized":7906,"ĠEquivalently":7907,"itation":7908,"Ġcardinal":7909,"Ġtopologically":7910,"ĠAcknowledgments":7911,"holomorphic":7912,"Ġcovariates":7913,"Ġappropriately":7914,"ĠInequ":7915,"Ġgrate":7916,"Ġadaptation":7917,"Ġtransversal":7918,"lov":7919,"Ġproceeds":7920,"Ġrestricts":7921,"enable":7922,"Ġtracking":7923,"inger":7924,"Ġdiffeomorphisms":7925,"ĠCV":7926,"rov":7927,"Ġleader":7928,"Ġáºĳ":7929,"ĠâĻ¢":7930,"ĠAlg":7931,"2010":7932,"âĸ³":7933,"Ġadopted":7934,"Ġ39":7935,"conc":7936,"Ġphenomena":7937,"Ġrealistic":7938,"acement":7939,"ictive":7940,"eless":7941,"Ġengine":7942,"Ġviscosity":7943,"Ġcontractible":7944,"Ġmajority":7945,"ĠPL":7946,"Ġencode":7947,"Ġlk":7948,"Ġattemp":7949,"Ġsimultaneous":7950,"pq":7951,"ĠClass":7952,"ĠProofs":7953,"Ar":7954,"ĠâĢ¢âĢ¢âĢ¢":7955,"ĠBM":7956,"ĠEl":7957,"Ġiterate":7958,"ĠCliff":7959,"Ġobserver":7960,"Ġeffort":7961,"ĠLear":7962,"Ġassigns":7963,"Ãĳ":7964,"Ġstarted":7965,"Ġrevenue":7966,"Ġdm":7967,"Ġprep":7968,"hel":7969,"idal":7970,"ĠVor":7971,"ĠMP":7972,"Ġapart":7973,"imes":7974,"gradient":7975,"component":7976,"anon":7977,"Ġquadrature":7978,"Ġtile":7979,"Ġextensively":7980,"Ġrestricting":7981,"ĠTogether":7982,"ĠCE":7983,"Ġambient":7984,"atum":7985,"ENDI":7986,"âĪĢ":7987,"uv":7988,"indric":7989,"rog":7990,"ĠÄĴ":7991,"Ġdesigns":7992,"Ġanswers":7993,"Ġretr":7994,"real":7995,"Ġportfoli":7996,"ĠZariski":7997,"Ġpercolation":7998,"Li":7999,"romag":8000,"Ãª":8001,"â©¾":8002,"Ġplotted":8003,"Ġparad":8004,"Ġcontexts":8005,"Ġquatern":8006,"Ġignore":8007,"ENDIX":8008,"Ġsubmodular":8009,"Ġwhence":8010,"ĠdS":8011,"ĠHaar":8012,"date":8013,"ĠOptim":8014,"Ġminus":8015,"orbit":8016,"Ġdecisions":8017,"Ġsynthetic":8018,".\"":8019,"Ġimplications":8020,"Ġassociative":8021,"âĢ¢âĪ¥":8022,"ĠdR":8023,"ĠRelated":8024,"ĠHecke":8025,"Ġhuman":8026,"isomorphism":8027,"Ġconcentrated":8028,"Ġmethodology":8029,"Ġproduction":8030,"Ġnotic":8031,"anov":8032,"ĠRM":8033,"chet":8034,"ionic":8035,"valid":8036,"pn":8037,"ometry":8038,"Ġinjection":8039,"ĠSW":8040,"gu":8041,"Ġbond":8042,"Ġmostly":8043,"arying":8044,"ĠHo":8045,"Ġexhibits":8046,"ENT":8047,"Ġfall":8048,"ogonal":8049,"ancing":8050,"á¹":8051,"Ġextensive":8052,"Ġconcatenation":8053,"Ġovercome":8054,"ĠLM":8055,"Ġkinds":8056,"angle":8057,"Ġances":8058,"ography":8059,"pair":8060,"kn":8061,"ĠÇ":8062,"amard":8063,"Ġantenna":8064,"Ġprofiles":8065,"Ġdeploy":8066,"uer":8067,"ĠSystem":8068,"Ġourselves":8069,"add":8070,"ĠAmong":8071,"Ġstay":8072,"Ġbijective":8073,"layer":8074,"cessible":8075,"ĠDRA":8076,"Ġinitialization":8077,"ĠFirstly":8078,"CM":8079,"Ġactivation":8080,"Ġmonit":8081,"Ġsimplifies":8082,"Ġbus":8083,"ĠâĪĳï¸ģ":8084,"Ġsurv":8085,"Ġacqu":8086,"Ġdictionary":8087,"also":8088,"Ġintuitive":8089,"ĠVII":8090,"Ġgh":8091,"NE":8092,"Ġfeasibility":8093,"ĠDer":8094,"Ġcontract":8095,"node":8096,"morphism":8097,"ĠYang":8098,"clust":8099,"Ġshifts":8100,"Ġsecrecy":8101,"Ġdiscrep":8102,"ĠâĨł":8103,"Ġforget":8104,"ĠSINR":8105,"Ġ(âĪĢ":8106,"book":8107,"variety":8108,"Ġmeromorphic":8109,"Ġfon":8110,"CT":8111,"Ġasymmetric":8112,"atest":8113,"Ġpartitioning":8114,"Ġseek":8115,"obal":8116,"Ġsimplices":8117,"Ġ)}.":8118,"ĠPD":8119,"Ġiteratively":8120,"Ġnodal":8121,"Ġsymbolic":8122,"Ġuniverse":8123,"Ġreally":8124,"LR":8125,"Ġtheoretic":8126,"ĠRT":8127,"ato":8128,"aming":8129,"etti":8130,"alg":8131,"Ġweb":8132,"Ġabbrevi":8133,"Ġfilters":8134,"versity":8135,"Ġgrav":8136,"Ġincon":8137,"Ġperhaps":8138,"Ġpolyhedral":8139,"Ġdeduced":8140,"Ġtranslations":8141,"ĠFP":8142,"coloring":8143,"Ġreductions":8144,"Ġdisconnected":8145,"ubin":8146,"Ġ(âĪĴ)":8147,"Ġelimination":8148,"ĠAPPENDIX":8149,"Ġfiltering":8150,"CR":8151,"Ġcs":8152,"lined":8153,"ĠBR":8154,"ĠSever":8155,"Ġdisturb":8156,"Ġoptimized":8157,"Ġholonomy":8158,"',":8159,"amber":8160,"Ġcollect":8161,"ini":8162,"ense":8163,"Ġreser":8164,"itch":8165,"ologies":8166,"Ġintegrated":8167,"Ġexpectations":8168,"Ġpm":8169,"Ġmaximizes":8170,"ynamics":8171,"ĠKilling":8172,"/|":8173,"Ġfract":8174,"ĠâĻ®":8175,"Ġtested":8176,"Ġintegrand":8177,"NA":8178,"ĠdV":8179,"Ġversa":8180,"ura":8181,"adap":8182,"Ġrecurrent":8183,"Ġreflex":8184,"Ġcompactification":8185,"Ġfacets":8186,"epending":8187,"arrow":8188,"Ġkinetic":8189,"))]":8190,"Ġscope":8191,"harmonic":8192,"Ġpolyhedron":8193,"Com":8194,"ĠPhD":8195,"levant":8196,"Ġrearr":8197,"ĠAlternatively":8198,"Ġindecomposable":8199,"âĨĳ":8200,"Ð¸":8201,"ĠAc":8202,"----":8203,"Ġargmin":8204,"Ġfrequently":8205,"ĠXi":8206,"small":8207,"Ġpix":8208,"NF":8209,"Ġjj":8210,"Ġtuning":8211,"Ġsusp":8212,"mo":8213,"Ġgeneralizations":8214,"Ġ2000":8215,"ogenous":8216,"ĠâĩĢ":8217,"Ġcalculating":8218,"Ġoutage":8219,"Ġpropositions":8220,"Ġconject":8221,"ĠKron":8222,"Ġassociation":8223,"ĠKK":8224,"BR":8225,"ĠPe":8226,"Ġdescend":8227,"Ġsecondary":8228,"Ġeigens":8229,"Ġassignments":8230,"á¹½":8231,"Ġratios":8232,"Ġfacet":8233,"ĠStein":8234,"Ġcyl":8235,"ĠSY":8236,"Ġbroken":8237,"Ġ+âĪŀ)":8238,"ĠâĢļ":8239,"oo":8240,"Ġample":8241,"ĠSDE":8242,"ĠActually":8243,"erman":8244,"Ġ%":8245,"ĠPROOF":8246,"kov":8247,"sym":8248,"ressing":8249,"2009":8250,"aard":8251,"ĠHu":8252,"ĠHaving":8253,"arge":8254,"ww":8255,"ĠHamiltonians":8256,"ĠRHS":8257,"Ġoffer":8258,"Ġconditioning":8259,"vanishing":8260,"isotropic":8261,"[âĪĴ":8262,"ifert":8263,"Ġkm":8264,"CG":8265,"ĠLegendrian":8266,"ĠâŁ©)":8267,"ĠXn":8268,"Ġvehicle":8269,"Ġisotopic":8270,"Ã¹":8271,"Ġtt":8272,"Ġachieving":8273,"Ġholes":8274,"Yau":8275,"Ġthread":8276,"ocation":8277,"Ġ{Â±":8278,"Ġration":8279,"Ġcertainly":8280,"coordin":8281,"Ġnd":8282,"Ġreading":8283,"ette":8284,"áº":8285,"Ġiii":8286,"Ġwavelet":8287,"Ġorientations":8288,"ĠInformation":8289,"Ġperfectly":8290,"Ġclassified":8291,"Ġpas":8292,"Ġdemonstrates":8293,"Ġbehaves":8294,"ĠClifford":8295,"Ġorthogonality":8296,"URE":8297,"Ġeigenfunction":8298,"Ġnondegenerate":8299,"sec":8300,"Ġoptions":8301,"jug":8302,"Ġlinked":8303,"Ġcollected":8304,"CAL":8305,"Ġgrowing":8306,"Ġreveals":8307,"Ġneighborhoods":8308,"Ġcarefully":8309,"ĠKh":8310,"Ġdelta":8311,"Ġmedium":8312,"Ġsubc":8313,"Ġshadow":8314,"oking":8315,"Ġenumeration":8316,"obser":8317,"Ġrotations":8318,",[":8319,"gular":8320,"mean":8321,"Ġdisj":8322,"2018":8323,"ressive":8324,"Ġstages":8325,"Ġrequests":8326,"ounting":8327,"Ġverifies":8328,"Ġfill":8329,"Ġprem":8330,"Ġidempotent":8331,"she":8332,"Ġantic":8333,"equivalent":8334,"Ġiso":8335,"aul":8336,"ĠConc":8337,"Ġrescaling":8338,"ĠMathematics":8339,"vin":8340,"Ġcn":8341,"Mod":8342,"Ġtradeoff":8343,"ĠMT":8344,"Ġterminates":8345,"ĠDRAFT":8346,"Ġpointing":8347,"Ġvide":8348,"Ġrepeatedly":8349,"ĠDi":8350,"Ġri":8351,"Ġsubsystem":8352,"pend":8353,"ĠPick":8354,"arded":8355,"Ġaffected":8356,"ĠËĿ":8357,"ĠÃª":8358,"Ġcommit":8359,"Ġquar":8360,"responding":8361,"ancial":8362,"Ġap":8363,"ĠSeifert":8364,"rd":8365,"station":8366,"solution":8367,"ript":8368,"]}":8369,"Ġneighboring":8370,"energy":8371,"partition":8372,"relation":8373,"Ġsystematic":8374,"Ġisometries":8375,"ulating":8376,"Ġintegrate":8377,"Ġcancel":8378,"Ġthermal":8379,"ĠCW":8380,"knot":8381,"Ġtriangulations":8382,"È³":8383,"Ġdominating":8384,"Ġtranslate":8385,"ĠBA":8386,"ĠPauli":8387,"Ġnk":8388,"ĠLT":8389,"gel":8390,"Ġmassive":8391,"Ġdq":8392,"Ġsumming":8393,"CLU":8394,"Ad":8395,"Ġsaturated":8396,"More":8397,"Ġacknow":8398,"ĠSI":8399,"ĠThanks":8400,"Ġsubproblem":8401,"Ġupdating":8402,"Ġidentifies":8403,"ori":8404,"Ġreversible":8405,"Ġsoftware":8406,"ulse":8407,"minimal":8408,"definite":8409,"Ġdn":8410,"Ġdiversity":8411,"Ġhexag":8412,"ilit":8413,"ĠËĻ":8414,"liers":8415,"Ġfamili":8416,"Ġpreferred":8417,"categories":8418,"Ġbarrier":8419,"mail":8420,"rot":8421,"ĠAv":8422,"ĠFound":8423,"trol":8424,"ka":8425,"comput":8426,"areto":8427,"ĠCG":8428,"CL":8429,"[|":8430,"Ġgerm":8431,"La":8432,"ĠðĿĳĳ":8433,"cells":8434,"Ġremov":8435,"asserstein":8436,"Ġpreferences":8437,"ĠdH":8438,"ĠâĦµ":8439,"ĠAT":8440,")\\":8441,"Ġencryp":8442,"Ġalors":8443,"ABLE":8444,"Fin":8445,"Ġadvantages":8446,"Ġattractor":8447,"ĠCartesian":8448,"Ġsom":8449,"ĠRL":8450,"ĠHS":8451,"NO":8452,"Ġli":8453,"Ġfigures":8454,"Ġele":8455,"Ġalg":8456,"Ġhypersurfaces":8457,"Ġexploiting":8458,"Ġelectron":8459,"Ġopin":8460,"ars":8461,"Ġdifferentials":8462,"Ġlexic":8463,"Ġeliminate":8464,"ept":8465,"Ġbic":8466,"Ġduration":8467,"};":8468,"ĠHeeg":8469,"Ġdetected":8470,"Ġconnects":8471,"ĠâĢ°":8472,"Ġexposition":8473,"Ġspirit":8474,"Ġalone":8475,"ĠEm":8476,"Ġrelates":8477,"ko":8478,"likelihood":8479,"ĠâĪ¥âĢ¢âĪ¥":8480,"-)":8481,"Ġisot":8482,"Ġsous":8483,"ĠHow":8484,"Ġrectangles":8485,"sions":8486,"Ġaspect":8487,"-(":8488,"rip":8489,"ĠRR":8490,"Ġdominates":8491,"ellow":8492,"âĪ¨":8493,"Gr":8494,"verses":8495,"Ġexclud":8496,"ĠIr":8497,"Pr":8498,"Ġrich":8499,"easible":8500,"anonical":8501,"idelity":8502,"ĠTuring":8503,"acking":8504,"aker":8505,"ĠPri":8506,"ĠâĪı":8507,"Ġpiv":8508,"pa":8509,"ĠdX":8510,"Ġincomplete":8511,"ectiveness":8512,"}).":8513,"ĠRH":8514,"ËĨ":8515,"ĠProcess":8516,"Ġdimensionality":8517,"Ġpool":8518,"]):":8519,"Ġlg":8520,"Ġcaused":8521,"ĠPhase":8522,"xi":8523,"Ġdoubly":8524,"Ġmm":8525,"open":8526,"Ġpoor":8527,"angent":8528,"Ġexpensive":8529,"ĠSn":8530,"ĠFisher":8531,"labeled":8532,"Ġinclusions":8533,"lines":8534,"Ġending":8535,"igen":8536,"Ġaggregation":8537,"ovian":8538,"Ġreceivers":8539,"ĠPA":8540,"Ġgeneralised":8541,"âĪĪ(":8542,"Ġsucceed":8543,"Ð½":8544,"ĠDehn":8545,"standard":8546,"Ġattributes":8547,"Ġsynchronization":8548,"Rec":8549,"Ġ.(":8550,"plo":8551,"Ġribb":8552,"Un":8553,"ĠHypot":8554,"Ms":8555,"Ġslots":8556,"Ns":8557,"ĠHeegaard":8558,",âĪŀ)":8559,"ĠRo":8560,"ĠâĪ¥.":8561,"CF":8562,"Ġbranched":8563,"Ġdifficulties":8564,"Ġtiles":8565,"Ġexecuted":8566,"ek":8567,"Ġpriority":8568,"holm":8569,"ĠSeveral":8570,"ĠÎ±n":8571,"ball":8572,"ĠSGD":8573,"Ġclassic":8574,"simple":8575,"Ġvaluations":8576,"Ġtag":8577,"oughly":8578,"Ġprofit":8579,"Ġquantile":8580,"Ġfilling":8581,"ĠGo":8582,"prime":8583,"Ã¼ller":8584,"Ġfairness":8585,"Ġexplored":8586,"Ġoccurrences":8587,"oles":8588,"Ġiner":8589,"ĠCe":8590,"Ġretain":8591,"Ġlinearity":8592,"olm":8593,"ĠLearning":8594,"ĠâĬĬ":8595,"ament":8596,"ipher":8597,"Ġsuperposition":8598,"ĠProgram":8599,"ĠCur":8600,"unk":8601,"Ġtables":8602,"Ġknows":8603,"Ġobstacle":8604,"Äģ":8605,"Ġfulfilled":8606,"Ġsubscript":8607,"Ġexamin":8608,"Ġ46":8609,"aining":8610,"channel":8611,"Ġiniti":8612,"annon":8613,"Ġaccepted":8614,"ĠCONCLU":8615,"Ġrestrictive":8616,"varying":8617,"ĠSG":8618,"ĠdÏģ":8619,"'.":8620,"Ġproposal":8621,"core":8622,"Ġcommutator":8623,"Ã©orÃ¨me":8624,"dimension":8625,"ĠDA":8626,"Ġresolvent":8627,"ĠLeft":8628,"tran":8629,"Du":8630,"Ġcharacterizes":8631,"ĠRecalling":8632,"classical":8633,"Ġwelf":8634,"ĠBol":8635,"Ġintegrability":8636,"Ġtranslates":8637,"ats":8638,"Ġaccordingly":8639,"Ġcauses":8640,"ĠCalabi":8641,"Ġviolation":8642,"Ġfragment":8643,"ĠHadamard":8644,"map":8645,"Ġage":8646,"Ġland":8647,"Ġbigger":8648,"forth":8649,"âĪĥ":8650,"UE":8651,"Ġencoder":8652,"Ġderivations":8653,"Ġdk":8654,"ĠKlein":8655,"deriv":8656,"used":8657,"formed":8658,"Ġrelationships":8659,"ĠFind":8660,"ypt":8661,"cr":8662,"ques":8663,"Ġpositively":8664,"ĠAA":8665,"Ġwelfare":8666,"ĠUnlike":8667,"ITH":8668,"ĠBack":8669,"ðĿĳĸ":8670,"Ġsafety":8671,"Ġ2008":8672,"Ġyou":8673,"CO":8674,"Ġtrick":8675,"ĠðĿĳł":8676,"aj":8677,"Ġsummands":8678,"ĠdÎ±":8679,"ynchronous":8680,"Ġenj":8681,"Ġmerely":8682,"Ġpolyn":8683,"ĠChen":8684,"Ġpromis":8685,"acher":8686,"wartz":8687,"ĠComparing":8688,"Ġpredictive":8689,"ativ":8690,"close":8691,"Ġseconds":8692,"Ġexhaus":8693,"ĠËĨR":8694,"ĠâŁ¨âŁ¨":8695,"Ġdriven":8696,"ĠTR":8697,"Ġfocused":8698,"ĠFi":8699,"Ïħ":8700,"ĠLikewise":8701,"ĠGS":8702,"ĠpR":8703,"ĠÄİ":8704,"Ġ90":8705,"(âŁ¨":8706,"even":8707,"isenberg":8708,"encil":8709,"Ġflip":8710,"Ġease":8711,"EP":8712,"ĠMaxim":8713,"Ġminima":8714,"Ġpolygons":8715,"ĠâĦĳ":8716,"dÏĦ":8717,"ĠCheb":8718,"eting":8719,"ĠCont":8720,"ĠAccordingly":8721,"\")":8722,"Ġtanh":8723,"Su":8724,"Ġstrengthen":8725,"Ġpati":8726,"Ġaggregate":8727,")âĪ©":8728,"Ġtermination":8729,"schild":8730,"Ġflexible":8731,"olar":8732,"chi":8733,"Ġformulations":8734,"ĠON":8735,"element":8736,"Ġextent":8737,"Ġnonsingular":8738,"Ste":8739,"Ġrescaled":8740,"Ġchem":8741,"Sm":8742,"Ġfinancial":8743,"Ġrepair":8744,"Ġplanning":8745,"BD":8746,"Ġfairly":8747,"Ġbrackets":8748,"good":8749,"ĠâĢ¹":8750,"Ġstratum":8751,"ĠTyp":8752,"ĠRay":8753,"Ġaims":8754,")âĪĩ":8755,"Ġdiscrepancy":8756,"Ġses":8757,"Ġplayed":8758,"ĠBir":8759,"Ġ80":8760,"ĠKronecker":8761,"cube":8762,"Ġfu":8763,"Ġrectangular":8764,"Ġexit":8765,"onest":8766,"Ġnonlocal":8767,"ĠPareto":8768,"Ġmultipliers":8769,"Ġlife":8770,"BG":8771,"ĠpA":8772,"Ġredundant":8773,"Ġcontinued":8774,"ami":8775,"VE":8776,"semb":8777,"zes":8778,"Ġhitting":8779,"ĠComputing":8780,"Ġobe":8781,"Ġchamber":8782,"abilities":8783,"ĠFred":8784,"Ġ..,":8785,"ordance":8786,"ĠÈ·":8787,"ĠRun":8788,"sov":8789,"stage":8790,"Ġserves":8791,"Ġtub":8792,"Ġmathematics":8793,"Ġamenable":8794,"Ġultra":8795,"ĠSF":8796,"ĠPrinc":8797,"Ġnonparametric":8798,"Ġuns":8799,"Ġbirational":8800,"sparse":8801,"Ġrare":8802,"Ġcoset":8803,"Ġmanag":8804,"acles":8805,"Ġselects":8806,"Ġnames":8807,"Ġnominal":8808,"boundary":8809,"Ġunivariate":8810,"Ġmultiplicities":8811,"ĠBF":8812,"Ġoperational":8813,"istributed":8814,"Ġgenerically":8815,"onomous":8816,"Ġportfolio":8817,"ĠPP":8818,"á»":8819,"ĠÄ¨":8820,"assification":8821,"Ġlogistic":8822,"ĠSy":8823,"Ġsemicon":8824,"Ġenable":8825,"cho":8826,"Ġlooks":8827,"Ġtransvers":8828,"ĠðĿĳĵ":8829,"Ġevident":8830,"Ġeffectiveness":8831,"Ġdisplayed":8832,"ĠMotiv":8833,"Ġsubstitute":8834,"symmetry":8835,"ĠdÎ·":8836,"Ġâī³":8837,"graphs":8838,"otal":8839,"ĠStruct":8840,"nstein":8841,"Ġbehave":8842,"Ġcosm":8843,"Ġsmoothly":8844,"ĠSchwarz":8845,"ĠâŁ¨(":8846,"Ġbuffer":8847,"ieck":8848,"Ġmultiply":8849,"uit":8850,"Ġsuitably":8851,"zen":8852,"ĠGroup":8853,"Ġactivity":8854,"ĠLevi":8855,"balanced":8856,"yshev":8857,"ĠNumber":8858,"Ġcloud":8859,"aring":8860,"UN":8861,"Ġleaving":8862,"simplex":8863,"Ġamplitudes":8864,"adj":8865,"Ġtransi":8866,"Ġheterogeneous":8867,"ĠOper":8868,"Ġminimizers":8869,"Ġdiscontinuous":8870,"Ġsees":8871,"Ġâĭī":8872,"Ġsuffix":8873,"Ġcaching":8874,"igm":8875,"Ġanonym":8876,"âĹ":8877,"artesian":8878,"|âĪĴ":8879,"Ġproximal":8880,"{(":8881,"ĠGR":8882,"á»¹":8883,"ĠInequality":8884,"ĠLin":8885,"Ġcomparisons":8886,"ĠSecondly":8887,"ifier":8888,"Ġcodewords":8889,"sky":8890,"Ġvisible":8891,"Ġalignment":8892,"oir":8893,"perfect":8894,"ĠBG":8895,"ĠTechnical":8896,"posedness":8897,"Ġmutation":8898,"ĠCONCLUSION":8899,"ĠMI":8900,"Ġinteracting":8901,"ĠMath":8902,"Ġpolarization":8903,"indrical":8904,"zer":8905,"Ġrn":8906,"Ġbisim":8907,"Rem":8908,"Ġvalidation":8909,"ĠAF":8910,"ÏĤ":8911,"Ġcompan":8912,"ĠDAG":8913,"ĠMac":8914,"states":8915,"ĠSur":8916,"Ġtranspose":8917,"iral":8918,"vention":8919,"thend":8920,"ĠÂ¯":8921,"imed":8922,"measurable":8923,"Ġclar":8924,"exact":8925,"ĠAbelian":8926,"Ġcaptured":8927,"Ã¶bius":8928,"ĠSem":8929,"Ġmeaningful":8930,"EG":8931,"hal":8932,"nov":8933,"ĠTeich":8934,"band":8935,"Ġdead":8936,")|,":8937,"ades":8938,"atement":8939,"verag":8940,"thendieck":8941,"Ġfamiliar":8942,"when":8943,"Ġderiving":8944,"including":8945,"ĠComplex":8946,"Ġincidence":8947,"weak":8948,"Ġevaluations":8949,"ĠHH":8950,"ĠNO":8951,"Ġflo":8952,"Ġlosses":8953,"cription":8954,"Ġpossesses":8955,"Ġenergies":8956,"ĠIsing":8957,"Ġzeta":8958,"Ġnotational":8959,"Ġthresholds":8960,"Ġkth":8961,"ĠHard":8962,"Ġáº½":8963,"Ġip":8964,"ĠMas":8965,"ĠPutting":8966,"Ġtx":8967,"algebraic":8968,"Ġcompens":8969,"Since":8970,"Ġdatum":8971,"Ġambiguity":8972,"Ġadds":8973,"ĠFl":8974,"ĠFoundation":8975,"Ġgaps":8976,"onoi":8977,"ocks":8978,"Ġattacker":8979,"Ġmatchings":8980,"oclin":8981,"Ġclassify":8982,"Ġsubtle":8983,"Ġcubes":8984,"urent":8985,"Ġopposed":8986,"Ġimplementations":8987,"Ġmath":8988,"Ġdetector":8989,"ramified":8990,"Ġrelating":8991,"Ġeight":8992,"Ġfacilit":8993,"itational":8994,"alition":8995,"Ġsynthesis":8996,"ĠAss":8997,"Ġcrosses":8998,"Ġâĥ":8999,"ITY":9000,"odies":9001,"Ġforb":9002,"Ġordinal":9003,"antine":9004,"Ġsubstanti":9005,"aux":9006,"lass":9007,"orable":9008,"Ġconic":9009,"Ġsink":9010,"Ġlinearization":9011,"Ġregimes":9012,"Ġremarkable":9013,"ĠKe":9014,"Ġdiscovered":9015,"Ġmoder":9016,"ĠHamming":9017,"Ġsignificance":9018,"ĠProperties":9019,"Ġgrateful":9020,"ĠÎ¸n":9021,"Ġribbon":9022,"Ġallocated":9023,"Ġwater":9024,"ðĿĳĽ":9025,"istable":9026,"Ġbrevity":9027,"Br":9028,"Ġms":9029,"ĠHiggs":9030,"ĠâĢ¢âŁ©":9031,"Ġmeasuring":9032,"ĠGrad":9033,"Ġlinking":9034,"Ã©nyi":9035,"ÑĢ":9036,"Ġdecays":9037,"Ġinstantaneous":9038,"Ġreturned":9039,"Ġcompressed":9040,"Ġsemic":9041,"OC":9042,"Ġinstr":9043,"Ġpercent":9044,"Ġexpanded":9045,"Ġeras":9046,"Ġmaster":9047,"ectors":9048,"basis":9049,"contr":9050,"Ġnr":9051,"ĠSti":9052,"ĠCn":9053,"lliptic":9054,"Ġconstructs":9055,"ĠÃİ":9056,"ĠCAT":9057,"tives":9058,"ĠFD":9059,"Ġdispersion":9060,"Ġcurl":9061,"Ġcommunications":9062,"Ġ(??)":9063,"Ġpackage":9064,"sup":9065,"ĠLater":9066,"hence":9067,"Ġstabilization":9068,"Ġdespite":9069,"Ġshapes":9070,"Ġtower":9071,"Wh":9072,"Ġcrypt":9073,"particle":9074,"Ġbeamforming":9075,"HT":9076,"ĠâĪĴ,":9077,"Ġ[|":9078,"ĠSw":9079,"Ġtolerance":9080,"Ġxt":9081,"ĠRight":9082,"2008":9083,"sample":9084,"Ġrewriting":9085,"gen":9086,"ĠCalc":9087,"Ñģ":9088,"Ġcounterexample":9089,"Ġpreimage":9090,"Ġquantify":9091,"pole":9092,"kl":9093,"Ġoptimizing":9094,"ensen":9095,"Ġexplains":9096,"Ġrapidly":9097,"fact":9098,"romagnetic":9099,"ĠMÃ¶bius":9100,"ĠDis":9101,"BA":9102,"Ġsupporting":9103,"Ġpatch":9104,"Ġ)âĪĪ":9105,"Ġfron":9106,"metric":9107,"measure":9108,"ĠJohn":9109,"ounted":9110,"Ġsubmanifolds":9111,")âĢ¢":9112,"Ġampl":9113,"orter":9114,"arb":9115,"}|":9116,"Ġrealize":9117,"ĠFS":9118,"atible":9119,"Ġconditionally":9120,"Ġtransaction":9121,"Ã©chet":9122,"Is":9123,"Ġrid":9124,"ĠBen":9125,"Ġ{[":9126,"Ġrecipro":9127,"dist":9128,"ĠCPU":9129,"Î±Î²":9130,"iences":9131,"There":9132,"ĠHeisenberg":9133,"ĠLiouville":9134,"Ġconstructive":9135,"ĠEnt":9136,"ĠLasso":9137,"ĠTri":9138,"Ġinsertion":9139,"ĠUS":9140,"Ġlongest":9141,"Lie":9142,"ĠTS":9143,"ĠDr":9144,"only":9145,"Ã¢":9146,"Ġdonc":9147,"Ġindicating":9148,"Ġstating":9149,"tzmann":9150,"formance":9151,"ĠInteresting":9152,"ĠArtin":9153,"Ġou":9154,"Ġseparates":9155,"itter":9156,"antor":9157,"ĠÂ¡":9158,"Ġcontracting":9159,"signing":9160,"Ġenvironments":9161,"archer":9162,"Ġdotted":9163,"Ġconfl":9164,"Ġ-(":9165,"Ġavec":9166,"Ġradi":9167,"Ġinherent":9168,"etherian":9169,"uning":9170,"simplic":9171,"Car":9172,"Ġxj":9173,"ĠMN":9174,"ĠChoosing":9175,"ĠGrothendieck":9176,"ĠLA":9177,"Ġrepetition":9178,"equivalence":9179,"timately":9180,"Ġpil":9181,"Ġthings":9182,"ĠOptimal":9183,"Ġstays":9184,"Ġoperad":9185,"ours":9186,"Ġutilize":9187,"Ġaccurately":9188,"Ġabstraction":9189,"Ġinsights":9190,"Ġoutlined":9191,"imodule":9192,"Here":9193,"Ġchose":9194,"Ġvehicles":9195,"Ġct":9196,"Ġsole":9197,"cap":9198,"ĠLaurent":9199,"representation":9200,"Ġdeveloping":9201,"App":9202,"monot":9203,"Ġmeta":9204,"omially":9205,"ðĿĽ":9206,"ĠChebyshev":9207,"ĠStarting":9208,"ĠPCA":9209,"]|":9210,"Äı":9211,"pot":9212,"Ġrelational":9213,"Ġ2006":9214,"Ġaccumul":9215,"ĠTor":9216,"Ġdisplacement":9217,"Ġcollapse":9218,"ĠHypothesis":9219,"ĠSect":9220,"avesdro":9221,"Ġattribute":9222,"Ġtoward":9223,"ĠâŁ¨âĢ¢,":9224,"hr":9225,"actic":9226,"ottom":9227,"ections":9228,"Ġharves":9229,"Ġpredicates":9230,"Ġtp":9231,"Ġvolt":9232,"ðĿĳĺ":9233,"Ġcontributes":9234,"Ġattach":9235,"Ġjustified":9236,"Ġnoncommutative":9237,"Ġclean":9238,"analytic":9239,"Ġstatus":9240,"Ġnous":9241,"Ġmodern":9242,"Ġslowly":9243,"Cs":9244,"Ġur":9245,"Ġtel":9246,"oment":9247,"icks":9248,"oclinic":9249,"ĠAlexander":9250,"Ġmacroscopic":9251,"Ġskeleton":9252,"ĠConstrain":9253,"Ġrigidity":9254,"Ġtrust":9255,"Ġreliability":9256,"Ġchallenges":9257,"output":9258,"Ġ49":9259,"Ġcategorical":9260,"ĠEP":9261,"Ġcutting":9262,"differential":9263,"ĠUE":9264,"infinite":9265,"requency":9266,"Ġcoded":9267,"Ġstrata":9268,"rehen":9269,"Ġconfusion":9270,"DL":9271,"ĠNormal":9272,"rup":9273,"ĠIter":9274,"Ġcoalition":9275,"ĠDiscus":9276,"sey":9277,"disjoint":9278,"Ġreflected":9279,"coming":9280,"].)":9281,"ynman":9282,"nik":9283,"entralized":9284,"Ġnonconvex":9285,"101":9286,"ĠMil":9287,"nes":9288,"ril":9289,"Ġcertific":9290,"Ġprinciples":9291,"Ġsolvers":9292,"iÏĢ":9293,"Ġasserts":9294,"Ġaware":9295,"Ġba":9296,"Ġdeleting":9297,"ĠRadon":9298,"ĠðĿĳ¢":9299,"SL":9300,"ĠMF":9301,"Ġnc":9302,"Ġcurren":9303,"Ġtheta":9304,"GP":9305,"ĠAnalogously":9306,"Ġlatency":9307,"Ġgravitational":9308,"ĠSimulation":9309,"Ġincompres":9310,"Ġimprovements":9311,"Ġparty":9312,"Ġbreaking":9313,"error":9314,"Ġsubmatrix":9315,"Ġcentralized":9316,"uscript":9317,"ĠABC":9318,"abelian":9319,"Ġannot":9320,"ĠÃ±":9321,"Ġ(\"":9322,"Ġadjunction":9323,"ĠFredholm":9324,"ĠðĿĳĩ":9325,"hedra":9326,"Ġirrelevant":9327,"ĠVoronoi":9328,"ammar":9329,"Ġarms":9330,"Ġgeometrical":9331,"mun":9332,"chastic":9333,"rids":9334,"ĠDespite":9335,"ĠPicard":9336,"plication":9337,"because":9338,"ss":9339,"ĠFO":9340,"groups":9341,"Ġpc":9342,"BB":9343,"bran":9344,"ĠâĪĩ(":9345,"Ġextracted":9346,"variable":9347,"Ġunramified":9348,"Ġdecor":9349,"Ġdefect":9350,"Ġleak":9351,"Ġviolated":9352,"cill":9353,"ething":9354,"ĠStokes":9355,"Ġdiagon":9356,"Ġsubstantially":9357,"Ġâĸ²":9358,"matrices":9359,"....":9360,"Ġcasc":9361,"Ġforming":9362,"Ã£":9363,"Ġfault":9364,"Ġplant":9365,"ĠError":9366,"Ġ02":9367,"lattice":9368,"Eq":9369,"Op":9370,"orted":9371,"means":9372,"ĠPhys":9373,"Ġlifted":9374,"Ġgas":9375,"Ġci":9376,"Ġreliable":9377,"Ġexcess":9378,"ĠWhere":9379,"Ġfibrations":9380,"ĠET":9381,"Ġ2007":9382,"Ġdistinction":9383,"las":9384,"Ġdifferentiation":9385,"Ġ56":9386,"sistency":9387,"Ġjth":9388,"ained":9389,"âĢ¢âĢ¢âĢ¢+":9390,"ĠoÃ¹":9391,"Ġ47":9392,"Ġassertions":9393,"SAT":9394,"Ġtack":9395,"Ġ(Â±":9396,"olmog":9397,"figur":9398,"Ġtranslated":9399,"Ġconflict":9400,"parts":9401,"vis":9402,"ipotent":9403,"Ġminimized":9404,"uclear":9405,"reedy":9406,"Ġsubstan":9407,"Ġalgeb":9408,"vance":9409,"Ġix":9410,"Ġcomment":9411,"Ġlimitations":9412,"ĠOR":9413,"Ġnumerator":9414,"Ġdoesn":9415,"cycles":9416,"Ġdeals":9417,"ĠFrÃ©chet":9418,"ĠRA":9419,"ĠÎĶ":9420,"Ġshares":9421,"Ġpj":9422,"Ġsubsequently":9423,"Ġencodes":9424,"under":9425,"Ġbirth":9426,"|/":9427,"ĠËĩ":9428,"ĠLC":9429,"ĠWasserstein":9430,"Ġobjectives":9431,"Ġdistributional":9432,"clock":9433,"ĠZhang":9434,"itÃ©":9435,"ĠÎ»x":9436,"Ġeavesdro":9437,"ĠHol":9438,"iquid":9439,"Ġimproving":9440,"Mac":9441,"ĠBernstein":9442,"(âĪĨ)":9443,"Î»x":9444,"ĠBessel":9445,"oriented":9446,"Ġbehaviors":9447,"iser":9448,"dV":9449,"Ġâīł":9450,"Ġalternatives":9451,"ĠNSF":9452,"igner":9453,"ĠðĿĳİ":9454,"dB":9455,"Ġoffers":9456,"force":9457,"ĠInterestingly":9458,"ĠErd":9459,"EL":9460,"ĠâĪł":9461,"Ġaccompl":9462,"Ġspac":9463,"Ġfits":9464,"Ġsuffice":9465,"ĠSystems":9466,"Ġcliques":9467,"Ġintended":9468,"Ġreductive":9469,"flat":9470,"Ġinstability":9471,"ĠTHEOR":9472,"Ġemploying":9473,"Ġborder":9474,"ĠIll":9475,"ĠBSs":9476,"Ġcooperative":9477,"erkin":9478,"Ġdyadic":9479,"ĠThom":9480,"ĠÎ»n":9481,"Ġten":9482,"Ġho":9483,"Ġcountably":9484,"ĠdA":9485,"00000000":9486,"Ġavoids":9487,"ĠEv":9488,"Ġcutoff":9489,"ĠÃĿ":9490,"Ġcanonically":9491,"Ġminimality":9492,"Ġjl":9493,"ollaries":9494,"KM":9495,"ĠBra":9496,"Set":9497,"tinguish":9498,"ĠFeynman":9499,"ople":9500,"ĠSolution":9501,"Ġ95":9502,"del":9503,"awa":9504,"Ġplacement":9505,"Ġdie":9506,"Å·":9507,"ĠRG":9508,"Ġmotivates":9509,"Ġsentence":9510,"olmogorov":9511,"Ġregister":9512,"ĠAM":9513,"Ġbub":9514,"Ġ2019":9515,"}}":9516,"ĠLL":9517,"Ġlibr":9518,"Ġconstitute":9519,"Ġmerge":9520,"Ġaverages":9521,"ĠâŁ":9522,"Ġpriors":9523,"ĠRet":9524,"ĠKr":9525,"Ġbands":9526,"ĠCan":9527,"valent":9528,"Ġdiffeomorphic":9529,"Ġaccessible":9530,"Ġreflects":9531,"dÎ¾":9532,"Ġfitting":9533,"NP":9534,"ald":9535,"shot":9536,"ĠShannon":9537,"ĠWiener":9538,"umes":9539,"Ġindis":9540,"ivalent":9541,"Ġtargets":9542,"ĠâĬ©":9543,"Ġphoton":9544,"Ġfidelity":9545,"ĠâĪĴ)":9546,"|+":9547,"changing":9548,"Ġoutliers":9549,"Ġverifying":9550,"rich":9551,"Ġswap":9552,"2006":9553,"ighter":9554,"ĠPi":9555,"ĠMLE":9556,"Ġupl":9557,"Ġai":9558,"distance":9559,"Ġunimodular":9560,"Ġpz":9561,"Ġns":9562,"Ġoperating":9563,"Ġtheoretically":9564,"Ġmerid":9565,"Ġtame":9566,"ĠSVD":9567,"iagram":9568,"ĠValu":9569,"mÃ¼ller":9570,"Ġnamed":9571,"Ġ)},":9572,"irms":9573,"efined":9574,"Ġconjectures":9575,"ĠRC":9576,"optim":9577,"Ġprevent":9578,"Ġrecommend":9579,"Ġconserved":9580,"ĠAlgorithms":9581,"ĠThird":9582,"ĠLegendre":9583,"Ġqualitative":9584,"Ġrefere":9585,"Ġmembership":9586,"Åĳ":9587,"Ġdamp":9588,"GN":9589,"ĠCap":9590,"first":9591,"witz":9592,"Ġneutral":9593,"med":9594,"Ġvisited":9595,"Ġassigning":9596,"Ġsupply":9597,"Riemann":9598,"Ġáºı":9599,"Ġartific":9600,"ĠMaxwell":9601,"ĠLim":9602,"Ġdependencies":9603,"ĠVal":9604,"Ġscience":9605,"Ġmotions":9606,"Ġfiniteness":9607,"Ġglue":9608,"ĠPSL":9609,"Ġcred":9610,"ĠRB":9611,"Ġneurons":9612,"ĠHel":9613,"ĠRepl":9614,"Ġvariances":9615,"Ġ//":9616,"Ġincorporate":9617,"Ġcomprehen":9618,"Ġcc":9619,"Ġtopologies":9620,"Ind":9621,"Pl":9622,"Ġworkers":9623,"Ġapproximates":9624,"Ġsubstantial":9625,"GH":9626,"Ġstret":9627,"Ġnarrow":9628,"Ġelabor":9629,"icity":9630,"Ġbenefits":9631,"Ġreflexive":9632,"Ġaxes":9633,"jected":9634,"tn":9635,"ĠBD":9636,"Ġpin":9637,"schetz":9638,"Ġsaying":9639,"ĠAi":9640,"ĠLine":9641,"Ġrewards":9642,"Ã¨s":9643,"ĠBoltzmann":9644,"Ġcontinues":9645,"uj":9646,"Ġtransposition":9647,"Ġusage":9648,"phase":9649,"shap":9650,"ref":9651,"Ġgreatest":9652,"QU":9653,"stationary":9654,"Ġplat":9655,"Ġincur":9656,"Ġdecoupl":9657,"ĠCantor":9658,"Ġnonlinearity":9659,"Ġwedge":9660,"Ġempirically":9661,"Ġshorter":9662,"ĠSoit":9663,"hi":9664,"ĠXX":9665,"ĠConditions":9666,"ĠCall":9667,"leigh":9668,"Ġsuperior":9669,"Ġinvest":9670,"Ġellipso":9671,"Ġsomething":9672,"Ġdownlink":9673,"Ġhandled":9674,"Ġhit":9675,"Ġunfold":9676,"ĠAsymptotic":9677,"ĠSz":9678,"ĠDom":9679,"without":9680,"Ġgrammar":9681,"Ġtriangulated":9682,"liv":9683,"ĠInstit":9684,"Ġcombinatorics":9685,"Ġnj":9686,"arp":9687,"Ġconsiderably":9688,"ske":9689,"Ġexcl":9690,"agent":9691,",âĢ¢":9692,"ĠpT":9693,"FA":9694,"ĠRepe":9695,"planar":9696,"Ð¾Ð":9697,"restr":9698,"ĠâĪĴâĪĩ":9699,"square":9700,"Ġforth":9701,"ĠGeometric":9702,"Ġtrading":9703,"111":9704,"Ġcurved":9705,"[âĪ¥":9706,"Ġattains":9707,"Ġopportun":9708,"Ġmultiplied":9709,"Ġdeli":9710,"ĠâĪ¥,":9711,"Ġsequentially":9712,"Ġreachability":9713,"Ġdelays":9714,"Ġquantifier":9715,"ened":9716,"Ġintertw":9717,"Ġdeletion":9718,"Ġenter":9719,"Ġspinor":9720,"')":9721,"Ġhop":9722,"Ġiv":9723,"Ġbold":9724,"ĠJensen":9725,"ctors":9726,"Ġscalars":9727,"Ġphysically":9728,"avoid":9729,"ĠBL":9730,"2007":9731,"Ġhardness":9732,"Ġoffline":9733,"cale":9734,"Ġsubsystems":9735,"Ġtrend":9736,"ĠOnly":9737,"itney":9738,"Ġchromatic":9739,"ĠSche":9740,"Ġnumerous":9741,"ĠNational":9742,"Ġconventions":9743,"zations":9744,"ĠMatrix":9745,"ĠâĬĸ":9746,"Ġheavi":9747,"Ġconducted":9748,"Ġroles":9749,"ery":9750,"Ġranks":9751,"Ġrenormalization":9752,"Ġpersistence":9753,"Ġexploited":9754,"Ġ)||":9755,"ĠPath":9756,"ĠLastly":9757,"Ġmacro":9758,"Ġquadril":9759,"plus":9760,"ĠÄ´":9761,"Ġaffects":9762,"ĠDiv":9763,"Ġinfected":9764,"ĠAdd":9765,"ĠðĿĳ£":9766,"ĠWang":9767,"Ġcancellation":9768,"Ġcrossed":9769,"Ġ52":9770,"Ġmatroids":9771,"/âĪĤ":9772,"torsion":9773,"Ġeverything":9774,"Ġpropositional":9775,"imedean":9776,"Ġhep":9777,"Ġvideo":9778,"ĠðĿĳĲ":9779,"Co":9780,"do":9781,"Ġprojector":9782,"Ġpolynomially":9783,"Ġdecode":9784,"Ġdesigning":9785,"twisted":9786,"Ġbring":9787,"oke":9788,"Ġconcurrent":9789,"VI":9790,"Ġfunctorial":9791,"concave":9792,"Ġiid":9793,"ompact":9794,"Ġoct":9795,"ĠKo":9796,"ĠSign":9797,"orthogonal":9798,"Ps":9799,"ĠReeb":9800,"icular":9801,"ĠEF":9802,"Ã¯":9803,"ĠRK":9804,"Ġprocessor":9805,"Ġ(âĢ¢),":9806,"Ġ128":9807,"my":9808,"gon":9809,"rig":9810,"ĠMU":9811,"ĠLower":9812,"Ġqi":9813,"igne":9814,"exponential":9815,"Ã©sent":9816,"existence":9817,"ĠDuring":9818,"ĠALG":9819,"Jac":9820,"conver":9821,"ĠXt":9822,"Ġcharges":9823,"ĠDefinitions":9824,"Ġcreates":9825,"PO":9826,"aper":9827,"Ġdise":9828,"ĠAlgebra":9829,"Ġanalyses":9830,"Ġcharacterizing":9831,"zzy":9832,"ĠDiscussion":9833,"ĠTABLE":9834,"Ġweighting":9835,"inte":9836,"mitted":9837,"Ġinstruction":9838,"Ġpersist":9839,"Ġnormally":9840,"Ġnt":9841,"icz":9842,"ĠCover":9843,"Ġcylindrical":9844,"Ġprev":9845,"system":9846,"Ġneighbours":9847,"ĠWil":9848,"Fs":9849,"Ġ54":9850,"Ġsemantic":9851,"Ġtransient":9852,"Ġwon":9853,"Ġcentre":9854,"Ġbiased":9855,"ĠGram":9856,"ĠExplicit":9857,"ĠGamma":9858,"dri":9859,"oured":9860,"umb":9861,"ubert":9862,"ĠControl":9863,"pertur":9864,"ĠËĩËĩ":9865,"approximate":9866,"Ġdocument":9867,"Ġincompressible":9868,"ĠStochastic":9869,"Ġbag":9870,"Ġpredictor":9871,"Ġtrials":9872,"Ġshock":9873,"Ġ(âĪĨ)":9874,"Remark":9875,"nor":9876,"Ġcompleting":9877,"Ġrecovers":9878,"Ġpf":9879,"ĠPlayer":9880,"ĠÎ±i":9881,"mitian":9882,"Ġdiscretized":9883,"ĠâĪĴâĪĤ":9884,"ĠAre":9885,"Ġmasses":9886,"Ġpencil":9887,"hor":9888,"ĠQC":9889,"Ġcentr":9890,"ĠTeichmÃ¼ller":9891,"ĠUpdate":9892,"ativistic":9893,"ĠStud":9894,"pendicular":9895,"Ġâĸ¶":9896,"Ġattempts":9897,"Ġwaiting":9898,"ĠZF":9899,"ĠLef":9900,"âĪĨ(":9901,"Ġcollections":9902,"homology":9903,"etch":9904,"ĠLu":9905,"ien":9906,"Ġtempl":9907,"Ġexhaustive":9908,"ouse":9909,"ĠEve":9910,"ACE":9911,"Ġprom":9912,"Ġvirtue":9913,"Ġasynchronous":9914,"Ġrepr":9915,"Ġhonest":9916,"Ġtaut":9917,"Ġdegeneracy":9918,"ĠSl":9919,"Ġ{âĪŀ":9920,"ĠðĿĽ¼":9921,"Ġpunctured":9922,"amilton":9923,"lets":9924,"ĠCohen":9925,"ĠRoughly":9926,"Ġconsistently":9927,"ĠIntern":9928,"Ġstacks":9929,"Ġframed":9930,"Ġinsert":9931,"ycles":9932,"ĠFil":9933,"Witten":9934,"Ġkk":9935,"Ġpeople":9936,"Ġproducing":9937,"Ġsorted":9938,"ĠâĪŀ]":9939,"Ġquadric":9940,"Ġlost":9941,"Ġuplink":9942,"cher":9943,"001":9944,"ĠâĪĢ(":9945,"Ġbatter":9946,"Ġposed":9947,"tens":9948,"ĠFerm":9949,"string":9950,"Ġâī¼":9951,"Ġinstanti":9952,"Ġunknot":9953,"ĠCB":9954,"ĠðĿĲ´":9955,"Ġresearcher":9956,"Ġmanuscript":9957,"Ġhistogram":9958,"center":9959,"oS":9960,"Ġanch":9961,"Ġtails":9962,"eq":9963,"ĠRES":9964,"Ġspatially":9965,"Ġhomological":9966,"ĠRank":9967,"LM":9968,"urston":9969,"Ġtoken":9970,"Ġenvelope":9971,"Ġsr":9972,"ĠÎµn":9973,"Sec":9974,"imorphism":9975,"ĠðĿĳ¦":9976,"Ġ)/(":9977,"ĠBa":9978,"Ġmal":9979,"Ġ#(":9980,"Ġequid":9981,"ĠFormula":9982,"Ġhelps":9983,"icated":9984,"%,":9985,"ĠBur":9986,"Ġcollabor":9987,"Ġasset":9988,"Ġlc":9989,"Ġbegins":9990,"structures":9991,"ĠTree":9992,"Ġfindings":9993,"Ġreconstructed":9994,"Ġsurrog":9995,"ĠRayleigh":9996,"Ġfn":9997,"ĠStab":9998,"ĠDifferent":9999,"Ġensuring":10000,"Ġremoval":10001,"Ġdifferently":10002,"Ġkeys":10003,"Finally":10004,"yle":10005,"uments":10006,"Ġjud":10007,"determin":10008,"Ġinhomogeneous":10009,"Ġ,(":10010,"ĠRule":10011,"ĠEff":10012,"Ġclassifiers":10013,"Ġsuboptimal":10014,"SC":10015,"ager":10016,"Ġdiamond":10017,"bur":10018,"omorphisms":10019,"isomorphic":10020,"DT":10021,"ĠEvalu":10022,"ĠÂ¨Â¨Â¨":10023,"Ġaccepting":10024,"np":10025,"Ġincrements":10026,"unique":10027,"Ġsimplification":10028,"Ġcorrections":10029,"Ġcond":10030,"Ġleftmost":10031,"ĠConclusions":10032,"oux":10033,"ierstr":10034,"Ġxk":10035,"Ġsubsche":10036,"some":10037,"onses":10038,"Ġnuclear":10039,"ĠPU":10040,"normalized":10041,"ĠIllustr":10042,"Ġ#{":10043,"tuples":10044,"ĠDenoting":10045,"conjug":10046,"imeter":10047,"ĠMarkovian":10048,"ĠMCMC":10049,"Ġramification":10050,"iving":10051,"omy":10052,"ifying":10053,"number":10054,"Ġperpendicular":10055,"Ġdecomposes":10056,"Ġforced":10057,"asts":10058,"Ġslower":10059,"urwitz":10060,"Ġbary":10061,"blue":10062,"Ġcofibr":10063,"))âĪ¥":10064,"limited":10065,"NG":10066,"ĠKolmogorov":10067,"Ġsubcomplex":10068,"Ġadequ":10069,"Ġreflections":10070,"Ġtableaux":10071,"pxq":10072,"Ġcustomers":10073,"prob":10074,"Ġbd":10075,"ĠADMM":10076,"ĠRest":10077,"Ġdemands":10078,"Ġleverage":10079,"extension":10080,"Ġcri":10081,"ĠMAT":10082,"ĠÂ£":10083,"Ġmodelling":10084,"Ġphy":10085,"ĠIma":10086,"Ġfractal":10087,"Ġputting":10088,"Ġsymmetri":10089,"uine":10090,"quet":10091,"Ġfiles":10092,"shaped":10093,"Qu":10094,"elled":10095,"integrable":10096,"Ġts":10097,"coc":10098,"Ġlocality":10099,"necess":10100,"Ġexcluded":10101,"Ġtwists":10102,"Ġsurround":10103,"ĠDy":10104,"Ġsq":10105,"ĠMe":10106,"Ġenlar":10107,"ĠLDP":10108,"Ġsurjection":10109,"Ġfocuses":10110,"Ġexceeds":10111,"ĠSumming":10112,"Ġsupersc":10113,"Ġinit":10114,"Ġexercise":10115,"Ġsubvariety":10116,"Ġsubclass":10117,"admissible":10118,"Ġrelevance":10119,"ĠCÎµ":10120,"Ġsaw":10121,"plitz":10122,"say":10123,"Ġrul":10124,"ho":10125,"Ġbodies":10126,"Ġdiscs":10127,"Ġreaching":10128,"asse":10129,"apped":10130,"Ġ)].":10131,"Ġbes":10132,"abled":10133,"âĪ¥âĪĩ":10134,"Ġelsewhere":10135,"Ġday":10136,"ĠHyper":10137,"Ġsoliton":10138,"ĠðĿĳŁ":10139,"iness":10140,"ailed":10141,"ĠSchubert":10142,"Ġgoverned":10143,"Ġingredients":10144,"Ä±":10145,"entropy":10146,"ĠEC":10147,"Ġboolean":10148,"ĠRemarks":10149,"tibility":10150,"Ġroute":10151,"Ġramified":10152,"Ġcommutation":10153,"Ġunipotent":10154,"Ġ2005":10155,"Ġvoltage":10156,"differen":10157,"ĠWriting":10158,"VD":10159,"Ġtangential":10160,"Ġanonymous":10161,"Ġtransmissions":10162,"Ġ55":10163,"ĠWeil":10164,"omb":10165,"eller":10166,"ipping":10167,"Ġattractive":10168,"ĠReal":10169,"Ġhu":10170,"Ġimposing":10171,"Ġuu":10172,"idem":10173,"Ġoptical":10174,"ounded":10175,"Ġenhance":10176,"range":10177,"Ġreflect":10178,"ARI":10179,"ender":10180,",Â±":10181,"ĠBT":10182,"ilibrium":10183,"Ġdecidable":10184,"rose":10185,"ĠFano":10186,"Ġoscillator":10187,"clockwise":10188,"Ġplug":10189,"Ġmarginals":10190,"tization":10191,"parameters":10192,"kernel":10193,"Ġconges":10194,"ĠFinite":10195,"Moreover":10196,"Ġflexibility":10197,"ĠLefschetz":10198,"Ġcollective":10199,"Ġiy":10200,"Ġargued":10201,"etheless":10202,"Ġunified":10203,"eplitz":10204,"Ġmeeting":10205,"ĠDB":10206,"erson":10207,"Ġoverlapping":10208,"xn":10209,"Ġspins":10210,"ĠUse":10211,"Ġgamma":10212,"Ġdecentralized":10213,"Ġviewpoint":10214,"Ġforbidden":10215,"TIONS":10216,"ĠNi":10217,"Ġmanif":10218,"adratic":10219,"QP":10220,"Ġdeux":10221,"ĠGalerkin":10222,"Ġensembles":10223,"ĠCent":10224,"ĠPDEs":10225,"Ġmechanical":10226,"Ġrightmost":10227,"ĠSeg":10228,"iesz":10229,"Ġmodal":10230,"Sto":10231,"Ġhypered":10232,"ĠTw":10233,"ĠMi":10234,"Ġadvance":10235,"calc":10236,"ĠMeas":10237,"izability":10238,"Ġfonction":10239,"Ġdh":10240,"trees":10241,"isations":10242,"Ġfibres":10243,"long":10244,"!)":10245,"Ġresponses":10246,"specified":10247,"Ġhomotop":10248,"}),":10249,"ĠGeneralized":10250,"Ġ123":10251,"Ġshell":10252,"Ġpv":10253,"Ġfoliations":10254,"Ġreceiving":10255,"Ġalgebroid":10256,"ĠPM":10257,"Ġavoiding":10258,"Ġpilot":10259,"Thm":10260,"Ġsuccessor":10261,"Ġrenew":10262,"Ġ))(":10263,"ĠRegular":10264,"Ġpublished":10265,"cend":10266,"Ġinitialized":10267,"Ġprobably":10268,"lÃ©":10269,"Ġanisotropic":10270,"bedding":10271,"key":10272,"Ġslopes":10273,"ĠGrant":10274,"Sub":10275,"Ġ51":10276,"Ġlearner":10277,"Ġliquid":10278,"cluster":10279,"irth":10280,"ÄĿ":10281,"Var":10282,"Ġacceleration":10283,"Ġdoubling":10284,"Ġknowing":10285,"ĠGM":10286,"Ġindirect":10287,"Ġalternate":10288,"ĠKal":10289,"These":10290,"Ġdefer":10291,"ĠPost":10292,"amer":10293,"Ġunconstrained":10294,"code":10295,"rice":10296,"Ġconsiderable":10297,"ĠPlugging":10298,"Ġsubtrees":10299,"ecreasing":10300,"ĠPDF":10301,"Ġoscillations":10302,"Ab":10303,"ĠWigner":10304,"quasi":10305,"Ġ=(":10306,"Algorithm":10307,"Ġvisit":10308,"BL":10309,"Ġenforce":10310,"Ġclockwise":10311,"neg":10312,"ĠAxiom":10313,"Ġappearance":10314,"Ġjn":10315,"Ġimplementing":10316,"Ġconcentrate":10317,"Ġ53":10318,"Ġmeshes":10319,"Ġcommunities":10320,"Ġclassifying":10321,"ðĿĳł":10322,"erelliptic":10323,"ĠThough":10324,"RP":10325,"ĠAz":10326,"Ġyy":10327,"ĠDep":10328,"parallel":10329,"formula":10330,"ĠiÏī":10331,"rif":10332,"ĠPf":10333,"neighborhood":10334,"Ġgreatly":10335,"Ġlm":10336,"Ġalle":10337,"Ġlens":10338,"Ġsemigroups":10339,"ĠiÎ±":10340,"Ġcounterparts":10341,"Ġlasso":10342,"iÏī":10343,"ĠPOVM":10344,"ĠApply":10345,"Ġblowup":10346,"Ġmarking":10347,"ersed":10348,"Ġâľĵ":10349,"Ġ2004":10350,"Ġlogics":10351,"Ġirregular":10352,"Ġ70":10353,"âĪĴâĪĴâĪĴâĪĴ":10354,"Ġthermodynamic":10355,"Ġvirtually":10356,"Ġultr":10357,"Ġchemical":10358,"Ġ120":10359,"Ġquantized":10360,"generic":10361,"Ġellipsoid":10362,"Ġfalls":10363,"Ġbuyer":10364,"Ġvaluable":10365,"frequency":10366,"ĠLand":10367,"Ġcoprime":10368,"lev":10369,"ĠPerformance":10370,"ĠUC":10371,"Ġserv":10372,"ĠBasic":10373,"ĠðĿĳģ":10374,"artment":10375,"ametric":10376,"Ġscat":10377,"Ġenters":10378,"Ġfractions":10379,"ĠpM":10380,"Ġspecifies":10381,"|||":10382,"ĠEL":10383,"appear":10384,"Ġunary":10385,"ĠDyn":10386,"%.":10387,"Ġtetrahedron":10388,"Ġcommand":10389,"decomposition":10390,"Ġmk":10391,"ĠDoF":10392,"ulas":10393,"Ġansatz":10394,"âĪª{":10395,"Ġequip":10396,"ĠCSP":10397,"ĠApplications":10398,"Ġdeleted":10399,"ĠStandard":10400,"minim":10401,"Ġhomogen":10402,"No":10403,"TP":10404,"Ġcompositions":10405,"esting":10406,"Ġanalyse":10407,"Ġcov":10408,"Chapter":10409,"Lagr":10410,"ĠÏĢi":10411,"Ġtube":10412,"Ġdescriptions":10413,"Ġcooperation":10414,",âĪĨ":10415,"ĠÎ´t":10416,"ĠProf":10417,"Ġkeeps":10418,"Ġredundancy":10419,"Ġfamous":10420,"Ġsolely":10421,"grid":10422,"Ġpromising":10423,"ĠCas":10424,"network":10425,"nergy":10426,"Ġcurrents":10427,"Ġchance":10428,"ĠMAP":10429,"Ġuncondition":10430,"gment":10431,"Ġattaching":10432,"Ġinterpretations":10433,"rupted":10434,"ĠRV":10435,"noise":10436,"Ġrigorously":10437,"Ġresonance":10438,"Ġtangle":10439,"Ġnormality":10440,"ĠLaw":10441,".-":10442,"ĠItÃ´":10443,"Ġcylinders":10444,"Ġdark":10445,"direction":10446,"ĠState":10447,"root":10448,"Ġgenuine":10449,"Ġnondecreasing":10450,"Ġdiscover":10451,"Ġadmitting":10452,"Ġliterals":10453,"plement":10454,"isen":10455,"ster":10456,"oto":10457,"gences":10458,"Ġmaximized":10459,"Ġdissipation":10460,"Ġtrial":10461,"En":10462,"ĠSolving":10463,"hop":10464,"fam":10465,"together":10466,"Ġhypergeometric":10467,"ĠFund":10468,"Ġours":10469,"Ġterminate":10470,"Ġobeys":10471,"Ġradii":10472,"specific":10473,"ĠIF":10474,"ĠGW":10475,"vere":10476,"Ġsett":10477,"Ġmoderate":10478,"Ġdecl":10479,"Ġsupposed":10480,"rÃ©":10481,"]/":10482,"arg":10483,"Ġbottlen":10484,"ĠMathematical":10485,"Ġrecords":10486,"Ġentails":10487,"{âĪĴ":10488,"brane":10489,"DC":10490,"Ġchaotic":10491,"interval":10492,"Ġliteral":10493,"Ġworker":10494,"Ġgrids":10495,"ĠðĿĲ¿":10496,"Ġcounted":10497,"Ġkept":10498,"prints":10499,"ĠâĢ¡":10500,"Ġarrays":10501,"Ġartificial":10502,"Ġbins":10503,"ĠRegarding":10504,"Ġutilized":10505,"Ġcreation":10506,"Ġobs":10507,"eur":10508,"Ġmp":10509,"oders":10510,"Ġpeut":10511,"ierstrass":10512,"Ġfibered":10513,"Ġrespects":10514,"Ġspecifying":10515,"ĠQR":10516,"Ġroutine":10517,"ĠAdS":10518,"ĠDav":10519,"there":10520,"Ġerasure":10521,"Ġchiral":10522,"ĠPoint":10523,"ĠCI":10524,"Ġshuff":10525,"Ġconduc":10526,"reducible":10527,"pX":10528,"ĠRepresent":10529,"Ġcontrollability":10530,"ĠdF":10531,"sn":10532,"ĠGraphs":10533,"Ġzone":10534,"Ġpose":10535,"Ġradical":10536,"ĠYet":10537,"ĠExistence":10538,"Ġbivariate":10539,"proper":10540,"ae":10541,"pon":10542,"Ġtj":10543,"Ġstrateg":10544,"Ġthing":10545,"ason":10546,"ĠLoc":10547,"Ġhttp":10548,"unctive":10549,"Ġht":10550,"Ġassemb":10551,"Ġcapable":10552,"Ġbiological":10553,"Ġcompos":10554,"ĠiÏĢ":10555,"Res":10556,"Ġrecognition":10557,"ĠPrinci":10558,"Ġprojects":10559,"ĠCompared":10560,"Ġgetting":10561,"fixed":10562,"ĠkâĦĵ":10563,"Ġindistinguish":10564,"Ġcommutativity":10565,"Ġincorrect":10566,"GA":10567,"oids":10568,"Ġbn":10569,"âĪ¥.":10570,"Ġcusps":10571,"ĠStrong":10572,"cn":10573,"ĠBetti":10574,"additive":10575,"ĠÎ»i":10576,"divis":10577,"Ġspacetimes":10578,"Ġcustomer":10579,"Ġparameterization":10580,"123":10581,"Ġ)=":10582,"itable":10583,"ĠPn":10584,"Ġdiscovery":10585,"Ġ300":10586,"Ġdots":10587,"Ġrounding":10588,"ĠHC":10589,"Ġcharts":10590,"Ġacceptance":10591,"Par":10592,"ĠSpan":10593,"atural":10594,"Ġimmersed":10595,"Example":10596,"Ġdirectional":10597,"ĠTn":10598,"Ġresolve":10599,"hyperbolic":10600,"Ġheavily":10601,"alized":10602,"Ġsti":10603,"ĠAW":10604,"ĠâĢ¢),":10605,"Ġbattery":10606,"Ġbandit":10607,"Ġopinion":10608,"ĠArg":10609,"ĠdÏķ":10610,"ĠContr":10611,"Ġlimitation":10612,"Ġcotangent":10613,"SO":10614,"angular":10615,"TR":10616,"rin":10617,"ĠSteiner":10618,"ĠMODE":10619,"Ġmultiset":10620,"Ġtouch":10621,"Ġdeciding":10622,"Ġren":10623,"Ġancestor":10624,"Ġancill":10625,"denoted":10626,"Ġjustify":10627,"ĠPour":10628,"+,":10629,"Ġmim":10630,"ĠIJ":10631,"tun":10632,"Ġcontrollers":10633,"ĠMAC":10634,"Ġdriving":10635,"deterministic":10636,"ĠReduction":10637,"ĠSB":10638,"Ġ))|":10639,"ĠPos":10640,"Ġ)],":10641,"Ġdiscontinuity":10642,"Ġwants":10643,"Ġinjectivity":10644,"ĠTHEOREM":10645,"Ġdelivery":10646,"Ġoccupied":10647,"ðĿĳ¢":10648,"ĠnR":10649,"Ġfilled":10650,"ordon":10651,"Ġjo":10652,"Ġmanagement":10653,"Ġirrational":10654,"Ġautomatic":10655,"ĠAV":10656,"paths":10657,"ĠHermite":10658,"ĠLE":10659,",\"":10660,"oura":10661,"Ġinserted":10662,"Ġ(.":10663,"ĠPGL":10664,"Ġreversed":10665,"ĠEstimation":10666,"Ġmathematically":10667,"Ġdevelopments":10668,"Ġ)ÃĹ":10669,"Ġanalogues":10670,"Schmidt":10671,"aR":10672,"ticity":10673,"ĠGrassmannian":10674,"Ġrein":10675,"Ġvel":10676,"Ġpassive":10677,"umulation":10678,"two":10679,"Ġcopula":10680,"Ġquadru":10681,"Ġpd":10682,"Ġclarity":10683,"Ġexclude":10684,"ĠLp":10685,"ĠRO":10686,"Ġmaintaining":10687,"ĠRham":10688,"Ġxz":10689,"ĠEG":10690,"ĠDf":10691,"Ġquasicon":10692,"Ġpg":10693,"nel":10694,"Ġprocessed":10695,"Ġwrong":10696,"dW":10697,"Ġdelete":10698,"Ġfuzzy":10699,"vectors":10700,"Ġ(=":10701,"character":10702,"Ġfri":10703,"Î±n":10704,"ĠGC":10705,"ĠApproximation":10706,"Ġsig":10707,"Ġlibrary":10708,"Ġsucc":10709,"Ġdigital":10710,"entive":10711,"ĠToeplitz":10712,"nz":10713,"ĠInc":10714,"Ġpdf":10715,"ĠChr":10716,"Ġasc":10717,"ĠUniform":10718,"Ġdeformed":10719,"phys":10720,"ĠWhenever":10721,"odal":10722,"Ġaddresses":10723,"ĠBloch":10724,"Ġpermit":10725,"Ġfocusing":10726,"Ġturned":10727,"icial":10728,"Ġgeometries":10729,"ilb":10730,"ĠFre":10731,"ui":10732,"ĠMH":10733,"Ġroad":10734,"Ġcochain":10735,"Ġschema":10736,"Ġxq":10737,"Ġnegation":10738,"Ġrepresentable":10739,"Ġevolves":10740,"Ġengineering":10741,"Ġdrawback":10742,"uclidean":10743,"ubl":10744,"Ġ2003":10745,"ĠRiesz":10746,"discrete":10747,"Ġple":10748,"ocities":10749,"Ġmerging":10750,"Ġaugmentation":10751,"ĠSLE":10752,"Ġsurrogate":10753,"ĠðĿĳĭ":10754,"ĠEV":10755,"2005":10756,"ĠProceed":10757,"Ġspecifications":10758,"Ġhomeomorphisms":10759,"troll":10760,"ĠðĿĳŀ":10761,"tained":10762,"ĠâĪ¤":10763,"Ġcapacities":10764,"Ġrevealed":10765,"ĠPH":10766,"ĠHP":10767,"Ġpages":10768,"ĠâĬ¨":10769,"Ġanomal":10770,"vities":10771,"domin":10772,"wall":10773,"Ġsuggestions":10774,"ĠOptimization":10775,"Ġcontrolling":10776,"Ġqueues":10777,"ticles":10778,"Ġcrystal":10779,"ĠBin":10780,"ĠÅĻ":10781,"acity":10782,"Ġstock":10783,"Åĳs":10784,"cellent":10785,"Ġconstitutes":10786,"asymptotic":10787,"2019":10788,"vich":10789,"estim":10790,"ĠKos":10791,"Ġsimil":10792,"Ġtrying":10793,"Ġcompares":10794,"ĠBO":10795,"ĠInstitute":10796,"Ġ)âĪĤ":10797,"ĠInser":10798,"Ġperiodicity":10799,"Ġqp":10800,"Ġpassage":10801,"ĠËĨâĦ¦":10802,"Ġsnap":10803,"Ġcomprehensive":10804,"Ġcomme":10805,"phistic":10806,"Ġplau":10807,"LA":10808,"Ġgeneralizing":10809,"fe":10810,"sized":10811,"Ġinterchange":10812,"Ġsyntax":10813,"However":10814,"Ġresolved":10815,"Ġskip":10816,"Ġdihedral":10817,"ĠPB":10818,"ĠDistribution":10819,"Ġmemoryless":10820,"Using":10821,"Ġhost":10822,"Ġreaders":10823,"ĠDat":10824,"land":10825,"ĠPet":10826,"ourn":10827,"Ġobey":10828,"Ġfresh":10829,"driven":10830,"cer":10831,"Ġexperience":10832,"Ġcoales":10833,"ĠStatement":10834,"Ġheuristics":10835,"ĠNoting":10836,"Ġaligned":10837,"ĠÄĮ":10838,"ĠJones":10839,"ĠðĿĳĴ":10840,"Ġbilli":10841,"ives":10842,"ĠAnn":10843,"ĠEp":10844,"Ġresearchers":10845,"domain":10846,"Ġconformally":10847,"ĠThurston":10848,"Ġautonomous":10849,"ĠLax":10850,"ĠÄĵ":10851,"ĠâĮ¢":10852,"))/":10853,"cyclic":10854,"Ġencountered":10855,"Ġcompl":10856,"Ġdc":10857,"ĠBru":10858,"loss":10859,"Ġtimelike":10860,"Ġfif":10861,"Ġmodulation":10862,"Spec":10863,"Ġtilings":10864,"Ġgray":10865,"Ġcontents":10866,"Ġ]|":10867,"Ġcertif":10868,"aya":10869,"Ġvoting":10870,"namely":10871,"tj":10872,"ĠSel":10873,"ĠDMS":10874,"Ġrepar":10875,"Ġpursu":10876,"Ġlargely":10877,"LEM":10878,"Ġscreen":10879,"ĠSAT":10880,"anck":10881,"Ġprocessors":10882,"Ġtraveling":10883,"Ġperimeter":10884,"Ġbinding":10885,"Ġptq":10886,"FP":10887,"ĠTP":10888,"coordinate":10889,"OD":10890,"Ġyz":10891,"Ġmicroscopic":10892,"Ġever":10893,"Ġ]).":10894,"Ġ111":10895,"Ġexiste":10896,"Ġbuck":10897,"Ġhardware":10898,"Ġcommunicate":10899,"Ġvelocities":10900,"Ġrt":10901,"ĠÄª":10902,"Ġcombines":10903,"ĠOpen":10904,"ĠComputation":10905,"Ġsophistic":10906,"mode":10907,"ĠHall":10908,"reduced":10909,"Ġshear":10910,"ĠKS":10911,"ĠEurop":10912,"ĠNetworks":10913,"Thus":10914,"ĠChernoff":10915,"kens":10916,"Ġsurvival":10917,"iÎ¸":10918,"Ġnh":10919,"ĠSample":10920,"ĠAverage":10921,"reshold":10922,"ĠÎ²n":10923,"supervised":10924,"umin":10925,"Ġsatisfiable":10926,"Ġsynchronous":10927,"Ġinducing":10928,"Ġinserting":10929,"weep":10930,"Ġpopulations":10931,"ĠDeligne":10932,"orbits":10933,"ĠVC":10934,"ĠâĪĩ)":10935,"Ġrd":10936,"Ġnq":10937,"Ġcreating":10938,"Max":10939,"Ã©es":10940,"Ġconfin":10941,"Ġsignatures":10942,"ĠrÃ©s":10943,"Ġreports":10944,"EEE":10945,"ĠApplication":10946,"Ġtq":10947,"Ġ(âĪħ":10948,"Ġaa":10949,"icious":10950,"Ġconvert":10951,"Ġinfeasible":10952,"Ġembeds":10953,"Ġextraction":10954,"ĠUpper":10955,"ĠNC":10956,"Ġconvolutional":10957,"Ġdisease":10958,"Ġaccumulation":10959,"Ġauto":10960,"vection":10961,"Ġsubgradient":10962,"ĠEE":10963,"Ġinspection":10964,"ĠRus":10965,"ĠÎ¸i":10966,"ĠPE":10967,"Ġposets":10968,"Ġexcur":10969,"Ġ|/":10970,"paces":10971,"depending":10972,"âĦľ":10973,"odesic":10974,"Ġpercentage":10975,"restricted":10976,"orenstein":10977,"Ġmoved":10978,"anner":10979,"ĠHurwitz":10980,"ĠHardy":10981,"Ġmonic":10982,"Ġaccounts":10983,"tors":10984,"Ġod":10985,"la":10986,"Ġreplaces":10987,"Ġrejection":10988,"Ġviews":10989,"Ġmovement":10990,"TIC":10991,"Ġisotropy":10992,"cost":10993,"diver":10994,"ĠWhitney":10995,"+)":10996,"Ġ256":10997,"ni":10998,"iab":10999,"Ġsuiv":11000,"oser":11001,"ĠConf":11002,"Ġdigits":11003,"Ġdedicated":11004,"Ġwalls":11005,"ĠNL":11006,"asion":11007,"dl":11008,"Ġsampler":11009,"ĠExtension":11010,"Ġspans":11011,"images":11012,"Ġharder":11013,"Ġaccepts":11014,"Ġqn":11015,"Ġhermitian":11016,"ologically":11017,"ropies":11018,"Ġprecoding":11019,"Ġhim":11020,"Ġ|+":11021,"sw":11022,"Ġgoals":11023,"ibn":11024,"Ġpolygonal":11025,"Ġshorth":11026,"Ġmill":11027,"power":11028,"aren":11029,"De":11030,"ĠTables":11031,"ĠModels":11032,"ĠAp":11033,"NT":11034,"ĠpB":11035,"Ġhypergraphs":11036,"Ġpunctures":11037,"Ġ57":11038,"SM":11039,"Ġimportantly":11040,"Ġloose":11041,"ĠWITH":11042,"ione":11043,"Ġdisturbance":11044,"avier":11045,"ĠLorentzian":11046,"Ġminors":11047,"Ġpent":11048,"ĠâĢ¢âĢ¢":11049,"Ġî":11050,"Ġthor":11051,"Ġseven":11052,"ĠMV":11053,"ĠEH":11054,"ichot":11055,"2004":11056,"ĠStatis":11057,"Ġpreprocessing":11058,"amiltonian":11059,"Jacob":11060,"Ġcontracts":11061,"Ġintuitively":11062,"Ġseminal":11063,"Alg":11064,"ĠRD":11065,"ĠNN":11066,"antly":11067,"Ġservices":11068,"ĠGrÃ¶b":11069,"Ġcartesian":11070,"colored":11071,"DEs":11072,"Ġsearching":11073,"GE":11074,"ĠRESUL":11075,"hl":11076,"Ġholding":11077,"New":11078,"ĠHoch":11079,"Ġnewly":11080,"ĠKP":11081,"Ġturning":11082,"Ġcollisions":11083,"ientif":11084,"Ġinterf":11085,"ĠMaximum":11086,"Ġcuspidal":11087,"Ġstratification":11088,"data":11089,"ĠExperiments":11090,"ĠGrÃ¶bner":11091,"ĠVi":11092,"(âĢ¢),":11093,"Ġeliminated":11094,"voir":11095,"ĠMotivated":11096,"Ġcouplings":11097,"Ġexcellent":11098,"âĪ¥,":11099,"moment":11100,"Ġ(âĢ¢|":11101,"Ġframing":11102,"Ġfailures":11103,"proof":11104,",âĢ¢âĢ¢âĢ¢":11105,"Ġtransmitters":11106,"Ġcomplements":11107,"Or":11108,"check":11109,"Ġrotating":11110,"riers":11111,"Ġdynamically":11112,"ĠTH":11113,"ĠWF":11114,"ĠEXP":11115,"ils":11116,"ĠFock":11117,"Ġcoerc":11118,"ĠPrec":11119,"Ġoutperform":11120,"Ġ|âĪĴ":11121,"Ġstations":11122,"ĠReLU":11123,"EX":11124,"Ġmotivic":11125,"Î»t":11126,"Ġslices":11127,"Ġincentive":11128,"Ġsd":11129,"ĠBH":11130,"emporal":11131,"Ġobserves":11132,"ĠThree":11133,"Ġinteract":11134,"Ġextrem":11135,"Ġparadigm":11136,"functor":11137,"ĠPower":11138,"Ġstreaming":11139,"Ġdisplays":11140,"oothed":11141,"Ġradiation":11142,"));":11143,"ĠErdÅĳs":11144,"Ġthresholding":11145,"ĠFI":11146,"Ġgenerative":11147,"Ġ2002":11148,"ĠIEEE":11149,"ĠAdap":11150,"Ġantip":11151,"Ġswitches":11152,"Ġprel":11153,"Ġergodicity":11154,"Ġzeroes":11155,"Ġdate":11156,"110":11157,"Ġdecaying":11158,"abs":11159,"âĨĲ":11160,"quantum":11161,"Ġperformances":11162,"terms":11163,"ĠRW":11164,"Ġcp":11165,"|âĪĩ":11166,"Ġcompetition":11167,"Ġdb":11168,"Ġfitness":11169,"Ġcontrollable":11170,"Ġexem":11171,"icate":11172,"Ġ)\\":11173,"Ġhistor":11174,"Ġ75":11175,"Ġreformulation":11176,"ordering":11177,"ÅĿ":11178,"err":11179,"Ġlamination":11180,"Ġsectors":11181,"ĠTest":11182,"Ġexperimentally":11183,"aled":11184,"QC":11185,"Ġmaintains":11186,"Ġâĭ¯":11187,"Ġ??.":11188,"ĠpG":11189,"ĠâĢ¢)âĪ¥":11190,"Ġexpresses":11191,"Ġquartic":11192,"ĠâĪĨ-":11193,"Ġfermionic":11194,"Ġnets":11195,"consistent":11196,"gered":11197,"ĠAdding":11198,"ĠSchwartz":11199,"Ġjustification":11200,"ubini":11201,"Ġmodelled":11202,"Ġcongestion":11203,"BE":11204,"NNs":11205,"ĠpÎ±":11206,"squares":11207,"ĠâīĢ":11208,"vertices":11209,"Ġphr":11210,"Ġtopics":11211,"Ġteam":11212,"ĠKar":11213,"Ġstrands":11214,"Ġcoordination":11215,"changes":11216,"Ġbottleneck":11217,"SU":11218,"indu":11219,"ĠInv":11220,"Ã±":11221,"Ġdilation":11222,"At":11223,"Ġdisappear":11224,"Ġsophisticated":11225,"outh":11226,"So":11227,"ĠSie":11228,"ĠChow":11229,"Ġfat":11230,"Ġsemistable":11231,"Ġshaded":11232,"ialgebra":11233,"standing":11234,"Ġarity":11235,"iest":11236,"Ġrepeating":11237,"Ġundec":11238,"Ġhyperelliptic":11239,"Ġbasically":11240,"rons":11241,"Ġgi":11242,"Ġalter":11243,"Ġprox":11244,"Ġhomogeneity":11245,"Ġgeneralisation":11246,"Ġcertificate":11247,"Ġassociates":11248,"Ġvolumes":11249,"Ġarchitectures":11250,"Ġsummarizes":11251,"rn":11252,"Ġpayment":11253,"Ġincremental":11254,"ÏĢx":11255,"ĠHT":11256,"Sn":11257,"dep":11258,"aulay":11259,"lands":11260,"Ds":11261,"day":11262,"FL":11263,"Ġattracting":11264,"ounced":11265,"curve":11266,"Ġcontracted":11267,"dw":11268,"prop":11269,"Ġdepart":11270,"ĠWeierstrass":11271,"Ġoptimally":11272,"Ġtax":11273,"Ġie":11274,"Ġ(âĪĥ":11275,"Ġplaying":11276,"Ġuncor":11277,"Further":11278,"ĠBro":11279,"=âĪĴâĪŀ":11280,"diffusion":11281,"adaptive":11282,"ĠDou":11283,"jectivity":11284,"ĠDÃ©":11285,"Ġinfection":11286,"Ġacceptable":11287,"tia":11288,"Ġcohomological":11289,"âŁ©âŁ©":11290,"Ġglued":11291,"Ġbalancing":11292,"Ġepimorphism":11293,"ĠdÎ³":11294,"Ġpolyhedra":11295,"sell":11296,"Ġhuge":11297,"utions":11298,"IZ":11299,"Ġdl":11300,"Ġ72":11301,"ĠCp":11302,"Ġcongruent":11303,"ĠÎ´n":11304,"ĠBounds":11305,"Ġalternatively":11306,"ĠClassification":11307,"Ġignored":11308,"ĠÎ»I":11309,"heaf":11310,"Ġprote":11311,"XY":11312,"Ġserved":11313,"ĠDefining":11314,"olicy":11315,"Ġconcluding":11316,"Ġjoined":11317,"Ġanomaly":11318,"martingale":11319,"ĠGA":11320,"ÃŃ":11321,"ĠâĨĺ":11322,"Ġnormalizing":11323,"calculus":11324,"Ġhosp":11325,"Ġgroupoids":11326,"ĠIllustration":11327,"Ġinvoke":11328,"Ġsatisfaction":11329,"Bo":11330,"ĠLee":11331,"áºĳ":11332,"Ġtele":11333,"VER":11334,"atio":11335,"strongly":11336,"Ġsaturation":11337,"Ġmedia":11338,"]ÃĹ":11339,"Ġattraction":11340,"ĠthÃ©orÃ¨me":11341,"Ġdepicts":11342,"Ġtighter":11343,"Ġadjusted":11344,"ĠJust":11345,"ĠðĿĲ¶":11346,"ĠFubini":11347,"Ġobstacles":11348,"ĠâĮ£":11349,"ĠEnc":11350,"Ġ)âĪ©":11351,"Ġhi":11352,"Ġsuccessively":11353,"ains":11354,"Ġpatches":11355,"Ġuniversality":11356,"ĠSVM":11357,"ĠMach":11358,"ium":11359,"Prop":11360,"RG":11361,"ĠWeak":11362,"Ġapplicability":11363,"Ġub":11364,"enn":11365,"Ġont":11366,"Ġgenes":11367,"uation":11368,"Ġnth":11369,"ĠSpace":11370,"Ġpseudoc":11371,"ĠPROB":11372,"ĠMer":11373,"Ġexecute":11374,"ĠMNIST":11375,"Ġtwisting":11376,"Ġtook":11377,"âĹģ":11378,"Ġabc":11379,"Mark":11380,"Ġshorthand":11381,"ĠSumm":11382,"locks":11383,"Hom":11384,"Ġphylog":11385,"Ġvisits":11386,"ĠCi":11387,"Ġstores":11388,"AA":11389,"Ġwealth":11390,"ĠIl":11391,"ĠCost":11392,"lassical":11393,"ĠDynkin":11394,"Ã©c":11395,"Ġwrites":11396,"Ġdecided":11397,"sq":11398,"ountable":11399,"Ġchordal":11400,"Ġtriplet":11401,"Hilbert":11402,"ctan":11403,"Ġconfirmed":11404,"Ġcolimits":11405,"Ġtreewidth":11406,"Ġenumerate":11407,"crip":11408,"figuration":11409,"hat":11410,"ĠEuropean":11411,"Ġindividually":11412,"Ġradio":11413,"Ġproxim":11414,"player":11415,"Ġ^":11416,"itons":11417,"ĠFun":11418,"Ġultimately":11419,"ĠLB":11420,"Str":11421,"Ġyx":11422,"livious":11423,"zul":11424,"Ġconstitu":11425,"Ġreals":11426,"Ġpenalized":11427,"Ġvalidate":11428,"ĠâĢĸ":11429,"ama":11430,"null":11431,"Ġresolutions":11432,"ĠFIGURE":11433,"KP":11434,"Ġprotot":11435,"ĠCut":11436,"logarithm":11437,"Ġcapital":11438,"Ġcontours":11439,"ameters":11440,"coll":11441,"Ġintractable":11442,"actors":11443,"ĠProj":11444,"ĠâĪĪ[":11445,"resolution":11446,"ĠCDF":11447,"Ġcovariate":11448,"utation":11449,"cs":11450,"ĠSequ":11451,"ĠLind":11452,"ircle":11453,"Ġcompound":11454,"ĠRi":11455,"ĠâĨ¦":11456,"seudo":11457,"Ġwi":11458,"ibniz":11459,"ĠUs":11460,"ĠPF":11461,"Ġautomorphic":11462,"2000":11463,"Ġstratified":11464,"Ġdegrad":11465,"ĠKac":11466,"Ġ2001":11467,"win":11468,"Ġindexes":11469,"Ġnoticed":11470,"ght":11471,"Ġgroupe":11472,"ray":11473,"Ġsurprisingly":11474,"locally":11475,"ĠComplexity":11476,"ientific":11477,"ixing":11478,"ĠTO":11479,"Ġbeliefs":11480,"ĠVan":11481,"play":11482,"cu":11483,"Ġquantified":11484,"Ġreality":11485,"Ġpredictors":11486,"corresponding":11487,"skeleton":11488,"ochromatic":11489,"ĠRu":11490,"Ġsubmodule":11491,"oro":11492,"Ġimposes":11493,"Ġasked":11494,"Ġreset":11495,"ĠIrr":11496,"Ġsorting":11497,"Ġindetermin":11498,"ĠLD":11499,"affine":11500,"limit":11501,"ĠBlock":11502,"ĠFC":11503,"ĠLang":11504,"convergence":11505,"Ġabsorbing":11506,"Ġformalize":11507,"Ġcm":11508,"Ġdetermination":11509,"ĠEmp":11510,"rey":11511,"Ġ][":11512,"Ġpresenting":11513,"ĠFA":11514,"Ġevolve":11515,"Ġcalibration":11516,"Ġmultidimensional":11517,"Ġdecomposable":11518,"scheme":11519,"pk":11520,"ĠPred":11521,"Ġranging":11522,"Ġ+âĢ¢âĢ¢âĢ¢+":11523,"ĠEnergy":11524,"tient":11525,"Ġaffin":11526,"ilateral":11527,"ulator":11528,"Ġvw":11529,"uly":11530,"Ġpulse":11531,"Ġsender":11532,"Ġblocking":11533,"ĠProt":11534,"Ġaccordance":11535,"Ġdetecting":11536,"Ġshrinking":11537,"ĠGT":11538,"ĠClust":11539,"Ġeavesdropper":11540,"ĠConn":11541,"rever":11542,"ĠPolish":11543,"Ġstreams":11544,"Ġyq":11545,"Ġrelays":11546,"Ġdifferentiability":11547,"ĠExact":11548,"Ġcharacterizations":11549,"Ġargmax":11550,"ĠBackground":11551,"Ġtranscend":11552,"stream":11553,"pA":11554,"erning":11555,"Ġplain":11556,"ĠGold":11557,"Ġcolours":11558,"Ġsubscheme":11559,"ĠGradient":11560,"|<":11561,"rt":11562,"ĠreprÃ©sent":11563,"bc":11564,"ĠTD":11565,"ĠCOMP":11566,"ĠTi":11567,"âĦİ":11568,"Ġdamping":11569,"Ġcosmological":11570,"Ġdefic":11571,"ĠShe":11572,"ĠReplacing":11573,"Ġrectif":11574,"jk":11575,")âī¤":11576,"Ġpersistent":11577,"Ġsublinear":11578,"Ġpruning":11579,"Ġspacelike":11580,"Ġmaxima":11581,"spect":11582,"sivity":11583,"Mat":11584,"Ġpend":11585,"ï¿½ï¿½":11586,"ĠSpecial":11587,"Ġlabelling":11588,"bottom":11589,"ups":11590,"ĠÃŀ":11591,"identi":11592,"Ġbreaks":11593,"epar":11594,"Ġclients":11595,"Ġencryption":11596,"Ġforec":11597,"afe":11598,"ĠâĬİ":11599,"Ġutilizing":11600,"ĠInf":11601,"Ġexamined":11602,"Ġbosonic":11603,"strict":11604,"Jacobi":11605,"Ġhits":11606,"Stokes":11607,"Ġmultiples":11608,"Ġterminals":11609,"ĠWhite":11610,"canonical":11611,"algam":11612,"ĠBn":11613,"osure":11614,"Ġstops":11615,"emory":11616,"ĠFR":11617,"ĠOT":11618,"stance":11619,"ĠQU":11620,"Ġelectromagnetic":11621,"actory":11622,"Ġpredecess":11623,"forcement":11624,"Ġmotivate":11625,"Ġtubular":11626,"Ġhp":11627,"Ġdeath":11628,"agon":11629,"nm":11630,"Mar":11631,"Zh":11632,"Ġdropped":11633,"Ġ|[":11634,"ĠGD":11635,"ana":11636,"ĠMinim":11637,"Ġimaging":11638,"ĠLG":11639,"Sym":11640,"ĠSQ":11641,"Ġannuli":11642,"Ġtechnology":11643,"ĠðĿĳĨ":11644,"ĠdÎ¶":11645,"âī¡":11646,"Ġnoiseless":11647,"Ġparticipants":11648,"Ġsliding":11649,"Ġquadrilateral":11650,"Ġmodifying":11651,"tivities":11652,"Ġ]}":11653,"ðĿĳļ":11654,"Ġ(âĪĴâĪĨ)":11655,"ĠAu":11656,"ĠVir":11657,"ĠLF":11658,"Ġtraver":11659,"umford":11660,"dÏī":11661,"Ġeigenspace":11662,"Ġdescending":11663,"org":11664,"Ġsevere":11665,"Ġnn":11666,"ĠPy":11667,"ĠNavier":11668,"Ġinverses":11669,"ĠPartition":11670,"wave":11671,"ĠgÃ©n":11672,"Ġexpressing":11673,"Ġmono":11674,"Ġrevis":11675,"Ġjam":11676,"Ġ58":11677,"Ġsyntactic":11678,"Ġsus":11679,"Ġfacilitate":11680,"++":11681,"AF":11682,"tile":11683,"ĠGra":11684,"Ġsuperscript":11685,"usp":11686,"ENTS":11687,"Ġmolecules":11688,"ĠMeanwhile":11689,"Ġstatistically":11690,"pred":11691,"ĠPG":11692,"Ġdistill":11693,"riched":11694,"Ġfiner":11695,"Ġchaos":11696,"wood":11697,"ĠâĬŀ":11698,"Ġautoc":11699,"omorphically":11700,"ĠâĪĪ]":11701,"Ġtransactions":11702,"Ġrecovering":11703,"Aut":11704,"acent":11705,")])":11706,"ait":11707,"quanti":11708,"Ġtransmits":11709,"Ġreproduce":11710,"Ġrealizable":11711,"ĠSuper":11712,"pret":11713,"bb":11714,"Ġpreliminaries":11715,"2003":11716,"ĠâĥĿ":11717,"ĠðĿľĨ":11718,"Ġvoters":11719,"Ġbeta":11720,"ĠRamsey":11721,"Ġspecialization":11722,"Ġrotational":11723,"khoff":11724,"Ġnoticing":11725,"ĠTs":11726,"attern":11727,"iabatic":11728,"Ġmonoids":11729,"Ġnearby":11730,"transitive":11731,"ĠIntegrating":11732,",{":11733,"ĠRESULTS":11734,"ĠQP":11735,"Ġprimarily":11736,"ĠCt":11737,"perimetric":11738,"ĠStability":11739,"Ġmini":11740,"BO":11741,"Ġ};":11742,"2002":11743,"ĠLam":11744,"filter":11745,"ĠRestric":11746,"ission":11747,"Ġreasonably":11748,"mi":11749,"Ġgather":11750,"ĠTate":11751,"Ġcodebook":11752,"Ġhyperbol":11753,"maximal":11754,"Ġcarrying":11755,"Ġviolate":11756,"Ġinferred":11757,"ĠFn":11758,"intersection":11759,"Ġsuspension":11760,"Ġ99":11761,"Ġmonad":11762,"how":11763,"ĠBre":11764,"Ġtemplate":11765,"acks":11766,"Ġsupplementary":11767,"RC":11768,"Ġia":11769,"ĠðĿĳĥ":11770,"ĠCharacter":11771,"Ġhn":11772,"acci":11773,"Lagrange":11774,"Ġdecoded":11775,"ĠMultiplying":11776,"Ġdeterminants":11777,"Ġdecides":11778,"Ġproceeding":11779,"structing":11780,"Ġsuite":11781,"Ġca":11782,"Ġdecades":11783,"Ġtackle":11784,"Ġkp":11785,"ĠCa":11786,"Ġeleg":11787,"Ġregis":11788,"ina":11789,"ĠDiscrete":11790,"ĠpS":11791,"Ġvv":11792,"ige":11793,"Ġdiscussing":11794,"Ġmarkets":11795,"Ġinitiated":11796,"Ġtries":11797,".).":11798,"Ġ63":11799,"Ġshifting":11800,"Ġinac":11801,"sensitive":11802,"Ġkinem":11803,"Ġproposes":11804,"except":11805,"Ġdissipative":11806,"Ġwins":11807,"onometric":11808,"Ġforests":11809,"ategy":11810,"Cat":11811,"PA":11812,"Ġvortex":11813,"Ġsoundness":11814,"Ġentities":11815,"ĠâĹĨ":11816,"ĠMilnor":11817,"Ġrelying":11818,"Ġ400":11819,"ideal":11820,"Ġdistributive":11821,"Ġarrives":11822,"Ġpixels":11823,"ĠâĪĴâŁ¨":11824,"ĠDD":11825,"py":11826,"BH":11827,"Ġclosures":11828,"Ġsubdomain":11829,"Ġsubsections":11830,"Ġenhanced":11831,"SNR":11832,"beha":11833,"Ġsweep":11834,"monstration":11835,"Ġnevertheless":11836,"enetic":11837,"ĠCK":11838,"ĠNa":11839,"Ġhydro":11840,"Ġvic":11841,",âĥĹ":11842,"equal":11843,"ĠFunctions":11844,"Ġ)âĪĨ":11845,"Ġevolving":11846,"ÃĹ(":11847,",|":11848,"Ġmitig":11849,"associ":11850,"test":11851,"|).":11852,"isely":11853,"iors":11854,"Ġunlikely":11855,"Ġdecorated":11856,"ĠâĪĴâĪŀ,":11857,"horizon":11858,"ĠPV":11859,"sation":11860,"Ġcu":11861,"Ġwitnesses":11862,"Ġbor":11863,"ĠMag":11864,"ĠKir":11865,"Ġframeworks":11866,"ĠFried":11867,"dense":11868,"appl":11869,"Ġpropagator":11870,"ĠCommun":11871,"ĠUL":11872,"ĠJul":11873,"Ġmomenta":11874,"Ġtransmitting":11875,"Ġtightness":11876,"RL":11877,"Ġcharged":11878,"ya":11879,"ĠRÃ©nyi":11880,"Ġunweighted":11881,"ĠAppro":11882,"ĠCQ":11883,"ĠEqn":11884,"Ġdiagonals":11885,"ĠKoszul":11886,"itivity":11887,"ĠHy":11888,"Ġlexicographic":11889,"Min":11890,"ĠVIII":11891,"ĠMMSE":11892,"Ġnowhere":11893,"Ġrefine":11894,"Ġremoves":11895,"aki":11896,"Ġpw":11897,"Ġsubstitutions":11898,"ĠRn":11899,"ĠSerre":11900,"Ġcette":11901,"ĠEulerian":11902,"centric":11903,"Ġdelayed":11904,"Ġlikewise":11905,"Ġasks":11906,"itations":11907,"Ġâ¨":11908,"ĠReport":11909,"controll":11910,"ĠMODEL":11911,"Ġcrit":11912,"projective":11913,"zable":11914,"ĠPI":11915,"loading":11916,"ĠMn":11917,"separable":11918,"Ġunobser":11919,"ĠBlack":11920,"Ġpip":11921,"Ġ65":11922,"ptq":11923,"âĢ²âĢ²":11924,"Ġincreasingly":11925,"Ġinconsistent":11926,"Ġunlabeled":11927,"Ni":11928,"ĠColl":11929,"Ġfirm":11930,"fron":11931,"ester":11932,"Ġinnov":11933,"met":11934,"Ġlive":11935,"Ġtransp":11936,"Supp":11937,"dÏĥ":11938,"Ġpixel":11939,"Ġantisymmetric":11940,"eneracy":11941,"uctive":11942,"ĠWeight":11943,"connection":11944,"Ġretrieval":11945,"Ġcoproduct":11946,"Col":11947,"Ġaperiodic":11948,"ny":11949,"ullback":11950,"Ġ)|.":11951,"Ġbesides":11952,"Ġsimilarities":11953,"âĪĪâĪĨ":11954,"bow":11955,"Ġresiduals":11956,"Ġinertia":11957,"Ġindefinite":11958,"torus":11959,"âĢ¢]":11960,"ĠÎ³n":11961,"Ġaccommod":11962,"Equ":11963,"Ġseller":11964,"Ġevaluates":11965,"ĠStructure":11966,"Ġbasepoint":11967,"aware":11968,"ĠChannel":11969,"Ġdistinguishing":11970,"hip":11971,"Ġsubjects":11972,"ĠProblems":11973,"Ġduplic":11974,"Ġbraided":11975,")|)":11976,"Ġkr":11977,"AND":11978,"sil":11979,"ĠâĪħ)":11980,"Ġisotop":11981,"Ġexpert":11982,"Ġunions":11983,"Ġinherits":11984,"SSO":11985,"ĠAG":11986,"ĠMartin":11987,"MT":11988,"ambigu":11989,"Ġoperate":11990,"ĠResult":11991,"ĠHD":11992,"Ġesc":11993,"hole":11994,"ĠME":11995,"Rank":11996,"Ġneuron":11997,"Ġmeridian":11998,"Ġsatisfiability":11999,"Ġfermions":12000,"ĠMDS":12001,"Bs":12002,"QR":12003,"ermost":12004,"Ġmanifest":12005,"Ġimperfect":12006,"ĠpF":12007,"Ġoscillatory":12008,"Ġcontractions":12009,"ada":12010,"ĠDeg":12011,"Ġsubordin":12012,"Ġirreduc":12013,"Ġutilities":12014,"Ġhttps":12015,"Ġcausality":12016,"Ġadequate":12017,"Se":12018,"ĠLHS":12019,"!(":12020,"ĠChap":12021,"Ġhyperbolicity":12022,"Riemannian":12023,"Ġhypercube":12024,"integral":12025,"Ġquand":12026,"verti":12027,"oft":12028,"ĠFL":12029,"ĠFib":12030,"ĠBK":12031,"Ġarctan":12032,"Ġjunction":12033,"ids":12034,"Ġgirth":12035,"Ġcapability":12036,":(":12037,"Ġpolarized":12038,"ĠMPC":12039,"large":12040,"Ġcontradict":12041,"Ġsemin":12042,"Mo":12043,"ĠFat":12044,"ĠEisen":12045,"RR":12046,"ÏĢt":12047,"Ġib":12048,"Ġfifth":12049,"âĪĴ)":12050,"ĠIdentif":12051,"Ġ??,":12052,"Ġentropies":12053,"Ġformat":12054,"Ġdiverges":12055,"iro":12056,"otherwise":12057,"ĠHer":12058,"Ġcosets":12059,"Ġinformative":12060,"Ġmonitoring":12061,"Ġfactorizations":12062,"Ġindistinguishable":12063,"learning":12064,"Ġsimplifying":12065,"Ġ{âŁ¨":12066,"Ġtokens":12067,"Ġappealing":12068,"ĠPot":12069,"oherence":12070,"handle":12071,"Ã¶r":12072,"Ġdiscontinu":12073,"Ġins":12074,"Ġdiscusses":12075,"ĠNOMA":12076,"Ġreproducing":12077,"ĠInitialize":12078,"volume":12079,"Ġ(+)":12080,"ðĿĳ£":12081,"ĠdL":12082,"á¸":12083,"Ġcb":12084,"Ġsectional":12085,"ĠSq":12086,"ĠâĪĴâĪŀ.":12087,"Ġarranged":12088,"ĠdÏĨ":12089,"Ġstationarity":12090,"Ġcurvatures":12091,"He":12092,"Ġ110":12093,"Ġkq":12094,"illen":12095,"Ġsession":12096,"Ġencl":12097,"Ġtransportation":12098,"ĠGlobal":12099,"ĠSampling":12100,"Ġprojectors":12101,"Ġrandomization":12102,"ĠChar":12103,"ĠâĪ¥âĪ¥":12104,"ived":12105,"Ġbuilds":12106,"through":12107,"âĢ¢(":12108,"ĠLandau":12109,"Ġconstell":12110,"Ġreciprocal":12111,"Ġpants":12112,"ĠDem":12113,"Ġaccelerated":12114,"bridge":12115,"onents":12116,"ĠConcerning":12117,"definable":12118,"ĠProbability":12119,"ĠâĪ¥)":12120,"Ġdownward":12121,"Ġnecessity":12122,"Ġtv":12123,"urious":12124,"odd":12125,"Ġflav":12126,"Ġstim":12127,"Ġsuggesting":12128,"Ġpaired":12129,"Ġstochastically":12130,"Ġhed":12131,"BT":12132,"Ġremin":12133,"ĠðĿľİ":12134,"law":12135,"RF":12136,"ĠSchmidt":12137,"ellip":12138,"aun":12139,"Ġhered":12140,"ĠCIF":12141,"Ġpractically":12142,"Ġsubrou":12143,"cripts":12144,"ĠLiu":12145,"Ġamalgam":12146,"Ġconceptual":12147,"ensemble":12148,"due":12149,"Ġlj":12150,"overl":12151,"ĠTM":12152,"km":12153,"RI":12154,"Ġwinding":12155,"cone":12156,"ĠÃ®":12157,"ows":12158,"Ġ[âĪĨ":12159,"Ġ1998":12160,"Ġworkload":12161,"Ġeconomic":12162,"Ġarrangements":12163,"Ġreflecting":12164,"ĠUpon":12165,"âĻ¯":12166,"ĠOrder":12167,"ĠContrib":12168,"Ġcolouring":12169,"acies":12170,"Ġcorrupted":12171,"Ġtrigonometric":12172,"Ġrr":12173,"Ġdiagn":12174,"ĠÂ¸":12175,"Ġunitaries":12176,"Ġconverted":12177,"ĠDiag":12178,"ĠRather":12179,"Ġrelativistic":12180,"Ġic":12181,"folds":12182,"Ġepochs":12183,"party":12184,"arboux":12185,"ĠKur":12186,"Ġsuffer":12187,")'":12188,"separated":12189,"ĠâĨ·":12190,"solid":12191,"ĠUEs":12192,"ĠAssoci":12193,"ĠConvex":12194,"ĠÎ´x":12195,"Ġavailability":12196,"Mor":12197,"Ġenjoy":12198,"urm":12199,"Ġtetrahedra":12200,"ĠSplit":12201,"ĠIw":12202,"Ġmonochromatic":12203,"Ġlegi":12204,"ĠÎ»Âµ":12205,"angled":12206,"ATIONS":12207,"Ġmism":12208,"compatible":12209,"Ġquaternion":12210,"Ġevolutionary":12211,"sufficient":12212,"Ġspik":12213,"Ġrc":12214,"Ġprobe":12215,"Kn":12216,"Ġconjugates":12217,"ĠContinu":12218,"Ġclarify":12219,"Ġstic":12220,"Ġhenceforth":12221,"distribution":12222,"Ġsmart":12223,"ĠpC":12224,"ĠdÏĢ":12225,"Ġâİ¢":12226,"Ġproximity":12227,"run":12228,"ĠBE":12229,"ĠËľ":12230,"Ġtempor":12231,"dashed":12232,"input":12233,"Ġ59":12234,"Ġks":12235,"Ġmultilinear":12236,"Ġsupervised":12237,"ĠEN":12238,"Ġreferring":12239,"Ġelectro":12240,"ĠTC":12241,"Ġsemiclassical":12242,"oT":12243,"Ġdonn":12244,"Us":12245,"ĠKu":12246,"lab":12247,"ausal":12248,"inson":12249,"(âĪŀ)":12250,"Ġdichot":12251,"Ġsemicontinuous":12252,"Ġtransitivity":12253,"ulates":12254,"ĠDI":12255,"Ġuncorrelated":12256,"Ġâİ¥":12257,"Ġheart":12258,"Ġrating":12259,"ĠdQ":12260,"stances":12261,"Ã¡s":12262,"Ġdxdy":12263,"ĠNonetheless":12264,"ĠJS":12265,"Ġ96":12266,"opt":12267,"Ġdram":12268,"Ġviolates":12269,"ĠPrinciple":12270,"Ġexpos":12271,"Ġpicking":12272,"Ġ[âĪĤ":12273,"Ġconical":12274,"ĠEA":12275,"ĠJulia":12276,"taining":12277,"ĠFp":12278,"Ġfulfill":12279,"ĠÃĶ":12280,"Ġ}|":12281,"stability":12282,"ĠPu":12283,"zag":12284,"ĠðĿĴ":12285,"VA":12286,"Ġreversing":12287,"ummy":12288,"ĠSummary":12289,"ashi":12290,"ĠExperimental":12291,"Ġâĩĵ":12292,"oked":12293,"negativity":12294,"Ġdealt":12295,"ĠTerm":12296,"lif":12297,"âĪ¥)":12298,"Ġconstru":12299,"ĠArXiv":12300,"ava":12301,"Gal":12302,"attice":12303,"angement":12304,"ĠGreedy":12305,"Ġsmoothed":12306,"ĠÎ»t":12307,"ls":12308,"Ġtrivialization":12309,"ĠBor":12310,"ĠpâĦ¦":12311,"monotone":12312,"Ġreformulated":12313,"ĠEdge":12314,"ĠFigs":12315,"ĠDecomposition":12316,"oys":12317,"Ma":12318,"ĠIT":12319,"ATE":12320,"veraging":12321,"za":12322,"ĠPen":12323,"ĠSIR":12324,"ivity":12325,"unit":12326,"Per":12327,"ĠValue":12328,"ĠKum":12329,"assum":12330,"2001":12331,"Ġsentences":12332,"Ġcentrality":12333,"ĠâĪ¥|":12334,"Ġsoit":12335,"Ġfailed":12336,"operator":12337,"Ġposi":12338,"ðĿĳ¦":12339,"*-":12340,"Ġwider":12341,"Ġreactions":12342,"Ġui":12343,"ĠLeibniz":12344,"ĠKalman":12345,"roducts":12346,"ĠIM":12347,"|>":12348,"Ġperman":12349,"Ġanything":12350,"black":12351,"probability":12352,"def":12353,"Ġconcavity":12354,"Ġgp":12355,"aterial":12356,"ĠTheore":12357,"Ġtransitively":12358,"true":12359,"Ġisol":12360,".âĸ¡":12361,"ĠiÎ»":12362,"Ġassembly":12363,"ĠCoun":12364,"Ġefforts":12365,"Ð»":12366,"Ġadverti":12367,"OPT":12368,"ansive":12369,"Ã¼r":12370,"ĠGorenstein":12371,"))).":12372,"Ġdomination":12373,"Ġiq":12374,"Ġhomoclinic":12375,"ĠâĨĲâĪĴ":12376,"á¸¡":12377,"ĠĠĠĠ":12378,"ĠItem":12379,"istant":12380,"Ġrecorded":12381,"inery":12382,"ERI":12383,"ĠRobust":12384,"dÎ»":12385,"enced":12386,"Ġyes":12387,"ĠParameter":12388,"Ġhandles":12389,"Ġdxdt":12390,"ticular":12391,"ĠÂ»":12392,"Ġparalle":12393,"Ġchords":12394,"Ġheld":12395,"cedure":12396,"Ġbrings":12397,"tunately":12398,"ĠOverall":12399,"Ġtm":12400,"ĠThose":12401,"Ġnx":12402,"Ġcollinear":12403,"Ġjoins":12404,"uchsian":12405,"irical":12406,"idently":12407,"Ġdict":12408,"Ġjm":12409,"Ġmentioning":12410,"Ġinterfer":12411,"Ġflips":12412,"dp":12413,"Ġunknowns":12414,"Ġunnecess":12415,"Ġwonder":12416,"Ġposteriori":12417,"Ġintertwin":12418,"Ġpicked":12419,"ĠðĿĳı":12420,"Ġscheduled":12421,"raft":12422,"isot":12423,"emacher":12424,"ĠHor":12425,"Ġef":12426,"ĠSqu":12427,"ĠGi":12428,"Ġdisjunction":12429,"Ġidle":12430,")(âĪĴ":12431,"Ã©tÃ©":12432,"Ġprojecting":12433,"Ġisoperimetric":12434,"ĠðĿĳĻ":12435,"Ġ}).":12436,"Ġâĸ½":12437,"Ġ1999":12438,"imura":12439,"Gs":12440,"Ġspreading":12441,"maxim":12442,"ĠSK":12443,"Case":12444,"Ġmaintained":12445,"Ġum":12446,"Ġsuppress":12447,"Recall":12448,"Ġnucle":12449,"ĠðĿĳħ":12450,"ola":12451,"Ġseparability":12452,"Ġimplements":12453,"Ġencoura":12454,"usively":12455,"Ġdd":12456,"Ġ)âĪĩ":12457,"Ġtrac":12458,"Ġcele":12459,"Ġru":12460,"Ġassoc":12461,"ĠLogic":12462,"Ġ(âĭĨ":12463,"Ã©qu":12464,"color":12465,"Ġcolimit":12466,"Ġadjustment":12467,"Ġdays":12468,"integer":12469,"Ġreject":12470,"Ġresponsible":12471,"ĠDn":12472,"Ġprogression":12473,"Ġmobility":12474,"Ġconfirms":12475,"ÃŁ":12476,"Ġspeak":12477,"eister":12478,"Ġpreservation":12479,"Ġidempot":12480,"ji":12481,"Ġmachinery":12482,"Ġmaterials":12483,"spin":12484,"table":12485,"eigen":12486,"Ġconversion":12487,"Ġbisimulation":12488,"Ġpayoffs":12489,"given":12490,"Ġplatform":12491,"ĠKernel":12492,"acc":12493,"Ëļ":12494,"UP":12495,"Ġcocompact":12496,"Ġfirstly":12497,"Ġoutward":12498,"Ġcompil":12499,"Ġinterfaces":12500,"Ġvariability":12501,"ĠKKT":12502,"ĠWithin":12503,"Ġnotes":12504,"ĠÏĦn":12505,"ĠGeometry":12506,"Ġreferee":12507,"ĠImport":12508,"Ġarrivals":12509,"ĠâĢ²âĪĴ":12510,"Ġdescends":12511,"ĠBirkhoff":12512,"oulomb":12513,"Ġkt":12514,"beit":12515,"pop":12516,"ĠAtt":12517,"Ġencounter":12518,"ĠODEs":12519,"Ġlag":12520,"Ġparametr":12521,"Ġexploits":12522,"Ġleakage":12523,"Ġuniversally":12524,"ologous":12525,"102":12526,"Ġstars":12527,"Ġbeneficial":12528,"Ġtruthful":12529,"Ġmov":12530,"Ġ]-":12531,"ĠMethods":12532,"Ġdownload":12533,"Ġraised":12534,"site":12535,"Ġcores":12536,")âŁ¨":12537,"eper":12538,"actical":12539,"idemeister":12540,"Ġsubalgebras":12541,"From":12542,"matching":12543,"One":12544,"ulant":12545,"oided":12546,"Ġfulfills":12547,"orientable":12548,"ĠLTL":12549,"Ġghost":12550,"Ġmetri":12551,"var":12552,"Ġmanipulation":12553,"Ġtreating":12554,"ĠSpectral":12555,"Ts":12556,"Ġincomp":12557,"spring":12558,"ploys":12559,"qp":12560,"static":12561,"Ġbank":12562,"nikov":12563,"oda":12564,"Ġhistorical":12565,"Ġcamer":12566,"{âĪ¥":12567,"Ġhandling":12568,"ĠQuanti":12569,"Ġpuncture":12570,"ĠÎ²Î³":12571,"STEM":12572,"Ġendomorphisms":12573,"Ġzz":12574,"Ġexpressive":12575,"Ġtalk":12576,"Ġunable":12577,"ĠQp":12578,"SIC":12579,"Î´t":12580,"ĠLarge":12581,"fiers":12582,"Ġdatabases":12583,"ĠTra":12584,"Ġpb":12585,"Mills":12586,"Ġnef":12587,"Ġdegeneration":12588,"Ġfluctuation":12589,"Ġtimed":12590,"ĠLes":12591,"Ġoffset":12592,"Ġreversal":12593,"Ġnormalize":12594,"Ġabbreviate":12595,"idability":12596,"Ġverifier":12597,"ĠMIS":12598,"HP":12599,"Ġinvestment":12600,"ĠMW":12601,"Sol":12602,"ĠáºĬ":12603,"ĠNode":12604,"Ġscoring":12605,"Ġcoverings":12606,"Ġlegitimate":12607,"Ġvast":12608,"Ġplausible":12609,"Ġavoided":12610,"Ġ62":12611,"Ġstems":12612,"ĠPolynomial":12613,"Ġcounterclockwise":12614,"Ġridge":12615,"otomic":12616,"Ġinvolutions":12617,"ĠDIS":12618,"Ġscalable":12619,"Ġborn":12620,"Ġtom":12621,"ĠCheck":12622,"ĠAX":12623,"ĠRelation":12624,"ðĿĳŁ":12625,"Ġcomprom":12626,"Ġshortly":12627,"ĠNotations":12628,"tized":12629,"Ġentering":12630,"120":12631,"Ġ101":12632,"ĠPage":12633,"ÄĽ":12634,"ĠDepartment":12635,"Ġfavor":12636,"olis":12637,"Ġcascade":12638,"stud":12639,"Ġsuscep":12640,"ĠFinding":12641,"Mc":12642,"SPACE":12643,"Ġentity":12644,"rome":12645,"Ġxs":12646,"ĠâĬĽ":12647,"Ġinterle":12648,"Ġair":12649,"ĠpN":12650,"Ġaccomplished":12651,"GR":12652,"ambda":12653,"physical":12654,"ĠCIFAR":12655,"Ġrain":12656,"ĠGen":12657,"ĠACK":12658,"rozen":12659,"125":12660,"Now":12661,"Ġspline":12662,"any":12663,"ĠReidemeister":12664,"Ġ))]":12665,"ĠSimple":12666,"Ġperturbative":12667,"aa":12668,"Ġcelebr":12669,"lectric":12670,"ĠRot":12671,"hift":12672,"fit":12673,"Ġderives":12674,"roll":12675,"ĠPerron":12676,"erve":12677,"ĠElement":12678,"Ġdigit":12679,"ðĿĳİ":12680,"bs":12681,"eurs":12682,"Ġeigenstates":12683,"))}":12684,"poin":12685,"Ġ]),":12686,"Ġá¹Ĺ":12687,"Ġbilliard":12688,"dm":12689,"Ġnegatively":12690,"akes":12691,"ĠÃ©lÃ©":12692,"atches":12693,"Ġstrand":12694,"pu":12695,"Ġdisag":12696,"ognitive":12697,"ĠNLS":12698,"Ġelaborate":12699,"ĠâŁ¨âĪĴ":12700,"ĠHochschild":12701,"Ġsegmentation":12702,"ĠDifferenti":12703,"Ġharmon":12704,"ĠClassical":12705,"Ġcritic":12706,"ĠEvent":12707,"Ġsubproblems":12708,"ĠSBS":12709,"aunay":12710,"Ġresistance":12711,"Ġstrategic":12712,"Ġelection":12713,"Ġrecognized":12714,"Ġallocations":12715,"ĠComputational":12716,"ĠHilb":12717,"Ġadvanced":12718,"ĠRademacher":12719,"Ġdominance":12720,"hentic":12721,"colour":12722,"zantine":12723,"âĢ¢)":12724,"reduction":12725,"tensor":12726,"apses":12727,"Ġsaving":12728,"Ġreformulate":12729,"Ġcoalgebra":12730,"dn":12731,"Ġdraws":12732,"Ġphotons":12733,"ĠInserting":12734,"Ġcharacterisation":12735,"Ġattracted":12736,"ĠÄ«":12737,"Ġignoring":12738,"Ġexistential":12739,"Ġhealth":12740,"Ġvu":12741,"Ġcomposing":12742,"Ġnormed":12743,"ï¸Ģ":12744,"Ġmidpoint":12745,"Ġcentroid":12746,"ĠÃħ":12747,"ĠdÎ²":12748,"Ġsear":12749,"Ġdegr":12750,"Ġescape":12751,"GT":12752,"Ġenjoys":12753,"Ġorbital":12754,"Ġlen":12755,"Ġlexicograph":12756,"Ġdeno":12757,"Ġ((âĪĴ":12758,"--------":12759,"semi":12760,"Ġexecuting":12761,"worth":12762,"ĠWilson":12763,"univers":12764,"uous":12765,"Ġupward":12766,"Ġboost":12767,"ĠScheme":12768,"Ġindexing":12769,"105":12770,"Ġ([âĪĴ":12771,"Ġunfolding":12772,"ICA":12773,"Ġinherited":12774,"Ġcoloured":12775,"ĠAlong":12776,"ĠConstruct":12777,"holtz":12778,"Ġfrequent":12779,"ĠTypically":12780,"Ġpromin":12781,"ĠDetails":12782,"ĠBal":12783,"ðĿĳĩ":12784,"HM":12785,"Ġmj":12786,"ĠVertex":12787,"Ġ61":12788,"ĠSturm":12789,"ĠSYSTEM":12790,"tie":12791,"Ġfoot":12792,"Df":12793,"intervals":12794,"divergence":12795,"bundles":12796,"Ġexperts":12797,"Ġsubtracting":12798,"Ġinvestigating":12799,"llig":12800,"ittlewood":12801,"haus":12802,"Ġrend":12803,"phy":12804,"Ġemploys":12805,"prim":12806,"Ext":12807,"Ġpus":12808,"varieties":12809,"ĠTx":12810,"Ġpivot":12811,"ĠLn":12812,"Ġresidues":12813,"Ġfinished":12814,"Ġlose":12815,"ĠâĬ£":12816,"LC":12817,"Ġplugging":12818,"ĠIndex":12819,"robust":12820,"zzo":12821,"ĠiÏķ":12822,"SR":12823,"Ġsie":12824,"Ġcorollaries":12825,"Ġrelativity":12826,"ĠâŁ©âŁ©":12827,"Ġquadrant":12828,"ĠdE":12829,"ĠFatou":12830,"âĭħ":12831,"morphisms":12832,"Bl":12833,"ĠExercise":12834,"Poisson":12835,"Ġcelebrated":12836,"Ġobservability":12837,"Hence":12838,"Ġorderings":12839,"Ġrp":12840,"Wave":12841,"==":12842,"sa":12843,"optimality":12844,"âĦĳ":12845,"Ġsolvability":12846,"Ġinten":12847,"Ġrelabel":12848,"Ġadiabatic":12849,"Ġidentifiability":12850,"Ġhighl":12851,"FF":12852,"ĠFPT":12853,"Ġtape":12854,"apr":12855,"Ġforgetful":12856,"Ġlis":12857,"Ġstepsize":12858,"ĠÎ±t":12859,"inverse":12860,"Ã©d":12861,"ĠÃĿÃĳ":12862,"Ġtyping":12863,"sians":12864,"Ser":12865,"Ġtransversality":12866,"Ġlegal":12867,"usted":12868,"Ã©tri":12869,"ĠCoulomb":12870,"Ġcorrected":12871,"Ġmolecular":12872,"dÎ½":12873,"burg":12874,"ĠMechan":12875,"Ġdifferentiating":12876,"structured":12877,"Ġfermion":12878,"Ġhing":12879,"Macaulay":12880,"SA":12881,"Ġslack":12882,"INE":12883,"osh":12884,"ĠLow":12885,"Ġranked":12886,"coherent":12887,"Ġroom":12888,"cub":12889,"Ġconcluded":12890,"Ġincorporating":12891,"titude":12892,"ĠCartier":12893,"Assum":12894,"}]":12895,"Ġscalability":12896,"ĠpH":12897,"ĠNak":12898,"family":12899,"itor":12900,"Ġstraightforwardly":12901,"bu":12902,"Ġquantification":12903,"gal":12904,"Ġascending":12905,"Ġremind":12906,"iller":12907,"abling":12908,"ĠEss":12909,"nr":12910,"vided":12911,"ury":12912,"Ġâ¨¿":12913,"emper":12914,"Ġmixtures":12915,"Ġdelicate":12916,"ĠBN":12917,"ĠGB":12918,"Ġsimulating":12919,"marked":12920,"Ġstrips":12921,"Ġwait":12922,"Ġconstructible":12923,"Ġintervention":12924,"ĠDifferential":12925,"Ġcolorings":12926,"rew":12927,"=(":12928,"Ġmultipartite":12929,"Ġcontainment":12930,"actability":12931,"Ġclassically":12932,"MDP":12933,"Ġepis":12934,"lector":12935,"ÂµÎ½":12936,"SIS":12937,"similarity":12938,"Ġcyclically":12939,"Ġtoy":12940,"Ġstudents":12941,"Ġpermits":12942,"ilo":12943,"Ġzi":12944,"ĠðĿĳĶ":12945,"ĠBrauer":12946,"Ġspecialized":12947,"Ġei":12948,"agin":12949,"Ġguard":12950,"Ġaggregated":12951,"Ġmassless":12952,"Ġmeant":12953,"alind":12954,"star":12955,"Ġphylogenetic":12956,"hered":12957,"quoti":12958,"ĠExplicitly":12959,"ĠâĬĹ(":12960,"Ġcompeting":12961,"effding":12962,"iy":12963,"ĠDynamic":12964,"dg":12965,"tx":12966,"Ġwild":12967,"ĠProtocol":12968,"ĠCSIT":12969,"Ġspine":12970,"First":12971,"Ġsubg":12972,"ĠSubsequently":12973,"BK":12974,"Ġenabled":12975,"aken":12976,"blematic":12977,"Ġuncertainties":12978,"Lapl":12979,"berger":12980,"ĠHigh":12981,"When":12982,"Ġspike":12983,"Ġrequested":12984,"osov":12985,"ĠHelm":12986,"Ġstabilizing":12987,"ĠIsom":12988,"Ġrealizes":12989,"Ġelegant":12990,"ĠrÃ©sult":12991,"hs":12992,"Ġ[âĪĩ":12993,"ĠED":12994,"ĠZp":12995,"MSE":12996,"Mon":12997,"Ġconflic":12998,"Ġsubsequences":12999,"atell":13000,"ĠDirect":13001,"Ġsucceeds":13002,"ĠðĿľı":13003,"ĠGn":13004,"Ġperson":13005,"ĠðĿĳĢ":13006,"Ġcarrier":13007,"Ġprepared":13008,"SD":13009,"Ġ(#":13010,"ĠvÃ©ri":13011,"Ġquantifiers":13012,"tingales":13013,"Ġmining":13014,"Ġbroadc":13015,"ĠÎ²i":13016,"ĠÃĢ":13017,"locality":13018,"ĠðĿĲ»":13019,"Ġextin":13020,"Ġrejected":13021,"ĠFortunately":13022,"Ġregisters":13023,"termin":13024,"simplices":13025,"founded":13026,"|âī¥":13027,"ĠYu":13028,"ht":13029,"ĠQuillen":13030,"Ġfitted":13031,"ĠCorresponding":13032,"ĠðĿľķ":13033,"acket":13034,"ĠSciences":13035,"Ġensured":13036,"Ġcast":13037,"ĠEstimate":13038,"Ġlandsc":13039,"ĠAE":13040,"Ġtrigger":13041,"Ġbubble":13042,"Ġinvestigations":13043,"Ġswitched":13044,"ĠðĿĳ§":13045,"Ġsignaling":13046,"Ġsell":13047,"ĠHen":13048,"source":13049,"Ġretraction":13050,"ala":13051,"ðĿĳĳ":13052,"}-":13053,"Ġfragments":13054,"104":13055,"validation":13056,"ĠBellman":13057,"Ġdrops":13058,"qs":13059,"information":13060,"Ġexclusion":13061,"Ġlearns":13062,"irectional":13063,"Ġreinforcement":13064,")âĮī":13065,"lds":13066,"ĠNoetherian":13067,"Ġhospit":13068,"Ġsubscripts":13069,"Ġrelaxations":13070,"Ġcipher":13071,"ĠpP":13072,"oler":13073,"Ġhexagon":13074,"ĠSIM":13075,"pZ":13076,"ĠKan":13077,"spl":13078,"Ġcomplexities":13079,"oherent":13080,"Ġqqq":13081,"compare":13082,"column":13083,"eger":13084,"gain":13085,"ĠDepending":13086,"103":13087,"ĠpÎ»":13088,"ĠChrist":13089,"ĠSiegel":13090,"adjacent":13091,"Tate":13092,"Ġshrinkage":13093,"iry":13094,"global":13095,"Ġprevents":13096,"ĠRx":13097,"ĠGE":13098,"âĨ¾":13099,"ĠâĪĴ[":13100,"ĠFast":13101,"ĠFlow":13102,"series":13103,"Ġstudent":13104,"Ġ/âĪĤ":13105,"Ġpatients":13106,"Ġsuited":13107,"Ġspent":13108,"ĠmÃª":13109,"Ġanchor":13110,"Ġsubmitted":13111,"Ġdeeper":13112,"entist":13113,"full":13114,"Reg":13115,"circ":13116,"va":13117,"Ġtransversely":13118,"Ġworked":13119,"ynamical":13120,"Ġbidder":13121,"Ġstem":13122,"special":13123,"Ġlamin":13124,"Ġuniformity":13125,"Ġunsatisf":13126,"Ġtransduc":13127,"ĠDyck":13128,"]/(":13129,"ĠSen":13130,"ĠUN":13131,"ĠIH":13132,"ĠBPS":13133,"Î©":13134,"Ġdummy":13135,"quas":13136,"Ġsequent":13137,"ĠEither":13138,"Ġnondeterministic":13139,"Ġscheduler":13140,"Ġdeployment":13141,"Ġformalized":13142,"ĠdG":13143,"Ġ|âĥĹ":13144,"ĠPRE":13145,"Ġunconditional":13146,"sampling":13147,"ĠHess":13148,"ĠCFT":13149,"Therefore":13150,"Ġcrow":13151,"Ġ67":13152,"Ġbath":13153,"Ġcondens":13154,"ĠRAM":13155,"lower":13156,"ĠShap":13157,"ĠDarboux":13158,"Ġexposed":13159,"spired":13160,"AK":13161,"MI":13162,"depth":13163,"ĠJohnson":13164,"Ġinflation":13165,"ankel":13166,"Ġbuyers":13167,"ĠPAR":13168,"ĠBon":13169,"Ġzig":13170,"Ġheap":13171,"Ġdifferentiate":13172,"Ġraw":13173,"112":13174,"ĠDesign":13175,"ĠFuture":13176,"Ġtermed":13177,"Ġadvice":13178,"Ġkh":13179,"Ġpointer":13180,"Ġpuzz":13181,"Ġanne":13182,"Ġresil":13183,"Ġsubmer":13184,"Ġgrey":13185,"PI":13186,"Ġinteractive":13187,"Ġsand":13188,"ĠMaslov":13189,"Ġoperates":13190,"Ġtors":13191,"ĠHal":13192,"Ġeconom":13193,"ĠMorita":13194,"Ġrecognize":13195,"both":13196,"Ġdigraphs":13197,"Ġprepare":13198,"isometric":13199,"ĠSmall":13200,"ĠDO":13201,"dÎ·":13202,"ĠâĪª{":13203,"Ġfruit":13204,"ĠImage":13205,"]],":13206,"Int":13207,"Ġunclear":13208,"Ġmult":13209,"ĠMD":13210,"FOR":13211,"ĠMB":13212,"Ġentail":13213,"Ġ]/":13214,"Ġquadruple":13215,"atorial":13216,"Ġinitialize":13217,"Ġmarks":13218,"Ġincurred":13219,"Ġ]âĪ¥":13220,"Ġinertial":13221,"dom":13222,"ĠArea":13223,"Ġidempotents":13224,"ĠLabel":13225,"otted":13226,"hib":13227,"frame":13228,"Ġig":13229,"Ġresonant":13230,"âĪĪâĪĤ":13231,"onacci":13232,"ĠBethe":13233,"Exp":13234,"ĠFree":13235,"princ":13236,"determined":13237,"Ġrx":13238,"Ġdiscounted":13239,"Ġstoring":13240,"zi":13241,"Ġcapabilities":13242,"Ġcokernel":13243,"Ġsupplement":13244,"Ġordin":13245,"Ġ+)":13246,"Ġarriving":13247,"Ġanymore":13248,"ÏĢn":13249,"ametri":13250,"Ġaz":13251,"statis":13252,"ĠIA":13253,"Ã³n":13254,"www":13255,"ĠðĿĲµ":13256,"Ġtessell":13257,"ĠðĿĲ¾":13258,"Ġoscillators":13259,"polyt":13260,"Ġtransforming":13261,"Ġ150":13262,"homomorphism":13263,"ividing":13264,"density":13265,"Ġbb":13266,"Ġcrystall":13267,"Ġmanipulations":13268,"ĠSitter":13269,"ĠDual":13270,"ĠKi":13271,"âĮĭ,":13272,"Ġactivated":13273,"Ġties":13274,"ĠBog":13275,"Ġdisp":13276,"Ġdeclar":13277,"ĠDelaunay":13278,"regman":13279,"abelled":13280,"ĠâĨĹ":13281,"Ð¼":13282,"ĠSal":13283,"|),":13284,"Ġsheet":13285,"ĠÎ¸t":13286,"ĠPriv":13287,"Ġtrapped":13288,"Ġ66":13289,"Ġruled":13290,"ĠStan":13291,"Ġtending":13292,"ARY":13293,"108":13294,"Ġ(Â¬":13295,"GC":13296,"current":13297,"Ġmultiscale":13298,"equilibrium":13299,"Ġsquee":13300,"char":13301,"tracking":13302,"Ġdiverse":13303,"SEP":13304,"Ġseminorm":13305,"ovanov":13306,"avoiding":13307,"Ġcharging":13308,"Furthermore":13309,"axter":13310,"Ġavg":13311,"Ġdefects":13312,"Ġoffspring":13313,"ingly":13314,"Ġpor":13315,"Ġvote":13316,"ĠSparse":13317,"Ġfinger":13318,"ACK":13319,"ĠGAN":13320,"trami":13321,"Ġapproaching":13322,"Ġsigma":13323,"pm":13324,"ĠReed":13325,"imir":13326,"Ġextrap":13327,"Ġcx":13328,"adder":13329,"Ġta":13330,"ĠErr":13331,"LAB":13332,"106":13333,"Ġcalibr":13334,"Ġresonances":13335,"Ġstair":13336,"Ġhighlighted":13337,"Ġ1996":13338,"ga":13339,"ĠFE":13340,"mers":13341,"structive":13342,"Ġplate":13343,"Ġmr":13344,"ĠAcknowledgement":13345,"arrier":13346,"ĠFT":13347,"chains":13348,"ĠMAX":13349,"ĠSets":13350,"ĠLOCC":13351,"ailable":13352,"Ġsatisfactory":13353,"\").":13354,"ĠEngine":13355,"ĠLDPC":13356,"Ġcontextual":13357,"ĠRequ":13358,"ianchi":13359,"Ġmalicious":13360,"Ġcentralizer":13361,"onicity":13362,"actional":13363,"Ġprolong":13364,"Î±t":13365,"Ġspeedup":13366,"ĠHK":13367,"ĠâĪ¥[":13368,"Ġcris":13369,"ĠTran":13370,"Ġregularly":13371,"cati":13372,"irreducible":13373,"ĠCard":13374,"Ġstably":13375,"generated":13376,"ĠÎ±Î³":13377,"Ġ?].":13378,"tique":13379,"Ġauthentic":13380,"ĠTA":13381,"ĠIde":13382,"Ġinvoking":13383,"Ġflags":13384,"Ġborrow":13385,"ĠRate":13386,"Ġdecreased":13387,"ogeny":13388,"Ġ|âī¤":13389,"Ġ.}":13390,"TIM":13391,"107":13392,"ĠPass":13393,"ĠEisenstein":13394,"Ġqueueing":13395,"Ġih":13396,"ĠSchwarzschild":13397,"Ġanswering":13398,"Ġmulticast":13399,"Ġae":13400,"ĠHelmholtz":13401,"Ġepist":13402,"Ġforthcoming":13403,"Ġloci":13404,"Fi":13405,"Ġfacility":13406,"ĠOutline":13407,"ĠâĢ¢(":13408,"Ġwinner":13409,"missibility":13410,"Ġrespond":13411,"Ġregularizer":13412,"ĠÏĥi":13413,"Ġsystematically":13414,"Ġjustifies":13415,"Äī":13416,"Ġactu":13417,"Ġvorticity":13418,"lease":13419,"symplectic":13420,"enna":13421,"veraged":13422,"ĠRKHS":13423,"post":13424,"ĠStill":13425,"Ġbimodule":13426,"Ġsurrounding":13427,"ĠRecent":13428,"usz":13429,"ahedron":13430,"Ã§":13431,"Vi":13432,"list":13433,"Ġacknowledge":13434,"ĠKra":13435,"idemic":13436,"ĠHM":13437,"cocycle":13438,"iloso":13439,"sations":13440,"ara":13441,"ĠâĪŀ}":13442,"Ġsolitons":13443,"Ġsj":13444,"Ġuncountable":13445,"Ġ68":13446,"Ġbrain":13447,"Ġprovable":13448,"ðĿĳĭ":13449,"ĠRussian":13450,"sler":13451,"invariance":13452,"Ġresultant":13453,"Ġpartly":13454,"osis":13455,"Ġpopularity":13456,"Ġsep":13457,"Ġproxy":13458,"Ġessence":13459,"ESS":13460,"eping":13461,"Ġlemme":13462,"ĠUl":13463,"Ġrealizing":13464,"Ġ(âĪĴ,":13465,"olf":13466,"âĪĴâĪŀ":13467,"again":13468,"avig":13469,"Ġgadgets":13470,"Ġprovably":13471,"1999":13472,"Ġspeeds":13473,"design":13474,"TIVE":13475,"ĠNt":13476,"Ġoscillation":13477,"ĠKullback":13478,"atson":13479,"Ġ(âĪĨ,":13480,"ĠBW":13481,"Ġexcluding":13482,"Ġâİľ":13483,"ĠOnline":13484,"overlapping":13485,"]âĪ¥":13486,"curl":13487,"Ġsteep":13488,"ĠðĿľĩ":13489,"Ġcocycles":13490,"ĠHaw":13491,"ovich":13492,"Ġthreads":13493,"ĠMoore":13494,"Ġseparator":13495,"Ġgoods":13496,"Ã¶m":13497,"Ġinvent":13498,"Gordon":13499,"132":13500,"Ġbids":13501,"Ġcv":13502,"region":13503,"Ġmist":13504,"ĠNUM":13505,"ĠEar":13506,"ĠPain":13507,"induced":13508,"ĠAdditional":13509,"ĠâĨĲâĨĴ":13510,"Ġloads":13511,"LT":13512,"Ġ::=":13513,"ÏĢk":13514,"outs":13515,"Ġfluxes":13516,"directed":13517,"UCB":13518,"terminal":13519,"Ġrj":13520,"Ġdominate":13521,"Ġstiff":13522,"board":13523,"hy":13524,"Os":13525,"ĠâĪĴâĪĴâĪĴâĪĴ":13526,"Ġunnecessary":13527,"cting":13528,"ĠMultiple":13529,"ĠPROBLEM":13530,"**":13531,"Ġdiscrimination":13532,"ĠâİŁ":13533,"Ġvoter":13534,"ĠByzantine":13535,"Ġblowing":13536,"Ġsat":13537,"Ġstyle":13538,"Ġpanels":13539,"ðĿĳĿ":13540,"potential":13541,"ulty":13542,"Ġproblematic":13543,"ĠOrgan":13544,"Ġstabilizers":13545,"Ġfo":13546,"Ġswapping":13547,":=":13548,"pan":13549,"ĠâĪŀ;":13550,"Ġoptimisation":13551,"All":13552,"Ġmt":13553,"Ġbraids":13554,"ĠFour":13555,"inity":13556,"Ġrelease":13557,"ĠFDR":13558,"Ġincorporated":13559,"ilding":13560,"Ver":13561,"geodesic":13562,"Ġobstructions":13563,"Be":13564,"phantine":13565,"Ġiu":13566,"Ġellipse":13567,"bel":13568,"Ġtruly":13569,"ĠCore":13570,"elsen":13571,"Ġanticip":13572,"TING":13573,"write":13574,"ĠMST":13575,"apez":13576,"ĠÎ±x":13577,"Ġaid":13578,"Ġbijections":13579,"ĠGenerally":13580,"Ġfloor":13581,"shift":13582,"Ġdivergent":13583,"phr":13584,"Ġassets":13585,"Ġcodim":13586,"Ġsparsif":13587,"fo":13588,"ĠKnow":13589,"NOW":13590,"Ġdestro":13591,"contained":13592,"tiable":13593,"Ġheterogeneity":13594,"ĠdY":13595,"ibler":13596,"Ġpreimages":13597,"ĠTT":13598,"Ġrm":13599,"Ġarcc":13600,"ĠFermi":13601,"ĠMeasure":13602,"128":13603,"Ġserving":13604,"Ġsubpath":13605,"thus":13606,"ernary":13607,"Ġelasticity":13608,"Ġpreconditioner":13609,"Ġqr":13610,"ressible":13611,"Ġmaximizer":13612,"Ġgal":13613,"ĠSketch":13614,"parable":13615,"compass":13616,"Ġpropagate":13617,"Ġart":13618,"Ġexamining":13619,"fitting":13620,"Ġbenchmarks":13621,"imodules":13622,"ĠLEM":13623,"GF":13624,"Ġ|}":13625,"Ġoblivious":13626,"ĠðĿĽ½":13627,"Herm":13628,"ĠDistributed":13629,"ĠPartial":13630,"Ġplacing":13631,"Ġáºĩ":13632,"Ġmaximality":13633,"quadratic":13634,"Ġscreening":13635,"ĠProcedure":13636,"Ã©gor":13637,"abolic":13638,"ĠâĪŀ))":13639,"ĠâĬ´":13640,"Ġattractors":13641,"Ġhereditary":13642,"Ġremarked":13643,"ĠRa":13644,"Ġpredicts":13645,"separating":13646,"satur":13647,"Ġqual":13648,"ĠAff":13649,"Ġgrand":13650,"alan":13651,"Ġenriched":13652,"Ġtourn":13653,"Ġfoundation":13654,"Ġbroader":13655,"Ġthickness":13656,"ĠXOR":13657,"ĠËĨB":13658,"ĠÂ¢":13659,"ĠBregman":13660,"Ġsubstr":13661,"Ġmutations":13662,"ĠDans":13663,".[":13664,"igible":13665,"xxxx":13666,"icing":13667,"Ġpersonal":13668,"Ġasymmetry":13669,"ĠHankel":13670,"rage":13671,"Ġresembles":13672,"Ġdecoupled":13673,"Ġsupersymmetric":13674,"Ġoperads":13675,"studied":13676,"KK":13677,"Ġdimin":13678,"Hausdorff":13679,"Ġcognitive":13680,"Ġmontre":13681,"Ġfiltrations":13682,"Ġdiscarded":13683,"ĠAI":13684,"Ġson":13685,"HA":13686,"Ġ{âĪ¥":13687,"Ġ81":13688,"Ġaus":13689,"Ġscho":13690,"selection":13691,"ĠQM":13692,"ĠSmith":13693,"Ġbridges":13694,"Ġpatient":13695,"Ġtour":13696,"ĠRiccati":13697,"ĠSay":13698,"composition":13699,"Ġrepul":13700,"Ġcosine":13701,"onomic":13702,"grading":13703,"ĠBerg":13704,"ml":13705,"Ġsubsolution":13706,"Ġconductor":13707,"bro":13708,"ĠAo":13709,"Ġadapting":13710,"ew":13711,"Ġcompanion":13712,"Ġut":13713,"version":13714,"Ġminimally":13715,"ĠDoes":13716,"ĠBeta":13717,"trivially":13718,"Ġrelaying":13719,"Ġvaried":13720,"Ġjt":13721,"pz":13722,"Ġ[]":13723,"âĢ¢|":13724,"Ġrotated":13725,"Ġprover":13726,"Ġmultiplications":13727,"Einstein":13728,"Ġsubroutine":13729,"Ġepidemic":13730,"ruct":13731,"topology":13732,"ols":13733,"gg":13734,"relative":13735,"Ġgenetic":13736,"ĠTransform":13737,"arents":13738,"SV":13739,"Ġobservers":13740,"ela":13741,"Ġoccurred":13742,"osting":13743,"Ġwarp":13744,"ĠQoS":13745,"portation":13746,"ĠpK":13747,"ĠInformally":13748,"elfand":13749,"Ġaffir":13750,"ĠEstimates":13751,"Ġrepetitions":13752,"Ġassociativity":13753,"ĠAnosov":13754,"ĠRelative":13755,"Ġpseudod":13756,"Ġannounced":13757,"Ġachievability":13758,"Ġtraversal":13759,"ĠAlgebraic":13760,"Ob":13761,"Ġabsent":13762,"Ġassocia":13763,"stabil":13764,"Ge":13765,"ĠÈ§":13766,"dq":13767,"Ġscientific":13768,"object":13769,"Fr":13770,"ĠEmail":13771,"ca":13772,"ĠKas":13773,"mative":13774,"ĠAutom":13775,"1998":13776,"Ġdescendant":13777,"Ġidentifications":13778,"Ġpassed":13779,"equivalently":13780,"follow":13781,"otz":13782,"Ġcup":13783,"Ġsemim":13784,"riction":13785,"Ġlock":13786,"haul":13787,"ĠiR":13788,"ostic":13789,"Ġinterl":13790,"Ġpicks":13791,"Ġspher":13792,"Ġsatell":13793,"momentum":13794,"Ġappend":13795,"Ġviolating":13796,"projection":13797,":,":13798,"ĠprÃ©c":13799,").)":13800,"comm":13801,"Ġdvol":13802,"Ġhyperparameters":13803,"AE":13804,"ought":13805,"Ġidentifiable":13806,"ĠðĿĳ¤":13807,"ĠComputer":13808,"othe":13809,"ĠGood":13810,"ĠEmpirical":13811,"complexity":13812,"Ġanomalous":13813,"âĦĺ":13814,"nodes":13815,"ĠBER":13816,"Ġ(),":13817,"although":13818,"Ġreli":13819,"ðĿĳĴ":13820,"Ġtf":13821,"Ġencompass":13822,"Ġdemonstrating":13823,"expected":13824,"ĠInitially":13825,"Ġdeliver":13826,"ĠÏµn":13827,"ĠEngineering":13828,"Ġresid":13829,"turning":13830,"Ġturb":13831,"ĠCÎ´":13832,"Î»n":13833,"Ġeman":13834,"bn":13835,"algorithm":13836,"ĠHi":13837,"Ġundefined":13838,"ĠðĿĲ¹":13839,"Ġrenormalized":13840,"Ġfavorable":13841,"Ġgoverning":13842,"ĠReturn":13843,"ĠÏģn":13844,"ĠNous":13845,"beck":13846,"PL":13847,"ĠIntel":13848,"velength":13849,"ĠTensor":13850,"Ġpeaks":13851,"ĠOpt":13852,"ĠLASSO":13853,"ulo":13854,"Ġhours":13855,"ĠLQ":13856,"Ġdeb":13857,"ĠDeriv":13858,"anes":13859,"cont":13860,"Ġtoroidal":13861,"Step":13862,"ĠÎ³i":13863,"Ġ1997":13864,"utte":13865,"PD":13866,"SW":13867,"Ġeliminating":13868,"igraph":13869,"ipheral":13870,"Ġspacing":13871,"adapted":13872,"Ġvn":13873,"ĠpY":13874,"ĠmÃªme":13875,"anger":13876,"ĠâĬ¥,":13877,"Leibler":13878,"Frobenius":13879,"CK":13880,"1996":13881,"behaved":13882,"Ġexclusively":13883,"abilistic":13884,"Ġstabilizes":13885,"ĠSupplementary":13886,"Ġprotected":13887,"Ġcirculant":13888,"Che":13889,"PE":13890,"Ġvisibility":13891,"Ġnorth":13892,"turing":13893,"Ġautocor":13894,"Ġelectronic":13895,"ĠFundamental":13896,"Ġtension":13897,"Ġnl":13898,"Ġoffered":13899,"Ġcomprises":13900,"Ġnine":13901,"Ġnoetherian":13902,"tinomial":13903,"Ġ{âĪŀ}":13904,"Ġcontra":13905,"ĠArch":13906,"onov":13907,"TA":13908,"itudes":13909,"rick":13910,"strÃ¶m":13911,"usting":13912,"Ġpredecessor":13913,"-,":13914,"hm":13915,"Ġell":13916,"auti":13917,"Ġinternally":13918,"Ġseeds":13919,"blocks":13920,"pT":13921,"akov":13922,"Ġimagine":13923,"Ġcited":13924,"Ġternary":13925,"Ñĥ":13926,"Ġcollapsing":13927,"'ll":13928,"Ġcontig":13929,"ĠWald":13930,"ĠSymmetric":13931,"ĠImplement":13932,"ĠSynt":13933,"ublished":13934,"ĠNy":13935,"ĠËĨt":13936,"ampled":13937,"Ġlifetime":13938,"Ġbackwards":13939,"gi":13940,"Ġexchangeable":13941,"nc":13942,"eu":13943,"Er":13944,"ĠpÂµ":13945,"Ġnormalised":13946,"Ġcyclotomic":13947,"Ġanswered":13948,"expansion":13949,"Ġdem":13950,"ĠConv":13951,"Ġbipartition":13952,"109":13953,"Ġsave":13954,"ĠLag":13955,"Ġpresentations":13956,"semigroup":13957,"Ġgained":13958,"ORK":13959,"ĠdM":13960,"oints":13961,"eling":13962,"ĠâĮĬ(":13963,"rial":13964,"Ġcentred":13965,"ĠQn":13966,"Ġdiscount":13967,"ularity":13968,"Ġcounterexamples":13969,"Ġdiscontinuities":13970,"ĠIso":13971,"Ġqs":13972,"Hz":13973,"Ġdivergences":13974,"Ġdescendants":13975,"Ġillumin":13976,"Ġbars":13977,"Ġdenoising":13978,"ĠRich":13979,"ĠTow":13980,"PH":13981,"Ġ112":13982,"Ġfrozen":13983,"rupt":13984,"Ġsemiring":13985,"Ġprominent":13986,"ĠBounded":13987,"dynamic":13988,"Ġconflu":13989,"Ġdetectors":13990,"ĠNorm":13991,"ĠKre":13992,"abe":13993,"Ġdecoupling":13994,"Ġappeal":13995,"perturbed":13996,"Ġexploring":13997,"GAN":13998,"BV":13999,"Ġunf":14000,"Ġquantiles":14001,"Ġrecalled":14002,"Hu":14003,"ĠEvaluation":14004,"insi":14005,"Ġnotable":14006,"nq":14007,")):":14008,"ĠRepeating":14009,"Ġcollapses":14010,"Ġty":14011,"ADMM":14012,"Ġimpr":14013,"Ġexcursion":14014,"pure":14015,"Ġselfadjoint":14016,"pc":14017,"tailed":14018,"orb":14019,"effective":14020,"ĠCoh":14021,
[...]
