<s>
<pad>
</s>
<unk>
<mask>
!
"
#
$
%
&
'
(
)
*
+
,
-
.
/
0
1
2
3
4
5
6
7
8
9
:
;
<
=
>
?
@
A
B
C
D
E
F
G
H
I
J
K
L
M
N
O
P
Q
R
S
T
U
V
W
X
Y
Z
[
\
]
^
_
`
a
b
c
d
e
f
g
h
i
j
k
l
m
n
o
p
q
r
s
t
u
v
w
x
y
z
{
|
}
~
¡
¢
£
¤
¥
¦
§
¨
©
ª
«
¬
®
¯
°
±
²
³
´
µ
¶
·
¸
¹
º
»
¼
½
¾
¿
À
Á
Â
Ã
Ä
Å
Æ
Ç
È
É
Ê
Ë
Ì
Í
Î
Ï
Ð
Ñ
Ò
Ó
Ô
Õ
Ö
×
Ø
Ù
Ú
Û
Ü
Ý
Þ
ß
à
á
â
ã
ä
å
æ
ç
è
é
ê
ë
ì
í
î
ï
ð
ñ
ò
ó
ô
õ
ö
÷
ø
ù
ú
û
ü
ý
þ
ÿ
Ā
ā
Ă
ă
Ą
ą
Ć
ć
Ĉ
ĉ
Ċ
ċ
Č
č
Ď
ď
Đ
đ
Ē
ē
Ĕ
ĕ
Ė
ė
Ę
ę
Ě
ě
Ĝ
ĝ
Ğ
ğ
Ġ
ġ
Ģ
ģ
Ĥ
ĥ
Ħ
ħ
Ĩ
ĩ
Ī
ī
Ĭ
ĭ
Į
į
İ
ı
Ĳ
ĳ
Ĵ
ĵ
Ķ
ķ
ĸ
Ĺ
ĺ
Ļ
ļ
Ľ
ľ
Ŀ
ŀ
Ł
ł
Ń
Ġt
Ġa
he
Ġâ
Ġi
on
Ġthe
ti
re
Ġs
Ġ(
Ġo
Ġc
in
er
ĠâĪ
Ġf
or
Ġw
en
Ġp
Ġof
nd
at
Ġ1
tion
al
Ġd
Ġb
es
ĠÎ
Ġ2
Ġn
Ġin
ed
Ġm
ro
Ġ=
Ġand
it
Ġis
Ġth
ar
Ġe
ĠT
an
Ġ)
le
is
Ġ,
ĠâĪĴ
Ġ.
Ġto
ing
ic
Ġ0
ĠÏ
et
Ġthat
om
Ġfor
ĠâĢ
ve
Ġre
as
ly
Ġh
Ġg
Ġ+
Ġl
Ġu
ation
ec
Ġcon
Ġwe
ll
âĪ
ac
ent
Ġk
ĠA
ĠS
ĠThe
ĠL
st
ow
si
Ġv
ĠI
Ġon
ĠF
ith
Ġpro
im
Ġq
ĠC
ce
ot
ĠP
ou
Ġbe
Ġsu
Ġ[
Ġr
ĠâĪĪ
Ġâī
Ġas
Ġx
se
ul
Ġwith
Ġan
ĠR
ol
Ġby
Ġj
ĠW
Ġ3
ĠN
ĠâĢ²
Ġst
Ġex
qu
ĠB
am
ver
ĠH
Ġ|
ĠM
ig
ĠâĢ¢
ore
ts
od
um
âĪĴ
ri
Ġare
ur
Ġde
ĠE
ut
ĠG
ab
em
ĠD
Ġcom
ch
ain
).
res
pp
ity
),
Ġal
ĠX
ction
tic
il
ate
Ġâī¤
tin
Ġwh
Ġwhe
ap
Ġ*
fin
iv
Ġpo
Ġ4
Ġthis
ct
el
ter
Ġcan
Ġ:
Ġcomp
ĠWe
if
ir
ure
Ġha
ge
un
ĠÎ±
ĨĴ
Ġy
tive
rom
oll
ĠâĬ
Ġï
pl
Ġï£
ĠK
ich
ĠIn
Ġor
ting
Ġle
her
te
id
Ġall
ĠÂ
Ġwhich
Ġfrom
iz
ĠV
per
Ġres
Ġhave
us
Ġif
Ġsp
ĠO
Ġ{
og
ollow
ĠâĨĴ
ad
Ġwhere
ition
orm
Ġnot
Ġfollow
Ġit
Ġz
ay
Ġat
Ġdis
ĠâĦ
Ġset
Ġpar
ĠÎ»
ĠâĪ¥
ma
Ġse
Ġsh
sion
ble
Ġus
der
ence
ari
ĠTh
orem
ect
ĠU
Ġdefin
of
ally
po
end
unction
ess
Ġsuch
oc
ant
ach
ations
Ġun
Ġtr
Ġch
ener
ection
tain
Ġcl
Ġfunction
ĠLet
Ġequ
ound
Ġob
Ġapp
all
ase
Ġthen
ple
ĠPro
Ġco
ution
ere
ary
able
ment
str
ies
ĠÃ
ated
Ġâī¥
du
act
ĠQ
ĠÏĥ
igh
Ġthere
ĠÂµ
Ġ>
rou
Ġ5
Ġne
and
ĠZ
Ġ<
Ġsub
ĠÎ²
tim
ĠÎ³
ĠFor
Ġone
ite
ace
Ġbound
Ġmod
erm
Ġma
ĠTheorem
ine
ĠÎ´
ati
ĠâĪŀ
ther
Ġgener
Ġsy
Ġqu
ond
Ġim
ĠY
Ġany
Ġtw
Ġhas
ill
sition
Ġform
ber
Ġass
Ġind
Ġgiv
Ġshow
alu
Ġresul
Ġver
ric
))
ĠÎµ
ĠÏģ
Ġeach
ome
ĠâĪĤ
Ġtwo
Ġpoin
ous
ĠÎ¸
].
ĠThis
ff
so
emma
ĠÏĦ
ince
form
os
th
Ġsim
Ġfin
ds
ĠÏĢ
ose
ĠLemma
ular
gor
ĠâĦĵ
Ġcase
ial
Ġnum
Ġad
rib
Ġden
ĠÃĹ
Î±
dition
Ġab
],
Ġexp
Ġwill
ree
Ġar
iff
ame
Ġfollowing
Ġstr
Ġgr
Ġmat
Ġsol
Ġme
Ġnon
Ġ6
âĪ¥
ans
irst
ĠJ
ote
eren
ical
Ł©
ĠThen
ud
Ġ),
Ġonly
gr
Ġsome
aph
Ġalso
ator
Ġcor
âĪĪ
Ġdiff
Ġfi
ep
ithm
position
Ġint
Ġgiven
ates
cl
ak
Ġtim
âĢ
ight
Ġ]
Ġ}
abil
etw
blem
ers
Ġnumber
ass
Ġinter
ance
Ġexis
ĠÎĵ
ĠFig
ĠÏķ
Ġ).
ire
Ġdist
ph
Ġes
resent
atis
Ġpre
enti
Ġvari
sider
âĦ
Ġ-
Ġmin
ork
gorithm
Ġlog
ĠÏī
ra
Ġproblem
ĠÏµ
Ġfollows
Ġassum
ension
xim
Ġobtain
Ġ:=
Ġcomple
Ġmodel
Ġfirst
ĠâĪĨ
ative
ĠIf
Ġop
Ġ/
Ġcondition
Ġso
ard
roup
Î»
ges
ĠÎ·
Ġrel
ĠÏĨ
Ġour
ient
Ł¨
Ġno
ong
ctor
op
Ġmet
Ġvalu
ves
Ġinte
Ġtime
Ġconstr
resp
ty
stem
atisf
uct
orph
Ġover
ability
.,
ĠProof
Ġsatisf
Ġproof
ĠAs
ality
Ġother
Ġcont
oth
Ġdes
ise
ties
Ġappro
Ġhe
Ġgraph
Ġwhen
Ġper
Ġrep
ĠÎ¾
Ġsc
ĠâĦ¦
Ġdifferen
very
Ġac
Ġsm
Ġsystem
ffic
ĠÏĪ
ective
Ġlet
Ġid
Ġsolution
ðĿ
Ġspace
Ġits
ust
Ġterm
ang
ĠÎ½
yp
Ġresp
Ġalgorithm
Ġdet
Ġline
ĠâĬĹ
ie
ast
Ġpoint
Ġ"
Ġdo
fore
Ġdefined
ort
ove
Ġuse
ĠIt
ism
Ġorder
gh
sis
Ġev
Ġtrans
Ġconsider
ample
Ġmap
ue
Ġfact
imension
nder
Ġevery
Ġsame
respond
Ġve
Ġreg
ord
Ġoper
ces
lement
ced
Ġen
Ġhol
ied
Ġcorrespond
ĠFigure
Ġthese
Î¸
ÏĢ
Ġusing
Ġproper
Ġlim
Ġgeneral
vi
amet
Ġdec
ark
Ġprov
Ġestim
Ġ7
omorph
Ġclass
ÏĦ
âŁ©
ost
ĠProposition
ser
rix
ents
00
ld
Ġro
Ì¸
ĠBy
ion
Ġout
Ġgroup
Ġfinite
Ġed
ĠâĪļ
Ġdistrib
Âµ
Î²
ĠâŁ¨
Ġext
ĠÎ£
een
Ġcomput
etween
ĠSince
Ġ8
ack
Ġbetween
now
ia
cess
Ġdisc
Ïĥ
Ġloc
our
ization
Ġunder
au
Ġprob
ption
les
Ġbas
Î³
Ġpl
Ġmeas
Ġsubs
Ġmatrix
Ġvector
ĠThere
's
Ġelement
Ġrec
fficient
Ġthan
Ġresult
efin
ĠâĪ©
Ġresults
Ġanal
are
Ġabove
Ġpartic
Ġsee
Ġmore
ould
tial
Ġsequ
Ġconst
Ġdat
ign
Ġexists
10
âĪŀ
hod
geb
xt
âĢ¢
plic
ĠSection
ide
ĠÌ¸
Ġrepresent
Ġcontain
ĠÎ¦
age
ĠCon
ize
mm
ted
Ġsince
Ġparamet
iqu
ĠÎĽ
Ġman
ulti
Ġmethod
ip
out
ĠâĬĤ
andom
Ġbut
Ġoptim
ke
Ġpoly
ðĿĳ
ever
Ġcur
Ġï£´
Ïģ
Ġ;
Ġlar
ian
Ġdistribution
nt
ized
Ġdefine
vari
Ġâĸ
Ġmay
Ġsection
Î´
Ġdenote
ival
ilar
Ġlinear
Ġrandom
ĠÎº
Î¾
ann
11
est
Ġtyp
âĨĴ
Ġfunctions
Ġstate
Ġdep
sitive
Ġmulti
tical
Ġsec
ower
âī
Ġprobability
Ġpoints
ected
equ
Ġoperator
âĦ¦
Ġinto
sed
Ġsmall
ĠThus
rodu
Ġ))
Ġpr
bit
Ġconver
olog
Ġprove
Ġstruct
pt
Ġused
ory
Ġpat
air
low
Ġminim
tinu
ĠTo
Ġmax
ors
12
vel
ĠSu
Ġdefinition
Ġparticular
Ġdesc
Ġdata
Ġtak
int
Ġcho
Ġboth
ating
ĠDefin
Ġnorm
Ġcol
Ġimp
Ġrem
Ġprocess
)|
ero
Ġnow
Ġconstant
uction
Ġsupp
Ġknow
Ġanaly
Ïī
ĠNote
Ġfix
Ġconn
gebra
Îµ
Ġcomplex
omial
Ġequival
Ġmeasure
Ġdeg
over
Ġbec
ĠÄ
Ġinc
Ġtri
Ġtheorem
ication
Ġformul
ures
etric
Ġimpl
Ġem
Ġnod
Ġwell
Ġpap
sible
ail
ĠâĪª
ix
ual
par
ving
epend
Ġdire
Ġpos
Ġwork
Ġassume
Ġsequence
ĠAl
omorphism
âĢ²
Ġcorresponding
clud
Ã©
Ġdifferent
Ġ10
Ġequation
Ġobser
Ġvalue
sing
ĠâĪĩ
Ġholds
aces
Ġimplies
Ġcall
Ġprodu
Ġpositive
Ġder
Ġsecond
ĠâŁ©
Ġneed
owever
Ġmaxim
ne
Ġcomm
Ïķ
Ġsing
ob
Ġsur
Ġpaper
formation
âĦĵ
ile
ten
ject
Ġup
Ġag
Ġdepend
Ġreal
put
Ġ9
Ġspec
Ġ\
see
ĠÏĩ
Ġcontinu
ii
Ġij
ĠâĪ¼
Ġapproxim
Ġdoes
Ġexample
Ġrequ
Î·
Ġwas
urther
Ġer
als
tex
ique
Ġpair
tices
Ġdimension
ved
old
ases
ĠâĬĨ
Ġappl
Ġmost
13
Ġtheir
ause
ĠMore
Ġchar
Ġredu
Ġinequ
nomial
ive
ampl
Ġbounded
eld
ice
ependent
Ġâĸ¡
ĥĹ
Ġpath
Ġstud
Ġterms
ood
Ġcompon
ectively
Ġsign
)(
Ġâĭ
Ġet
Ġdeterm
Ġstructure
ĠTherefore
wise
ger
Ġpresent
Ġ(âĪĴ
Ġlarge
Ġpolynomial
ens
nce
Ġstep
Ġinst
etwork
Ġacc
Ġclos
Ġidenti
Ġget
ĠðĿĳ
Ġintrodu
Ġsatisfy
hed
Ġref
ĠDefinition
Ġintegr
Ġhom
oci
ĠHence
gy
Ïµ
Ġarg
ĠÎ¶
sum
Î½
Ġvertices
ex
ry
Ġobtained
ables
ÏĪ
ough
ily
Ġexist
âĪĨ
20
Ġwr
14
Ġvertex
Ġvalues
Ġlat
ĠâĢ²âĢ²
Ġsimilar
Ġdenot
Ġran
Ġboundary
loc
ks
eng
15
Ġnetwork
Ġ12
not
Ġdom
Ġalgebra
its
Ġassumption
sid
Ġconditions
Ġlocal
Ġdia
Ġfind
Ġent
ays
Ġfixed
ered
action
acter
gram
ech
ell
Ġassoci
me
Ġerr
rough
vious
)-
Ġtype
Ġperform
Ġbeen
ft
ature
eed
istic
ÏĨ
Ġend
Ġzero
aus
ĠNow
Ġindependent
Ġrespectively
Ġdescrib
valu
Ġleast
ational
Ġsatisfies
ist
Ġá
ollary
Ġfr
ern
Îĵ
Ġedge
âī¤
Ġrespect
ov
Ġderiv
ential
ically
Ġcharacter
16
Ġthey
Ġinf
Ġsymm
Ġeig
tice
hen
ength
und
ull
ĠHowever
yn
Ġâ©
cy
Ġinequality
Ġoptimal
Ġsize
ĠâĨ
Ġcontr
..
Ġsets
vers
ĠSupp
ym
Ġge
ness
ĠRem
con
âĪĩ
Ġexact
Ġequivalent
ĠÂ±
Ġtop
tr
vex
iform
âĪĤ
here
hes
bin
Ġmust
inc
Ġmain
ish
Ġsum
Ġstand
Ġeigen
Ġcontinuous
ib
Ġtheory
19
ĠâĪ§
Ġini
Ġsimple
Ġaut
ag
ĠâĪĢ
Ġthus
Ġright
Ġsubset
ooth
Ġph
ĠÎ¨
atur
Ġaf
Ġsup
ĠAssum
Ġcou
}.
Ġconsis
Ġexpres
ĠCor
17
Ġnew
Ġdetermin
Ġhy
iction
Ġshown
sequ
Ġcod
ule
gence
Ġedges
ĠRemark
ology
Ġpossible
Ġpropo
Ġvariables
Ġconstrain
ĠMoreover
Ġproperties
Ġelements
Ġmon
Ġunique
ĠâĥĹ
Ġbecause
ĠSuppose
Ġproperty
lying
Ġlength
Ġeas
Ġeven
ĠÅ
Ġlimit
Ġthree
Ġaction
Ġhand
Ġinfin
ful
variant
Ġ20
Ġam
imensional
ning
Ġincre
round
ike
get
Ġindu
ĠEx
Ġdegree
Ġwould
ement
Ġgives
Ġshows
Ġdirect
Ġproj
Ġpart
ĠAn
Ġcalled
Ġparameter
onal
Ġlin
Ġfield
ĠÎł
Ġsche
elds
ĠâĭĨ
Ġcontro
tern
oint
Ġuniform
Ġfe
18
olic
Ġassociated
Ġcy
Ġsem
},
cc
ear
Ġerror
Ġdiscus
red
ding
line
ral
Ġbased
Ġinitial
Ġscal
dimensional
ible
ither
Ġsmooth
ck
art
tal
Ġwhile
ub
Ġclosed
Ġhence
ities
Ġstandard
Ġrequire
Ġrestr
Ġequal
Ġhyper
ĠCorollary
Ġstates
Ġway
Ġinformation
Ġproduct
efficient
Ġleft
Ġformula
ĠÎĺ
Ġrate
ynam
Ġallow
Ġthrough
Ġargum
antum
one
Ġï£¬
Ġapproach
lear
Ġfam
Ġnormal
Ġ11
Ġextend
Ġregular
Ġnatur
Ġmany
ulation
Ġmetric
Ġconstruction
mod
Ġconstruct
ven
ics
Ġconvex
ides
Ġï£·
Ġlower
Ġconnected
urn
Ġaddition
Ġremain
Ġser
Ġcontains
ighb
ategor
Ġeff
Ġcoefficient
Ġsurf
inal
anti
otic
usion
Ġcomplete
rop
ants
amples
ments
ects
gn
ane
Ġide
Ġsetting
Ġcompact
Ġdx
pper
Ġequations
Ġcases
tition
ange
Ġmean
val
ÃĹ
com
the
ĠFin
Ġknown
mma
iew
Ġsolutions
Ġsufficient
Ġunit
vial
Ġmo
Ġwhose
Ġanalysis
ordin
rices
Ġlemma
vol
Ġquantum
Ġcorre
Ġyi
Ġestimate
Ġiter
ward
Ġstudy
Ġprevious
tiv
ros
Ġarbit
Ġest
aim
annel
Ġ)(
Ġconf
Ġlo
plicit
ĠConsider
ympt
Ġnote
Ġsingle
Ġarbitr
alc
Ġ||
verse
bed
Ġima
clude
gative
Ġwor
row
ĠâĬķ
Ġdecom
Ġconvergence
Ġâī¡
omorphic
Ġeither
Ġnode
Ġdomain
Ġneighb
ymptotic
ifold
Ġsen
Ġpres
Ġcent
for
Ġparameters
ĠApp
Ġprec
Ġfl
ĠHere
Ġweight
ier
ha
etry
Ġmodels
sp
Ġrank
Ġopen
ĠOn
Ġlead
Ġsl
Ġstrong
Ġdynam
Ġgraphs
Ġgive
Ġcombin
cle
Ġwrite
Ġupper
âŁ¨
ings
ĠFrom
Ġrepresentation
])
Ġweak
ner
The
Ġconc
Ġpower
Ġsystems
Ġlevel
iven
echn
ĠâĮ
Ġtree
lection
Ġdistance
Ġchannel
asing
ific
Ġorig
Ġdiv
Ġnodes
Ġsay
Ġsupport
Ġexpl
Î£
sive
Ġhere
Ġener
ĠRe
Ġspect
to
ecess
Ġfactor
Ġbelow
Ġdiscre
Ġadd
Ġcoordin
Ġsym
ĠFurther
Ġlast
Ġinters
Ġgenerated
abel
Ġvariable
ually
Ġquanti
ording
Ġcalc
)/
ertain
Ġasymptotic
Ġgl
]).
sity
ĠCom
Ġgo
Ġmethods
Ġâ©½
ately
Îº
Ġhow
iod
ton
chie
Ġbasis
Ġbloc
Ġroot
ĠGiven
Ġmeans
Ġnatural
Ġmatrices
Ġmaps
ĠFinally
Ġproposed
Ġidentif
ĠâĬ¤
Ġabout
Ġtrue
ĠÂ´
ĠNe
Ġhigh
hood
Ġachie
ĠUsing
Ġeigenvalu
ind
Ġenergy
ug
Ġcos
Ġtherefore
ently
Ġcost
Ġproblems
Ġgeom
Ġthem
Ġpartition
ĠË
jective
ified
Ġla
ĠRec
Ġbounds
Ġcomponent
Ġcurve
Ġtechn
lect
Ġ)|
ĠOur
Ġindex
Ġchoice
Ġwithout
Î¶
Ġrelation
Ġvery
Ġspaces
Ġexpon
Ġgrad
Ġche
Ġnext
22
Ġnecess
Ġ'
ased
ÎĽ
Ġobserv
Ġcontrol
Ġprim
Ġcategor
Ġapproximation
Ġinfinite
Ġfamily
sian
Ġsin
Ġalong
Ġtake
ene
ĠâĪħ
Ġdenotes
Ġside
ave
group
ĠSo
Ġregion
Ġtotal
Ġsymmetric
mit
Ġfurther
)]
Ġstrate
Ġâĩ
ute
log
oss
Ġtre
ify
ĠâĪĴâĨĴ
Ġdetail
joint
iter
ĠCh
Ġnotation
Ġcir
Ġcompute
more
ĠSim
Ġbel
Ġcomponents
Ġembed
Ġindic
Ġdue
most
ences
Ġinvariant
Ġgu
pping
Ġstat
Ġsatisfying
ĠII
ĠSp
ĠFirst
Î¦
man
Ġextension
Ġalgorithms
Ġimport
led
ision
ules
Ġthose
Ġscheme
Ġapply
Ġnumer
erence
Ġread
Ġafter
ets
Ġtransform
Ġpri
Ġarbitrary
21
Ġinteger
ency
arch
Ġargument
ĠWhen
Ġfree
ĠInd
Ġtriang
Ġrepl
ead
ĠĠ
Ġexpression
verage
ĠâĢł
Ġdt
ĠâĬ¥
Ġshould
Ġgroups
Ġocc
Ġsepar
Ġbeha
Ġappear
Ġdensity
up
mon
Ġdiagram
ernel
edi
Ġclassical
Ġinput
Ġoperators
Ġbeing
plit
Ġlear
Ġexplicit
Ġconsid
Ġspecial
ax
Ġï£¯
Ġclaim
Ġtran
ys
Ġsurface
abl
Ġproved
Ġbi
Ġcap
Ġ13
ĠAlgorithm
Ġcannot
Ġbr
Ġke
Ġagain
Ġloss
inary
Ġsqu
Ġconsidered
Ġisomorphism
ided
Ġï£º
Ġclear
Ġmaximum
ĠAssume
Ġdecomposition
mis
Ġdescribed
Ġvia
ĠEq
Ġlabel
Ġ((
23
orphism
âĨĴâĪŀ
Ġ19
ries
Ġyields
)âĪ¥
)).
ways
25
Ġperformance
Ġprecise
Ġcoefficients
Ġinvol
perim
Ġinstance
ĠThese
Ġwere
ĠGaus
cept
clusion
24
Ġchoose
Ġenough
Ġexactly
Ġhold
oid
astic
Ġperiod
Ġversion
Ġflow
af
âī¥
Ġsense
Ġdi
Ġdirection
Ġlike
Ġpred
Ġalways
Ġir
Ġrun
Ġrelative
uting
Ġdiag
Ġav
Ġinterval
velop
Ġintegral
Ġkernel
eg
Ġprojection
ole
och
uch
Ġframe
ĠâĪ¨
Ġstar
ons
Ġcalcul
ĠOne
Ġ..
less
Ġdenoted
Ġcheck
rict
Ġestabl
ĠðĿ
ior
acy
ators
Ġvectors
til
umn
ult
Ġ16
linear
read
ok
Ġinterp
Ġcr
Ġview
Ġrelations
Ġhyp
Ġmake
Ġconclude
Ġexistence
endix
uc
sc
Ġcertain
ĠWith
Ġln
Ġ#
emp
ĠRecall
Ġstrict
Ġsubgroup
Ġimportant
Ġperm
Ġtra
We
Ġsuper
Ġbund
ĠExample
ared
estion
Ġtimes
izing
Ġrow
Ġhig
ĠFurthermore
Ġminimal
Ġprovide
Ġimm
ret
Ġbehavi
Ġevalu
osen
Ġdim
till
ĠSt
Ġcomplexity
Ġquad
Ġcomputation
Ġorth
Ġ([
Ġcolumn
Ġdiscrete
Ġintroduce
âĮ
Ġoccur
ante
sequence
Ġglob
ental
Ġrelated
ensor
ological
itten
Ġtor
Ġdifferential
Ġfound
Ġimage
Ġmaximal
Ġ`
Ġrefer
Ġpot
olution
Ġ...,
Ġatt
pr
Ġproced
graph
sif
sign
Ġchange
Ġmanifold
Ġlong
ĠSimilar
ility
Ġï£«
Ġï£Ń
Ġcontrad
otop
Ġï£¸
Ġï£¶
ĠTable
uted
(âĪĴ
Ġrad
rest
ĠâĻ
Ġ14
Ġchain
Ġdual
Ġsingular
itive
ON
Ġmorphism
Ġclasses
ict
Ġcould
Ġaccording
Ġ[?
Ġblock
Ġinduced
Ġidentity
Ġchosen
ching
Ġdevelop
ĠTr
Ġval
arily
Ġmultiplic
ĠGaussian
tri
Ġneighbor
son
hom
ired
Ġnumbers
rient
Ġimpro
ply
Ġclust
pos
other
ĠâĨĲ
Ġdesign
Ġnotion
Ġanalog
Ġemp
ĠIndeed
av
duc
igur
tit
Ġcell
Ġestimates
Ġbelong
Ġreas
Ġexperim
ron
Ġuniformly
odes
Ġback
Ġinterest
Ġcode
Ïĩ
Ġclose
Ġguar
Ġorient
Ġalmost
);
ications
izes
Ġstill
Ġstable
Ġtrivial
Ġaverage
Ġjust
Ġfull
Ġcorresponds
time
Ġfour
entially
Ġgre
side
Ġeasy
Ġprinc
Ġequivalence
ource
Ġprogram
Ġintroduced
Ġcover
Ġtest
Ġquestion
Ġsimpl
Ġhypot
Ġcurves
assif
Ġrecall
Ġinclud
Ġbefore
ade
dd
Ġill
Ġstatement
Ġplay
gether
ivers
Ġtogether
Ġguarante
26
Ġrece
sel
Ġturn
ustr
Ġminimum
):
âĬ
Ġstrategy
Ġexamples
Ġcategory
Ġposition
Ġimple
rent
Ġconstraints
ritical
Ġotherwise
Ġirre
Ġcoun
Ġsubsp
know
Ġmom
Ġoptimization
sib
zero
Ġcros
tically
ick
Ġnumerical
Ġsample
ĠCl
Ġvan
ĠNo
Ġ(âĢ¢
ount
Ġconfigur
Ġsufficiently
lation
ee
Ġphase
ĠPo
text
ances
Ġ],
Ġtransition
Ġenc
Ġseries
Ġvol
Ġsever
vant
Ġcommun
Ġeasily
Ġprocedure
)),
Ġ15
Ġcontained
bol
Ġseveral
Ġless
Ġ},
Ġwords
jecture
Ġintersection
Ġquas
ĠOb
Ġmak
Ġsuppose
Ġconven
ogene
ĠHam
27
Ġexpected
Ġassumptions
Ġbu
Ġact
Ġwhether
Ġconstraint
Ġadj
Ġdepends
TI
hesis
ĠPr
ochastic
Ġfre
amely
28
unctor
ĠAppendix
Ġlow
work
Ġglobal
ius
Ġrestriction
Ġcycl
rid
Ġassign
gin
Ġdifference
Ġoriginal
olds
Ġanother
Ġapplied
Ġnoise
Ġwhat
Ġcommon
Ġ{(
tics
Ġrule
wh
Ġfil
tivity
Ġallows
Ġsimply
ik
ink
Ġbo
Ġess
Ġpreser
Ġdecre
Ġwithin
Ġnegative
tur
Ġhigher
Ġobserve
Ġorbit
Ġ}.
Ġcompar
Ġrequired
ention
bolic
Ġsit
Ġord
order
Ġillustr
Ġclassif
Ġáº
elf
Ġpairs
Ġlattice
Ġupd
ras
ages
Ġlocally
Ġcanon
Ġel
ilton
Ġds
ĠâĪŀ.
Ġgeometric
Ġsampl
Ġimplement
Ġstochastic
Ġsatisfied
Ġdistin
Ġlearning
Ġcontext
Ġsumm
ĠâĪŀ,
Ġabs
ĠEqu
Ġimmedi
30
ansion
Ġconj
ĠGr
Ġexpect
known
ĠInt
Ġpresented
Ġgradient
)}
Ġshall
Ġoutput
Ġreplac
Ġauth
Ġdistributions
Ġproposition
Ġlink
ĠLie
Ġcomputed
Ġbecom
Ġstatis
ilib
Ġtaking
Ġtensor
Ġodd
Ġconverges
Ġdetermined
ĠSimilarly
Ġbundle
icted
Ġvalid
Ġconsists
Ġconnection
ĠÎ¹
Ġreason
Ġalgebraic
Ġembedding
ĠSte
Ġdu
Ġcoordinates
Ġpolynomials
Ġeigenvalues
Ġframework
Ġnecessary
DE
off
variance
Ġsplit
Ġpermut
Ġdynamics
tig
Ġmultiple
Ġsymbol
ips
ĠLe
pro
ilibri
Ġadditional
aves
cing
...,
ready
Ġprop
Ġsimplic
||
29
Ġinstead
ater
Ġbecomes
/(
Ġmuch
Ġprecisely
Ġpartial
Ġgood
Ġprovided
Ġfunctor
Ġshort
uring
Ġsteps
Ġequality
Ġ?
ceed
Ġdiagonal
Ġalready
Ġwritten
gebras
Ġincreasing
ĠNext
itz
Ġexpansion
Ġmodul
lo
Ġdirectly
Ġevent
Ġax
Ġcontrib
Ġ200
Ġcommut
ocus
Ġorthog
Ġseen
Ġmark
Ġnetworks
Ġspectral
ĠLa
Ġpaths
ĠHamilton
Ġcritical
tif
fine
Î¨
Ġfund
oun
Ġlarger
ogeneous
ĠÂ§
Ġunion
Ġreduced
ification
ĠWh
Ġself
Ġinves
Ġâ©¾
ropy
ĠBut
Ġsquare
alle
Ġaltern
.)
Ġgeneralized
Ġpotential
Ġstrictly
Ġrob
Ġprior
Ġbase
Ġdisjoint
Ġconstants
ights
ĠSch
reg
Ġrecur
Ġdistinct
ather
Ġmeasures
Ġstudied
Ġkey
bert
Ġens
Ġcanonical
uts
edu
Ġcharacteristic
Ġreduction
ĠAssumption
Ġconsequence
Ġdescribe
ducible
ires
fer
Ġaccur
Ġprovides
Ġ+âĪŀ
Ġinverse
ild
Ġbl
Ġï£³
Ġï£±
Ġresulting
Ġremains
negative
Ġï£²
Ġinduction
In
ety
Ġprac
Ġprot
ĠUn
Ġhowever
Ġ)]
Ġlines
ĠMark
Ġfocus
Ġmem
Ġequilibri
amental
Ġdistributed
Ġdesired
Ġefficient
Ã¶
Ġpolic
Ġadap
Ġcontaining
Ġdetails
ished
Ġneighborhood
ress
resting
ĠËĨ
jects
Ġloop
Ġcluster
ĠAlso
Ġ21
Ġuseful
Ġâī²
Ġformal
Ġdel
echan
war
Ġret
Ġquer
ĠDefine
ze
Ġmapping
oti
Ġtrain
Ġfields
algebra
32
Ġsuc
Ġsmaller
31
Ġbet
imin
Ġestimation
Ġcop
Ġrational
Ġcycle
ratic
Ġbest
Ġbehavior
Ġnear
Ġplane
Ġconstructed
(âĢ¢
Ġextended
Ġestimator
Ġcurrent
Ġuser
Ġhal
Ġlaw
Ġdiscussion
own
point
trivial
Ġgeodes
Ġtas
resh
Ġsuffic
ren
Ġlatter
Ġmonot
ope
Ġhypothesis
34
ormal
Ġapplications
Ġpertur
Ġbran
Ġstart
pped
ler
Ġideal
Ġsitu
Ġarc
ifolds
Ġ22
back
Ġleads
Ġtransformation
Ġsequences
otopy
âĥĹ
gest
Ġapplying
ale
Ġirreducible
ression
ĠAt
][
Ġcollection
Ġconjug
aight
Ġliter
Ġprocesses
Ġforms
Ġgrow
pose
ĠâīĪ
based
Ġâīĥ
Ġcontradiction
though
Ġsignal
Ġprobabil
Ġcirc
Ġfundamental
allel
Ġstraight
Ġsubspace
Ġhyperbolic
Ġamong
Ġ].
Ġsymmetry
ription
ĠAd
Ġrange
ĠâĪĴ(
iem
33
iii
Ġball
ĠâĪĳ
hema
Ġderived
ortion
sh
Ġtang
Ġorthogonal
Ġphys
dx
arget
Ġentries
Ġremark
Ġapplication
Ġmention
Ġshe
ird
âĢ¢âĢ¢
Ġtypes
Ġrequires
Ġmechan
Ġmoment
atives
Ġinvestig
Ġhor
ift
ably
Ġbasic
Ġspar
iques
Ġdone
Ġpi
Ġseg
Ġreturn
Ġsource
Ġtakes
ters
Ġsolve
Ġisomorphic
Ġsignific
iemann
forward
ER
pri
where
llip
Ġweights
Ġsimul
ux
Ġring
ocol
oy
Ġbegin
Ġ[âĪĴ
Ġhaving
ishes
Ġang
ĠSet
Ġfunctional
Ġunderst
Ġbetter
Ġfrequ
Ġiteration
Ġcorrect
Ġderive
Ġ)âĪ¥
atic
min
((
Ġdou
Ġderivative
Ġinteresting
Ġtes
Ġque
ices
Ġdedu
Ġcoinc
Ġaffine
sequently
with
Ġconsist
Ġtopological
ondition
Ġquasi
free
aches
Ġdef
Ġquoti
Ġvariance
raw
ison
Ġexponential
Ġmar
Ġquadratic
lec
ath
Ġmess
we
seud
Ġcar
Ġgen
Ġorigin
Ġtarget
ĠMarkov
gers
Ġsuit
Ġexplain
Ġbinary
ĠSub
rier
ilbert
ĠThat
Ġcons
ĠâĩĴ
Ġ100
Ġstability
Ġhalf
Ġdomin
Ġrest
IN
Ġapproximate
Ġtopology
ins
Ġrati
Ġvarious
)-(
Ġlay
Ġcut
Ġnamely
Ġutil
ĠFix
ĠObser
rees
Ġpost
rum
Ġstructures
Ġspecific
Ġeigenvalue
ĠÏĳ
II
35
Ġstation
Ġperiodic
Ġobjects
izon
Ġidea
sem
Ġsuffices
Ġ18
oding
Ġpossib
Ġdiffic
AR
ously
ĠCase
igure
Ġconfiguration
ivid
Ġcurv
Ġ(|
Ġobserved
ored
Ġuses
ĠSec
alities
ĠHamiltonian
lin
Ġstarting
ends
Ġentropy
Ġfac
isk
Ġsa
Ġunivers
ĠSpec
ecting
self
ĠDen
Ġdescription
bound
Ġconjecture
Ġgame
Ġsupported
hand
eness
âĪĪ[
ĠNotice
Ġfraction
ised
Ġaround
su
Ġsug
ymm
Ġpattern
wer
Ġpur
Ġwave
Ġtheore
Ġequilibrium
chitz
by
Ġoff
Ġestablish
Ġparallel
Ġrot
Ġcoordinate
ĠEach
Ġdy
Ġdiscussed
Ġprotocol
Ġavail
Ġround
zation
Ġcentral
Ġunc
ĠStep
Ġidentify
Ġdivis
Ġpass
mes
ST
36
ipschitz
Îł
200
defin
Ġassumed
ems
Ġdimensional
Ġinver
jection
Ġsamples
valued
monstr
Ġful
Ġcapac
SI
Ġdiscuss
Ġmass
SE
Ġtransmit
aking
ĠHom
ĠRiemann
Ġobjective
Ġthresh
vector
Ġsignificant
angu
Ġobject
Ġ17
Ġmix
Ġrather
Ġfiber
Ġobservation
Ġsubsets
OR
Ġdefinitions
Ġdetermine
Ġintegers
Ġeffect
Ġthird
Ġperturb
ef
Ġfinal
Ġsampling
Ġmade
Ġscalar
Theorem
Ġellip
Ġfinitely
ĠHilbert
ĠSee
Ġappropri
Ġcontroll
atures
isc
Ġdraw
Ġfib
ĠRes
Ġfail
Ġoften
Ġlater
aries
LE
mits
ĠIntrodu
ories
Ġcomputing
Ġparts
Ġadjac
Ġpure
Ġpolicy
Ġtaken
Ġpop
Ġrele
Ġpseud
Ġliterature
Ġans
Ġtraject
Ġarguments
Ġprinci
struction
Ġoperations
ĠAll
Ġanalytic
Â´
Ġrepresented
ume
Ġdepending
ivari
Ġgoal
ements
enari
zed
Ġgeneric
module
Ġconditional
Ġrepresentations
Ġ(âĪĤ
Ġspectrum
Ġplan
Ġsemi
ps
Ġagent
Ġmakes
Ġcoll
mand
Ġrepresents
Ġcontribution
Ġhorizon
Ġindivid
Ġdatas
Ġpack
ration
which
Ġmight
Ġcurvature
pe
ĠâĮĬ
Ġcoupl
37
Ġlangu
ape
ste
Ġavailable
Ġá¹
osition
Ġgenerality
ake
Ġcommunication
Ġknot
ference
Ġusual
like
Ġoperation
Ġselect
Ġautom
Ġremaining
Ġradius
osing
Ġcomputational
fect
idth
Ġdown
Ġsearch
tible
Ġtechniques
Ġdemonstr
Ġusers
Ġunderlying
Ġquotient
ĠGL
ĠIm
Ġcolor
ott
Ġable
Ġprime
Ġ24
Ġproofs
Ġcone
Ġimprove
izer
raph
Ġinequalities
mission
Ġenti
Ġ23
Ġsw
Îĺ
Ġprojective
Ġratio
ĠâĬ¢
Th
Ġwal
Ġrepe
Ġdeduce
olute
Ġrules
Ġfactors
Ġneeded
tingu
Ġcohom
Ġinner
Ġworks
Ġtrees
Ġitself
Ġinterpret
Ġdifferenti
Ġimply
Ġvariety
let
Ġobvious
iting
Ġtrace
Ġscenari
Ġextre
Ġsurfaces
Ġstrongly
ime
view
vals
Ġcomposition
ising
Ġimmediately
Ġjoint
Ġdefines
Ġnonlinear
(|
ank
puts
Ġalgebras
Ġ!
plec
Ġregard
ledge
iver
Ġverify
Ġiden
Ġinteraction
Ġstraightforward
Ġtriangle
Ġhel
Ġword
ĠAB
âĩ
DP
Ġï£°
Pro
Ġonto
Ġï£®
ĠIntroduction
Ġcapacity
Ġhomomorphism
CA
Ġgeodesic
Ġcount
Ġsolving
Ġï£»
Ġï£¹
ging
ĠÎŀ
stein
Ġfeas
Ġflat
Ġadmits
Ġpermutation
Ġabsolute
ĠEquation
Ġhomotopy
ames
Ġ...
isson
Ġthreshold
Ġwant
SP
Ġpiec
ĠMod
Ġsituation
Ġnecessarily
Ġindividual
ints
Ġuniversal
ots
Ġhomogeneous
cf
ĠEu
ĠDenote
40
Ġwhenever
plectic
38
Ġconsidering
way
Ġcomplement
Ġscale
ĠSh
Ġcub
Ġstationary
Ġsuitable
function
)âĪĴ
ĠÏ±
Ġones
AT
Ġweighted
Ġindeed
invariant
Ġlies
ecause
Ġcriter
Ġincreases
ĠLagr
Ġexplicitly
ash
apl
ming
Ġgeometry
ifically
elian
Ġinclusion
ĠUnder
Ġinterior
ude
Ġmotion
ĠIII
wards
Ġcre
Ġfar
Ġdeterministic
TION
Ġmatching
ode
Ġtraining
ĠÈ
wr
Ġbelongs
Ġagents
Ġempty
ĠâĪŀ)
print
Ġauthors
Ġapproaches
ploy
Ġproves
RO
Ġalloc
Ġvanish
Ġprinciple
Ġmach
âĪĴâĪĴ
Ġgenerating
ural
Ġmotiv
Ġcaus
39
Ġschemes
enerate
app
Ġproceed
ĠAr
Ġlist
Ġdimensions
ĠðĿľ
Ġappropriate
Ġevolution
Ġcompared
Ġexcept
Ġrobust
ock
Ġmeasurement
Ġslight
Ġinduces
ata
AC
ĠQu
Ġdecision
Ġ)}
Ġvolume
Ġ)/
ĠâĪĥ
idence
empty
Ġmechanism
tes
ĠObserve
Ġexperiments
)+
Ġformulation
Ġsimilarly
lic
ĠSL
Ġpric
Ġtransmission
anges
clide
Ġband
Ġknowledge
clidean
Ġachieve
Ġgap
co
Ġrates
ourier
Ġcovariance
uture
Ġempir
den
Ġautomorphism
ĠDir
Ġtangent
ience
ĠPoisson
Ġdouble
max
ially
Ġrestricted
Ġthough
sim
Ġarea
Ġnull
Ġsubgraph
Ġacts
âĩĴ
Ġspin
Ġduring
Ġexpressed
ĠCo
ĠMat
Ġcompati
Ġresi
Ġrig
ameter
ches
ĠAcc
Ġá¸
Ġconcern
Ġderivatives
Ġformulas
Ġinfinity
ometric
learly
Ġ25
Ġsuccess
ĠâĪĨ(
Ġexpectation
ĠLipschitz
iding
Ġpol
Ġcomparison
enc
Ġaccuracy
Ã¨
Ġcard
missible
posed
deg
Ġunitary
Ġhard
Ġcodes
Ġtermin
Ġlook
Ġtask
comp
EN
Ġcross
Ġsugges
Ġhar
Ġpropose
Ġmanifolds
Ġdistingu
ĠFourier
ctive
Ġreceiv
Ġarr
Ġmentioned
Ġexec
ES
Ġsimulation
Ġmathema
Ġyield
comple
Ġincluding
AN
uler
Ġdev
Ġcompare
Ġinclude
Ġperfect
izations
,...,
Ġarri
call
Ġmove
ares
Ġreach
Ġcompletely
Ġelliptic
dt
ĠCP
Ġhomology
ĠAf
ĠClearly
Ġdeveloped
Ġsaid
Ġ(âĪĨ
Ġupdate
Ġtheoretical
inear
Ġonce
col
Ġconsistent
Ġunderstand
Ġvis
Ġear
Ġtreat
Ġeffective
struct
Ġcohomology
Ġgain
Ġstated
âĮĭ
osed
Ġspati
tially
Ġinside
Ġsymplectic
ĠBe
Ġrole
enting
gies
rel
cts
Ġ|âĪĩ
Ġcircle
Ġmut
Ġsmallest
Ġaff
Ġprof
Ġfew
umer
ĠSc
Ġface
Ġrecon
Ġsubstit
Ġatom
ples
Ġcombinator
Ġobservations
face
Ġcombination
Ġintervals
Ġblocks
Ġdense
Ġsections
Ġred
]),
onic
Ġconclusion
Ġdefining
Ġcolumns
ĠÃĳ
Ġappears
ĠLapl
})
stable
Ġreduce
Ġpriv
Ġsphere
Ġcenter
sk
Ġclearly
eli
Â±
Ġstabil
Ġactually
Ġrelevant
Ġreader
ĠProblem
urable
ĠOther
Ġfuture
Ġtorus
Ġquery
Ġentire
lu
ĠÎ¼
Ġresidu
Ġaccount
Ġlargest
Ġadjacent
Ġalternative
Ġ)).
Ġclassification
ij
Ġindices
Ġâīľ
([
ĠBecause
Ġremo
Ġtool
ĠThey
Ġgeneralization
Ġcour
ymmetric
Ġfeasible
ĠAccording
Ġentang
Ġdeal
Ġholomorphic
Ġnonzero
Ġrese
ĠAut
Ġroots
ĠWhile
arithm
Ġfeatures
Ġselection
Ġâīª
ĠEuclidean
Ġasser
Ġincrease
ded
formal
Ġscaling
Ġâª
Ġshowed
vable
ĠSuch
ili
Ġopp
Ġlanguage
Ġgenerators
ĠÄı
Ġunknown
ipal
AL
cep
Ġprobabilities
Ġsubsection
Ġaim
Ġiff
Ġâİ
tite
IM
ĠBS
Ġpe
ĠdÂµ
Ġavoid
Ġenv
Ġgenus
Ġphysical
Ġessentially
Ġpers
ĠðĿĲ
Ġchanges
Ġsegment
ram
ystem
Ġrecent
set
Ġrisk
Ġestimated
Ġsubject
ĠIV
Ġgenerally
mat
Ġclosure
arities
Ġsparse
ĠAfter
ited
isation
Ġdirected
Ġgenerate
Ġvi
ont
ticle
Ġ&
cell
Ġiterations
Ġtable
Ġgau
Ġempirical
oli
ĠâĪĴâĪŀ
Ġdiver
Ġconsisting
tions
isted
Ġabelian
45
Ġgreater
defined
Ġreplaced
ross
ĠAg
lex
manifold
Ġerrors
41
Ġtechnique
ext
Ġmemory
exp
iom
Ġhelp
Ġstring
ĠPar
Ġtoo
type
Ġregularity
osite
Ġanalogous
Ġrewr
Ġensure
oin
Ġhapp
Ġcircu
|)
Ġinterested
Ġweakly
Ġregression
variants
ises
Ġmeasurements
Ġproving
Ġcorrelation
Ġspann
Ġachieved
ĠSU
Ġrelax
ĠâĻ¯
ĠConsequently
ĠClaim
Ġdependence
Ġput
SS
ĠSO
ĠGal
ivariant
Ġwalk
Ġcompletes
Ġregions
bounded
Ġ|=
ĠEuler
Ġmessage
Ġoccurs
Ġactions
Ġequals
Ġadmissible
Ġfeature
ikeli
Ġmodule
ikelihood
Ġâĸł
Ġconverge
Ġbit
Ġfully
Ġattack
Ġsk
Ġdz
Ġsimplicity
Ġcyclic
Ġlif
Ġund
Ġfinding
Ġwhole
Ġcourse
ĠLagrang
MP
iency
Ġreference
ading
Ġspeed
Ġuntil
esian
FT
ĠâĢ¢)
Ġmultiplication
Ġorientation
ĠâĪ¥âĪĩ
Ġanswer
Ġjum
Ġii
Ġcontrast
Ġcycles
cent
42
iron
unc
Ġgrid
ipar
Ġbox
âĪ©
Ġneeds
Ġrows
Ġestablished
Ġleading
Ġvertical
Ġgenerator
Ġasymptotically
Ġwhereas
Ġshowing
Ġfrequency
Ġcounter
50
Ġkeep
ĠHe
Ġidentified
nected
vity
Ġ)-
Ġdecreasing
Ġordered
Ġembedded
Ġproducts
)!
icts
Ġhome
Ġcrossing
erences
Ġoriented
Ġconstruc
Ġprincipal
Ġslightly
Ġrecover
ident
Ġemploy
Ġdifficult
Ġpolyt
Ġpiece
ĠCombin
Ġplace
Ġconcept
Ġguarantee
Ġground
Ġsummar
44
01
Ġdevi
anging
Ġbuil
Ġvir
Ġlayer
Ġreplace
Ġann
anced
PT
Ġcontinuity
Ġprice
Ġdri
Ġgauge
Ġanti
monic
plane
iqueness
apter
erior
sively
Ġparticle
Ġlie
ĠÃ©
Ġâīº
Ġleaves
Ġreduces
Ġtransl
port
Ġdecay
Ġhis
berg
Ġdiffe
roid
points
aly
ending
Ġbits
)âŁ©
Ġdisk
Ġquantity
Ġabstr
ched
roxim
Ġdynamic
Ġproportion
Ġspatial
AB
aps
space
Ġconcent
aw
Ġcorrel
Ġ(âĢ¢)
NR
ring
dle
MC
Ġguarantees
Ġvariation
Ġelementary
Ġbal
ĠLagrangian
Ġbecome
Ġsolved
Ġsymbols
Ġextr
Ġexh
Ġhorizontal
Ġcovering
Ġ30
ifferen
Ġintern
ĠId
âĨ
ultane
Ġshape
43
Ġperformed
Ġpseudo
Ġprediction
fi
Ġmis
Ġshar
Ġexplo
ograph
99
Ġenviron
Ġadding
herent
Ġfigure
Ġchannels
Ġker
EM
auch
Ġ32
itt
ĠCondition
Ġexpressions
Ġchoices
irect
ĠSubs
Ġsplitting
Ġtight
ources
Ġ])
Ġbre
Ġnaturally
gan
Ġadvant
Ġ({
Ġmer
Ġcomes
Ġquite
Ġcommutative
ĠPl
Ġxy
ĠJac
Ġnormalized
sur
Ġresearch
Ġsure
Ġoutside
Ġtu
Ġjk
Ġpractice
Ġtransformations
orel
PP
wo
Ġpreprint
olation
oring
bits
come
Ġchoosing
Ġsides
Ġangle
ĠÂ¬
Ġblack
auchy
Ġik
Ġassuming
Ġinvariants
Ġimplementation
eck
Ġcorollary
iti
Ġelect
Ġfa
ĠDe
Ġneighbour
Ġbott
andid
jor
Ġidentical
Ġlinearly
Ġaccess
Ġdegrees
Ġstatistical
ling
Ġdynamical
ĠPh
volution
Ġtechnical
Ġcompatible
IC
Ġamount
48
Ġrunning
Ġapplies
Ġgrowth
ody
categor
Ġcriterion
ĠAlthough
Ġstrategies
MA
Ġlogarithm
Ġintegration
Ġinterpretation
Ġcombinatorial
etries
Ġmeaning
Ġessential
Ġturns
Ġsimultane
Ġrelationsh
Ġextends
Ġtranslation
ĠSecond
46
Ġactive
Ġbro
ĠÎ¥
rown
Ġcalculation
Ġnonnegative
ĠCho
IT
Ġdataset
Ġvanishes
Ġomit
Ġplanar
,âĪŀ
ĠâĹ
che
Ġspan
Ġusually
Ġfeed
Ġparticles
ĠCauchy
ipped
lier
Ġarbitrarily
Ġreview
fficiency
Ġmachine
rief
Ġforward
Ġpay
Ġlinks
Ġswit
cles
Ġmodified
Ġmixed
acting
Ġgoes
Ġdivisor
Ġuniquely
Ġdr
Ġselected
Ġcells
Ġcandid
Ġ)),
Ġcontact
Ġmeasurable
times
Ġdomains
Ġanalyze
Ġpen
47
Ġdiscreti
ĠâĨĵ
Ġfast
ception
ĠBorel
sub
Ġcalculate
Ġmonoid
Ġlearn
ĠOF
Ġreport
norm
Ġdelay
ilies
rob
div
Ġcore
Ġtriple
cur
timal
Ġvirt
This
Ġauthor
aster
Ġscenario
Ġaxiom
dy
Ġeigenvector
Ġorbits
Ġpref
Ġexisting
Ġplayer
Ġindependently
Ġevaluation
Ġincom
Ġá»
Ġconser
Ġlabels
Ġordering
Ġ);
Ġdetailed
Ġplot
RE
Ġuncertain
ĠApplying
utes
Ġbelie
Ġattr
Ġperturbation
Ġpropag
ĠOp
utive
|,
Ġneg
Ġuniqueness
Ġrefin
ĠâĮĪ
Ġmoduli
Ġske
Ġmes
ĠÃĥ
Ġallocation
LS
Ġ[(
Ġmonotone
Ġadditive
called
Ġpractical
ularities
chron
Ġbig
vation
acle
Ġcapt
ĠAN
Ġdepth
ĠBay
Ġnotice
Ġimages
ĠEn
Ġbrief
Ġinterference
Ġacross
Lemma
Ġinvertible
Ġsimplicial
oper
Ġresolution
Ġinjective
Ġcoincides
arent
Ġconvention
PS
Ġvary
Ġdiffusion
Ġbranch
MS
ĠCombining
ĠExt
Ġpull
âĭ
Ġfilter
Ġexpand
Ġ,...,
Ġspecified
Ġcategories
Ġbipar
ĠCar
Ġutility
Xiv
Sch
ctang
Ġentry
ines
Ġpopulation
ĠIN
ta
Ġinstances
Ġsynt
Ġrespon
bo
sitivity
Ġfamilies
Ġ27
Ġcorrespondence
normal
vent
ĠâĬĶ
ĠâĪħ.
Ġlogic
Ġexperiment
Ġcharacterization
(âĪĨ
Ġinternal
anged
Ġaux
mal
Ġposterior
Ġbijection
000
hol
Ġcomputations
olated
sm
Ġseman
Ġreplacing
Ġequivalently
RA
tency
Ġmi
Ġassignment
Ġleaf
odic
width
HS
Ġtail
ermin
Ġtheorems
Ġtrajectory
MM
ibility
ĠRiemannian
ĠAnd
Ġarticle
ĠBo
ached
Ġzer
.(
Ġadvers
Ġmathematical
Ġrelatively
,âĪĴ
Ġcoupling
lim
hn
mann
Ġimmediate
atter
Ġmodulo
Ġchall
rete
ĠPer
Ġconjugate
Ġconformal
Ġcardin
ĠÃł
ĠOr
Ġaddress
Ġmaking
]:
Ġquantities
Ġpresence
Ġsimulations
Ġfit
âĸ
HE
Ġlight
Ġdifferentiable
pec
Ġinvestigate
Ġconfigurations
Ġshift
âĪª
Ġheight
change
Ġdiagrams
ĠLem
Ġpredic
ĠFollow
ledg
otent
local
Ġlabeled
godic
ground
Ġgraded
Ġveloc
Ġvelocity
Ġmorphisms
Ġosc
ĠOtherwise
ĠSP
Ġfore
49
els
Ġarcs
Ġdispl
pres
riting
overy
ĠBrown
ĠMon
Ġrotation
regular
nother
Ġproven
yl
grad
ites
ĠAgain
Ġrecently
Ġevents
Ġconclud
ley
rence
Ġbehaviour
|.
Ġwho
Ġsingularities
Ġjoin
Ġâĸ³
Ġ28
Ġaway
sue
Ġkind
Ġmarked
Ġparab
atively
ĠSpecifically
Ġefficiency
Ġestimators
Ġeffects
qq
Ġpartitions
Ġmajor
Ġnontrivial
Ġevaluate
CC
ĠTheorems
Ġwide
Ġ|,
Ġtrunc
Ġlimits
imal
Ġmonomial
ying
Ġaver
tinuous
ush
05
)))
Ġlikelihood
ĠMor
Ġ[[
Ġpurpose
ĠPre
Ġextensions
modules
Ġlocation
ĠAnother
ÏĢi
ured
Ġfaces
Ġpreserves
Ġseems
Ġblow
Ġstage
Ġconvenient
Ġrectang
Ġdirections
Ġduality
Ġisom
Ã¼
Ġmodules
Ġatten
ĠNot
ĠMa
ierarch
IS
finite
Ġpenal
ĠJacob
Ġintu
Ġimplicit
mer
Ġdemand
igroup
Ã¤
Ġproduce
Ġdefinite
ependence
ĠNP
ĠRep
Ġfeedback
oting
Ġdiffeomorphism
Ġeq
omen
Ġpairwise
Ġexponent
be
omin
Ġcoding
ginal
Ġadded
Ġcruc
ering
orts
Ġillustrate
CP
Ġenvironment
Ïĳ
case
Ġhist
reasing
Ġentanglement
convex
tw
ĠAck
Ġregime
Ġdig
Ġinflu
Ġnever
Ġpolar
(âĢ¢)
Ġtil
Ġscore
Ġcopies
Ġdistinguish
Ġsignificantly
Ġreceived
Ġinductive
tree
ĠAny
Ġtransfer
fully
ifies
Ġlevels
ectivity
Ġthank
Ġlemm
Ġallowed
eties
Ġensures
Ġequipped
Ġsubgroups
poses
iers
Ġextreme
Ġtem
Ġfractional
cal
]]
Ġagainst
Ġdetection
Ġrandomly
Ġparametri
ĠSome
Ġderivation
fold
ĠGener
Ġadop
ream
âŁ©,
ĠBr
herical
Ġbipartite
Ġstatistics
Ġpolyg
etermin
actor
Ġ50
Ġdiscon
ĠAb
Ġouter
nowledg
Ġles
Ġmetrics
Ġarrow
Ġalthough
Ġqueries
inter
Ġnotations
ichlet
ĠTwo
ĠâĦı
ĠAcknowledg
ĠðĿĳĸ
bes
Ġcardinality
Ġexponentially
Ġearlier
".
Ġexception
Ġpossibly
Ġdele
Ġruns
Ġbin
Ġbottom
part
Ġinference
Ġtypical
ĠBrownian
Ġintroduction
Ġcoincide
âĮī
iliary
Ġfinally
ĠâĪħ,
âĢ¢âĢ¢âĢ¢
Ġelimin
Ġdemonstrate
ĠÅ©
â©
ĠFollowing
ĠNew
ĠConjecture
Ġaxis
ĠST
Ġpreviously
vice
ĠRel
IG
Ġcare
Ġzeros
wor
Ġ|.
ĠÎ±Î²
Ġpx
Ġcircuit
Ġadvantage
Ġinvolved
Ġ26
Ġinfinitely
ĠarXiv
Ġ(âĪĩ
Ġergodic
ĠAlice
Ġintegrals
Ġrestrict
oder
Ġonline
ror
ĠdÃ©
Ġinv
iag
Ġindicates
Ġabstract
Ġow
Ġmoves
Ġstack
Ġdetermines
ternal
ĠBob
Ġways
alse
Ġincludes
ms
resenting
adic
amin
Ġinputs
que
Ġfiltr
ĠËļ
ĠVar
ĠâĻ£
uth
Ġadmit
Ġmultiplicity
...
Ġapproximations
Ġtesting
ĠâĪ¥(
Ġgoing
Ġinser
ĠâĪ¶
Ġnor
ropic
Ġstatements
Ġtowards
ector
Ġagg
Ġacting
Ġgames
Ġupon
Ġsettings
ĠLi
Ġâª¯
ski
ilinear
Ġpick
Ġextra
Ġ|(
Ġmultipl
Ġharmonic
Ġvanishing
encies
onom
henomen
Ġquantif
Ġmember
Ġtemp
Ġrelationship
idden
Ġinvolving
class
DF
ĠDirichlet
Ġsched
Ġsignals
Ġsimplify
Ġdeterminant
56
)âĪĪ
ĠTaking
br
Ġmarginal
];
Ġoscill
Ġitem
Ġtot
Ġgiving
Ġrepresenting
ĠâĮĭ
ĠStr
ĠSe
Ġtends
Ġrise
Ġexplained
Ġorgan
ged
Ġhierarch
Ġvers
Ġviewed
AP
ois
ĠBefore
Ġneighbors
tegr
Ġnature
Ġbundles
Ġadaptive
Ġmanner
Ġphenomen
âĪ¼
Ġsums
Ġsizes
Ġtrack
ĠReg
Ġattention
Ġinterpre
level
ĠDue
forms
Ġstronger
rank
gue
connected
Ġoverall
acian
âĬĹ
Ġclustering
go
dec
Ġworst
Ġmonotonic
Ġprobabilistic
âĪŀ,
Ġ199
ĠAC
ĠWithout
period
Ġintegrable
ulations
Ġtrajectories
Ġsingularity
semble
ĠForm
Ġprimitive
Ġcrucial
Ġresponse
edy
Ġexpress
Ġ(âĢ¢,
Ġparabolic
heses
ean
Ġauxiliary
Ġexecution
Ġintersect
teness
)[
DS
",
abell
As
Â¨
Ġsubsequence
iable
Ġelse
EC
ĠÎ©
Ġmoments
Ġincident
oted
Ġexhi
60
Ġmodular
ĠEvery
Ġ31
Ġjump
de
Ġdecoding
symmetric
ativity
gent
ensors
AS
Ġune
Ġadjoint
BS
TS
Ġsyn
ype
olean
Ġbra
Ġsurjective
Ġmid
ĠHa
Ġdeformation
Ġissue
51
mas
Ġpresentation
Ġconnecting
ĠOut
Ġbias
For
approxim
Ġintr
ĠÅ«
Ġends
Ġdependent
Ġinvolves
]-
Ġpositions
Ġrequirement
itian
Ġsurely
Ġmatch
ĠComput
Ġsimultaneously
Ġtypically
55
cri
atch
ĠThrough
Ġreceiver
mark
Ġassigned
Ġreflection
Ġconsum
Ġimproved
Ġpiecewise
Ġcalculated
Ġfoli
Ġsemigroup
reng
Ġunbounded
Ġlonger
Ġstudies
NN
Ġreferred
Ġpermutations
tered
Ġfair
Ġrepeated
Ġattain
Ġtreatment
Ġshif
Ġtorsion
Ġpolytope
Ġquadr
reen
Ġcontraction
illing
Ġlift
category
Ġideas
Ġpict
ithme
ĠÂ¨
hest
Ġtasks
Ġlimiting
Ġitems
active
Ġwhy
versely
tor
clic
Ġidentification
variate
Ġmode
optimal
Ġimplemented
Ġclusters
Ġproject
ogn
Ġpub
opf
Ġbroad
Ġplayers
hing
Ġoutcome
Ġchild
Ġfacts
Ġsquares
Ġcoc
Ġillustrated
tz
Ġcentered
tingale
Ġresol
Ġwin
Ġmessages
Ġdivergence
Ġ/(
ĠComp
ĠPS
Ġsubspaces
ĠBan
vially
ayer
Ġoutputs
Ġoverl
Ġvarieties
Ġaggreg
umul
Ġpartially
tima
Ġregularization
Ġprivacy
Ġdrawn
non
Ġep
medi
Ġopposite
Ġcomplic
Ġ()
Ġthroughout
Ġlimited
Ġformally
Ġbrack
ustif
52
ressed
stead
Ġyet
ĠEr
Ġsoc
Ġdifficul
Î¹
Ġdescent
ci
Ġquestions
Ġask
Ġtheories
Ġ[?,
Ġmaintain
Ġdescribes
Ġcf
ĠLy
Ġcomplexes
Ġrespective
Ġetc
't
poly
Ġmagn
mut
Ġ=âĩĴ
onormal
ists
Ġefficiently
Ġremainder
algebras
ĠHerm
Ġexternal
Ġdecreases
rimin
Ġsent
Ġconsistency
Ġcharacterized
Ġstreng
path
step
UC
ĠâĨĳ
ĠBoth
right
Ġfalse
ittle
Ġordinary
Ġlemmas
state
besgue
57
Ġuncertainty
Ġsemantics
ĠLaplacian
Ġsegments
Ġasp
Ġrewrite
Ġtests
Ġblue
Ġprofile
Ġminimization
ðĿľ
Ġrigid
Ġcountable
Ġfiltration
AM
ried
Ġpatterns
Ġwidth
Ġhypersur
Ġ[?]
Ġcombined
uing
ĠSym
Ġothers
0000
urity
ĠÏĸ
Ġdans
eter
Ġconvolution
ĠÃĤ
uristic
Ġincluded
Ġáºĭ
itude
Ġassertion
ĠTHE
Ġsheaf
overed
Ġoptimality
ĠOf
Ġactual
Ġtransport
(âĢ¢,
ensity
Ġhandle
ĠBern
Ġarithme
ĠFr
Ġpour
Ġ|)
âŁ©.
ults
ĠÂµÎ½
Ġhomeomorphism
¿½
Ġcopy
Ġprogramming
ĠProper
Ġbackground
Ġ??
Ġslow
Ġseparable
Ġmeasured
Ġbar
imod
Ġ})
09
Ġcandidate
Ġregret
Ġul
Ġreconstruction
orff
Ġevaluated
Figure
Ġreferences
Ġminimize
Ġher
Ġamplit
Ġgets
Ġvariational
atically
,(
53
Ġjob
Ġcus
Ġnond
Ġcounting
AG
edge
Ġspherical
CS
spec
ĠLebesgue
sities
Ġalph
lor
Ġâĸ·
Ġachieves
Ġenumer
Ġreturns
Ġ(âĪ
functions
Ġsends
Ġinterpreted
Ġcome
ĠEs
Ġnotions
Ġload
owers
Ġhappens
Ġresource
Ġ{âĪĴ
54
kin
Ġrelay
bi
olev
Ġ01
Ġnois
Ġunstable
periodic
Ġimplic
Ġsto
Ġindependence
ĠMulti
Ġprojections
Ġjustif
RS
Ġbeginning
Ġcausal
plan
ĠBanach
Ġproportional
Ġinvariance
ians
plex
dorff
Ġdeviation
istrib
Ġmarket
lder
ortun
ĠÂº
Ġorthonormal
netic
aton
Ġindicate
Ġencoding
ĠEnd
amp
ĠModel
Ġendpoints
Ġcombining
Ġminimizing
Ġpolyhed
ausdorff
Ġbriefly
Ġneural
ecti
Ġneighbourhood
Ġrecovery
Ġaug
Ġachievable
Ġpredict
Ġapplic
Ġbid
ĠBes
cd
199
oded
Ġown
Ġgenerates
timating
Ġhypotheses
Ġapproximately
Ġstri
Ġhighest
Ġuv
bre
Ġarise
adjoint
otropic
ĠAND
Ġtriangles
lock
Ġorders
Con
Ġincor
lli
Ġmultiplicative
Ġverified
Ġmatter
ĠAx
Ġcoar
ibb
58
Ġcomplicated
Ġinsp
erial
Ġhad
Ġconvenience
Ġconnections
ĠSNR
Ġdatasets
ĠGe
Ġqq
that
Ġ(âĥĹ
Ġshare
ĠLemmas
Ġcharacterize
ensive
ĠâĬĻ
Ġxx
iring
theless
Ġquality
Ï±
ecutive
Ġcompletion
Ã©s
Ġ29
({
use
Ġdiscrimin
linder
oral
Ġqueue
cepts
08
Ġtemper
Ġpreserving
Ġfactorization
Ġconcludes
Ġplac
Ġcalculations
ĠBayesian
mediate
lecting
Section
umann
Ġsof
enef
ĠLP
Ch
Ġguaranteed
ĠPRO
ĠTake
LP
Ġmomentum
ĠChoose
Ġmic
Ġreve
Ġrealization
Ġprocessing
Ġnonempty
ĠChapter
Ġunless
ulus
ogen
Proposition
âĭĨ
aylor
Ġaverag
ĠâĪĴâĪĴâĪĴ
edom
Ġintersects
Ġvariant
Ġrever
ĠCR
dependent
Ġspe
ĠRic
Ġtrade
bl
ĠBased
roben
Ġrough
Ġskew
xy
icon
cop
Ġsket
Ġji
Ġflows
pecially
ĠÄĢ
ah
Ġgeneralize
Ġdiam
Ġclosely
Ġsetup
Ġrecursive
ses
Ġdifferences
Ġdv
Ġmesh
Ġsolves
unov
Ġloops
arÃ©
Ġsuggests
obolev
Ġâī«
unct
Ġbody
ET
field
Ġproduces
matrix
zing
ED
phas
lected
Ġanalogue
ĠNon
ĠMC
+âĪŀ
ĠIs
Ġcontent
Ġunits
robenius
brid
Ġmoreover
Ġmed
Ġadapt
na
rag
Ġconsecutive
GL
Ġsimpler
Ġappearing
Ġvirtual
Ġpassing
Ġbuild
Ġstream
Ġoracle
Ġmn
ĠVI
Ġalphab
Ġcoherent
ĠRef
Ġamb
Ġneither
Ġfaster
Ġnoted
scale
Ġimpos
ĠThroughout
erc
Ġinvolution
Ġlogarithmic
Ġarithmetic
Ġthink
Ġsynchron
Ġdistances
Ġpriori
ĠHopf
chain
incarÃ©
ĠÄĽ
Ġnorms
Ġsays
ĠIts
75
Ġisolated
Ġrelies
Ġconstrained
Ġconverse
ĠBl
Ġ00
Ġbenef
Ġsubsequ
Ġcompe
Ġsignature
Ġcosts
Ġheuristic
izable
gru
strain
Ġemphas
Ġcontradicts
Ġsubstitution
yond
Ã¶lder
âĪ§
por
ĠSC
Ġservice
ĠâĩĲ
Ġremove
Al
otopic
avity
diag
Ġendow
Ġformer
Ġcorrection
complex
Ġ33
Ġsaf
Ġremoved
ĠCompar
Ġschedul
Ġwire
Ġinterpolation
Ġscenarios
Ġunderstood
Ġapproximated
Ġther
Ġdon
Ġplus
Ġaccurate
no
Ġpreced
irected
Ġpowers
Ġfive
apunov
roupo
Ġmixt
opes
Ġtools
Ġlocus
Ġsocial
--
hard
Ġchains
Ġconfidence
ĠVer
Ġlabell
ulated
Ġcontributions
mar
Ġyear
Re
Ġreward
âŁ©âŁ¨
Ġanten
fl
Ġpq
ĠBC
Ġfreedom
cor
tu
06
LU
ĠâĪĨ,
ibr
roupoid
Ġlengths
Ġboundaries
Ġimpact
Ġshortest
Ġtuple
Ġtransitions
Ġmaterial
Ġnovel
Ġinteractions
Ġexchange
Ġintermediate
](
Ġmodes
Ġcylinder
Ġobtains
Ġtrivially
ĠInstead
Ġ40
ĠTaylor
ĠMin
ĠDes
Ġinfluence
Ġgeneration
ĠâŁ©,
Ġtrad
Ġspecify
Ġmoving
Ġconstructions
Ġsampled
Ġappendix
Ġespecially
ĠÃ»
59
Ġpossibility
Ġmatroid
Ġinfer
Ġsharp
ĠCO
ĠExp
Ġâī»
ĠAD
Ġunderstanding
Ġkl
paramet
ĠSV
complete
rem
Ã¡
selves
ĠAP
Ġprog
Proof
Ġsparsity
istence
Ġcovers
ĠUp
parameter
ĠConversely
Ġpush
Ġarises
Ġconvexity
zz
ĠChe
Ġmag
ĠðĿĳĽ
equival
Ġexperimental
ĠNewton
Ġdegenerate
gener
Ġconstit
isim
ĠCart
Ġsummand
Ġimag
icting
ai
head
ĠÄħ
Ġfulf
ĠÅľ
Ġcalculus
Ġtrop
Ġdecrease
Ġdiameter
Ġfollowed
Ġhyperplane
Ġte
Ġstarts
Ġestimating
Ġpapers
ĠLyapunov
ĠCF
Ġequivariant
GD
ĠWeyl
Ġdiffer
Ġsix
Ġballs
Ġconstructing
Ġwind
Let
Ġdeform
Ġdid
Ġadapted
ĠCS
64
Ġtan
Ġtotally
ï¸
Ġformed
Ġ34
Ġhighly
Ġtriangulation
Ġimportance
Ġvaluation
ula
Ġnoting
ĠâĩĶ
versal
Ġbases
Ġkernels
Ġspl
bility
Ġnil
Ġfails
Ġsources
ĠMathema
Ġsolid
Ġcodimension
Ġspanning
Ġcontinuously
80
Ġbeam
ĠâĨĴâĪŀ
ĠNamely
ancy
abor
Ġparticularly
Ġparity
erving
IP
67
Ġrepresentative
St
Ġrestrictions
Ġseparately
ensus
itively
sigh
left
Ġpointwise
singular
Ġ{|
ether
Ġsimplex
Ġprograms
Ġpp
manifolds
uli
ĠÄ¤
ions
Ġcondu
weight
02
theore
rep
Ġtransitive
ĠÄĥ
Ġeventually
ĠBound
ĠHausdorff
Ġcontroller
Ġimprovement
Ġfibration
Ġdeep
attering
Ġign
FS
Ġresidual
Ġxi
Ġindexed
Ġlikely
rian
Ġtoric
Ġcubic
acts
Ġmagnitude
Ġtext
term
ĠSobolev
ey
Ġnumerically
Ġpicture
Ġflu
Ġkn
Ġnormalization
ĠNeumann
Ġarch
Ġiterative
anc
Ġrandomized
ĠDirac
hler
Ex
Ġcomputer
Ġwhite
ĠDec
Ġreasonable
faces
ĠGraph
aten
Ġcomputes
Ġrigor
ĠResults
ĠPO
Ġversions
ĠCON
tro
Ġcontin
Ġminimizer
ended
ested
herence
cos
ĠMo
ues
)}.
Ġprecision
ĠÈ³
ĠSubsection
Ġcompleteness
instein
Ġvarying
Ġbilinear
dz
Ġfunctors
ĠÄ¥
Ġknots
Ġthesis
Ġpayoff
Ġrooted
equivariant
odrom
Ġ(?
Ġeverywhere
Ġslope
â©½
ĠMan
ĠBoolean
Ġ)âĪĴ
Ġaugment
ĠPoincarÃ©
ev
ĠPart
ounts
Ġattrib
Ġmonotonicity
ĠAddition
Ġcongru
Ġbreak
Ġcircles
orn
Ġpointed
Ġcomb
Ġconcentr
ĠKL
66
Ġcontrolled
Ġhidden
ĠLaplace
arity
Ġimpossible
Ġplays
Ġterminal
gl
Ġstead
Ġpt
Ġhull
Ġformulated
Ġsi
Ġdensities
Ġmixing
itness
Ġbif
Ġarray
aut
Ġcommutes
07
arc
Ġ|âĪĤ
IR
Ġchanging
Ġthanks
ĠWr
ĠðĿĳĺ
Ġtemperature
ĠGalois
Ġlayers
Ġlocations
\{
Ġstopping
Ġspanned
entials
Ġsymmetries
ĠÏħ
Ġbeyond
acted
this
ĠdÏĦ
Ġconcerning
Ġcharge
ashed
Ġreads
eas
umber
Ġremoving
Ġinvestigated
Ġtopolog
ken
Ġbraid
Ġupdates
Ġpacket
Ġidentically
Ġpast
Ġseparation
Ġá¹½
Ġcarry
Ġstructural
ker
Ġperforms
alog
Ġdesigned
Ġintroducing
ĠCher
Ġensemble
ĠPDE
Ġcomputable
Ġsituations
Ġchallen
Ġdiscretization
Ġvac
Ġcolors
Ġargue
bles
68
Ġproperly
Ġsn
word
izers
ĠCH
Ġspacetime
preserving
ĠGeneral
Ġspecifically
Ġbalanced
Ġrecogn
hic
Ġdepicted
Ġtell
Ġtruth
iability
uk
Ġnoisy
ycle
UL
ĠPic
Ġworth
Ġscales
Ġsometimes
ĠFrobenius
ĠDo
Ġrounds
Ġdrop
ĠâĩĲâĩĴ
tine
Ġalternating
Ġadv
Ġtreated
Ġfibers
Ġopt
Ġtun
Ġ(âĪ¥
Ġarrive
Ġappe
Ġsteady
Ġtriangular
Ġreasoning
Ġeigenvectors
ATION
Ġprivate
ious
Ġtwice
Ġisometry
100
size
arr
Ġclique
Ġmodify
Ġcorrelations
meas
Ġrelaxation
ands
ĠProp
Ġseparate
ĠTrans
Ġinstant
ĠMet
Ġcontinue
ital
Ġidentities
Ġalphabet
ĠâĬĥ
Ġcollision
ĠSum
Ġprefix
âĪŀ)
Ġforce
Ġpa
heres
Ġmodification
Ġsecurity
Ġabsolutely
Ġpopular
Ġbuilding
(âĪĤ
efinite
ilities
ĠBer
Ġsuff
Ġmodeling
Ġlittle
Ġdiscussions
Ġglobally
Ġpenalty
orting
Ġisomorphisms
ĠSE
Ġrequirements
Ġ=:
urc
ĠHÃ¶lder
pective
evertheless
ĠSm
Ġorganized
04
Ġgeodesics
Ġserver
Ġrou
trans
Ġrecursion
Ġobtaining
loop
ĠOnce
Ġorb
Ġcusp
98
ifferential
Ġ)+
warz
Ġcolour
comes
lects
ĠFIG
irm
Ġcoupled
Ġissu
ĠÃ¿
yper
Ġsubst
Ġqubits
Ġexper
ĠâĨĶ
65
dis
Ġbad
Ġexceptional
degenerate
Ġgrows
oses
ĠdÎ¸
Ġcoarse
Ġautomaton
Ġseem
Ġtwisted
Ġregarding
Ġextremal
Ġbandwidth
owski
omp
DI
Ġfluid
)=
Ġcoloring
61
Ġcombinations
ocal
Ġflux
Ġcube
ĠNevertheless
Ġname
yclic
homogeneous
Ġphysics
Ġseparated
Ġce
Ġweaker
Ġmul
uniform
Ġgreat
ĠâĦľ
Ġprimary
Ġtwist
Ġstatic
BC
Ġwa
ĠType
Ġleave
78
Ġtransverse
95
Ġwish
itect
Ġstands
70
Ġperturbations
Ġinsigh
process
Ġpage
Ġrescal
Ġadversary
Ġatoms
actions
Ġmartingale
Ġgroupoid
ĠâŁ©.
ĠÅ¨
Ġnice
Ġpropagation
Ġsort
Ġworking
)].
Ġheter
Ġwitness
Ġrealized
Ġdescribing
Ġsad
62
Ġcarried
Ġtraffic
smooth
Ġ[?].
Ġsucces
Ġconcave
Ġperspective
ĠAnaly
Ġembeddings
ethe
Ġletting
Ġpolicies
Ġmixture
Ġcreate
Ġparent
ube
Ġá»¹
Ġcontour
Ġstore
Ġsake
Ġexhibit
Ġdegener
Ġexceed
Ġoutper
Ġperforming
cript
Ġscattering
Ã¤hler
Ġá¹¼
Ġdatab
Ġslot
ĠDisc
Ġdoub
illed
Ġ.)
63
Ġpresents
ĠCC
ĠEven
orage
Ġincorpor
Ġrely
ĠâĭĬ
ĠChern
ĠHermitian
Ġreverse
sure
vered
Ġheat
Ġ[?],
Ġdominated
Ġlattices
Ġpara
ĠKer
ĠÄĿ
[(
Ġconcrete
ĠMonte
Ġactiv
Ġáº¼
,+
Ġsensor
Ġsimilarity
Ġstudying
iminaries
ĠSS
77
Ġimaginary
Ġreasons
egend
AD
Ġsequential
Ġproviding
Ġcovered
ĠMax
Ġsubsequent
px
Ġposs
Ġgreedy
Ġassociate
Ġideals
arest
Ġminor
Ġreported
since
Ġaccept
Ġvehic
Ġalign
Ġdominant
Ġyears
roduct
Ġdetect
Ġangles
ĠâĪŀ),
lar
aching
88
Ġbir
Ġrepeat
Ġbranching
Ġpurposes
Ġpurely
Ġport
OM
ĠSections
Ġbifurc
Ġprefer
Ġhappen
Ġil
earch
Ġmonoidal
Ġforest
Ġapplicable
vergence
âĪĪ{
Ġá»¸
umerical
Ġcooper
Ġdg
Ġallowing
ĠConclusion
Ġstrings
Ġshared
Ġpreserve
ðĿĲ
Ġconvergent
Ġoutcomes
BM
Ġhypergraph
Ġproduced
Ġpu
compact
âĮĬ
Ġsimplified
03
ĠDel
Ġ36
Ġrings
ĠAssuming
ulate
Ġsite
Ġconcentration
Ġmapped
Ġformulate
Ġpullback
gs
io
commut
ille
AV
king
ench
Ġarchitect
Ġdifficulty
Ġtropical
Ġfoliation
Ġmultivariate
Ġquantization
Ġvalued
69
prising
Ġstrength
Ġ|||
oung
Ġconsensus
Ġarising
Ġ|âŁ¨
87
ales
Ġpunct
respectively
Ġanalytical
Ġmargin
uctu
Ġisometric
Ġfourth
LL
Ġâĭħ
ĠHod
Ġmaximize
Ġsatur
crib
Ġinfinites
lig
Ġevol
ĠPut
apping
Ġcomparing
link
theoretic
Îŀ
istance
sided
Ġtemporal
89
ĠâĭĦ
changed
ĠÅµ
Ġ35
asso
Ġsimulated
posable
Ġconcepts
separ
Ġthroughput
Ġna
orth
ĠÃ£
fortun
Ġconsideration
ones
ystems
sip
Ġsemid
ĠiÎ¸
[[
Ġpreceding
Ġcumul
Ġcoverage
Ġ_
¾±
Ġsummation
sibly
Ġextending
going
Sp
Ġbuilt
Ġhead
Ġcorner
ĠOP
celer
ĠÄľ
ĠÄĪ
Ġdisplay
ĠRad
tt
integr
Ġparametric
Ġready
Ġstorage
Ġcomposite
Ġautomorphisms
Ġreprodu
âĸ¡
IMO
Ġcosh
ert
andard
Ġcommute
Ġmiddle
ĠðĿĽ
vy
degree
Ġcriteria
Ġbelief
ishing
Ġconsiders
ĠExamples
Ġreadily
Ġbracket
what
Ġpan
Ġwireless
Ġflag
ĠÄģ
It
Ġaxioms
Ġtransformed
Ġwindow
ln
Ġmissing
copic
Ġphenomenon
viously
eff
ĠUnivers
Ġspeaking
ĠdÎ¾
ĠAm
III
Ġsubt
Ġintuition
Ġfailure
actable
oks
Ġdivided
Ġrefinement
Ġsaddle
ifications
ĠThm
Ġpreserved
igu
cluding
ĠMR
ĠLegend
Ġaffect
Ġadjust
Ġobviously
Ġspread
ĠIR
84
Ġletters
ĠSol
Ġamplitude
Ġcoming
Cor
insic
Ġtherein
terior
Ġcolored
structure
Ġhypersurface
Ġ)âŁ©
Ġrewritten
Ġpossess
Ġinvolve
Ġmonodrom
Ġguess
ING
Ġstatistic
az
ĠWhat
Ġcharacters
ĠWrite
Ġ@
Ġobservable
Ġcapture
97
Ġhelpful
fortunately
oulli
ðĿĳ¥
Ġsubdiv
df
ĠNotation
Ġasymptotics
Ġkin
Ġith
aling
Ġpairing
assive
Ġdistortion
Ġmotivated
ĠNash
Ġlabelled
itary
Ġendowed
Ġissues
tific
Tr
Ġfluctu
Ġmutual
Ġkj
Ġnone
ĠSubstit
Ġresources
amed
Ġworld
Ġpolygon
alls
Ġsinh
diagonal
Ġsubmanifold
bund
ĠâĬº
enchmark
ĠCM
ximal
atory
ustom
ĠBell
Ġreplic
Ġdivide
ĠÏĤ
Ġfinds
Ġsgn
Ġscheduling
Ġqubit
Ġsmoothness
Ġestablishes
Ġcomposed
âĪħ
Ġexam
vey
Ġchecking
ller
itting
ĠNS
Ġnet
ĠâĢ¢,
Ġexploit
Ġflex
ĠSM
)],
ĠÅ·
Ġprotocols
Ġing
ĠHodge
Ġwidely
ĠProperty
Ġcorrelated
Ġwaves
Ġdevelopment
ĠEstim
ĠRS
Ġprimes
Ġemployed
Ġexplore
LO
potent
ĠCN
Ġcof
kes
Ġposet
72
96
enberg
ĠâĦİ
Ġverification
Ġconcaten
Ġtradition
85
ĠML
Ġpn
Ġsheaves
ih
Ġ.,
ographic
plying
Ġendpoint
Ġeasier
ĠRE
)/(
forming
independent
ĠBel
ogether
ĠâĮī
Ġautomatically
Ġagree
ĠâĪŀ).
ĠSto
Ġconjugacy
axis
ĠPrel
amma
positive
ĠLS
Ġsketch
Ġfaith
Ġcomputationally
Ġdetermining
Ġray
ĠÐ
Ġoption
Ġprimal
Ġquick
Ġcombine
pite
Ġsquared
ĠGreen
Ġ1000
Ġphases
ĠLo
ache
Ġexc
neighb
Ġmac
DM
Ġhistory
Ġviol
ĠâĻŃ
dual
ĠGP
Ġmeet
ĠODE
actif
Ġdisks
ĠâĪĴâĪĴ
Ġchecked
Ġrobustness
ĠðĿĳĹ
Ġwalks
Ġconduct
oration
ky
Ġlaws
Ġram
Ġanalyzed
Ġ](
sen
Ã©n
ĠAdditionally
ĠMS
sibility
If
cast
imum
ĠLO
Ġclaimed
similar
TL
ĠCr
Ġlocalization
Ġtransforms
Ġmainly
Ġcas
ĠMorse
Ġformulae
Ġinversion
Ġlogical
Ġdistinguished
Ġlocated
Ġwriting
Ġunity
86
Ġsummarized
OF
Ġ):
udget
value
Ġ]]
oot
Ġdrift
Ġï£¦
ĠÅ¼
ĠCarlo
Ġradial
Ġ64
Ġcustom
ĠEX
Ġterminology
Ġferm
79
well
Ġsubalgebra
ĠHes
sche
Ġinterface
ĠYoung
Ġrk
veness
Ġarrang
ĠBernoulli
Ġpotentials
Ġshr
ĠGauss
squ
|âī¤
omain
IF
Ġtruncated
Ġsuprem
ĠVol
ĠAR
Ġmob
avi
Ġindicator
Î¼
Ġoccup
PC
Ġbackward
ĠdB
ĠDu
Ġevidence
Le
Ġremarks
EE
Ġâª°
Ġconv
Ġsuggest
otstr
har
DA
top
Ġgate
76
Ġseed
Ġconnectivity
light
sch
ĠâĬł
Ġarrival
ware
Ġbrid
Ġspecies
Ġcharacteristics
Ġmonodromy
ĠAssumptions
Ġreform
Ġmodeled
Ġra
sequences
Ġarrows
ryst
Ġpackets
possibly
ĠJacobian
Ġundirected
Ġsummarize
Ġbenchmark
Ġindicated
ĠâĪĸ
closed
Ġvacu
vertex
Ġintensity
Ġbounding
Ġimpose
iner
commutative
Ġnothing
ampling
Ġrecord
Ġdevoted
acing
ordan
73
DG
planes
Ġsupremum
Ġdenomin
mid
ĠMain
Ġss
Ġacyclic
ĠNumerical
See
Ġfibre
ĠðĿĳ¡
Ġtend
Ġswitching
Fig
Ġaccep
Ġconsequently
Ġpoles
Ġequilibria
ĠMar
Ġvariants
Ġacceler
redient
Ġsimplest
Ġreached
Ġprocedures
omm
reement
Ġindividuals
Ġ(âĪĴâĪŀ,
Ġijk
eline
Ġtableau
Ġhybrid
))|
modular
Ġ:"
DR
aussian
Ġisotopy
eta
Ġsuggested
Ġexterior
di
Ġhierarchy
ĠSR
âĪĴ(
Ġsomewhat
Ġlatent
71
ynamic
Ġbelonging
Ġeffectively
Ġlowest
Ġredund
Ġrev
ĠFe
Ġtry
Ġautomata
Ġ(,
represent
Ġatomic
Ġcones
onent
âĨĴ+âĪŀ
biased
Ġidentifying
Ġlack
length
Ġsummary
tent
iss
Ġillustrates
Ġformalism
ivariate
ĠdÏĥ
Ġnearest
Ġcompactif
leton
Ġconjugation
ĠPa
ĠFOR
avy
rÃ¶
ymmetry
Ġsensing
ĠObviously
det
Ġcomments
Ġdivisors
Ġstress
Ġstabilizer
Ġparameterized
Å©
Ġlanguages
OP
ĠLore
Ġresidue
Ġmagnetic
74
(âĪ¥
omic
Ġaspects
Ġrenormal
Ġreceive
Ġrandomness
Ġroughly
Ġexamine
)},
Ġadjacency
mp
âĢ¢,
Ġclock
Ġslice
CH
Ġspecification
gine
Ġrectangle
ĠCox
Ġpieces
atif
Ġmir
load
Ġregarded
Ġversus
Ġadopt
Ġsites
Ġinitially
orient
ĠÃķ
titive
Ġfading
critical
sol
Ġshad
Ġgluing
ĠÅ¶
ĠËĺ
Ġ2017
CE
Ġinfinitesimal
Ġmutually
Ġfrequencies
90
83
Ġcellular
ĠâĪĴâĪĨ
posing
ĠâĪĨ)
Ġfunctionals
Ġá¸¡
Ġobservables
Ġrecursively
Ġtransmitter
Ġintersections
tere
ards
Ġomitted
using
Ġbelieve
Ġedition
Ġangular
Sh
plete
pre
Ġupdated
Ġsequel
ĠRP
Ġtransmitted
ĠCal
Ġcompleted
Ġdecompose
Ġbudget
Ġinduce
ĠCL
Ð¾
Ġconsumption
but
iles
osp
ru
Ġenables
ĠâĢ²âĢ²âĢ²
ĠFact
Ġrecurrence
âŁ©)
ners
ĠSk
Ġingredient
Ġexplan
entioned
ĠAcknowledgements
Ġbul
Ġencoded
Ġreduc
82
ĠTechn
ĠDF
ĠâĬĵ
Ġcompactness
Ġprices
Ġvs
ĠTe
Ġcorrectly
ĠdÎ»
Ġstop
ĠFunction
ĠLog
Ġjumps
=âĪĴ
81
ĠKÃ¤hler
bal
Ġ(âŁ¨
li
Ġunlike
Ġoptimum
Å«
Ġá¾±
Ġthought
tinuity
van
ĠâĪ«
Ġtensors
Ġparagraph
Ġreson
Ġpossibilities
Ġgcd
Ġexpansions
ĠâŁ©âŁ¨
ĠIni
Ġps
cycle
label
ĠðĿĳ¥
ĠIntu
ĠĠĠ
urb
Ġï¿½
Ġï£¾
Ġelectric
SION
Ġdot
Ġscaled
approximation
Ġki
Ġï£¼
ĠTop
Ġcompactly
Ġphot
ĠCol
ppings
Ġspectra
tale
)||
Ġ(??
ĠDP
ault
Ġparticip
Ġeigenfunctions
ĠDiff
romatic
Ġmanip
roscopic
net
Ġletter
Ġbootstr
Ġdecompositions
Ġgrant
Ġ2016
ĠTheir
tra
Ġimmer
ĠSubstituting
Ġreducing
stant
Ġcoherence
atz
Ġisotropic
flow
ĠHessian
ĠINT
Ġ)[
Ġspheres
ĠAnalysis
ĠAL
Ġcrossings
Ġemer
Ġexponents
Ġgeneralizes
Ġoverlap
Ġclause
idel
Ġnearly
(âĥĹ
Ġcircular
Ġrigorous
Ġsynthe
Ġdil
Ġbranches
Ã¶b
Ġmechanics
ĠEinstein
ĠXY
arial
Ġï£½
ister
Ïĸ
An
ĠRF
Ġ\{
ashion
Ġprepar
Ġsurprising
Ġtet
sl
Ġcompression
Ġdatabase
Ġamounts
Ġcomplementary
Ġmotivation
âĦı
Ġtraditional
Ġchalleng
Ġpressure
Ġsend
Ã©vy
Ġcircuits
Ġsending
ML
alit
ĠHF
inkowski
problem
Ġcovari
ĠâĨ¾
eb
ĠUnfortunately
Ġreconstruct
Ġlying
),(
index
Ġ$
note
ĠâĪĨ.
Ġclassifier
ĠIC
Ġmicro
Ġvisual
Ġrefers
ordism
Ġdecomposed
Ġmappings
Ġconcerned
ibbs
Ġdecoder
Ġpeak
Ġconditioned
Ġdecide
Ġsurger
Ġobst
Ġcreated
Ġhole
ĠFlo
Ġattached
Ġbeh
ĠOver
ĠVari
dro
dim
ĠBP
Ġimmersion
Ġ)))
Ã©e
ĠAppl
multi
ĠSetting
BP
Ġvisc
ĠDC
Ġentangled
Ġconservation
dinger
Ġabsor
VM
mn
Ġnilpotent
Ġsuccessful
Ġvar
Defin
BF
ĠMM
Ġlabeling
Ġpotentially
Ġcollap
Ġthin
ham
Ġgates
Ġdigraph
haps
94
Ġemphasize
By
ĠCSI
Ġchildren
ĠEquival
ĠInter
Ġnested
istribution
Ġchallenging
ĠMIMO
urs
Ġtrig
Ġdemonstrated
elling
Ġgover
ï¸ģ
amb
Ġtells
Ġconnect
Ġcer
//
Ġlifting
âĨĵ
Ġapproximating
Ġforces
ĠSing
Ġmonomials
fr
Ġboundedness
Ġâľ
ĠLÃ©vy
Ġfrag
ĠNetwork
dÂµ
disc
rad
Ġcot
Ġneglig
Ġendomorphism
ĠSchrÃ¶
Ġ+âĪŀ.
Ġbook
Ġfashion
Ġsolvable
ĠJacobi
ĠRandom
ĠDG
Ġclient
Ġhope
constrain
Ġ2015
ecom
ĠâĪĤ(
ĠAPP
ĠAS
ĠâĢº
Ġtravel
Ġperturbed
sets
Ġannulus
parametric
Ġprescrib
Ġrobot
Ëĩ
Ġdashed
Ġdp
Ġboxes
ĠIntuitively
Ġentirely
Ġenfor
image
Ġcommunity
Ġidemp
section
Ġplots
Ġrelate
entif
OT
ander
etri
CD
ĠInput
Ġarm
Ġgave
lat
Ġpredicate
anning
ĠÃ¢
ĠBas
xx
Ġsupports
ĠMA
ĠÃĽ
Ġinform
Â¬
ĠAltern
oupl
nas
Ġsplits
Ġsubd
Ġpole
irable
rect
Ġansw
MR
ship
ĠFigures
Ġmaximization
ĠâĬĩ
Ġvariations
Ġsubgraphs
parse
continuous
Es
Ã©r
Ġillustration
ĠâĬĳ
Ġsmoothing
Ġlisted
ryp
udes
Ġtopic
IV
Ġholonom
Ġobstruction
ĠResearch
Ġbehind
ĠDet
Ġmechanisms
Ġsharing
|=
lementary
hedron
Ġconsiderations
Ġ2014
Ġcontinuation
Ġlooking
Ġcolim
ĠSchur
Ġintrinsic
Ġdenoting
Ġgene
ordered
weighted
Ġcha
))(
Ġimplication
Ġrecovered
anks
Ġconventional
Ġabsence
ĠPreliminaries
Ġcontrols
Ġ60
Ġlex
Ġsubtree
Ġplaces
Ġthick
+(
related
Ġpublic
une
92
Lipschitz
Ġsound
Ġhomeomorphic
Ġdf
Ġmedi
ĠJordan
Ġstored
yi
Ġjointly
words
ĠProb
Ġincreased
Ġsubstituting
ĠdÎ½
graded
Ġleg
ails
Ġcomparable
Ġchord
Ġreceives
ĠSer
Ġsafe
Ġconserv
Ġsemidefinite
âĬ¥
ĠLike
Ġfixing
atil
romov
Ġquantit
ider
Ðµ
ĠÃĬ
Ġste
Ġenh
Ġvon
Ġcloser
lf
Ġsurvey
ĠZh
ung
Ġmonoton
lective
ĠLR
93
ĠâĹģ
zy
des
)ÃĹ
ouv
ĠÄ±
ĠMO
Ġprogress
Ġcontrary
ĠÃ©tale
Ġbalance
Ġimplying
Ġstrip
Ġâİª
apid
Ġmind
after
Ġnegligible
Ġintroduces
Ġincrement
ued
ĠGibbs
aracter
ĠQuestion
ntz
Ġreaches
Ġfaithful
ĠâĪĭ
then
Ġconfirm
Ġdiffers
super
ðĿĳ¡
theory
Ġ|{
ĠdP
ĠBesides
uff
Ġdestin
Ġdro
Ġsensitivity
recall
ĠSchrÃ¶dinger
Ġconsequences
ĠMinkowski
Ġspir
Ġdevices
uri
ID
Ġsubdivision
ĠPC
ĠâĪŀ-
ĠExperim
ĠâĪĿ
Ġdevice
Ġfront
ĠUniversity
Ġminimizes
Ġcuts
PR
Ġmy
Definition
ĠâĪ¥âĪĤ
Ġchooses
Ġdissip
down
Ġpubl
ĠData
Ġsigns
Ġaveraging
Ġfine
Ġau
Ġ45
ano
Ġmodulus
ument
Ġswitch
Ġneur
Ġtoler
Ġbifurcation
Ġbuy
increasing
Ġvalidity
Ġpowerful
Ġimproves
Ġparametrized
ĠHig
Ġsigned
body
osity
aving
ĠMethod
Ġlifts
UCTION
ectives
Ġ2013
Ġsolver
Ġpanel
Ġinj
ynchron
ĠAug
Ġstructured
Ġimplicitly
Ġforcing
pace
Ġ48
Ġprelim
Ġalgebraically
vec
Ġcorrectness
isting
Ġassumes
requ
Ġreaction
Ġcommonly
Ġconverging
ĠLinear
almost
elle
ords
Ġantennas
Ġrays
Ġtetra
ĠComparison
ĠCay
Ġareas
ita
adget
Ġtuples
Ġcovariant
Ã³
DD
Ġpreliminary
ĠAct
ĠCT
Ã´
ĠWork
Ġequivalences
Ġsector
dr
Ġimplied
ĠEM
Ġvacuum
Ne
Ġqui
eterministic
Ġbootstrap
Ġcounts
Ġ+,
Ġimposed
diff
bundle
UT
Ġhum
Ġorbifold
Ġ2018
Â¨Â¨
Ġnom
ĠSA
condition
Ġreveal
ĠMost
ests
Ġshrink
Ġconclusions
Ġtn
Ġwinning
Ġgraphical
Ã¨me
Ġheavy
Ġpolytopes
GS
Ġpropos
ĠKle
iteness
Ġda
Ġrecalling
Ġportion
Ġrapid
Ġneut
ĠRob
Ġyielding
redu
ĠPropositions
ĠTheory
(âĪĩ
onality
Ġaccom
INR
ox
Ġ];
Ġseparating
Ġfig
Ġobserving
Ġmatches
Ġsoft
Ġgreen
Ġcause
Ġrequiring
ills
Ġdenominator
Id
isher
Ġsensors
Ġearly
Ġ42
Ġ|âĪĨ
Ġcob
Ġability
thing
Ġ2012
Ġdisper
ĠCA
âĬ¤
Ġmultiplier
Ġoccurrence
ogeneity
terex
Ġcache
ĠConstruction
Ġnm
ĠRecently
ĠGromov
user
Ġclosest
irection
Ġ2022
ĠBV
ĠLagrange
orov
Ġintegrating
trie
Ġfibr
91
Ġsubcategory
Ġbulk
Corollary
new
oh
Ġfurthermore
Ġextract
Ġalgorithmic
Ġinspired
Ġcompatibility
Ġthemselves
Ġmachines
ĠCartan
Ġjoining
On
ĠLorentz
ĠâĪĵ
geometric
atility
orementioned
ads
Ġpositivity
Ġrelaxed
actible
Ġattacks
Im
Ġcance
To
ĠMSE
Ġadversarial
Ġrealizations
supp
Ġaforementioned
ĠâĪĴ|
Our
ĠCompute
ĠTV
ĠDM
Ġcryst
Ġagrees
Ġcongruence
len
Ġquickly
ki
sphere
Ġelastic
Ġ2010
Ġlearned
kh
Ġthereby
poch
ember
sistent
ĠÈ²
Ġdoing
illi
Ġfile
Ġranges
urst
Ġquiver
Ġfav
Ġmaximizing
ĠRed
Ġagreement
ĠGu
timate
ĠEqs
Ġsecure
model
Ġvor
empt
ĠPR
Po
Ġunchanged
ĠMc
Ġgains
ns
Ġfusion
hyper
Ġtruncation
ĠRicci
ĠBi
ĠLocal
qubit
stit
Ġarchitecture
Ġmirror
IST
ani
cut
UM
box
Note
ĠdW
Ġhyperplanes
ĠIP
2013
Ġshifted
typ
ĠWi
IL
ĠMany
Ġevaluating
ĠBu
Ġunbiased
Ġcle
Ġsuccessive
elike
Ġaugmented
ĠInte
ĠÃ©t
Ġplaced
ĠAlex
Ġuni
Ġdivision
Ġmolec
Ġmatched
Ġá¸ł
Ġsingleton
Ġ2011
Ġdivides
ecke
Ġexten
ump
Ġfinish
ĠDE
ĠBar
Ġ37
âĪĨ)
Ġpredicted
ateral
Ġdealing
Ġbc
Ġattained
Ġprecondition
Ġsont
Ġequally
ĠFormally
Ġchallenge
KS
Ġdefinable
Ġiterated
Ġmild
Ġrefined
Ġrequest
Ġdiction
ĠrÃ©
Ġfold
onym
Ġplanes
Ġexploration
venue
Ġvot
âĬĨ
Ġformation
hedral
rossing
ĠSpin
Ġjobs
ĠGrass
entral
ROD
OS
Ġcandidates
vised
Ġambigu
Ġcumulative
NS
Ġgeometrically
Ġencoun
Ġcounterpart
Ġbatch
ĠHar
alth
Ġdivisible
ĠPol
Ġpk
processing
Ġabuse
menting
ĠPreprint
Ġrouting
Ġattempt
ibration
Ġcontribute
lling
tier
Ãł
auses
Ġtraces
Ġdividing
Ġstratif
aire
Ġintersecting
ĠGro
ĠâĦĺ
âĻ
Ġenvelop
Ġvaries
foli
block
constrained
ĠðĿĳĿ
âĬĤ
{|
Ġdrawing
Ġni
ĠApproxim
+|
Ġsemisim
Ġbinomial
Ġanalytically
Ġcontinuum
Ġkeeping
aneous
Ġcommunic
Sim
Ġoutline
Ġsubtr
ĠSD
Ġextremely
bas
Ġcancell
world
ĠÅĿ
dule
Ġdw
arting
Ġsuccessfully
Ġmedian
ĠDL
Ġcarries
Ġpacking
ĠEd
Ġmonotonically
Ġgrading
onential
Ġcounterex
Ġgradients
texts
Ġregularized
Ġauction
Ġá¸¢
ĠCD
NC
ĠER
Ġtriples
Ġfiltered
Ġinher
Ġsurgery
Ġmultic
Ġassess
ĠDef
Ġconservative
product
Ġchapter
ĠConvergence
att
Ġti
anding
ĠINTROD
Then
://
ĠObservation
Ġsimulate
ihil
ao
Ġ500
Ġdesirable
ĠDS
Ġhomomorphisms
ĠINTRODUCTION
aced
cks
ĠFloer
rational
ĠLip
2015
Ġarrangement
Ġreducible
such
ned
Ġnp
struc
Ġexpanding
Ġestablishing
Ġinterpol
Ġdiscriminant
Ġdur
Ġecon
Ġadditionally
ongest
Ġframes
Ġfewer
OL
Ġorientable
ĠGH
tre
Ġcat
ugging
ercise
Ġepoch
Ġgadget
ĠZar
ĠOPT
Ġfixes
Ġbos
Ġ41
Ġequalities
ask
Ġoutperforms
asser
Ġ+(
ĠOutput
Ġinductively
Ġobj
Ġoverview
ĠGF
Ġshap
Ġrecip
ĠID
Ġcocycle
iton
Ġbaseline
ĠMap
ĠQuantum
Ġpercol
ĠCoxeter
Ġgravity
ï¿½
Ġperiods
Ġprescribed
Ġquantitative
oud
ĠAnalog
ĠIntegr
ĠÅ´
Ġoutgoing
ixed
from
Ġdeformations
Ġmodifications
ĠâŁ¨âĪĩ
ĠMean
Ġcal
RT
Ġcompr
ĠMDP
2016
âĬķ
ohn
Ġvolatility
2014
Ġkine
Ġappeared
Ġnondeg
atern
values
Ġ+âĪŀ,
|(
ĠDifferen
GM
factor
irc
sembles
Ġpxq
Ġpreference
Î¥
ĠÄĤ
Ġcircum
omposition
ĠâĹĭ
Ġanalogy
Ġlinearized
Ġinsight
Ġmembers
rec
ening
Ġhash
matic
Ġtractable
US
ĠpX
Ġanalogously
polynomial
ĠInitial
Ġwall
Ġretrie
Ġâīį
Ġold
ĠKn
()
Ġ(âĪŀ)
decreasing
ĠNE
Ġanom
Ġincoming
Ġcodeword
Ġaveraged
Ġparametrization
brevi
Ġrecomm
ĠSi
Ã©or
Ġclaims
Ġsoon
ĠâĪ¶=
âŁ©|
ĠBayes
)|.
random
Ġ43
Ġinfimum
arm
2012
Ġdestination
ĠÄī
Ġchart
Ġ(+
rs
Ã©t
Ġmaximally
rate
ĠTime
Ġrobots
midt
ba
Ġpredictions
artz
ovi
Ġded
Ġtout
uck
Ġaddressed
amination
Ġbuff
Schwarz
formally
Ġcalls
ĠCov
ĠDT
Ġunimod
Ġschedule
rences
UR
Ġcenters
partite
Ġpricing
2017
oidal
dv
Ġvice
ĠPT
ĠSN
ĠConsidering
Ġpasses
tuple
sin
ĠðĿĳļ
Ġreplacement
Ġnu
Ġselecting
ĠBelow
Ġanalyzing
ĠIS
Ġbenefit
Ġprojected
Ġminimax
ĠDR
Ġnaive
writing
ogram
Net
Ġ{{
alk
inf
2011
Ġhierarchical
Ġcd
Ġrs
Ġoptimize
Ġcontradicting
Ġtori
ams
Ġcaptures
while
Ġrepresentatives
ouville
MF
ĠGl
edges
conn
ĠâŁ©|
)âĪĤ
Ġsemisimple
Ġhighlight
Ġhtt
Ġpreparation
Ġbis
Ġcurrently
Ġsecret
ĠPoly
asting
ecker
Ġ38
ĠEquations
Ġpy
idable
Ġconcerns
strong
Ġbridge
Ġfluctuations
Cl
Ġchecks
Ġhomotopic
ĠdÏī
ĠâĩĿ
Ġsecre
Ġmere
ĠÅª
analy
Ġ44
ĠLast
Ã¨re
Ġhex
âĮĪ
Ġinvestigation
ME
ectral
Ġqualit
Ġserve
Ġ2009
abi
fil
Ġfan
Ġsensitive
Ġcobordism
ĠSH
split
ĠAugust
Ġtiling
Ġclauses
KL
sig
crossing
ĠSDP
Ġcouple
ĠBB
emic
Ġdefault
Ġregardless
ĠUAV
constant
ighting
ders
ÑĤ
Ġlot
Ġchanged
Ġservers
Ġiterates
ĠGrassmann
Ġdependency
usive
Ġled
iski
âĪĴ|
cover
isons
da
Ġ000
Ġindecom
Ax
Ġoverhead
ĠCayley
Ġmobile
Ġapparent
Ġcoin
aff
Ġannihil
Ġ::
ney
Gaussian
Ġmeets
Ġcompetitive
Ġ?,
tware
Ġcorners
Ġoriginally
ĠâĪ¥âĪĨ
ford
Ġscores
Ġreachable
Ã»
ĠáºĲ
Ġexplanation
Ġtrained
Ġvec
ĠES
Ġ++
Ġthermod
pi
Ġpartitioned
Ġconcur
Ġoccurring
Ġparties
arding
ĠRam
oi
Ġdoc
Ġcareful
oul
bing
Ġxn
neighbor
ĠCat
Ġworse
ĠHyp
Ġfinishes
asi
ĠHad
Ġmultiplying
urning
ĠdÃ©fin
Ġbroadcast
Ġconjunction
)âĪĨ
dÎ¸
pass
Ġquotients
Ġwt
Ġunital
vability
Ã©ri
Ġlists
spaces
Ð°
Ġdeviations
ĠLetting
Ġconjectured
inters
Ġruntime
Ġranking
ĠScience
Ġcommuting
hev
Ġfreely
Ġlocalized
ĠEquivalently
itation
Ġcardinal
Ġtopologically
ĠAcknowledgments
holomorphic
Ġcovariates
Ġappropriately
ĠInequ
Ġgrate
Ġadaptation
Ġtransversal
lov
Ġproceeds
Ġrestricts
enable
Ġtracking
inger
Ġdiffeomorphisms
ĠCV
rov
Ġleader
Ġáºĳ
ĠâĻ¢
ĠAlg
2010
âĸ³
Ġadopted
Ġ39
conc
Ġphenomena
Ġrealistic
acement
ictive
eless
Ġengine
Ġviscosity
Ġcontractible
Ġmajority
ĠPL
Ġencode
Ġlk
Ġattemp
Ġsimultaneous
pq
ĠClass
ĠProofs
Ar
ĠâĢ¢âĢ¢âĢ¢
ĠBM
ĠEl
Ġiterate
ĠCliff
Ġobserver
Ġeffort
ĠLear
Ġassigns
Ãĳ
Ġstarted
Ġrevenue
Ġdm
Ġprep
hel
idal
ĠVor
ĠMP
Ġapart
imes
gradient
component
anon
Ġquadrature
Ġtile
Ġextensively
Ġrestricting
ĠTogether
ĠCE
Ġambient
atum
ENDI
âĪĢ
uv
indric
rog
ĠÄĴ
Ġdesigns
Ġanswers
Ġretr
real
Ġportfoli
ĠZariski
Ġpercolation
Li
romag
Ãª
â©¾
Ġplotted
Ġparad
Ġcontexts
Ġquatern
Ġignore
ENDIX
Ġsubmodular
Ġwhence
ĠdS
ĠHaar
date
ĠOptim
Ġminus
orbit
Ġdecisions
Ġsynthetic
."
Ġimplications
Ġassociative
âĢ¢âĪ¥
ĠdR
ĠRelated
ĠHecke
Ġhuman
isomorphism
Ġconcentrated
Ġmethodology
Ġproduction
Ġnotic
anov
ĠRM
chet
ionic
valid
pn
ometry
Ġinjection
ĠSW
gu
Ġbond
Ġmostly
arying
ĠHo
Ġexhibits
ENT
Ġfall
ogonal
ancing
á¹
Ġextensive
Ġconcatenation
Ġovercome
ĠLM
Ġkinds
angle
Ġances
ography
pair
kn
ĠÇ
amard
Ġantenna
Ġprofiles
Ġdeploy
uer
ĠSystem
Ġourselves
add
ĠAmong
Ġstay
Ġbijective
layer
cessible
ĠDRA
Ġinitialization
ĠFirstly
CM
Ġactivation
Ġmonit
Ġsimplifies
Ġbus
ĠâĪĳï¸ģ
Ġsurv
Ġacqu
Ġdictionary
also
Ġintuitive
ĠVII
Ġgh
NE
Ġfeasibility
ĠDer
Ġcontract
node
morphism
ĠYang
clust
Ġshifts
Ġsecrecy
Ġdiscrep
ĠâĨł
Ġforget
ĠSINR
Ġ(âĪĢ
book
variety
Ġmeromorphic
Ġfon
CT
Ġasymmetric
atest
Ġpartitioning
Ġseek
obal
Ġsimplices
Ġ)}.
ĠPD
Ġiteratively
Ġnodal
Ġsymbolic
Ġuniverse
Ġreally
LR
Ġtheoretic
ĠRT
ato
aming
etti
alg
Ġweb
Ġabbrevi
Ġfilters
versity
Ġgrav
Ġincon
Ġperhaps
Ġpolyhedral
Ġdeduced
Ġtranslations
ĠFP
coloring
Ġreductions
Ġdisconnected
ubin
Ġ(âĪĴ)
Ġelimination
ĠAPPENDIX
Ġfiltering
CR
Ġcs
lined
ĠBR
ĠSever
Ġdisturb
Ġoptimized
Ġholonomy
',
amber
Ġcollect
ini
ense
Ġreser
itch
ologies
Ġintegrated
Ġexpectations
Ġpm
Ġmaximizes
ynamics
ĠKilling
/|
Ġfract
ĠâĻ®
Ġtested
Ġintegrand
NA
ĠdV
Ġversa
ura
adap
Ġrecurrent
Ġreflex
Ġcompactification
Ġfacets
epending
arrow
Ġkinetic
))]
Ġscope
harmonic
Ġpolyhedron
Com
ĠPhD
levant
Ġrearr
ĠAlternatively
Ġindecomposable
âĨĳ
Ð¸
ĠAc
----
Ġargmin
Ġfrequently
ĠXi
small
Ġpix
NF
Ġjj
Ġtuning
Ġsusp
mo
Ġgeneralizations
Ġ2000
ogenous
ĠâĩĢ
Ġcalculating
Ġoutage
Ġpropositions
Ġconject
ĠKron
Ġassociation
ĠKK
BR
ĠPe
Ġdescend
Ġsecondary
Ġeigens
Ġassignments
á¹½
Ġratios
Ġfacet
ĠStein
Ġcyl
ĠSY
Ġbroken
Ġ+âĪŀ)
ĠâĢļ
oo
Ġample
ĠSDE
ĠActually
erman
Ġ%
ĠPROOF
kov
sym
ressing
2009
aard
ĠHu
ĠHaving
arge
ww
ĠHamiltonians
ĠRHS
Ġoffer
Ġconditioning
vanishing
isotropic
[âĪĴ
ifert
Ġkm
CG
ĠLegendrian
ĠâŁ©)
ĠXn
Ġvehicle
Ġisotopic
Ã¹
Ġtt
Ġachieving
Ġholes
Yau
Ġthread
ocation
Ġ{Â±
Ġration
Ġcertainly
coordin
Ġnd
Ġreading
ette
áº
Ġiii
Ġwavelet
Ġorientations
ĠInformation
Ġperfectly
Ġclassified
Ġpas
Ġdemonstrates
Ġbehaves
ĠClifford
Ġorthogonality
URE
Ġeigenfunction
Ġnondegenerate
sec
Ġoptions
jug
Ġlinked
Ġcollected
CAL
Ġgrowing
Ġreveals
Ġneighborhoods
Ġcarefully
ĠKh
Ġdelta
Ġmedium
Ġsubc
Ġshadow
oking
Ġenumeration
obser
Ġrotations
,[
gular
mean
Ġdisj
2018
ressive
Ġstages
Ġrequests
ounting
Ġverifies
Ġfill
Ġprem
Ġidempotent
she
Ġantic
equivalent
Ġiso
aul
ĠConc
Ġrescaling
ĠMathematics
vin
Ġcn
Mod
Ġtradeoff
ĠMT
Ġterminates
ĠDRAFT
Ġpointing
Ġvide
Ġrepeatedly
ĠDi
Ġri
Ġsubsystem
pend
ĠPick
arded
Ġaffected
ĠËĿ
ĠÃª
Ġcommit
Ġquar
responding
ancial
Ġap
ĠSeifert
rd
station
solution
ript
]}
Ġneighboring
energy
partition
relation
Ġsystematic
Ġisometries
ulating
Ġintegrate
Ġcancel
Ġthermal
ĠCW
knot
Ġtriangulations
È³
Ġdominating
Ġtranslate
ĠBA
ĠPauli
Ġnk
ĠLT
gel
Ġmassive
Ġdq
Ġsumming
CLU
Ad
Ġsaturated
More
Ġacknow
ĠSI
ĠThanks
Ġsubproblem
Ġupdating
Ġidentifies
ori
Ġreversible
Ġsoftware
ulse
minimal
definite
Ġdn
Ġdiversity
Ġhexag
ilit
ĠËĻ
liers
Ġfamili
Ġpreferred
categories
Ġbarrier
mail
rot
ĠAv
ĠFound
trol
ka
comput
areto
ĠCG
CL
[|
Ġgerm
La
ĠðĿĳĳ
cells
Ġremov
asserstein
Ġpreferences
ĠdH
ĠâĦµ
ĠAT
)\
Ġencryp
Ġalors
ABLE
Fin
Ġadvantages
Ġattractor
ĠCartesian
Ġsom
ĠRL
ĠHS
NO
Ġli
Ġfigures
Ġele
Ġalg
Ġhypersurfaces
Ġexploiting
Ġelectron
Ġopin
ars
Ġdifferentials
Ġlexic
Ġeliminate
ept
Ġbic
Ġduration
};
ĠHeeg
Ġdetected
Ġconnects
ĠâĢ°
Ġexposition
Ġspirit
Ġalone
ĠEm
Ġrelates
ko
likelihood
ĠâĪ¥âĢ¢âĪ¥
-)
Ġisot
Ġsous
ĠHow
Ġrectangles
sions
Ġaspect
-(
rip
ĠRR
Ġdominates
ellow
âĪ¨
Gr
verses
Ġexclud
ĠIr
Pr
Ġrich
easible
anonical
idelity
ĠTuring
acking
aker
ĠPri
ĠâĪı
Ġpiv
pa
ĠdX
Ġincomplete
ectiveness
}).
ĠRH
ËĨ
ĠProcess
Ġdimensionality
Ġpool
]):
Ġlg
Ġcaused
ĠPhase
xi
Ġdoubly
Ġmm
open
Ġpoor
angent
Ġexpensive
ĠSn
ĠFisher
labeled
Ġinclusions
lines
Ġending
igen
Ġaggregation
ovian
Ġreceivers
ĠPA
Ġgeneralised
âĪĪ(
Ġsucceed
Ð½
ĠDehn
standard
Ġattributes
Ġsynchronization
Rec
Ġ.(
plo
Ġribb
Un
ĠHypot
Ms
Ġslots
Ns
ĠHeegaard
,âĪŀ)
ĠRo
ĠâĪ¥.
CF
Ġbranched
Ġdifficulties
Ġtiles
Ġexecuted
ek
Ġpriority
holm
ĠSeveral
ĠÎ±n
ball
ĠSGD
Ġclassic
simple
Ġvaluations
Ġtag
oughly
Ġprofit
Ġquantile
Ġfilling
ĠGo
prime
Ã¼ller
Ġfairness
Ġexplored
Ġoccurrences
oles
Ġiner
ĠCe
Ġretain
Ġlinearity
olm
ĠLearning
ĠâĬĬ
ament
ipher
Ġsuperposition
ĠProgram
ĠCur
unk
Ġtables
Ġknows
Ġobstacle
Äģ
Ġfulfilled
Ġsubscript
Ġexamin
Ġ46
aining
channel
Ġiniti
annon
Ġaccepted
ĠCONCLU
Ġrestrictive
varying
ĠSG
ĠdÏģ
'.
Ġproposal
core
Ġcommutator
Ã©orÃ¨me
dimension
ĠDA
Ġresolvent
ĠLeft
tran
Du
Ġcharacterizes
ĠRecalling
classical
Ġwelf
ĠBol
Ġintegrability
Ġtranslates
ats
Ġaccordingly
Ġcauses
ĠCalabi
Ġviolation
Ġfragment
ĠHadamard
map
Ġage
Ġland
Ġbigger
forth
âĪĥ
UE
Ġencoder
Ġderivations
Ġdk
ĠKlein
deriv
used
formed
Ġrelationships
ĠFind
ypt
cr
ques
Ġpositively
ĠAA
Ġwelfare
ĠUnlike
ITH
ĠBack
ðĿĳĸ
Ġsafety
Ġ2008
Ġyou
CO
Ġtrick
ĠðĿĳł
aj
Ġsummands
ĠdÎ±
ynchronous
Ġenj
Ġmerely
Ġpolyn
ĠChen
Ġpromis
acher
wartz
ĠComparing
Ġpredictive
ativ
close
Ġseconds
Ġexhaus
ĠËĨR
ĠâŁ¨âŁ¨
Ġdriven
ĠTR
Ġfocused
ĠFi
Ïħ
ĠLikewise
ĠGS
ĠpR
ĠÄİ
Ġ90
(âŁ¨
even
isenberg
encil
Ġflip
Ġease
EP
ĠMaxim
Ġminima
Ġpolygons
ĠâĦĳ
dÏĦ
ĠCheb
eting
ĠCont
ĠAccordingly
")
Ġtanh
Su
Ġstrengthen
Ġpati
Ġaggregate
)âĪ©
Ġtermination
schild
Ġflexible
olar
chi
Ġformulations
ĠON
element
Ġextent
Ġnonsingular
Ste
Ġrescaled
Ġchem
Sm
Ġfinancial
Ġrepair
Ġplanning
BD
Ġfairly
Ġbrackets
good
ĠâĢ¹
Ġstratum
ĠTyp
ĠRay
Ġaims
)âĪĩ
Ġdiscrepancy
Ġses
Ġplayed
ĠBir
Ġ80
ĠKronecker
cube
Ġfu
Ġrectangular
Ġexit
onest
Ġnonlocal
ĠPareto
Ġmultipliers
Ġlife
BG
ĠpA
Ġredundant
Ġcontinued
ami
VE
semb
zes
Ġhitting
ĠComputing
Ġobe
Ġchamber
abilities
ĠFred
Ġ..,
ordance
ĠÈ·
ĠRun
sov
stage
Ġserves
Ġtub
Ġmathematics
Ġamenable
Ġultra
ĠSF
ĠPrinc
Ġnonparametric
Ġuns
Ġbirational
sparse
Ġrare
Ġcoset
Ġmanag
acles
Ġselects
Ġnames
Ġnominal
boundary
Ġunivariate
Ġmultiplicities
ĠBF
Ġoperational
istributed
Ġgenerically
onomous
Ġportfolio
ĠPP
á»
ĠÄ¨
assification
Ġlogistic
ĠSy
Ġsemicon
Ġenable
cho
Ġlooks
Ġtransvers
ĠðĿĳĵ
Ġevident
Ġeffectiveness
Ġdisplayed
ĠMotiv
Ġsubstitute
symmetry
ĠdÎ·
Ġâī³
graphs
otal
ĠStruct
nstein
Ġbehave
Ġcosm
Ġsmoothly
ĠSchwarz
ĠâŁ¨(
Ġbuffer
ieck
Ġmultiply
uit
Ġsuitably
zen
ĠGroup
Ġactivity
ĠLevi
balanced
yshev
ĠNumber
Ġcloud
aring
UN
Ġleaving
simplex
Ġamplitudes
adj
Ġtransi
Ġheterogeneous
ĠOper
Ġminimizers
Ġdiscontinuous
Ġsees
Ġâĭī
Ġsuffix
Ġcaching
igm
Ġanonym
âĹ
artesian
|âĪĴ
Ġproximal
{(
ĠGR
á»¹
ĠInequality
ĠLin
Ġcomparisons
ĠSecondly
ifier
Ġcodewords
sky
Ġvisible
Ġalignment
oir
perfect
ĠBG
ĠTechnical
posedness
Ġmutation
ĠCONCLUSION
ĠMI
Ġinteracting
ĠMath
Ġpolarization
indrical
zer
Ġrn
Ġbisim
Rem
Ġvalidation
ĠAF
ÏĤ
Ġcompan
ĠDAG
ĠMac
states
ĠSur
Ġtranspose
iral
vention
thend
ĠÂ¯
imed
measurable
Ġclar
exact
ĠAbelian
Ġcaptured
Ã¶bius
ĠSem
Ġmeaningful
EG
hal
nov
ĠTeich
band
Ġdead
)|,
ades
atement
verag
thendieck
Ġfamiliar
when
Ġderiving
including
ĠComplex
Ġincidence
weak
Ġevaluations
ĠHH
ĠNO
Ġflo
Ġlosses
cription
Ġpossesses
Ġenergies
ĠIsing
Ġzeta
Ġnotational
Ġthresholds
Ġkth
ĠHard
Ġáº½
Ġip
ĠMas
ĠPutting
Ġtx
algebraic
Ġcompens
Since
Ġdatum
Ġambiguity
Ġadds
ĠFl
ĠFoundation
Ġgaps
onoi
ocks
Ġattacker
Ġmatchings
oclin
Ġclassify
Ġsubtle
Ġcubes
urent
Ġopposed
Ġimplementations
Ġmath
Ġdetector
ramified
Ġrelating
Ġeight
Ġfacilit
itational
alition
Ġsynthesis
ĠAss
Ġcrosses
Ġâĥ
ITY
odies
Ġforb
Ġordinal
antine
Ġsubstanti
aux
lass
orable
Ġconic
Ġsink
Ġlinearization
Ġregimes
Ġremarkable
ĠKe
Ġdiscovered
Ġmoder
ĠHamming
Ġsignificance
ĠProperties
Ġgrateful
ĠÎ¸n
Ġribbon
Ġallocated
Ġwater
ðĿĳĽ
istable
Ġbrevity
Br
Ġms
ĠHiggs
ĠâĢ¢âŁ©
Ġmeasuring
ĠGrad
Ġlinking
Ã©nyi
ÑĢ
Ġdecays
Ġinstantaneous
Ġreturned
Ġcompressed
Ġsemic
OC
Ġinstr
Ġpercent
Ġexpanded
Ġeras
Ġmaster
ectors
basis
contr
Ġnr
ĠSti
ĠCn
lliptic
Ġconstructs
ĠÃİ
ĠCAT
tives
ĠFD
Ġdispersion
Ġcurl
Ġcommunications
Ġ(??)
Ġpackage
sup
ĠLater
hence
Ġstabilization
Ġdespite
Ġshapes
Ġtower
Wh
Ġcrypt
particle
Ġbeamforming
HT
ĠâĪĴ,
Ġ[|
ĠSw
Ġtolerance
Ġxt
ĠRight
2008
sample
Ġrewriting
gen
ĠCalc
Ñģ
Ġcounterexample
Ġpreimage
Ġquantify
pole
kl
Ġoptimizing
ensen
Ġexplains
Ġrapidly
fact
romagnetic
ĠMÃ¶bius
ĠDis
BA
Ġsupporting
Ġpatch
Ġ)âĪĪ
Ġfron
metric
measure
ĠJohn
ounted
Ġsubmanifolds
)âĢ¢
Ġampl
orter
arb
}|
Ġrealize
ĠFS
atible
Ġconditionally
Ġtransaction
Ã©chet
Is
Ġrid
ĠBen
Ġ{[
Ġrecipro
dist
ĠCPU
Î±Î²
iences
There
ĠHeisenberg
ĠLiouville
Ġconstructive
ĠEnt
ĠLasso
ĠTri
Ġinsertion
ĠUS
Ġlongest
Lie
ĠTS
ĠDr
only
Ã¢
Ġdonc
Ġindicating
Ġstating
tzmann
formance
ĠInteresting
ĠArtin
Ġou
Ġseparates
itter
antor
ĠÂ¡
Ġcontracting
signing
Ġenvironments
archer
Ġdotted
Ġconfl
Ġ-(
Ġavec
Ġradi
Ġinherent
etherian
uning
simplic
Car
Ġxj
ĠMN
ĠChoosing
ĠGrothendieck
ĠLA
Ġrepetition
equivalence
timately
Ġpil
Ġthings
ĠOptimal
Ġstays
Ġoperad
ours
Ġutilize
Ġaccurately
Ġabstraction
Ġinsights
Ġoutlined
imodule
Here
Ġchose
Ġvehicles
Ġct
Ġsole
cap
ĠLaurent
representation
Ġdeveloping
App
monot
Ġmeta
omially
ðĿĽ
ĠChebyshev
ĠStarting
ĠPCA
]|
Äı
pot
Ġrelational
Ġ2006
Ġaccumul
ĠTor
Ġdisplacement
Ġcollapse
ĠHypothesis
ĠSect
avesdro
Ġattribute
Ġtoward
ĠâŁ¨âĢ¢,
hr
actic
ottom
ections
Ġharves
Ġpredicates
Ġtp
Ġvolt
ðĿĳĺ
Ġcontributes
Ġattach
Ġjustified
Ġnoncommutative
Ġclean
analytic
Ġstatus
Ġnous
Ġmodern
Ġslowly
Cs
Ġur
Ġtel
oment
icks
oclinic
ĠAlexander
Ġmacroscopic
Ġskeleton
ĠConstrain
Ġrigidity
Ġtrust
Ġreliability
Ġchallenges
output
Ġ49
Ġcategorical
ĠEP
Ġcutting
differential
ĠUE
infinite
requency
Ġcoded
Ġstrata
rehen
Ġconfusion
DL
ĠNormal
rup
ĠIter
Ġcoalition
ĠDiscus
sey
disjoint
Ġreflected
coming
].)
ynman
nik
entralized
Ġnonconvex
101
ĠMil
nes
ril
Ġcertific
Ġprinciples
Ġsolvers
iÏĢ
Ġasserts
Ġaware
Ġba
Ġdeleting
ĠRadon
ĠðĿĳ¢
SL
ĠMF
Ġnc
Ġcurren
Ġtheta
GP
ĠAnalogously
Ġlatency
Ġgravitational
ĠSimulation
Ġincompres
Ġimprovements
Ġparty
Ġbreaking
error
Ġsubmatrix
Ġcentralized
uscript
ĠABC
abelian
Ġannot
ĠÃ±
Ġ("
Ġadjunction
ĠFredholm
ĠðĿĳĩ
hedra
Ġirrelevant
ĠVoronoi
ammar
Ġarms
Ġgeometrical
mun
chastic
rids
ĠDespite
ĠPicard
plication
because
ss
ĠFO
groups
Ġpc
BB
bran
ĠâĪĩ(
Ġextracted
variable
Ġunramified
Ġdecor
Ġdefect
Ġleak
Ġviolated
cill
ething
ĠStokes
Ġdiagon
Ġsubstantially
Ġâĸ²
matrices
....
Ġcasc
Ġforming
Ã£
Ġfault
Ġplant
ĠError
Ġ02
lattice
Eq
Op
orted
means
ĠPhys
Ġlifted
Ġgas
Ġci
Ġreliable
Ġexcess
ĠWhere
Ġfibrations
ĠET
Ġ2007
Ġdistinction
las
Ġdifferentiation
Ġ56
sistency
Ġjth
ained
âĢ¢âĢ¢âĢ¢+
ĠoÃ¹
Ġ47
Ġassertions
SAT
Ġtack
Ġ(Â±
olmog
figur
Ġtranslated
Ġconflict
parts
vis
ipotent
Ġminimized
uclear
reedy
Ġsubstan
Ġalgeb
vance
Ġix
Ġcomment
Ġlimitations
ĠOR
Ġnumerator
Ġdoesn
cycles
Ġdeals
ĠFrÃ©chet
ĠRA
ĠÎĶ
Ġshares
Ġpj
Ġsubsequently
Ġencodes
under
Ġbirth
|/
ĠËĩ
ĠLC
ĠWasserstein
Ġobjectives
Ġdistributional
clock
ĠZhang
itÃ©
ĠÎ»x
Ġeavesdro
ĠHol
iquid
Ġimproving
Mac
ĠBernstein
(âĪĨ)
Î»x
ĠBessel
oriented
Ġbehaviors
iser
dV
Ġâīł
Ġalternatives
ĠNSF
igner
ĠðĿĳİ
dB
Ġoffers
force
ĠInterestingly
ĠErd
EL
ĠâĪł
Ġaccompl
Ġspac
Ġfits
Ġsuffice
ĠSystems
Ġcliques
Ġintended
Ġreductive
flat
Ġinstability
ĠTHEOR
Ġemploying
Ġborder
ĠIll
ĠBSs
Ġcooperative
erkin
Ġdyadic
ĠThom
ĠÎ»n
Ġten
Ġho
Ġcountably
ĠdA
00000000
Ġavoids
ĠEv
Ġcutoff
ĠÃĿ
Ġcanonically
Ġminimality
Ġjl
ollaries
KM
ĠBra
Set
tinguish
ĠFeynman
ople
ĠSolution
Ġ95
del
awa
Ġplacement
Ġdie
Å·
ĠRG
Ġmotivates
Ġsentence
olmogorov
Ġregister
ĠAM
Ġbub
Ġ2019
}}
ĠLL
Ġlibr
Ġconstitute
Ġmerge
Ġaverages
ĠâŁ
Ġpriors
ĠRet
ĠKr
Ġbands
ĠCan
valent
Ġdiffeomorphic
Ġaccessible
Ġreflects
dÎ¾
Ġfitting
NP
ald
shot
ĠShannon
ĠWiener
umes
Ġindis
ivalent
Ġtargets
ĠâĬ©
Ġphoton
Ġfidelity
ĠâĪĴ)
|+
changing
Ġoutliers
Ġverifying
rich
Ġswap
2006
ighter
ĠPi
ĠMLE
Ġupl
Ġai
distance
Ġunimodular
Ġpz
Ġns
Ġoperating
Ġtheoretically
Ġmerid
Ġtame
ĠSVD
iagram
ĠValu
mÃ¼ller
Ġnamed
Ġ)},
irms
efined
Ġconjectures
ĠRC
optim
Ġprevent
Ġrecommend
Ġconserved
ĠAlgorithms
ĠThird
ĠLegendre
Ġqualitative
Ġrefere
Ġmembership
Åĳ
Ġdamp
GN
ĠCap
first
witz
Ġneutral
med
Ġvisited
Ġassigning
Ġsupply
Riemann
Ġáºı
Ġartific
ĠMaxwell
ĠLim
Ġdependencies
ĠVal
Ġscience
Ġmotions
Ġfiniteness
Ġglue
ĠPSL
Ġcred
ĠRB
Ġneurons
ĠHel
ĠRepl
Ġvariances
Ġ//
Ġincorporate
Ġcomprehen
Ġcc
Ġtopologies
Ind
Pl
Ġworkers
Ġapproximates
Ġsubstantial
GH
Ġstret
Ġnarrow
Ġelabor
icity
Ġbenefits
Ġreflexive
Ġaxes
jected
tn
ĠBD
Ġpin
schetz
Ġsaying
ĠAi
ĠLine
Ġrewards
Ã¨s
ĠBoltzmann
Ġcontinues
uj
Ġtransposition
Ġusage
phase
shap
ref
Ġgreatest
QU
stationary
Ġplat
Ġincur
Ġdecoupl
ĠCantor
Ġnonlinearity
Ġwedge
Ġempirically
Ġshorter
ĠSoit
hi
ĠXX
ĠConditions
ĠCall
leigh
Ġsuperior
Ġinvest
Ġellipso
Ġsomething
Ġdownlink
Ġhandled
Ġhit
Ġunfold
ĠAsymptotic
ĠSz
ĠDom
without
Ġgrammar
Ġtriangulated
liv
ĠInstit
Ġcombinatorics
Ġnj
arp
Ġconsiderably
ske
Ġexcl
agent
,âĢ¢
ĠpT
FA
ĠRepe
planar
Ð¾Ð
restr
ĠâĪĴâĪĩ
square
Ġforth
ĠGeometric
Ġtrading
111
Ġcurved
[âĪ¥
Ġattains
Ġopportun
Ġmultiplied
Ġdeli
ĠâĪ¥,
Ġsequentially
Ġreachability
Ġdelays
Ġquantifier
ened
Ġintertw
Ġdeletion
Ġenter
Ġspinor
')
Ġhop
Ġiv
Ġbold
ĠJensen
ctors
Ġscalars
Ġphysically
avoid
ĠBL
2007
Ġhardness
Ġoffline
cale
Ġsubsystems
Ġtrend
ĠOnly
itney
Ġchromatic
ĠSche
Ġnumerous
ĠNational
Ġconventions
zations
ĠMatrix
ĠâĬĸ
Ġheavi
Ġconducted
Ġroles
ery
Ġranks
Ġrenormalization
Ġpersistence
Ġexploited
Ġ)||
ĠPath
ĠLastly
Ġmacro
Ġquadril
plus
ĠÄ´
Ġaffects
ĠDiv
Ġinfected
ĠAdd
ĠðĿĳ£
ĠWang
Ġcancellation
Ġcrossed
Ġ52
Ġmatroids
/âĪĤ
torsion
Ġeverything
Ġpropositional
imedean
Ġhep
Ġvideo
ĠðĿĳĲ
Co
do
Ġprojector
Ġpolynomially
Ġdecode
Ġdesigning
twisted
Ġbring
oke
Ġconcurrent
VI
Ġfunctorial
concave
Ġiid
ompact
Ġoct
ĠKo
ĠSign
orthogonal
Ps
ĠReeb
icular
ĠEF
Ã¯
ĠRK
Ġprocessor
Ġ(âĢ¢),
Ġ128
my
gon
rig
ĠMU
ĠLower
Ġqi
igne
exponential
Ã©sent
existence
ĠDuring
ĠALG
Jac
conver
ĠXt
Ġcharges
ĠDefinitions
Ġcreates
PO
aper
Ġdise
ĠAlgebra
Ġanalyses
Ġcharacterizing
zzy
ĠDiscussion
ĠTABLE
Ġweighting
inte
mitted
Ġinstruction
Ġpersist
Ġnormally
Ġnt
icz
ĠCover
Ġcylindrical
Ġprev
system
Ġneighbours
ĠWil
Fs
Ġ54
Ġsemantic
Ġtransient
Ġwon
Ġcentre
Ġbiased
ĠGram
ĠExplicit
ĠGamma
dri
oured
umb
ubert
ĠControl
pertur
ĠËĩËĩ
approximate
Ġdocument
Ġincompressible
ĠStochastic
Ġbag
Ġpredictor
Ġtrials
Ġshock
Ġ(âĪĨ)
Remark
nor
Ġcompleting
Ġrecovers
Ġpf
ĠPlayer
ĠÎ±i
mitian
Ġdiscretized
ĠâĪĴâĪĤ
ĠAre
Ġmasses
Ġpencil
hor
ĠQC
Ġcentr
ĠTeichmÃ¼ller
ĠUpdate
ativistic
ĠStud
pendicular
Ġâĸ¶
Ġattempts
Ġwaiting
ĠZF
ĠLef
âĪĨ(
Ġcollections
homology
etch
ĠLu
ien
Ġtempl
Ġexhaustive
ouse
ĠEve
ACE
Ġprom
Ġvirtue
Ġasynchronous
Ġrepr
Ġhonest
Ġtaut
Ġdegeneracy
ĠSl
Ġ{âĪŀ
ĠðĿĽ¼
Ġpunctured
amilton
lets
ĠCohen
ĠRoughly
Ġconsistently
ĠIntern
Ġstacks
Ġframed
Ġinsert
ycles
ĠFil
Witten
Ġkk
Ġpeople
Ġproducing
Ġsorted
ĠâĪŀ]
Ġquadric
Ġlost
Ġuplink
cher
001
ĠâĪĢ(
Ġbatter
Ġposed
tens
ĠFerm
string
Ġâī¼
Ġinstanti
Ġunknot
ĠCB
ĠðĿĲ´
Ġresearcher
Ġmanuscript
Ġhistogram
center
oS
Ġanch
Ġtails
eq
ĠRES
Ġspatially
Ġhomological
ĠRank
LM
urston
Ġtoken
Ġenvelope
Ġsr
ĠÎµn
Sec
imorphism
ĠðĿĳ¦
Ġ)/(
ĠBa
Ġmal
Ġ#(
Ġequid
ĠFormula
Ġhelps
icated
%,
ĠBur
Ġcollabor
Ġasset
Ġlc
Ġbegins
structures
ĠTree
Ġfindings
Ġreconstructed
Ġsurrog
ĠRayleigh
Ġfn
ĠStab
ĠDifferent
Ġensuring
Ġremoval
Ġdifferently
Ġkeys
Finally
yle
uments
Ġjud
determin
Ġinhomogeneous
Ġ,(
ĠRule
ĠEff
Ġclassifiers
Ġsuboptimal
SC
ager
Ġdiamond
bur
omorphisms
isomorphic
DT
ĠEvalu
ĠÂ¨Â¨Â¨
Ġaccepting
np
Ġincrements
unique
Ġsimplification
Ġcorrections
Ġcond
Ġleftmost
ĠConclusions
oux
ierstr
Ġxk
Ġsubsche
some
onses
Ġnuclear
ĠPU
normalized
ĠIllustr
Ġ#{
tuples
ĠDenoting
conjug
imeter
ĠMarkovian
ĠMCMC
Ġramification
iving
omy
ifying
number
Ġperpendicular
Ġdecomposes
Ġforced
asts
Ġslower
urwitz
Ġbary
blue
Ġcofibr
))âĪ¥
limited
NG
ĠKolmogorov
Ġsubcomplex
Ġadequ
Ġreflections
Ġtableaux
pxq
Ġcustomers
prob
Ġbd
ĠADMM
ĠRest
Ġdemands
Ġleverage
extension
Ġcri
ĠMAT
ĠÂ£
Ġmodelling
Ġphy
ĠIma
Ġfractal
Ġputting
Ġsymmetri
uine
quet
Ġfiles
shaped
Qu
elled
integrable
Ġts
coc
Ġlocality
necess
Ġexcluded
Ġtwists
Ġsurround
ĠDy
Ġsq
ĠMe
Ġenlar
ĠLDP
Ġsurjection
Ġfocuses
Ġexceeds
ĠSumming
Ġsupersc
Ġinit
Ġexercise
Ġsubvariety
Ġsubclass
admissible
Ġrelevance
ĠCÎµ
Ġsaw
plitz
say
Ġrul
ho
Ġbodies
Ġdiscs
Ġreaching
asse
apped
Ġ)].
Ġbes
abled
âĪ¥âĪĩ
Ġelsewhere
Ġday
ĠHyper
Ġsoliton
ĠðĿĳŁ
iness
ailed
ĠSchubert
Ġgoverned
Ġingredients
Ä±
entropy
ĠEC
Ġboolean
ĠRemarks
tibility
Ġroute
Ġramified
Ġcommutation
Ġunipotent
Ġ2005
Ġvoltage
differen
ĠWriting
VD
Ġtangential
Ġanonymous
Ġtransmissions
Ġ55
ĠWeil
omb
eller
ipping
Ġattractive
ĠReal
Ġhu
Ġimposing
Ġuu
idem
Ġoptical
ounded
Ġenhance
range
Ġreflect
ARI
ender
,Â±
ĠBT
ilibrium
Ġdecidable
rose
ĠFano
Ġoscillator
clockwise
Ġplug
Ġmarginals
tization
parameters
kernel
Ġconges
ĠFinite
Moreover
Ġflexibility
ĠLefschetz
Ġcollective
Ġiy
Ġargued
etheless
Ġunified
eplitz
Ġmeeting
ĠDB
erson
Ġoverlapping
xn
Ġspins
ĠUse
Ġgamma
Ġdecentralized
Ġviewpoint
Ġforbidden
TIONS
ĠNi
Ġmanif
adratic
QP
Ġdeux
ĠGalerkin
Ġensembles
ĠCent
ĠPDEs
Ġmechanical
Ġrightmost
ĠSeg
iesz
Ġmodal
Sto
Ġhypered
ĠTw
ĠMi
Ġadvance
calc
ĠMeas
izability
Ġfonction
Ġdh
trees
isations
Ġfibres
long
!)
Ġresponses
specified
Ġhomotop
}),
ĠGeneralized
Ġ123
Ġshell
Ġpv
Ġfoliations
Ġreceiving
Ġalgebroid
ĠPM
Ġavoiding
Ġpilot
Thm
Ġsuccessor
Ġrenew
Ġ))(
ĠRegular
Ġpublished
cend
Ġinitialized
Ġprobably
lÃ©
Ġanisotropic
bedding
key
Ġslopes
ĠGrant
Sub
Ġ51
Ġlearner
Ġliquid
cluster
irth
ÄĿ
Var
Ġacceleration
Ġdoubling
Ġknowing
ĠGM
Ġindirect
Ġalternate
ĠKal
These
Ġdefer
ĠPost
amer
Ġunconstrained
code
rice
Ġconsiderable
ĠPlugging
Ġsubtrees
ecreasing
ĠPDF
Ġoscillations
Ab
ĠWigner
quasi
Ġ=(
Algorithm
Ġvisit
BL
Ġenforce
Ġclockwise
neg
ĠAxiom
Ġappearance
Ġjn
Ġimplementing
Ġconcentrate
Ġ53
Ġmeshes
Ġcommunities
Ġclassifying
ðĿĳł
erelliptic
ĠThough
RP
ĠAz
Ġyy
ĠDep
parallel
formula
ĠiÏī
rif
ĠPf
neighborhood
Ġgreatly
Ġlm
Ġalle
Ġlens
Ġsemigroups
ĠiÎ±
Ġcounterparts
Ġlasso
iÏī
ĠPOVM
ĠApply
Ġblowup
Ġmarking
ersed
Ġâľĵ
Ġ2004
Ġlogics
Ġirregular
Ġ70
âĪĴâĪĴâĪĴâĪĴ
Ġthermodynamic
Ġvirtually
Ġultr
Ġchemical
Ġ120
Ġquantized
generic
Ġellipsoid
Ġfalls
Ġbuyer
Ġvaluable
frequency
ĠLand
Ġcoprime
lev
ĠPerformance
ĠUC
Ġserv
ĠBasic
ĠðĿĳģ
artment
ametric
Ġscat
Ġenters
Ġfractions
ĠpM
Ġspecifies
|||
ĠEL
appear
Ġunary
ĠDyn
%.
Ġtetrahedron
Ġcommand
decomposition
Ġmk
ĠDoF
ulas
Ġansatz
âĪª{
Ġequip
ĠCSP
ĠApplications
Ġdeleted
ĠStandard
minim
Ġhomogen
No
TP
Ġcompositions
esting
Ġanalyse
Ġcov
Chapter
Lagr
ĠÏĢi
Ġtube
Ġdescriptions
Ġcooperation
,âĪĨ
ĠÎ´t
ĠProf
Ġkeeps
Ġredundancy
Ġfamous
Ġsolely
grid
Ġpromising
ĠCas
network
nergy
Ġcurrents
Ġchance
ĠMAP
Ġuncondition
gment
Ġattaching
Ġinterpretations
rupted
ĠRV
noise
Ġrigorously
Ġresonance
Ġtangle
Ġnormality
ĠLaw
.-
ĠItÃ´
Ġcylinders
Ġdark
direction
ĠState
root
Ġgenuine
Ġnondecreasing
Ġdiscover
Ġadmitting
Ġliterals
plement
isen
ster
oto
gences
Ġmaximized
Ġdissipation
Ġtrial
En
ĠSolving
hop
fam
together
Ġhypergeometric
ĠFund
Ġours
Ġterminate
Ġobeys
Ġradii
specific
ĠIF
ĠGW
vere
Ġsett
Ġmoderate
Ġdecl
Ġsupposed
rÃ©
]/
arg
Ġbottlen
ĠMathematical
Ġrecords
Ġentails
{âĪĴ
brane
DC
Ġchaotic
interval
Ġliteral
Ġworker
Ġgrids
ĠðĿĲ¿
Ġcounted
Ġkept
prints
ĠâĢ¡
Ġarrays
Ġartificial
Ġbins
ĠRegarding
Ġutilized
Ġcreation
Ġobs
eur
Ġmp
oders
Ġpeut
ierstrass
Ġfibered
Ġrespects
Ġspecifying
ĠQR
Ġroutine
ĠAdS
ĠDav
there
Ġerasure
Ġchiral
ĠPoint
ĠCI
Ġshuff
Ġconduc
reducible
pX
ĠRepresent
Ġcontrollability
ĠdF
sn
ĠGraphs
Ġzone
Ġpose
Ġradical
ĠYet
ĠExistence
Ġbivariate
proper
ae
pon
Ġtj
Ġstrateg
Ġthing
ason
ĠLoc
Ġhttp
unctive
Ġht
Ġassemb
Ġcapable
Ġbiological
Ġcompos
ĠiÏĢ
Res
Ġrecognition
ĠPrinci
Ġprojects
ĠCompared
Ġgetting
fixed
ĠkâĦĵ
Ġindistinguish
Ġcommutativity
Ġincorrect
GA
oids
Ġbn
âĪ¥.
Ġcusps
ĠStrong
cn
ĠBetti
additive
ĠÎ»i
divis
Ġspacetimes
Ġcustomer
Ġparameterization
123
Ġ)=
itable
ĠPn
Ġdiscovery
Ġ300
Ġdots
Ġrounding
ĠHC
Ġcharts
Ġacceptance
Par
ĠSpan
atural
Ġimmersed
Example
Ġdirectional
ĠTn
Ġresolve
hyperbolic
Ġheavily
alized
Ġsti
ĠAW
ĠâĢ¢),
Ġbattery
Ġbandit
Ġopinion
ĠArg
ĠdÏķ
ĠContr
Ġlimitation
Ġcotangent
SO
angular
TR
rin
ĠSteiner
ĠMODE
Ġmultiset
Ġtouch
Ġdeciding
Ġren
Ġancestor
Ġancill
denoted
Ġjustify
ĠPour
+,
Ġmim
ĠIJ
tun
Ġcontrollers
ĠMAC
Ġdriving
deterministic
ĠReduction
ĠSB
Ġ))|
ĠPos
Ġ)],
Ġdiscontinuity
Ġwants
Ġinjectivity
ĠTHEOREM
Ġdelivery
Ġoccupied
ðĿĳ¢
ĠnR
Ġfilled
ordon
Ġjo
Ġmanagement
Ġirrational
Ġautomatic
ĠAV
paths
ĠHermite
ĠLE
,"
oura
Ġinserted
Ġ(.
ĠPGL
Ġreversed
ĠEstimation
Ġmathematically
Ġdevelopments
Ġ)ÃĹ
Ġanalogues
Schmidt
aR
ticity
ĠGrassmannian
Ġrein
Ġvel
Ġpassive
umulation
two
Ġcopula
Ġquadru
Ġpd
Ġclarity
Ġexclude
ĠLp
ĠRO
Ġmaintaining
ĠRham
Ġxz
ĠEG
ĠDf
Ġquasicon
Ġpg
nel
Ġprocessed
Ġwrong
dW
Ġdelete
Ġfuzzy
vectors
Ġ(=
character
Ġfri
Î±n
ĠGC
ĠApproximation
Ġsig
Ġlibrary
Ġsucc
Ġdigital
entive
ĠToeplitz
nz
ĠInc
Ġpdf
ĠChr
Ġasc
ĠUniform
Ġdeformed
phys
ĠWhenever
odal
Ġaddresses
ĠBloch
Ġpermit
Ġfocusing
Ġturned
icial
Ġgeometries
ilb
ĠFre
ui
ĠMH
Ġroad
Ġcochain
Ġschema
Ġxq
Ġnegation
Ġrepresentable
Ġevolves
Ġengineering
Ġdrawback
uclidean
ubl
Ġ2003
ĠRiesz
discrete
Ġple
ocities
Ġmerging
Ġaugmentation
ĠSLE
Ġsurrogate
ĠðĿĳĭ
ĠEV
2005
ĠProceed
Ġspecifications
Ġhomeomorphisms
troll
ĠðĿĳŀ
tained
ĠâĪ¤
Ġcapacities
Ġrevealed
ĠPH
ĠHP
Ġpages
ĠâĬ¨
Ġanomal
vities
domin
wall
Ġsuggestions
ĠOptimization
Ġcontrolling
Ġqueues
ticles
Ġcrystal
ĠBin
ĠÅĻ
acity
Ġstock
Åĳs
cellent
Ġconstitutes
asymptotic
2019
vich
estim
ĠKos
Ġsimil
Ġtrying
Ġcompares
ĠBO
ĠInstitute
Ġ)âĪĤ
ĠInser
Ġperiodicity
Ġqp
Ġpassage
ĠËĨâĦ¦
Ġsnap
Ġcomprehensive
Ġcomme
phistic
Ġplau
LA
Ġgeneralizing
fe
sized
Ġinterchange
Ġsyntax
However
Ġresolved
Ġskip
Ġdihedral
ĠPB
ĠDistribution
Ġmemoryless
Using
Ġhost
Ġreaders
ĠDat
land
ĠPet
ourn
Ġobey
Ġfresh
driven
cer
Ġexperience
Ġcoales
ĠStatement
Ġheuristics
ĠNoting
Ġaligned
ĠÄĮ
ĠJones
ĠðĿĳĴ
Ġbilli
ives
ĠAnn
ĠEp
Ġresearchers
domain
Ġconformally
ĠThurston
Ġautonomous
ĠLax
ĠÄĵ
ĠâĮ¢
))/
cyclic
Ġencountered
Ġcompl
Ġdc
ĠBru
loss
Ġtimelike
Ġfif
Ġmodulation
Spec
Ġtilings
Ġgray
Ġcontents
Ġ]|
Ġcertif
aya
Ġvoting
namely
tj
ĠSel
ĠDMS
Ġrepar
Ġpursu
Ġlargely
LEM
Ġscreen
ĠSAT
anck
Ġprocessors
Ġtraveling
Ġperimeter
Ġbinding
Ġptq
FP
ĠTP
coordinate
OD
Ġyz
Ġmicroscopic
Ġever
Ġ]).
Ġ111
Ġexiste
Ġbuck
Ġhardware
Ġcommunicate
Ġvelocities
Ġrt
ĠÄª
Ġcombines
ĠOpen
ĠComputation
Ġsophistic
mode
ĠHall
reduced
Ġshear
ĠKS
ĠEurop
ĠNetworks
Thus
ĠChernoff
kens
Ġsurvival
iÎ¸
Ġnh
ĠSample
ĠAverage
reshold
ĠÎ²n
supervised
umin
Ġsatisfiable
Ġsynchronous
Ġinducing
Ġinserting
weep
Ġpopulations
ĠDeligne
orbits
ĠVC
ĠâĪĩ)
Ġrd
Ġnq
Ġcreating
Max
Ã©es
Ġconfin
Ġsignatures
ĠrÃ©s
Ġreports
EEE
ĠApplication
Ġtq
Ġ(âĪħ
Ġaa
icious
Ġconvert
Ġinfeasible
Ġembeds
Ġextraction
ĠUpper
ĠNC
Ġconvolutional
Ġdisease
Ġaccumulation
Ġauto
vection
Ġsubgradient
ĠEE
Ġinspection
ĠRus
ĠÎ¸i
ĠPE
Ġposets
Ġexcur
Ġ|/
paces
depending
âĦľ
odesic
Ġpercentage
restricted
orenstein
Ġmoved
anner
ĠHurwitz
ĠHardy
Ġmonic
Ġaccounts
tors
Ġod
la
Ġreplaces
Ġrejection
Ġviews
Ġmovement
TIC
Ġisotropy
cost
diver
ĠWhitney
+)
Ġ256
ni
iab
Ġsuiv
oser
ĠConf
Ġdigits
Ġdedicated
Ġwalls
ĠNL
asion
dl
Ġsampler
ĠExtension
Ġspans
images
Ġharder
Ġaccepts
Ġqn
Ġhermitian
ologically
ropies
Ġprecoding
Ġhim
Ġ|+
sw
Ġgoals
ibn
Ġpolygonal
Ġshorth
Ġmill
power
aren
De
ĠTables
ĠModels
ĠAp
NT
ĠpB
Ġhypergraphs
Ġpunctures
Ġ57
SM
Ġimportantly
Ġloose
ĠWITH
ione
Ġdisturbance
avier
ĠLorentzian
Ġminors
Ġpent
ĠâĢ¢âĢ¢
Ġî
Ġthor
Ġseven
ĠMV
ĠEH
ichot
2004
ĠStatis
Ġpreprocessing
amiltonian
Jacob
Ġcontracts
Ġintuitively
Ġseminal
Alg
ĠRD
ĠNN
antly
Ġservices
ĠGrÃ¶b
Ġcartesian
colored
DEs
Ġsearching
GE
ĠRESUL
hl
Ġholding
New
ĠHoch
Ġnewly
ĠKP
Ġturning
Ġcollisions
ientif
Ġinterf
ĠMaximum
Ġcuspidal
Ġstratification
data
ĠExperiments
ĠGrÃ¶bner
ĠVi
(âĢ¢),
Ġeliminated
voir
ĠMotivated
Ġcouplings
Ġexcellent
âĪ¥,
moment
Ġ(âĢ¢|
Ġframing
Ġfailures
proof
,âĢ¢âĢ¢âĢ¢
Ġtransmitters
Ġcomplements
Or
check
Ġrotating
riers
Ġdynamically
ĠTH
ĠWF
ĠEXP
ils
ĠFock
Ġcoerc
ĠPrec
Ġoutperform
Ġ|âĪĴ
Ġstations
ĠReLU
EX
Ġmotivic
Î»t
Ġslices
Ġincentive
Ġsd
ĠBH
emporal
Ġobserves
ĠThree
Ġinteract
Ġextrem
Ġparadigm
functor
ĠPower
Ġstreaming
Ġdisplays
oothed
Ġradiation
));
ĠErdÅĳs
Ġthresholding
ĠFI
Ġgenerative
Ġ2002
ĠIEEE
ĠAdap
Ġantip
Ġswitches
Ġprel
Ġergodicity
Ġzeroes
Ġdate
110
Ġdecaying
abs
âĨĲ
quantum
Ġperformances
terms
ĠRW
Ġcp
|âĪĩ
Ġcompetition
Ġdb
Ġfitness
Ġcontrollable
Ġexem
icate
Ġ)\
Ġhistor
Ġ75
Ġreformulation
ordering
ÅĿ
err
Ġlamination
Ġsectors
ĠTest
Ġexperimentally
aled
QC
Ġmaintains
Ġâĭ¯
Ġ??.
ĠpG
ĠâĢ¢)âĪ¥
Ġexpresses
Ġquartic
ĠâĪĨ-
Ġfermionic
Ġnets
consistent
gered
ĠAdding
ĠSchwartz
Ġjustification
ubini
Ġmodelled
Ġcongestion
BE
NNs
ĠpÎ±
squares
ĠâīĢ
vertices
Ġphr
Ġtopics
Ġteam
ĠKar
Ġstrands
Ġcoordination
changes
Ġbottleneck
SU
indu
ĠInv
Ã±
Ġdilation
At
Ġdisappear
Ġsophisticated
outh
So
ĠSie
ĠChow
Ġfat
Ġsemistable
Ġshaded
ialgebra
standing
Ġarity
iest
Ġrepeating
Ġundec
Ġhyperelliptic
Ġbasically
rons
Ġgi
Ġalter
Ġprox
Ġhomogeneity
Ġgeneralisation
Ġcertificate
Ġassociates
Ġvolumes
Ġarchitectures
Ġsummarizes
rn
Ġpayment
Ġincremental
ÏĢx
ĠHT
Sn
dep
aulay
lands
Ds
day
FL
Ġattracting
ounced
curve
Ġcontracted
dw
prop
Ġdepart
ĠWeierstrass
Ġoptimally
Ġtax
Ġie
Ġ(âĪĥ
Ġplaying
Ġuncor
Further
ĠBro
=âĪĴâĪŀ
diffusion
adaptive
ĠDou
jectivity
ĠDÃ©
Ġinfection
Ġacceptable
tia
Ġcohomological
âŁ©âŁ©
Ġglued
Ġbalancing
Ġepimorphism
ĠdÎ³
Ġpolyhedra
sell
Ġhuge
utions
IZ
Ġdl
Ġ72
ĠCp
Ġcongruent
ĠÎ´n
ĠBounds
Ġalternatively
ĠClassification
Ġignored
ĠÎ»I
heaf
Ġprote
XY
Ġserved
ĠDefining
olicy
Ġconcluding
Ġjoined
Ġanomaly
martingale
ĠGA
ÃŃ
ĠâĨĺ
Ġnormalizing
calculus
Ġhosp
Ġgroupoids
ĠIllustration
Ġinvoke
Ġsatisfaction
Bo
ĠLee
áºĳ
Ġtele
VER
atio
strongly
Ġsaturation
Ġmedia
]ÃĹ
Ġattraction
ĠthÃ©orÃ¨me
Ġdepicts
Ġtighter
Ġadjusted
ĠJust
ĠðĿĲ¶
ĠFubini
Ġobstacles
ĠâĮ£
ĠEnc
Ġ)âĪ©
Ġhi
Ġsuccessively
ains
Ġpatches
Ġuniversality
ĠSVM
ĠMach
ium
Prop
RG
ĠWeak
Ġapplicability
Ġub
enn
Ġont
Ġgenes
uation
Ġnth
ĠSpace
Ġpseudoc
ĠPROB
ĠMer
Ġexecute
ĠMNIST
Ġtwisting
Ġtook
âĹģ
Ġabc
Mark
Ġshorthand
ĠSumm
locks
Hom
Ġphylog
Ġvisits
ĠCi
Ġstores
AA
Ġwealth
ĠIl
ĠCost
lassical
ĠDynkin
Ã©c
Ġwrites
Ġdecided
sq
ountable
Ġchordal
Ġtriplet
Hilbert
ctan
Ġconfirmed
Ġcolimits
Ġtreewidth
Ġenumerate
crip
figuration
hat
ĠEuropean
Ġindividually
Ġradio
Ġproxim
player
Ġ^
itons
ĠFun
Ġultimately
ĠLB
Str
Ġyx
livious
zul
Ġconstitu
Ġreals
Ġpenalized
Ġvalidate
ĠâĢĸ
ama
null
Ġresolutions
ĠFIGURE
KP
Ġprotot
ĠCut
logarithm
Ġcapital
Ġcontours
ameters
coll
Ġintractable
actors
ĠProj
ĠâĪĪ[
resolution
ĠCDF
Ġcovariate
utation
cs
ĠSequ
ĠLind
ircle
Ġcompound
ĠRi
ĠâĨ¦
seudo
Ġwi
ibniz
ĠUs
ĠPF
Ġautomorphic
2000
Ġstratified
Ġdegrad
ĠKac
Ġ2001
win
Ġindexes
Ġnoticed
ght
Ġgroupe
ray
Ġsurprisingly
locally
ĠComplexity
ientific
ixing
ĠTO
Ġbeliefs
ĠVan
play
cu
Ġquantified
Ġreality
Ġpredictors
corresponding
skeleton
ochromatic
ĠRu
Ġsubmodule
oro
Ġimposes
Ġasked
Ġreset
ĠIrr
Ġsorting
Ġindetermin
ĠLD
affine
limit
ĠBlock
ĠFC
ĠLang
convergence
Ġabsorbing
Ġformalize
Ġcm
Ġdetermination
ĠEmp
rey
Ġ][
Ġpresenting
ĠFA
Ġevolve
Ġcalibration
Ġmultidimensional
Ġdecomposable
scheme
pk
ĠPred
Ġranging
Ġ+âĢ¢âĢ¢âĢ¢+
ĠEnergy
tient
Ġaffin
ilateral
ulator
Ġvw
uly
Ġpulse
Ġsender
Ġblocking
ĠProt
Ġaccordance
Ġdetecting
Ġshrinking
ĠGT
ĠClust
Ġeavesdropper
ĠConn
rever
ĠPolish
Ġstreams
Ġyq
Ġrelays
Ġdifferentiability
ĠExact
Ġcharacterizations
Ġargmax
ĠBackground
Ġtranscend
stream
pA
erning
Ġplain
ĠGold
Ġcolours
Ġsubscheme
ĠGradient
|<
rt
ĠreprÃ©sent
bc
ĠTD
ĠCOMP
ĠTi
âĦİ
Ġdamping
Ġcosmological
Ġdefic
ĠShe
ĠReplacing
Ġrectif
jk
)âī¤
Ġpersistent
Ġsublinear
Ġpruning
Ġspacelike
Ġmaxima
spect
sivity
Mat
Ġpend
ï¿½ï¿½
ĠSpecial
Ġlabelling
bottom
ups
ĠÃŀ
identi
Ġbreaks
epar
Ġclients
Ġencryption
Ġforec
afe
ĠâĬİ
Ġutilizing
ĠInf
Ġexamined
Ġbosonic
strict
Jacobi
Ġhits
Stokes
Ġmultiples
Ġterminals
ĠWhite
canonical
algam
ĠBn
osure
Ġstops
emory
ĠFR
ĠOT
stance
ĠQU
Ġelectromagnetic
actory
Ġpredecess
forcement
Ġmotivate
Ġtubular
Ġhp
Ġdeath
agon
nm
Mar
Zh
Ġdropped
Ġ|[
ĠGD
ana
ĠMinim
Ġimaging
ĠLG
Sym
ĠSQ
Ġannuli
Ġtechnology
ĠðĿĳĨ
ĠdÎ¶
âī¡
Ġnoiseless
Ġparticipants
Ġsliding
Ġquadrilateral
Ġmodifying
tivities
Ġ]}
ðĿĳļ
Ġ(âĪĴâĪĨ)
ĠAu
ĠVir
ĠLF
Ġtraver
umford
dÏī
Ġeigenspace
Ġdescending
org
Ġsevere
Ġnn
ĠPy
ĠNavier
Ġinverses
ĠPartition
wave
ĠgÃ©n
Ġexpressing
Ġmono
Ġrevis
Ġjam
Ġ58
Ġsyntactic
Ġsus
Ġfacilitate
++
AF
tile
ĠGra
Ġsuperscript
usp
ENTS
Ġmolecules
ĠMeanwhile
Ġstatistically
pred
ĠPG
Ġdistill
riched
Ġfiner
Ġchaos
wood
ĠâĬŀ
Ġautoc
omorphically
ĠâĪĪ]
Ġtransactions
Ġrecovering
Aut
acent
)])
ait
quanti
Ġtransmits
Ġreproduce
Ġrealizable
ĠSuper
pret
bb
Ġpreliminaries
2003
ĠâĥĿ
ĠðĿľĨ
Ġvoters
Ġbeta
ĠRamsey
Ġspecialization
Ġrotational
khoff
Ġnoticing
ĠTs
attern
iabatic
Ġmonoids
Ġnearby
transitive
ĠIntegrating
,{
ĠRESULTS
ĠQP
Ġprimarily
ĠCt
perimetric
ĠStability
Ġmini
BO
Ġ};
2002
ĠLam
filter
ĠRestric
ission
Ġreasonably
mi
Ġgather
ĠTate
Ġcodebook
Ġhyperbol
maximal
Ġcarrying
Ġviolate
Ġinferred
ĠFn
intersection
Ġsuspension
Ġ99
Ġmonad
how
ĠBre
Ġtemplate
acks
Ġsupplementary
RC
Ġia
ĠðĿĳĥ
ĠCharacter
Ġhn
acci
Lagrange
Ġdecoded
ĠMultiplying
Ġdeterminants
Ġdecides
Ġproceeding
structing
Ġsuite
Ġca
Ġdecades
Ġtackle
Ġkp
ĠCa
Ġeleg
Ġregis
ina
ĠDiscrete
ĠpS
Ġvv
ige
Ġdiscussing
Ġmarkets
Ġinitiated
Ġtries
.).
Ġ63
Ġshifting
Ġinac
sensitive
Ġkinem
Ġproposes
except
Ġdissipative
Ġwins
onometric
Ġforests
ategy
Cat
PA
Ġvortex
Ġsoundness
Ġentities
ĠâĹĨ
ĠMilnor
Ġrelying
Ġ400
ideal
Ġdistributive
Ġarrives
Ġpixels
ĠâĪĴâŁ¨
ĠDD
py
BH
Ġclosures
Ġsubdomain
Ġsubsections
Ġenhanced
SNR
beha
Ġsweep
monstration
Ġnevertheless
enetic
ĠCK
ĠNa
Ġhydro
Ġvic
,âĥĹ
equal
ĠFunctions
Ġ)âĪĨ
Ġevolving
ÃĹ(
,|
Ġmitig
associ
test
|).
isely
iors
Ġunlikely
Ġdecorated
ĠâĪĴâĪŀ,
horizon
ĠPV
sation
Ġcu
Ġwitnesses
Ġbor
ĠMag
ĠKir
Ġframeworks
ĠFried
dense
appl
Ġpropagator
ĠCommun
ĠUL
ĠJul
Ġmomenta
Ġtransmitting
Ġtightness
RL
Ġcharged
ya
ĠRÃ©nyi
Ġunweighted
ĠAppro
ĠCQ
ĠEqn
Ġdiagonals
ĠKoszul
itivity
ĠHy
Ġlexicographic
Min
ĠVIII
ĠMMSE
Ġnowhere
Ġrefine
Ġremoves
aki
Ġpw
Ġsubstitutions
ĠRn
ĠSerre
Ġcette
ĠEulerian
centric
Ġdelayed
Ġlikewise
Ġasks
itations
Ġâ¨
ĠReport
controll
ĠMODEL
Ġcrit
projective
zable
ĠPI
loading
ĠMn
separable
Ġunobser
ĠBlack
Ġpip
Ġ65
ptq
âĢ²âĢ²
Ġincreasingly
Ġinconsistent
Ġunlabeled
Ni
ĠColl
Ġfirm
fron
ester
Ġinnov
met
Ġlive
Ġtransp
Supp
dÏĥ
Ġpixel
Ġantisymmetric
eneracy
uctive
ĠWeight
connection
Ġretrieval
Ġcoproduct
Col
Ġaperiodic
ny
ullback
Ġ)|.
Ġbesides
Ġsimilarities
âĪĪâĪĨ
bow
Ġresiduals
Ġinertia
Ġindefinite
torus
âĢ¢]
ĠÎ³n
Ġaccommod
Equ
Ġseller
Ġevaluates
ĠStructure
Ġbasepoint
aware
ĠChannel
Ġdistinguishing
hip
Ġsubjects
ĠProblems
Ġduplic
Ġbraided
)|)
Ġkr
AND
sil
ĠâĪħ)
Ġisotop
Ġexpert
Ġunions
Ġinherits
SSO
ĠAG
ĠMartin
MT
ambigu
Ġoperate
ĠResult
ĠHD
Ġesc
hole
ĠME
Rank
Ġneuron
Ġmeridian
Ġsatisfiability
Ġfermions
ĠMDS
Bs
QR
ermost
Ġmanifest
Ġimperfect
ĠpF
Ġoscillatory
Ġcontractions
ada
ĠDeg
Ġsubordin
Ġirreduc
Ġutilities
Ġhttps
Ġcausality
Ġadequate
Se
ĠLHS
!(
ĠChap
Ġhyperbolicity
Riemannian
Ġhypercube
integral
Ġquand
verti
oft
ĠFL
ĠFib
ĠBK
Ġarctan
Ġjunction
ids
Ġgirth
Ġcapability
:(
Ġpolarized
ĠMPC
large
Ġcontradict
Ġsemin
Mo
ĠFat
ĠEisen
RR
ÏĢt
Ġib
Ġfifth
âĪĴ)
ĠIdentif
Ġ??,
Ġentropies
Ġformat
Ġdiverges
iro
otherwise
ĠHer
Ġcosets
Ġinformative
Ġmonitoring
Ġfactorizations
Ġindistinguishable
learning
Ġsimplifying
Ġ{âŁ¨
Ġtokens
Ġappealing
ĠPot
oherence
handle
Ã¶r
Ġdiscontinu
Ġins
Ġdiscusses
ĠNOMA
Ġreproducing
ĠInitialize
volume
Ġ(+)
ðĿĳ£
ĠdL
á¸
Ġcb
Ġsectional
ĠSq
ĠâĪĴâĪŀ.
Ġarranged
ĠdÏĨ
Ġstationarity
Ġcurvatures
He
Ġ110
Ġkq
illen
Ġsession
Ġencl
Ġtransportation
ĠGlobal
ĠSampling
Ġprojectors
Ġrandomization
ĠChar
ĠâĪ¥âĪ¥
ived
Ġbuilds
through
âĢ¢(
ĠLandau
Ġconstell
Ġreciprocal
Ġpants
ĠDem
Ġaccelerated
bridge
onents
ĠConcerning
definable
ĠProbability
ĠâĪ¥)
Ġdownward
Ġnecessity
Ġtv
urious
odd
Ġflav
Ġstim
Ġsuggesting
Ġpaired
Ġstochastically
Ġhed
BT
Ġremin
ĠðĿľİ
law
RF
ĠSchmidt
ellip
aun
Ġhered
ĠCIF
Ġpractically
Ġsubrou
cripts
ĠLiu
Ġamalgam
Ġconceptual
ensemble
due
Ġlj
overl
ĠTM
km
RI
Ġwinding
cone
ĠÃ®
ows
Ġ[âĪĨ
Ġ1998
Ġworkload
Ġeconomic
Ġarrangements
Ġreflecting
ĠUpon
âĻ¯
ĠOrder
ĠContrib
Ġcolouring
acies
Ġcorrupted
Ġtrigonometric
Ġrr
Ġdiagn
ĠÂ¸
Ġunitaries
Ġconverted
ĠDiag
ĠRather
Ġrelativistic
Ġic
folds
Ġepochs
party
arboux
ĠKur
Ġsuffer
)'
separated
ĠâĨ·
solid
ĠUEs
ĠAssoci
ĠConvex
ĠÎ´x
Ġavailability
Mor
Ġenjoy
urm
Ġtetrahedra
ĠSplit
ĠIw
Ġmonochromatic
Ġlegi
ĠÎ»Âµ
angled
ATIONS
Ġmism
compatible
Ġquaternion
Ġevolutionary
sufficient
Ġspik
Ġrc
Ġprobe
Kn
Ġconjugates
ĠContinu
Ġclarify
Ġstic
Ġhenceforth
distribution
Ġsmart
ĠpC
ĠdÏĢ
Ġâİ¢
Ġproximity
run
ĠBE
ĠËľ
Ġtempor
dashed
input
Ġ59
Ġks
Ġmultilinear
Ġsupervised
ĠEN
Ġreferring
Ġelectro
ĠTC
Ġsemiclassical
oT
Ġdonn
Us
ĠKu
lab
ausal
inson
(âĪŀ)
Ġdichot
Ġsemicontinuous
Ġtransitivity
ulates
ĠDI
Ġuncorrelated
Ġâİ¥
Ġheart
Ġrating
ĠdQ
stances
Ã¡s
Ġdxdy
ĠNonetheless
ĠJS
Ġ96
opt
Ġdram
Ġviolates
ĠPrinciple
Ġexpos
Ġpicking
Ġ[âĪĤ
Ġconical
ĠEA
ĠJulia
taining
ĠFp
Ġfulfill
ĠÃĶ
Ġ}|
stability
ĠPu
zag
ĠðĿĴ
VA
Ġreversing
ummy
ĠSummary
ashi
ĠExperimental
Ġâĩĵ
oked
negativity
Ġdealt
ĠTerm
lif
âĪ¥)
Ġconstru
ĠArXiv
ava
Gal
attice
angement
ĠGreedy
Ġsmoothed
ĠÎ»t
ls
Ġtrivialization
ĠBor
ĠpâĦ¦
monotone
Ġreformulated
ĠEdge
ĠFigs
ĠDecomposition
oys
Ma
ĠIT
ATE
veraging
za
ĠPen
ĠSIR
ivity
unit
Per
ĠValue
ĠKum
assum
2001
Ġsentences
Ġcentrality
ĠâĪ¥|
Ġsoit
Ġfailed
operator
Ġposi
ðĿĳ¦
*-
Ġwider
Ġreactions
Ġui
ĠLeibniz
ĠKalman
roducts
ĠIM
|>
Ġperman
Ġanything
black
probability
def
Ġconcavity
Ġgp
aterial
ĠTheore
Ġtransitively
true
Ġisol
.âĸ¡
ĠiÎ»
Ġassembly
ĠCoun
Ġefforts
Ð»
Ġadverti
OPT
ansive
Ã¼r
ĠGorenstein
))).
Ġdomination
Ġiq
Ġhomoclinic
ĠâĨĲâĪĴ
á¸¡
ĠĠĠĠ
ĠItem
istant
Ġrecorded
inery
ERI
ĠRobust
dÎ»
enced
Ġyes
ĠParameter
Ġhandles
Ġdxdt
ticular
ĠÂ»
Ġparalle
Ġchords
Ġheld
cedure
Ġbrings
tunately
ĠOverall
Ġtm
ĠThose
Ġnx
Ġcollinear
Ġjoins
uchsian
irical
idently
Ġdict
Ġjm
Ġmentioning
Ġinterfer
Ġflips
dp
Ġunknowns
Ġunnecess
Ġwonder
Ġposteriori
Ġintertwin
Ġpicked
ĠðĿĳı
Ġscheduled
raft
isot
emacher
ĠHor
Ġef
ĠSqu
ĠGi
Ġdisjunction
Ġidle
)(âĪĴ
Ã©tÃ©
Ġprojecting
Ġisoperimetric
ĠðĿĳĻ
Ġ}).
Ġâĸ½
Ġ1999
imura
Gs
Ġspreading
maxim
ĠSK
Case
Ġmaintained
Ġum
Ġsuppress
Recall
Ġnucle
ĠðĿĳħ
ola
Ġseparability
Ġimplements
Ġencoura
usively
Ġdd
Ġ)âĪĩ
Ġtrac
Ġcele
Ġru
Ġassoc
ĠLogic
Ġ(âĭĨ
Ã©qu
color
Ġcolimit
Ġadjustment
Ġdays
integer
Ġreject
Ġresponsible
ĠDn
Ġprogression
Ġmobility
Ġconfirms
ÃŁ
Ġspeak
eister
Ġpreservation
Ġidempot
ji
Ġmachinery
Ġmaterials
spin
table
eigen
Ġconversion
Ġbisimulation
Ġpayoffs
given
Ġplatform
ĠKernel
acc
Ëļ
UP
Ġcocompact
Ġfirstly
Ġoutward
Ġcompil
Ġinterfaces
Ġvariability
ĠKKT
ĠWithin
Ġnotes
ĠÏĦn
ĠGeometry
Ġreferee
ĠImport
Ġarrivals
ĠâĢ²âĪĴ
Ġdescends
ĠBirkhoff
oulomb
Ġkt
beit
pop
ĠAtt
Ġencounter
ĠODEs
Ġlag
Ġparametr
Ġexploits
Ġleakage
Ġuniversally
ologous
102
Ġstars
Ġbeneficial
Ġtruthful
Ġmov
Ġ]-
ĠMethods
Ġdownload
Ġraised
site
Ġcores
)âŁ¨
eper
actical
idemeister
Ġsubalgebras
From
matching
One
ulant
oided
Ġfulfills
orientable
ĠLTL
Ġghost
Ġmetri
var
Ġmanipulation
Ġtreating
ĠSpectral
Ts
Ġincomp
spring
ploys
qp
static
Ġbank
nikov
oda
Ġhistorical
Ġcamer
{âĪ¥
Ġhandling
ĠQuanti
Ġpuncture
ĠÎ²Î³
STEM
Ġendomorphisms
Ġzz
Ġexpressive
Ġtalk
Ġunable
ĠQp
SIC
Î´t
ĠLarge
fiers
Ġdatabases
ĠTra
Ġpb
Mills
Ġnef
Ġdegeneration
Ġfluctuation
Ġtimed
ĠLes
Ġoffset
Ġreversal
Ġnormalize
Ġabbreviate
idability
Ġverifier
ĠMIS
HP
Ġinvestment
ĠMW
Sol
ĠáºĬ
ĠNode
Ġscoring
Ġcoverings
Ġlegitimate
Ġvast
Ġplausible
Ġavoided
Ġ62
Ġstems
ĠPolynomial
Ġcounterclockwise
Ġridge
otomic
Ġinvolutions
ĠDIS
Ġscalable
Ġborn
Ġtom
ĠCheck
ĠAX
ĠRelation
ðĿĳŁ
Ġcomprom
Ġshortly
ĠNotations
tized
Ġentering
120
Ġ101
ĠPage
ÄĽ
ĠDepartment
Ġfavor
olis
Ġcascade
stud
Ġsuscep
ĠFinding
Mc
SPACE
Ġentity
rome
Ġxs
ĠâĬĽ
Ġinterle
Ġair
ĠpN
Ġaccomplished
GR
ambda
physical
ĠCIFAR
Ġrain
ĠGen
ĠACK
rozen
125
Now
Ġspline
any
ĠReidemeister
Ġ))]
ĠSimple
Ġperturbative
aa
Ġcelebr
lectric
ĠRot
hift
fit
Ġderives
roll
ĠPerron
erve
ĠElement
Ġdigit
ðĿĳİ
bs
eurs
Ġeigenstates
))}
poin
Ġ]),
Ġá¹Ĺ
Ġbilliard
dm
Ġnegatively
akes
ĠÃ©lÃ©
atches
Ġstrand
pu
Ġdisag
ognitive
ĠNLS
Ġelaborate
ĠâŁ¨âĪĴ
ĠHochschild
Ġsegmentation
ĠDifferenti
Ġharmon
ĠClassical
Ġcritic
ĠEvent
Ġsubproblems
ĠSBS
aunay
Ġresistance
Ġstrategic
Ġelection
Ġrecognized
Ġallocations
ĠComputational
ĠHilb
Ġadvanced
ĠRademacher
Ġdominance
hentic
colour
zantine
âĢ¢)
reduction
tensor
apses
Ġsaving
Ġreformulate
Ġcoalgebra
dn
Ġdraws
Ġphotons
ĠInserting
Ġcharacterisation
Ġattracted
ĠÄ«
Ġignoring
Ġexistential
Ġhealth
Ġvu
Ġcomposing
Ġnormed
ï¸Ģ
Ġmidpoint
Ġcentroid
ĠÃħ
ĠdÎ²
Ġsear
Ġdegr
Ġescape
GT
Ġenjoys
Ġorbital
Ġlen
Ġlexicograph
Ġdeno
Ġ((âĪĴ
--------
semi
Ġexecuting
worth
ĠWilson
univers
uous
Ġupward
Ġboost
ĠScheme
Ġindexing
105
Ġ([âĪĴ
Ġunfolding
ICA
Ġinherited
Ġcoloured
ĠAlong
ĠConstruct
holtz
Ġfrequent
ĠTypically
Ġpromin
ĠDetails
ĠBal
ðĿĳĩ
HM
Ġmj
ĠVertex
Ġ61
ĠSturm
ĠSYSTEM
tie
Ġfoot
Df
intervals
divergence
bundles
Ġexperts
Ġsubtracting
Ġinvestigating
llig
ittlewood
haus
Ġrend
phy
Ġemploys
prim
Ext
Ġpus
varieties
ĠTx
Ġpivot
ĠLn
Ġresidues
Ġfinished
Ġlose
ĠâĬ£
LC
Ġplugging
ĠIndex
robust
zzo
ĠiÏķ
SR
Ġsie
Ġcorollaries
Ġrelativity
ĠâŁ©âŁ©
Ġquadrant
ĠdE
ĠFatou
âĭħ
morphisms
Bl
ĠExercise
Poisson
Ġcelebrated
Ġobservability
Hence
Ġorderings
Ġrp
Wave
==
sa
optimality
âĦĳ
Ġsolvability
Ġinten
Ġrelabel
Ġadiabatic
Ġidentifiability
Ġhighl
FF
ĠFPT
Ġtape
apr
Ġforgetful
Ġlis
Ġstepsize
ĠÎ±t
inverse
Ã©d
ĠÃĿÃĳ
Ġtyping
sians
Ser
Ġtransversality
Ġlegal
usted
Ã©tri
ĠCoulomb
Ġcorrected
Ġmolecular
dÎ½
burg
ĠMechan
Ġdifferentiating
structured
Ġfermion
Ġhing
Macaulay
SA
Ġslack
INE
osh
ĠLow
Ġranked
coherent
Ġroom
cub
Ġconcluded
Ġincorporating
titude
ĠCartier
Assum
}]
Ġscalability
ĠpH
ĠNak
family
itor
Ġstraightforwardly
bu
Ġquantification
gal
Ġascending
Ġremind
iller
abling
ĠEss
nr
vided
ury
Ġâ¨¿
emper
Ġmixtures
Ġdelicate
ĠBN
ĠGB
Ġsimulating
marked
Ġstrips
Ġwait
Ġconstructible
Ġintervention
ĠDifferential
Ġcolorings
rew
=(
Ġmultipartite
Ġcontainment
actability
Ġclassically
MDP
Ġepis
lector
ÂµÎ½
SIS
similarity
Ġcyclically
Ġtoy
Ġstudents
Ġpermits
ilo
Ġzi
ĠðĿĳĶ
ĠBrauer
Ġspecialized
Ġei
agin
Ġguard
Ġaggregated
Ġmassless
Ġmeant
alind
star
Ġphylogenetic
hered
quoti
ĠExplicitly
ĠâĬĹ(
Ġcompeting
effding
iy
ĠDynamic
dg
tx
Ġwild
ĠProtocol
ĠCSIT
Ġspine
First
Ġsubg
ĠSubsequently
BK
Ġenabled
aken
blematic
Ġuncertainties
Lapl
berger
ĠHigh
When
Ġspike
Ġrequested
osov
ĠHelm
Ġstabilizing
ĠIsom
Ġrealizes
Ġelegant
ĠrÃ©sult
hs
Ġ[âĪĩ
ĠED
ĠZp
MSE
Mon
Ġconflic
Ġsubsequences
atell
ĠDirect
Ġsucceeds
ĠðĿľı
ĠGn
Ġperson
ĠðĿĳĢ
Ġcarrier
Ġprepared
SD
Ġ(#
ĠvÃ©ri
Ġquantifiers
tingales
Ġmining
Ġbroadc
ĠÎ²i
ĠÃĢ
locality
ĠðĿĲ»
Ġextin
Ġrejected
ĠFortunately
Ġregisters
termin
simplices
founded
|âī¥
ĠYu
ht
ĠQuillen
Ġfitted
ĠCorresponding
ĠðĿľķ
acket
ĠSciences
Ġensured
Ġcast
ĠEstimate
Ġlandsc
ĠAE
Ġtrigger
Ġbubble
Ġinvestigations
Ġswitched
ĠðĿĳ§
Ġsignaling
Ġsell
ĠHen
source
Ġretraction
ala
ðĿĳĳ
}-
Ġfragments
104
validation
ĠBellman
Ġdrops
qs
information
Ġexclusion
Ġlearns
irectional
Ġreinforcement
)âĮī
lds
ĠNoetherian
Ġhospit
Ġsubscripts
Ġrelaxations
Ġcipher
ĠpP
oler
Ġhexagon
ĠSIM
pZ
ĠKan
spl
Ġcomplexities
oherent
Ġqqq
compare
column
eger
gain
ĠDepending
103
ĠpÎ»
ĠChrist
ĠSiegel
adjacent
Tate
Ġshrinkage
iry
global
Ġprevents
ĠRx
ĠGE
âĨ¾
ĠâĪĴ[
ĠFast
ĠFlow
series
Ġstudent
Ġ/âĪĤ
Ġpatients
Ġsuited
Ġspent
ĠmÃª
Ġanchor
Ġsubmitted
Ġdeeper
entist
full
Reg
circ
va
Ġtransversely
Ġworked
ynamical
Ġbidder
Ġstem
special
Ġlamin
Ġuniformity
Ġunsatisf
Ġtransduc
ĠDyck
]/(
ĠSen
ĠUN
ĠIH
ĠBPS
Î©
Ġdummy
quas
Ġsequent
ĠEither
Ġnondeterministic
Ġscheduler
Ġdeployment
Ġformalized
ĠdG
Ġ|âĥĹ
ĠPRE
Ġunconditional
sampling
ĠHess
ĠCFT
Therefore
Ġcrow
Ġ67
Ġbath
Ġcondens
ĠRAM
lower
ĠShap
ĠDarboux
Ġexposed
spired
AK
MI
depth
ĠJohnson
Ġinflation
ankel
Ġbuyers
ĠPAR
ĠBon
Ġzig
Ġheap
Ġdifferentiate
Ġraw
112
ĠDesign
ĠFuture
Ġtermed
Ġadvice
Ġkh
Ġpointer
Ġpuzz
Ġanne
Ġresil
Ġsubmer
Ġgrey
PI
Ġinteractive
Ġsand
ĠMaslov
Ġoperates
Ġtors
ĠHal
Ġeconom
ĠMorita
Ġrecognize
both
Ġdigraphs
Ġprepare
isometric
ĠSmall
ĠDO
dÎ·
ĠâĪª{
Ġfruit
ĠImage
]],
Int
Ġunclear
Ġmult
ĠMD
FOR
ĠMB
Ġentail
Ġ]/
Ġquadruple
atorial
Ġinitialize
Ġmarks
Ġincurred
Ġ]âĪ¥
Ġinertial
dom
ĠArea
Ġidempotents
ĠLabel
otted
hib
frame
Ġig
Ġresonant
âĪĪâĪĤ
onacci
ĠBethe
Exp
ĠFree
princ
determined
Ġrx
Ġdiscounted
Ġstoring
zi
Ġcapabilities
Ġcokernel
Ġsupplement
Ġordin
Ġ+)
Ġarriving
Ġanymore
ÏĢn
ametri
Ġaz
statis
ĠIA
Ã³n
www
ĠðĿĲµ
Ġtessell
ĠðĿĲ¾
Ġoscillators
polyt
Ġtransforming
Ġ150
homomorphism
ividing
density
Ġbb
Ġcrystall
Ġmanipulations
ĠSitter
ĠDual
ĠKi
âĮĭ,
Ġactivated
Ġties
ĠBog
Ġdisp
Ġdeclar
ĠDelaunay
regman
abelled
ĠâĨĹ
Ð¼
ĠSal
|),
Ġsheet
ĠÎ¸t
ĠPriv
Ġtrapped
Ġ66
Ġruled
ĠStan
Ġtending
ARY
108
Ġ(Â¬
GC
current
Ġmultiscale
equilibrium
Ġsquee
char
tracking
Ġdiverse
SEP
Ġseminorm
ovanov
avoiding
Ġcharging
Furthermore
axter
Ġavg
Ġdefects
Ġoffspring
ingly
Ġpor
Ġvote
ĠSparse
Ġfinger
ACK
ĠGAN
trami
Ġapproaching
Ġsigma
pm
ĠReed
imir
Ġextrap
Ġcx
adder
Ġta
ĠErr
LAB
106
Ġcalibr
Ġresonances
Ġstair
Ġhighlighted
Ġ1996
ga
ĠFE
mers
structive
Ġplate
Ġmr
ĠAcknowledgement
arrier
ĠFT
chains
ĠMAX
ĠSets
ĠLOCC
ailable
Ġsatisfactory
").
ĠEngine
ĠLDPC
Ġcontextual
ĠRequ
ianchi
Ġmalicious
Ġcentralizer
onicity
actional
Ġprolong
Î±t
Ġspeedup
ĠHK
ĠâĪ¥[
Ġcris
ĠTran
Ġregularly
cati
irreducible
ĠCard
Ġstably
generated
ĠÎ±Î³
Ġ?].
tique
Ġauthentic
ĠTA
ĠIde
Ġinvoking
Ġflags
Ġborrow
ĠRate
Ġdecreased
ogeny
Ġ|âī¤
Ġ.}
TIM
107
ĠPass
ĠEisenstein
Ġqueueing
Ġih
ĠSchwarzschild
Ġanswering
Ġmulticast
Ġae
ĠHelmholtz
Ġepist
Ġforthcoming
Ġloci
Fi
Ġfacility
ĠOutline
ĠâĢ¢(
Ġwinner
missibility
Ġrespond
Ġregularizer
ĠÏĥi
Ġsystematically
Ġjustifies
Äī
Ġactu
Ġvorticity
lease
symplectic
enna
veraged
ĠRKHS
post
ĠStill
Ġbimodule
Ġsurrounding
ĠRecent
usz
ahedron
Ã§
Vi
list
Ġacknowledge
ĠKra
idemic
ĠHM
cocycle
iloso
sations
ara
ĠâĪŀ}
Ġsolitons
Ġsj
Ġuncountable
Ġ68
Ġbrain
Ġprovable
ðĿĳĭ
ĠRussian
sler
invariance
Ġresultant
Ġpartly
osis
Ġpopularity
Ġsep
Ġproxy
Ġessence
ESS
eping
Ġlemme
ĠUl
Ġrealizing
Ġ(âĪĴ,
olf
âĪĴâĪŀ
again
avig
Ġgadgets
Ġprovably
1999
Ġspeeds
design
TIVE
ĠNt
Ġoscillation
ĠKullback
atson
Ġ(âĪĨ,
ĠBW
Ġexcluding
Ġâİľ
ĠOnline
overlapping
]âĪ¥
curl
Ġsteep
ĠðĿľĩ
Ġcocycles
ĠHaw
ovich
Ġthreads
ĠMoore
Ġseparator
Ġgoods
Ã¶m
Ġinvent
Gordon
132
Ġbids
Ġcv
region
Ġmist
ĠNUM
ĠEar
ĠPain
induced
ĠAdditional
ĠâĨĲâĨĴ
Ġloads
LT
Ġ::=
ÏĢk
outs
Ġfluxes
directed
UCB
terminal
Ġrj
Ġdominate
Ġstiff
board
hy
Os
ĠâĪĴâĪĴâĪĴâĪĴ
Ġunnecessary
cting
ĠMultiple
ĠPROBLEM
**
Ġdiscrimination
ĠâİŁ
Ġvoter
ĠByzantine
Ġblowing
Ġsat
Ġstyle
Ġpanels
ðĿĳĿ
potential
ulty
Ġproblematic
ĠOrgan
Ġstabilizers
Ġfo
Ġswapping
:=
pan
ĠâĪŀ;
Ġoptimisation
All
Ġmt
Ġbraids
ĠFour
inity
Ġrelease
ĠFDR
Ġincorporated
ilding
Ver
geodesic
Ġobstructions
Be
phantine
Ġiu
Ġellipse
bel
Ġtruly
ĠCore
elsen
Ġanticip
TING
write
ĠMST
apez
ĠÎ±x
Ġaid
Ġbijections
ĠGenerally
Ġfloor
shift
Ġdivergent
phr
Ġassets
Ġcodim
Ġsparsif
fo
ĠKnow
NOW
Ġdestro
contained
tiable
Ġheterogeneity
ĠdY
ibler
Ġpreimages
ĠTT
Ġrm
Ġarcc
ĠFermi
ĠMeasure
128
Ġserving
Ġsubpath
thus
ernary
Ġelasticity
Ġpreconditioner
Ġqr
ressible
Ġmaximizer
Ġgal
ĠSketch
parable
compass
Ġpropagate
Ġart
Ġexamining
fitting
Ġbenchmarks
imodules
ĠLEM
GF
Ġ|}
Ġoblivious
ĠðĿĽ½
Herm
ĠDistributed
ĠPartial
Ġplacing
Ġáºĩ
Ġmaximality
quadratic
Ġscreening
ĠProcedure
Ã©gor
abolic
ĠâĪŀ))
ĠâĬ´
Ġattractors
Ġhereditary
Ġremarked
ĠRa
Ġpredicts
separating
satur
Ġqual
ĠAff
Ġgrand
alan
Ġenriched
Ġtourn
Ġfoundation
Ġbroader
Ġthickness
ĠXOR
ĠËĨB
ĠÂ¢
ĠBregman
Ġsubstr
Ġmutations
ĠDans
.[
igible
xxxx
icing
Ġpersonal
Ġasymmetry
ĠHankel
rage
Ġresembles
Ġdecoupled
Ġsupersymmetric
Ġoperads
studied
KK
Ġdimin
Hausdorff
Ġcognitive
Ġmontre
Ġfiltrations
Ġdiscarded
ĠAI
Ġson
HA
Ġ{âĪ¥
Ġ81
Ġaus
Ġscho
selection
ĠQM
ĠSmith
Ġbridges
Ġpatient
Ġtour
ĠRiccati
ĠSay
composition
Ġrepul
Ġcosine
onomic
grading
ĠBerg
ml
Ġsubsolution
Ġconductor
bro
ĠAo
Ġadapting
ew
Ġcompanion
Ġut
version
Ġminimally
ĠDoes
ĠBeta
trivially
Ġrelaying
Ġvaried
Ġjt
pz
Ġ[]
âĢ¢|
Ġrotated
Ġprover
Ġmultiplications
Einstein
Ġsubroutine
Ġepidemic
ruct
topology
ols
gg
relative
Ġgenetic
ĠTransform
arents
SV
Ġobservers
ela
Ġoccurred
osting
Ġwarp
ĠQoS
portation
ĠpK
ĠInformally
elfand
Ġaffir
ĠEstimates
Ġrepetitions
Ġassociativity
ĠAnosov
ĠRelative
Ġpseudod
Ġannounced
Ġachievability
Ġtraversal
ĠAlgebraic
Ob
Ġabsent
Ġassocia
stabil
Ge
ĠÈ§
dq
Ġscientific
object
Fr
ĠEmail
ca
ĠKas
mative
ĠAutom
1998
Ġdescendant
Ġidentifications
Ġpassed
equivalently
follow
otz
Ġcup
Ġsemim
riction
Ġlock
haul
ĠiR
ostic
Ġinterl
Ġpicks
Ġspher
Ġsatell
momentum
Ġappend
Ġviolating
projection
:,
ĠprÃ©c
).)
comm
Ġdvol
Ġhyperparameters
AE
ought
Ġidentifiable
ĠðĿĳ¤
ĠComputer
othe
ĠGood
ĠEmpirical
complexity
Ġanomalous
âĦĺ
nodes
ĠBER
Ġ(),
although
Ġreli
ðĿĳĴ
Ġtf
Ġencompass
Ġdemonstrating
expected
ĠInitially
Ġdeliver
ĠÏµn
ĠEngineering
Ġresid
turning
Ġturb
ĠCÎ´
Î»n
Ġeman
bn
algorithm
ĠHi
Ġundefined
ĠðĿĲ¹
Ġrenormalized
Ġfavorable
Ġgoverning
ĠReturn
ĠÏģn
ĠNous
beck
PL
ĠIntel
velength
ĠTensor
Ġpeaks
ĠOpt
ĠLASSO
ulo
Ġhours
ĠLQ
Ġdeb
ĠDeriv
anes
cont
Ġtoroidal
Step
ĠÎ³i
Ġ1997
utte
PD
SW
Ġeliminating
igraph
ipheral
Ġspacing
adapted
Ġvn
ĠpY
ĠmÃªme
anger
ĠâĬ¥,
Leibler
Frobenius
CK
1996
behaved
Ġexclusively
abilistic
Ġstabilizes
ĠSupplementary
Ġprotected
Ġcirculant
Che
PE
Ġvisibility
Ġnorth
turing
Ġautocor
Ġelectronic
ĠFundamental
Ġtension
Ġnl
Ġoffered
Ġcomprises
Ġnine
Ġnoetherian
tinomial
Ġ{âĪŀ}
Ġcontra
ĠArch
onov
TA
itudes
rick
strÃ¶m
usting
Ġpredecessor
-,
hm
Ġell
auti
Ġinternally
Ġseeds
blocks
pT
akov
Ġimagine
Ġcited
Ġternary
Ñĥ
Ġcollapsing
'll
Ġcontig
ĠWald
ĠSymmetric
ĠImplement
ĠSynt
ublished
ĠNy
ĠËĨt
ampled
Ġlifetime
Ġbackwards
gi
Ġexchangeable
nc
eu
Er
ĠpÂµ
Ġnormalised
Ġcyclotomic
Ġanswered
expansion
Ġdem
ĠConv
Ġbipartition
109
Ġsave
ĠLag
Ġpresentations
semigroup
Ġgained
ORK
ĠdM
oints
eling
ĠâĮĬ(
rial
Ġcentred
ĠQn
Ġdiscount
ularity
Ġcounterexamples
Ġdiscontinuities
ĠIso
Ġqs
Hz
Ġdivergences
Ġdescendants
Ġillumin
Ġbars
Ġdenoising
ĠRich
ĠTow
PH
Ġ112
Ġfrozen
rupt
Ġsemiring
Ġprominent
ĠBounded
dynamic
Ġconflu
Ġdetectors
ĠNorm
ĠKre
abe
Ġdecoupling
Ġappeal
perturbed
Ġexploring
GAN
BV
Ġunf
Ġquantiles
Ġrecalled
Hu
ĠEvaluation
insi
Ġnotable
nq
)):
ĠRepeating
Ġcollapses
Ġty
ADMM
Ġimpr
Ġexcursion
pure
Ġselfadjoint
pc
tailed
orb
effective
ĠCoh
Ġtautological
Ġunambigu
ĠZe
ĠLange
they
espace
unitary
Ġ)|,
Ber
Ġhomogenization
Ġnoises
via
Ġthorough
Ġsublattice
Ġserial
levÃ©
Ġbidders
Ġcofibrant
Ġfactorial
curves
HÃ¶lder
Ð²
Ġamplification
Ġamongst
elines
ece
Ġquant
ĠRN
Ġwanted
IA
inz
duction
ĠKB
Ġshuffle
Ġtwistor
":
zard
ĠTW
Ġfruitful
Ġsynd
Ġscan
Ġskein
Ġabsorbed
Ġsupersolution
Ġexcitation
ĠCre
ĠHJ
Ġpredictable
Ġstretch
Ġfer
Ġtb
Ġfol
urally
coordinates
Ano
ĠâĢ²(
tation
ĠUnless
conditioned
derivative
ĠðĿľĥ
ticularly
Ġsubsur
tiy
Ġsurve
With
Ġneck
âĪ¶
ĠKerr
Ġundergo
Ã¸
scrib
rooted
cteur
rill
Ġ[?]).
Ġsupercon
pf
Ġsil
ĠâĢ¢).
ULATION
ucker
assuming
ĠFibonacci
central
Ġdeployed
ĠiÎ·
Ġpul
ropolis
Ġreservoir
Ġintra
ĠBIC
Ġ|).
hardness
simplicial
Ġcontractive
ĠDN
Newton
ĠFuk
Ġworlds
Ġiterating
ĠRelations
Ġarticles
Anosov
elliptic
tica
uniformly
CV
Ġexchanges
ĠMatlab
ĠKey
fields
linearities
pairs
ĠRÎĵ
Ġtk
Ġremember
clique
logarithmic
ĠLEMMA
ĠMajor
eedback
ĠNF
Ġpnq
Ġol
agation
Ġaffirmative
Ġinterfere
Ġanalyticity
LEDG
ĠRecur
Ġmanage
Ġ]ÃĹ
types
Ġvalence
Ġredefin
ĠFrame
ĠnÎ±
Ġdifferentially
ĠScho
Ġinvalid
ĠDistance
Ġstabilize
surface
ĠFull
tjes
ĠdN
high
Ġinvolutive
urer
NOWLEDG
ĠCram
ĠArn
inct
spectral
Ġentropic
ĠSteps
ĠEigen
ĠExponential
MB
ĠËĨT
Ġhk
Ġfolding
aka
Ġdecomposing
Ġunp
Ġremote
Si
ĠIE
final
rylov
Ġ(âĪŀ,
Ġimmersions
Ġtransf
ĠPrim
astruct
Ġharvesting
Ġprotein
ĠKhovanov
ĠSingle
ĠPezzo
Ġ->
Ġá¹Ļ
addi
ĠAdv
angles
HL
ĠRen
Ġdeparture
siveness
ĠGron
ĠHigher
ĠLU
ĠÏĥn
ĠPrior
Ġ,âĢ¢âĢ¢âĢ¢
eltjes
ĠðĿĲ·
Ġmig
Ġnonincreasing
Ġoptimizer
Ġtrapez
Ġeng
Ġspaced
ruption
wa
oni
Ġphiloso
Ġconnectedness
)ÃĹ(
))-
âŁ
dP
ĠVector
UND
Ġconfined
Ġrenewal
ĠáºĨ
Ġtie
Table
lg
ĠBx
ijk
Del
Ġ/âĪ¥
Ġ)âĢ¢
ĠWu
ĠMatching
Ġresampling
)âĮĭ
representations
Ġcorrespondingly
ĠBruhat
Ġmorphisme
ĠWal
ACT
Ġâĸ·âĹģ
Ġtranscendental
stochastic
ivita
Ġ1995
ĠMy
Ġhistories
Ġck
perturb
Ġbs
Ġparents
Ġsyst
Ġvicinity
ĠKR
ĠThesis
ĠIX
second
Ġmc
ĠPan
Ġqualitatively
Ġstrain
ĠWell
Hopf
Ġpolymer
GK
Av
rought
dou
logram
Ġdisturbances
Ġminutes
ĠSepar
alling
Simons
Ġmainten
Ġ(âĮĬ
ulner
ĠACKNOWLEDG
ĠKa
Ġheights
ĠâŁ¨[
Ġaj
Ġduals
Di
ĠInternet
ĠOS
Ġaq
Ġreciproc
ĠðĿĽ¿
Ġfundament
erential
ĠÂ±(
ĠGa
ĠGame
Dir
regularity
additivity
Ġstd
Ġcostly
Ġrainbow
ANT
Ġaccommodate
Ġrephr
Ġreturning
Ġforme
ĠRepresentation
auer
correct
Ġalphabets
Ġsuffers
Ġbj
Ġinn
Ã¼ck
ĠComple
ez
Ġ03
ĠMATLAB
ĠpL
filling
universal
hu
HK
ivered
)>
Ġdiverge
Bel
ĠâĪĤâĪĨ
branes
urability
intersecting
Ġdegradation
xq
Ġatlas
invariants
Ġinexact
Ġconversely
Ġstanding
itives
Ġsketched
RÃ©nyi
Ġgerms
DER
Ġconjugated
rement
oms
Ġpeer
Ġspherically
Ġdam
Ġadditivity
ĠLI
ĠHasse
norms
Ġdropping
Ġguide
Ġbx
ĠnT
ĠFinsler
ield
Ġaud
Ġdrive
LY
ĠPaper
pM
Ġputs
Ġger
ĠIoT
ĠOrd
ĠÃ©qu
FO
balance
kr
Äĩ
continuity
ĠDeep
ĠiÎ¾
batch
green
Ġinfluenced
Ġ69
ĠIndependent
Ġexcited
Ġdichotomy
Ġft
Ġdeterminantal
pS
nk
)!(
Ġbrought
Ġeigenspaces
Ġhospitality
Ġelectrical
seen
Ġrender
PER
Ġspecialize
conjugate
ulier
ĠGelfand
Ã¡n
ĠAdaptive
ĠâĮ©
Civita
Ġhouse
Ġdocuments
ĠÎ»j
Ġlate
homotopy
ĠGer
Ġtiming
Ġexcitations
ĠFuchsian
ĠXu
Ġboson
Ġtransferred
antenna
Ġpione
Ġgrouping
Ġexecutions
tines
Ġmerged
Ġcrucially
ĠnÏµ
Ġinterpolating
Ġtempered
121
Ġextracting
ĠðĿĽ¾
ĠGronwall
Sc
Ġlayered
atics
ĠDNA
ĠÎ²j
Thom
Ġexchanging
ĠFixed
ĠConstraint
Ġundecidable
Ġarrange
Ġpredicting
Ġ}),
leaf
ategory
Ġsch
ĠLimit
Ġcubical
áº½
ĠPW
Ġwindows
Ġultrafilter
KF
bimodule
ĠSmooth
ĠPrevious
ĠParameters
eters
grained
ĠCasimir
Ġ(âĢ¢;
Ġhandlebody
eder
ĠPPP
multiplic
Ġhyperedges
matched
rm
ĠImm
maps
Ġtangency
Ġrearranging
KD
ĠGEN
Ġjet
Ġdeferred
ĠTu
Ġconductivity
ĠPrecisely
ilst
Ġannihilation
ĠCy
ĠPerm
Ġnonsmooth
ĠApproximate
Ġwishes
ĠMetropolis
Ġbifurcations
Ġqt
labelled
ĠÎ²Î±
]\
near
Ġuw
Ġvj
113
Ġmonth
Ġhelper
]))
ĠVis
Ġtransparent
Ġsurjectivity
onald
Ġijkl
Ġcredit
Ġrationally
ĠCU
Ġtransversally
bling
Ġnotably
Ġtouc
Ġunic
spheres
Ġbackhaul
ĠÂ¬(
.'
Ġtrap
Ġdrastic
itud
Ġhypothe
pd
petitive
Ġsafely
ĠHir
Ġattachment
Ġopportunity
Ġirreducibility
Ġ+âĪŀ),
Ġinformed
ĠPSD
Ġamor
Sk
respective
Ġsplittings
ĠRunge
ĠPres
Ġabund
Comp
Ġnavig
Ġneglected
Ġpurif
)âĨĴ
ris
ĠiÎ²
ĠVe
ader
]);
Ġhexagonal
Ġpictures
Ġlandscape
Ġfloating
Ġmonitor
))),
partial
Ġwherein
Ġcorrespondences
Ġacknowled
Ġrecommendation
Ġconductance
Ġ,âĪĴ
sest
Ġsubword
tiyah
ĠBI
apsack
ĠCour
ops
arn
base
And
Ġinstructions
Ġreuse
ĠTheoretical
SY
average
RW
Ġpermuting
Ġpurch
operative
rk
ĠInvariant
Ġqud
Ġcoincidence
Ġconstellation
Â§
Ġeuclidean
Given
Gener
Ġcircumstances
Ġec
ĠApart
Ġillustrating
Ġblocked
ĠInternational
ĠPair
Ġinactive
RIC
Ġcaract
Ġguid
injective
Ġpublication
ĠÂ«
xj
Ġbur
ĠðĿľĭ
)?
ĠMic
ĠmmWave
Ġspot
Ġsupersymmetry
Ġpushforward
Ġconsumer
Ġmotivating
Ġdisorder
Ġauctions
ËĩËĩ
present
acon
Ġobservational
books
Ġbonds
ĠTQ
Ġconversations
Ġeffic
Ġsubbundle
Ġancilla
memory
Ġbasin
ĠHorn
ĠÎ±j
cil
Ġtwin
Ġcollecting
ĠHome
KB
Ġaffecting
Ġtedi
Ġcapturing
Ġtuned
ĠRMSE
AMP
ĠSa
Ġoutlier
Ġarccos
Ġcommutators
ĠSearch
ĠpZ
iÎ»
|}
Rob
Planck
ĠPAC
Ġpropri
âĪ¥(
ĠSolutions
Ġreviewed
asp
shif
qn
Ġcardinals
written
ĠFV
oustic
ĠMonot
PN
atomic
each
toler
Î´n
Ġ73
Ġillustrative
Ġterminating
]].
fly
ĠShimura
Ġquaternionic
hlen
Ġpeb
ECT
Ġ+âĪŀ).
half
ĠKM
âĪħ,
essential
Ġfaithfully
upper
Ġraises
ĠContinuing
Ġsens
Ġfriction
Ġepistemic
Ġinterven
ĠAWGN
bad
È·
Ġlt
generalized
ĠMal
ĠMinimum
Based
page
Ġrefinements
Ġstriking
Ġextinction
ĠDiagram
handles
Ġselective
Xi
span
classes
Ġopinions
Ġrecom
ĠCONCLUSIONS
Ġgradually
Ġ==
han
ĠMIN
ĠDed
Ġelectrons
ĠOverview
ĠTutte
inski
Ġwavelets
Ġundes
Ġharmonics
uve
Ġstabilized
lie
area
Ġconfound
Ġstab
TIME
Ġ+âĪĴ
Ġinfr
ĠEssentially
Ġdir
plect
Ġregener
wind
Ġdensely
Ġhyperedge
ĠPainlevÃ©
advant
Ġproposals
Ġexhib
ĠCx
Ġ|]
Ġtedious
Ġsimulator
Ġbq
Ġdiscard
ĠUsually
Ġsoci
Ġ1994
Ġexits
Ġfait
ĠLangevin
Ġcancer
114
diam
ÅĦ
Ġadvances
Ġdj
ĠSIC
ĠâĹĢ
Ġpalind
Ġpreorder
difference
ĠDNN
ĠJan
Ġserious
asc
ĠConcluding
ĠKrylov
Ġunordered
Ġcommens
Ġadaptively
Ġladder
Ġincoherent
Ġinvertibility
Ġnb
ĠYam
utter
Ġbisection
Ġsomehow
ĠSetup
ĠâĬ¸
Ġimpulse
ĠOrganization
Ġlb
Ġdelivered
Ku
Ġinfluences
Ġoverlaps
ĠAction
usztig
ima
ĠLeb
breaking
Ġmorph
Ġvulner
Å¼
ĠWS
omon
ĠThÃ©orÃ¨me
Ġparam
autom
symbol
Ġ78
variables
cusp
âŁ©}
ĠDÃ©monstration
HH
tap
ĠCenter
........
Ġunsupervised
DB
ĠShort
ĠBianchi
atever
Ġpkq
ĠDist
ĠStage
ĠÃī
ĠMonge
ĠMachine
oupled
Ġprofinite
Ġsuivant
ĠGRA
closure
Ġfastest
Ġaccumulated
Ġacknowledges
oling
ĠpD
Ã©ral
Ġquantifies
Ġinsertions
Ġstopped
shell
Ġxu
TE
ipro
Ġ10000
allow
Ġhashing
math
Ġintegrator
stract
covering
Ġmd
Ġunimodal
pv
oupling
pdf
ĠLH
Ġexplaining
Ġ[âĢ¢]
Ġincenti
ĠDomin
Ġhook
Ġparadox
aprÃ¨s
Ġretrieve
Ġexempl
Ġvt
GG
,Â§
Ġtrivalent
ĠDescription
Ġvotes
interference
Ġsuppl
Ġblind
Ã©od
ĠiÏĦ
signed
ĠdâĦ¦
ontse
Ġinterfering
Ġwn
Ġmultiplex
gt
rling
Ġexclusive
Ġartif
115
opp
raction
ei
inner
ĠEW
ĠKdV
flu
oning
ĠKau
ðĿĽ¼
gm
isition
trace
ĠâŁ©}
colorable
ĠMetric
Ġexpense
Ġresulted
ĠDH
Ġinverting
convexity
ĠVarious
Mil
icher
ibly
Ġist
ĠâĭĲ
models
Ġinverted
Ġorbifolds
Ġpermanent
ĠiÎ³
illa
ĠCorollaries
ALY
Ġexchanged
Ġradially
Ġfrontier
ĠÂ±âĪŀ
ĠdT
ARCH
itudinal
Ġshallow
Ġtranslating
Ġff
ĠBÃ¼
LOG
ĠFW
Lu
Ġtractability
pseudo
ypical
Ġasympt
Ġsuccinct
ĠDFT
124
hao
ĠNeural
sembl
Lo
ĠDv
ĠExperiment
Ġdont
ĠQH
yz
ordant
Ġmagne
Ġincl
ĠWeighted
Ġtd
ĠWitt
ĠÂµn
Ġpremise
Ġmembrane
Ġsubstituted
ĠJi
baum
ĠTrue
Ġmonomorphism
ĠContributions
ĠMaterial
Ġactivities
oney
ipartite
Ġbt
Ġmas
âīº
Ġneighbourhoods
Ġbucket
nil
Ġplans
Ġsv
Ġmartingales
ËĻ
Ġces
ĿĲ
|+|
ĠSei
Ġeg
ĠKummer
Ġlinkage
dÏķ
iq
Ġtangles
Ġedit
ĠCode
ĠðĿľĮ
Non
yd
satisf
ðĿĳ§
aturally
Ġthreefold
ĠGK
HSH
hlenbeck
1997
%)
ĠSelection
ournal
ontsevich
Ġcircumvent
Ġestimations
Ġsubcritical
Ġmotif
Ġwavelength
Top
ĠWhe
Ġantipodal
Gu
Ġabsorption
bra
Ñı
ĠImplementation
Ġgy
ĠPyth
identif
infeld
Ġfriend
Ġsymplect
Ġelectricity
Ġ1990
vature
ĠFactor
ĠRIP
Ġfini
iewicz
Cart
Ġthermodynamics
Ġreactive
iophantine
ĠnÎ»
ĠDifferentiating
Ġjq
ĠAtiyah
ĠFB
116
ĠFok
prisingly
Ġexplanations
Ġcryptographic
uality
Rel
Ġgt
Ġtemperatures
bered
Ġsuppressed
117
Ġopening
ĠRefs
Ġcongruences
Ġgot
Ġexotic
Ġswaps
Ġexposure
ĠPerhaps
hd
ĠScenari
ĠHist
Ġaw
Ġsteering
ĠSummar
Ġparallelogram
nx
Ġ512
oreg
Ġspinors
ĠRecon
ĠGaussians
Ġassert
Ġreserve
iminary
CW
Ġguaranteeing
Ġcoh
ĠÎ±p
Ġreviews
Ġtransfers
ĠStates
âĬĶ
ĠVect
Ġ(âĢ¢).
itchin
ĠDt
Ġprimitives
118
Ġunitarily
Ġalbeit
Ġmoney
Ġregress
ĠStart
oother
Ġcompressible
ðĿĴ
Ġmiscl
Ġinstrument
Ġ}}
Ġinterplay
Ġfoliated
ĠâĪĴâĪĴâĪĴâĪĴâĪĴ
Ġdisadvant
Ġ(âĪĴâĪĨ
Ġpoorly
orp
ĠGab
Ġexhibiting
ĠFixing
ðĿĳĨ
,...
Ġexceptions
Ġfiring
imer
ĠBU
Ġclocks
ĠDavid
Äį
Ġclustered
Ġvision
Ġ76
Ġreparametri
insky
Ġplas
dS
eda
Ġdramatically
ĠAns
Ġscattered
Ġrq
minor
Ġutilization
ĠÎ»u
ĠLevel
ĠLanglands
anch
distributed
ĠHn
ĠOB
Ġbooks
ĠOrth
ĠInspired
Ġ84
ĠFF
ĠFormulation
ĠDynamics
ĠÎ²t
ĠConditional
ĠLt
Ġerf
utta
ĠAU
itory
Ġprohib
Ġris
icontinuous
Ġpursue
Ġperipheral
ĠDecision
Ġprototype
QL
ĠXs
Ġ?]
Ġtracks
Ã¼n
Ġbrane
ĠDV
instance
otes
ĠAlors
proved
Ġchambers
Ġyellow
Ġpredefined
ĠpV
ÏĢr
transform
ĠCases
Ġrv
Ġtomography
ĠPPT
Ġaddressing
ĠGO
Ġoffloading
Ġutilizes
steps
Ġsine
Ġcontributing
Ġpseudodifferential
ĠdÏĪ
Ġlect
ĠTrop
Ġprotection
ĠCombined
Ġjs
Ġcumulants
istry
[âĪĨ
ĠPSPACE
idity
Ġequi
ĠïĿĲ
ĠTotal
dependence
ĠSIS
Ġnoncompact
neighbour
Ġpyram
ĠBj
Ġdiagonalizable
Ġinfrastruct
ĠCheeger
Ġbelieved
ĠBoundary
ĠEB
ĠÏĢn
BER
ellowship
Ġmask
Ġprovider
Î±q
ĠConstraints
ye
polar
Ġnul
Ġadmissibility
ĠWhereas
Ġunobserved
Ġvq
Ġforecast
ĠCY
threshold
Ġ(âĪŀ
ĠBun
ĠÄ¡
Ġattributed
Ġhemis
Ġsf
ĠîĪ
ĠâĮľ
Ġfibrant
Ġmq
Ġincomparable
Ġindicators
Ġconstituent
Ġlandmark
priori
Of
ĠProgramming
Ġallocate
ĠUAVs
Ġcamera
rather
ĠSubject
Ġcompose
Ġoccasion
Ġbypass
ĠSat
ĠList
ĠHenceforth
move
onde
tail
ĠFren
...+
Ġaccomp
Ġcorrecting
Ġpzq
ĠPfaff
Ġcouples
ivariance
Au
ĠCZ
splitting
Ġchunk
ĠSoc
Ġspurious
ĠFrank
ĠTF
Ġgrants
atrix
ĠAmer
ĠAnderson
Ġpullbacks
Ġ|âĪ¥
ĠCentral
Ġ71
ĠLagrangians
Ġenvironmental
fre
indexed
Ġthous
ðĿĳĲ
Ġquandle
Ġhomothe
ĠGHZ
ĠLink
ĠCorrect
ĠPER
Ġteleportation
Ġtrim
Ġbiology
squared
Ġshed
)*
Ġmagnitudes
Ġinformal
Ġpla
ĠUniqueness
Ġemphasis
Ġsearches
Ġ||âĪĩ
ĠShow
ompson
ÑģÑĤ
Ġconcordance
Rep
Ġconce
ĠPN
priv
Ġexogenous
ĠXk
MD
Ph
Ġdenominators
Ġemerging
Ġarguing
Ġwarm
Ġappar
122
ikh
angulation
ĠCNN
Ġá¸Ĥ
[,
ĠHub
isometry
ida
ĠHoeffding
ĠCLT
ĠStirling
ĠâŁ¨âĪĤ
ĠField
Ġbisimilar
ĠVand
Ġunbalanced
ĠGerman
ĠThompson
Ġhighlights
Ġenumerated
ĠÏĨn
ĠWill
ĠgÃ©nÃ©ral
Ġincompatible
Ġflatness
Ġtrou
cha
ounce
Ġturbul
Ġnonpositive
ĠFU
Ġ5000
iÎ±
tude
Å¡
ĠIdenti
Ġautocorrelation
Ġpushout
Ġexactness
Ġwhereby
Ġdecoherence
Ro
Ġcompress
ĠAbove
dh
Ġqj
ĠHL
Ġviewing
Ġorganization
vert
Ġlax
Ġâī½
Ġenabling
illiams
Ġmismatch
ĠDp
Ġdiscretizations
Ðº
Cut
Ġqc
ĠMell
Log
align
ĠSET
ĠMich
disk
ĠÅł
lasov
ĠRm
Ġquasis
Ġ74
Ġcharacterised
LES
.:
ĠpÏĥ
Ġenveloping
ino
ĠDate
Ġvertically
wt
ĠiâĦĵ
Ġincurs
Ġreplica
Ġcollects
ĠÃĹ(
ĠEngl
jn
Ġhamiltonian
ĠCone
Ġcovariances
Ġhund
ĠâĢ¢))
alar
ĠExpanding
ĠQS
atibility
uncated
sgn
ĠGh
Ġparentheses
Ġisogeny
Ġaxiomati
ĠLorenz
ĠEvolution
ĠQi
hyp
Ġpad
rally
Ġnicely
Ġisometrically
ĠVa
Ġpaid
}:
Ġrevisit
Ġ([?
bar
ira
Ġsubmersion
ÏĢe
ĠScott
altern
Ġsieve
Ġquark
kq
Ġthereof
either
Ġtried
ĠGHz
ĠAe
Ġcorps
Ġconsumed
ĠEQU
ĠSometimes
âĻ¢
Ġsought
front
Ġnonlinearities
Ġ>=
matroid
ĠUser
ĠSil
Ġresolving
Ġrearrangement
Ġintellig
Îµn
insically
Ġguessing
Ġcyc
iling
Ġemanating
End
controlled
ĠDimension
Ġschematic
ĠIFS
Ġspt
Ġdimensionless
berts
Ġcoker
ĠDiophantine
elastic
ĠCha
Ġtimest
ĠPear
Ġcounters
Man
join
Ġ)!
Ġincorporates
119
Ġtyped
ĠLatin
Ai
Ġenforced
Baxter
Ġ{âĪĨ
Ġreplication
ĠProjection
Ġthre
ĠPreliminary
Ġ:,
ĠANALY
Ġstrongest
Ġmultinomial
Ġopens
ĠBeing
coefficient
Ġcombinatorially
Carlo
Ġls
ĠHart
Ġmatters
Ġsmoother
Ġfundamentally
ĠImp
ĠTre
ĠÎ»k
Ġacquisition
odings
Ġdeviate
ĠDele
sizes
Ġflipping
Ġharvested
Ġpulled
natural
Ġmagic
Ġmolecule
essor
Ġexhibited
quotient
Ġexpects
Ġclosing
ĠDon
Ġseeks
Ġtill
ĠParallel
Ġconveniently
ĠCAR
Ġencrypted
Ġcalling
ressively
dÎ±
ĠRan
Ã©g
Ġpropagating
ĠpÏĦ
Ġoccupation
ðĿĳŀ
instead
Ġwra
Ġdepict
ĠStanley
/âĪ¥
ĠTX
Ġcavity
ĠRX
Ġexceeding
oF
ĠQF
Def
ĠÏĦi
Ġanalysed
Ġhoc
ratio
Ġpairings
Ġrf
bus
Ġasking
loops
mixing
ĠHomeo
elementary
Ġtc
uate
Ġteles
Ġnumbered
quality
MMSE
yer
ĠSCC
Ġusefulness
Cartan
ipl
ĠLk
Ġbosons
EF
feld
Ġsubshift
Ġexecutes
ĠâĪĪ{
Ġcomprising
ĠpÎ¾
ĠElements
offs
Ġdeterministically
Ġmodularity
Ġnerve
FIN
ĠChain
Ġdimer
iel
ĠIL
Ġretract
Ġsnapshot
degeneracy
Ġbiases
thand
Ġunde
uned
isms
Ã¶n
Vs
Ġreporting
unctured
GB
Ġcofibration
Ġsal
Ġnormalisation
conser
eman
ĠWhitehead
gap
Ġsubdifferential
).(
Tn
ĠPlease
Ġlegs
Ġviolations
ĠXj
ocab
Ġstick
Ġbraiding
ĠContinuous
application
Ġ(*
Ġdetects
Ġcompetit
Ġinherently
.),
Ġenclosed
tility
ĠðĿĲ¼
Consider
ĠpÎ¸
ĠCÏµ
ĠCell
ĠBit
Ġsurplus
Ñĭ
ĠMuch
pert
Ġsubfield
Ġquadra
Ġdaily
ĠOC
ĠBox
Ġ(??),
ĠSeries
Ġsatellite
ĠSolve
ĠFq
ripke
cm
ĠLong
ĠFan
Ġsubstring
Ġrestate
educe
ĠâĪĴâĪĴâĪĴâĨĴ
remal
ĠKontsevich
Ġaccounting
Ġprescription
Ġped
Ġforgetting
ĠZn
Nik
ĠMDPs
EB
ĠHis
Ġtent
ĠEPR
ĠdZ
ĠParticularly
Cr
ĠLemme
ĠArguing
Ġinaccur
saturated
ĠThomas
ĠCâĦĵ
elberg
context
Ġlongitudinal
Ġtraverse
Ġtreatments
lay
Ġimper
aded
HI
MO
dF
Ġtier
ĠNT
Ġresort
Out
á¾±
ersen
Ġ250
ĠMay
ĠâĢ¢+
Liouville
Ġinsufficient
Ġirrespective
Ġpenalties
ĠAnalogous
eh
mass
ĠDa
ĠdiffÃ©
inv
Ġbaselines
cessive
ĠRegion
duct
Ġbecame
dÏģ
assisted
ĠStable
factual
Ġuq
Ġ77
Ġant
Ġhemisp
Ġ(.)
âĪ¥âĪ¥
Ġsubtract
ĠEf
ĠOrnstein
Ġdeadline
ĠBase
charge
umor
whose
Ġ85
Ġseemingly
ĠpÎ³
Cn
Ġfun
isable
restim
ĠIntroduce
ithub
Ġtow
ĠPt
Ġarcsin
tee
ĠÅº
ĠâĪĴ+
ĠReferences
Ġsummable
1995
.]
Ġ[{
Ġlives
Ġdevise
oris
Ġbecoming
ĠBott
ĠAlmost
thm
Ġgeneralise
Mumford
Ġconcise
ĠpI
Ġmillion
ĠVia
ĠIRS
Ġschedules
ĠKim
Ġdiffusive
iders
ĠâĭĨ,
Ġregulation
triangular
short
Ġtessellation
ĠâĮŁ
ocabul
sv
ĠKT
unks
ĠMcK
Bar
card
Ġquivers
Ġmetrizable
Ġliving
pB
ĠGRO
intu
Ġdefiniteness
ypes
Ġafterwards
Ġrobotic
ĠðĿĲ¸
specially
ica
interpret
auge
greg
Ġinefficient
valley
LEX
expl
sy
Ġtunnel
Sz
ĠHA
ORITH
Ġprefixes
ĠTowards
ĠAiry
ĠfÃ¼r
duality
Ġ180
Ġcompany
Ġpuzzle
Ã¿
ðĿĳĹ
Ġenvy
Ġdiagonally
ĠASP
Ġhazard
pectives
iscent
Ġ+|
conf
Bi
Ġ}]
ĠÈŀ
ĠâĪĴâĪĴâĨĴ
Ġcontiguous
many
direct
Ġinteriors
ĠÏĨi
Ġblockchain
weakly
Ġiz
expression
Ġaussi
hoff
Ġrecast
Time
Ġcit
Ġreproduction
Ã¡sz
)âĬĹ
Ġtimeste
Ġvortices
principal
etermined
ĠLN
005
ĠWorking
task
ĠSCA
],[
Ġrationality
Ġlabor
Af
Ġcontravariant
pG
Ġcomputers
ague
Ġ=âĪħ
rink
ĠKripke
Ġtubes
Watson
ĠMur
Ric
ĠPassing
ossip
ĠPers
ĠUCB
ĠDatas
olored
gravity
Ġfixpoint
âĮĭ.
ĠProceedings
ĠSelf
/âĪĨ
oving
HO
Ġast
ĠTan
Ġaccompan
ĠðĿĳī
WE
Ġoracles
ĠCs
Ġgrouped
uerre
Ġowing
Ġbk
ĠSOS
Ġ||(
ĠNaturally
)+(
ĠÎ´u
Ġadjusting
delay
ĠMET
)})
prec
scaled
BI
Ġfolded
bil
qc
Ġlas
Ġmultigraph
Ġcobordisms
Ġrealisation
(âĢ¢|
ABIL
ĠCirc
ael
Î±x
respon
tis
sist
ĠPoints
Ġdisjunctive
ĠFormal
Ġintegrality
Ġmonograph
ican
Ġintention
Ġsupercritical
aira
ĠAdam
ĠPlot
Vol
ĠAdams
Ġsubvarieties
Ġlosing
ĠtA
Ġfaults
aq
mutation
Appendix
can
aphe
coin
Ġdiscretize
ĠRq
best
Ġkinematic
RAM
submodule
ĠCouncil
MN
ensored
ĠRaman
Ġlexicographically
ĠHitchin
ĠMaking
Ġpresheaf
Ġinformally
ĠâĦĺ(
ĠPlan
Ġvisiting
Ġsusceptible
Hermitian
Ġhub
ĠStrategy
ĠLooking
ĠTechnology
Ġordinals
Ġevenly
âĬ¢
ðĿľĨ
Bay
stra
ĠALGORITH
Ġintertwining
CON
scribed
ĠFokker
MIMO
Ġintrinsically
ĠiÂµ
ĠKod
ĠNoether
ĠInverse
Ġpropensity
Ð´
Ġpushing
arque
ĠMall
ĠDU
Ġnat
BW
Xt
Ġfinitary
Ġreminiscent
arian
Ġ/|
,.
heaves
Ġtilting
uss
ĠRev
SED
Ġzeroth
ĠPositive
Ġ98
lectron
Ġemerge
Ġfactorisation
MW
Ġexponentials
ĠHOM
Ġdemanding
wal
Ġfire
âľ
iterion
ĠFar
ĠMed
Ġallevi
gery
Ġsib
Ġrepelling
Ġsubring
Ġstrengths
ishart
isible
ĠdÃ©du
cat
Ġdevelops
Ġwhatever
segment
Ã©trique
utral
atial
Ġprecoder
Ġâīħ
ilenberg
Ġflatten
Ġapparently
Ġsubmatrices
Ġsubinterval
ĠâĭĶ
ĠcatÃ©gor
mt
inver
ĠQFT
âĪĸ
ĠWhich
ardson
Ġstaircase
ĠiÏĨ
ĠCons
ete
Â¨Â¨Â¨
Ġcalculates
Ġheteroclinic
ENCE
Ġdeletions
dk
Ġvisualization
Ġfaulty
ĠApproach
Ġroll
Ġ))âĪ¥
plet
Ġhoriz
Ġcame
Ġmot
ĠBose
analog
ĠDW
Ho
symm
Ġbp
Ġay
ĠÎ»p
surance
Ġdistinguishes
nZ
Ġá¸Ł
ĠProceeding
ĠEQ
Ġregards
ĠÄ©
Ġunperturbed
ĠArnold
etr
Ġshocks
]}.
Ġinvoked
ĠConcrete
Ġdecidability
ban
Kutta
Ġvocabul
ĠDetermin
Ġsemilinear
Ġoscillating
Suppose
relations
Ġsouth
iÃ¨re
ĠÎ³t
ĠPetri
temporal
Ġdistant
pin
Ġpermis
ĠCam
dem
ĠÄµ
Î´x
ĠÎ±m
oman
Ġviscous
ĠvÃ©rif
kt
Ġperiodically
lla
Ġcomponentwise
ĠInitialization
Ġmarkings
Ġreferees
Ġpushed
Ġdest
uccess
ĠMathematica
ĠGÃ¶
Ġquasic
Pre
Ġchi
Ġguarded
SGD
ĠKl
ĠBesov
ĠQT
esterov
Ġharm
ĠTot
Ġamortized
ĠExtending
BN
cuts
Ġxe
ERICAL
ĠiÎµ
Lin
Ġmedical
XX
âª
1994
Ġ(âĸ¡
Ġcentury
ductive
Ġspiral
ĠEntropy
LIM
Ġneutrin
134
Ġconsumers
ĠDensity
??
Ġ().
Ġacoustic
Ġ79
Ġcoercive
ÏĢÏĥ
quer
126
Ġfirms
Ġquantizer
Ġeliminates
nu
Ġgx
ĠScenario
Ġexpander
differentiable
Wil
ĠGall
Ġroutes
Ġimproper
qqqq
)<
linearity
Lem
big
Ġ(âī¤
Ġconnective
ĠWeb
Ã®
ĠView
expansive
ĠAlexand
ĠÃ©lÃ©ment
Ġintend
Ġlogarithms
ĠBrun
uchi
Ġultimate
Ġpooling
Ĳ£
ĠIntroducing
(,
Ġparticipate
Ġcalibrated
fix
Ġboard
cubes
LB
Ġdistinguishable
aber
ujan
tual
ĠCatalan
ĠPolicy
CI
Ġtab
pen
Ġsynchronized
oton
1111
Ġinvestor
cosh
wing
ĠJack
shots
ĠAh
ĠWor
equation
Ġadopting
ĠreprÃ©sentation
ulum
Ġnonvanishing
ahead
formulas
ĠAlt
ĠSignal
Schwartz
Ġexponenti
Ġlazy
Ġtoday
ĠVo
ync
Ġtrave
Ġmiss
stone
Ġannular
Ġtournament
Ġml
ĠBinary
ĠFM
Ġnf
Ġdiscriminator
Ġmu
ĠAH
Ã©tÃ©s
ĠComme
Ġadversaries
ĠnÎ´
Ġpayments
Bu
ĠSyl
Ġunrestricted
Ġhinge
ĠLat
ĠNatural
Ġzq
sertion
,-
Ġgold
ĠBest
target
Ġentre
ĠOperator
ĠLf
Ġtechnically
Ġgran
Ġaccomplish
ĠImportantly
ĠLittlewood
Ġsimplifications
Ġ1992
bitr
Ġgalax
Ġcompletions
transition
Ġinherit
Ġpreferable
Ġspont
Ġemission
Ġbarycentric
ĠLif
AW
donald
rings
enchel
Har
Hamiltonian
counting
ĠConference
ĠSummarizing
Zhang
ĠRosen
Ġinequivalent
Ġsubintervals
ibre
divisor
iguing
Ġpathwise
Ġphysic
ĠNOT
Ġdesignated
Ġdisconn
Ġinfrastructure
Ġ)(âĪĴ
ĠSDEs
dson
Ġ[âĪ¥
ĠKraus
ĠMEC
commun
bone
ĠFK
sections
Ġtelle
Ġpositives
Ġmultim
pointed
+âĪĨ
typed
Ġreliably
ĠMir
ĠâĪħ}
CSP
127
ĠEnglish
Ġhorizont
Ġautomated
olesky
Â»
Ġlab
Ġsolitary
Ġdecon
Ãłg
Ġsut
ĠRI
these
Ġarbitrage
Ġtraversed
ĠpâĦ¦q
Path
recur
CN
ĠEspecially
Ġsimulates
oker
ĠRegression
ĠCurrent
Ġstrengthened
Ġprojec
Ġdiffusions
Uhlenbeck
ĠOLS
Ġdiscord
ĠDISC
Ġallowable
ĠGre
ĠMellin
Xn
]+
ayashi
ĠToda
Ġtailored
Ġdecade
Ġsuperalgebra
Ġconden
ĠcÃł
ĠNON
ĠRefer
ĠdU
Ġwilling
Ġcomprised
frag
mentioned
Ġautoreg
Tree
Ġtargeted
ĠGSp
140
ĠDomain
ĠdÃ©finition
Sum
Ġintric
Äĥ
akis
130
Ġavoidance
ĠCrit
ÏĦn
Ġremained
Ġunexpected
Ġcw
ĠGN
Weyl
chke
ony
Ġfem
ĠCMC
ĠBt
Ġsubcategories
ĠDFA
ĠRemember
Ġ132
Ġsmallness
Ġflavor
ĠBergman
bd
Ġinfinitesim
oom
ĠÎ¸j
Sobolev
ĠEU
Ġchecker
oyal
Ġsorts
Ġpulses
sr
PoincarÃ©
Ġwhilst
Ġ`|
Ġconvolutions
search
lk
ĠâĪħ;
ĠHas
duplex
|]
Ġsymmetrization
Ġhereafter
ĠCholesky
iu
ores
Ġquasiconvex
ĠUP
Ġguidance
Ġaugmenting
âĪĨ,
Ġmen
Ġ=<
arer
ATED
Ġinventory
Ġconting
Ġimped
JS
Ġwiretap
ĠCNF
indices
ĠStatistical
Ġdistillation
Ġ(âĪª
reson
Ġcumber
Ġbrute
ĠâĮĭ,
ĠRos
âĪŀ(
ĠChina
Ġtoute
Ġcofibrations
arts
ĠÎ¸k
Ġbeauti
iped
Ġconnex
Ġconceptually
Ġcrystals
Ã©ma
Ġdeduction
etoris
ĠÅ¤
Ġpostpon
ÅĦski
ĠCHSH
ĠLV
Ġtrapping
dxdy
Ġparametrize
Ġreciprocity
INT
ĠFORM
umental
embedding
Ġimpossibility
Next
ÏĢÎ»
MV
Ġreordering
Ġfacilities
)âŁ©.
Ġtechnologies
)](
Ġlambda
Ġfollower
Ġparabol
âĨĴâĪĴâĪŀ
cp
ontry
Ġ[âŁ¨
Ġprincip
ĠiÏĥ
Ġinterests
eyer
ĠGar
Ġinstanton
rr
Ġspite
inzburg
Ġrarely
ĠRou
vii
Ġhomogenous
Ġcommitment
Wang
ĠðĿľĻ
Ġxm
129
Ġtopos
Ġkx
ĠSimulations
HR
ĠStrict
]âŁ©
ĠrÃ©sultat
Sha
Äĵ
Ã¼cker
Ġprefers
)Ì¸
Gro
rint
ittaker
Ġcumbersome
ĠPhysics
Ã¯ve
dynamics
ĠStra
Ġheads
Ġcausing
ĠANALYSIS
ĠNull
ĠBFS
pack
Ġexcludes
Ġbandits
ĠÃĲ
Ġ97
ĠËĨRd
ĠBous
Ġsufficiency
Ġdeclare
Ġtouching
ĠNewtonian
ahl
Ġconcatenated
Ġpulling
Ġvisualize
uel
Ġemerges
ĠBour
Ġsg
inks
ĠRequire
Ġsubsurface
dlÃłg
terra
Ġannotated
Ġmimic
ontryagin
Ġ(<
Ġeigenstate
lein
ĠjâĦĵ
ĠWood
ĠStatistics
titi
omer
Ġmaker
ĠFer
ĠGross
Ġemb
ĠEmbedding
Ġsemif
ĠBp
Ġschool
Ġ(-
regularized
Markov
ĠSelect
Ġwheel
Ġmaturity
Ġhorizons
ĠMis
Ġtac
Ġ~
Ġjr
ĠLoss
ĠRece
Ġsurgeries
}}.
Ġencodings
ĠâĪĴâĪ¥
Ġlayout
ĠÈ¦
diagram
ĠâĹ»
ĠNear
Ġfake
Î³n
tiles
ĠÎ±k
ĠKato
Ġperspectives
oes
factors
ĠðĿľĸ
ĠEquivalence
Ġ010
Ġlets
Ġcommunicating
bach
ĠWick
Î±i
Ġahead
Ġsel
Ġalarm
Me
TV
HD
ĠAy
ĠQuasi
500
Ġinsurance
ĠMass
Bon
ĠCOR
Ġtreats
SVD
ĠâĬı
ĠAbs
ircles
ĠMel
âĨĺ
Ġemergence
Ġlaminations
Ġextrinsic
Ġcontamination
aging
dess
uni
ĠAdj
Ġpsq
Ġshadowing
Ġenumerating
Ġrisks
ĠWitten
ĠSUs
ĠTesting
Ġ)âĬĹ
Ġinstants
SITION
Ġpivotal
Ġleaders
ĠRepeat
tian
ĠÃĹ[
entric
Ġ1993
ĠâĦĵm
Ġcollaboration
Ġsyndrome
ĠKN
ĠUV
ĠDFS
âĮª
Ġsuble
ĠâĬĪ
Ġposes
Ġbare
kp
Ġguards
Ġadvantageous
Ġ83
general
dotted
Ġunmatched
Ġfunctionality
Ġintensities
ja
name
division
ĠNUMERICAL
FD
ĠTur
predict
Ġquadratically
cz
pus
ÃĿ
ĠÄĮech
prove
ĠBuilding
BU
Ġdend
jm
ĠStack
FM
pattern
Ġdeterior
circle
Ġcounterfactual
unch
Ġcompensate
ĠKodaira
gle
spectrum
Ġwrt
ahedral
uq
Ġsquarefree
Ã¨bre
Ġreplicas
Ġnombre
Ġchunks
hibit
ĠFramework
ffman
Ġtagged
Ġdestroy
ĠZero
Ġinterpreting
Ġinstruments
Ġvocabulary
Ġ82
ĠSegal
Ġpermuted
Ġsplines
Ġsingletons
Line
punctured
Ġdemonstration
ANCE
ĠSeiberg
binary
Ġdriver
Ha
rx
Ġconference
ĠSpaces
Ker
ĠRig
Ġá¸ŀ
Multi
Ġintriguing
ĠÎ»q
ĠÄĬ
Ġarrived
isance
ĠÎ¾i
linearly
Ġstrengthening
REE
pw
Ġstory
ĠMacdonald
anguage
Ġconform
Ġxa
andel
Ġubiqu
Bn
ĠShapley
ermonde
trig
Ġidentifier
ashing
Ġdegenerates
Ġquasiconformal
Ġsharper
ĠSTR
Ġrevision
Ġquadrics
groupe
xz
OA
Ġinstructive
subgroup
ripts
Ġellipticity
sharing
ĠâĨ£
Ġgf
ĠLov
Ġdegraded
initial
KT
Ġ(??).
Ġbump
Ġembedd
Ġguesses
Ġdrastically
,:
150
Ġconcretely
Ġmetast
Ġfunctoriality
isant
Ġlocate
ĠTraining
polytope
Ġpentagon
Ġdisappears
Ġhedging
)\{
specification
ĠpXq
usual
ĠEquality
ÎĶ
github
Ġhat
odule
ĠDescent
)((
ĠBh
style
Ġrotate
WS
ĠRobin
Ġhot
Ġ(âĢ¢))
Val
enh
Ġloses
ĠStudy
Ġtraced
ZF
ĠFam
ollaire
ĠAUC
âĮī,
iration
ĠâĪĨ[
ĠComplete
Ġdefender
Neumann
Ġobeying
Ġinnovation
Ġburst
Ġaxiomatic
asoro
Ġboils
Pen
pg
ĠSMC
ĠSeman
emperature
Î²n
lated
Ġá¹¡
convergent
Ġ88
ĠRf
ĠDg
usc
MAP
Nikod
dH
Ġee
Î»q
Ġdit
Ġpurity
Ġsteepest
rection
ĠLST
ĠFFT
ivan
Ġsomewhere
Ġux
ilattice
angian
Ġcryptography
Ġscattere
GW
Ġfinance
Ġpermitted
ĠðĿľĢ
property
ĠÎ±q
Ġá¹ł
Ġcj
objective
Ġpromise
ĠÎ²x
ĠPROPO
Ġoriginating
ĠZhou
enger
ĠAda
ĠGENER
Ġphrase
Ġwk
ĠâĪŀ],
Ġ102
ĠâĪĴâĪĴâĪĴâĪĴâĪĴâĪĴâĪĴ
far
leading
ĠcÃłdlÃłg
Ġtg
ĠÎ»r
Ġauthentication
Ġantichain
Ġcq
completeness
ĠðĿĲº
Ġburden
Ġhorizontally
ĠpÎ²
ĠBart
Ġbien
structed
ĠClustering
Ġmathematic
Ġgovern
ett
ogle
Ġqk
){
Ġws
Ġkd
ĠPeriod
Ġtau
andering
ĠKaz
iny
Ġnovelty
Ġinconsistency
pson
ĠNr
ĠpÏģ
middle
Ġassessment
Ġjudg
fa
ĠTab
ĠHR
MLE
ico
Ġvalidated
Ġuniv
ĠFollows
orientation
Ġtracing
Ġgn
ðĿĳĻ
ĠEquilibrium
ĠAQ
Ġbarriers
ĠDrinfeld
egree
Ġapex
ĠnP
Ġinstit
ĠBounding
Grad
zt
Ġhalfspace
Ġargumentation
Euclidean
HN
ĠSemi
ĠCk
Ġconverged
Ġconnectives
ORS
ĠHan
Cov
ĠTrace
Ġenhancement
rule
+âĪŀ)
iparametric
ĠStieltjes
reach
ingular
ĠCommunication
Ġsubf
Ġcomon
ĠCalculate
lique
Ġequidistant
ĠGI
Ġove
Ġtripartite
Ġreception
ĠChoi
polynomials
Ġrepeats
vive
oody
Ġhomotopies
Ġexha
ĠReturning
db
uy
Ġattitude
Similar
Ca
Ġviable
Ġhistograms
Ġcoboundary
Ġconjunctive
tracting
Ġbarycenter
rectang
ĠOften
Ġcertificates
Ġcloseness
odromic
Ġreleased
Ġascent
Wi
Ġsheets
Ġcompactifications
ĠRp
ĠBand
Ġknapsack
ĠProfessor
ĠWeinstein
sequent
ĠÐ¿
Ġyour
Ġneglect
ĠCFL
computable
Ġdecryp
Local
ĠpU
rality
Ġoutermost
135
Ġinev
Ġll
Ã¶f
llis
ĠÎ´q
ranging
ĠBottom
sertation
ĠpAq
tiness
program
Ġpiq
ĠKauffman
ici
Ġsubcases
Ġboosting
Ġdecou
Ġbeautiful
owitz
Ġreadability
Ġtion
ĠÂ±,
Ġtranspositions
colouring
ĠCu
xp
Ġfoundations
ĠCoq
mixed
Ġ89
dÎ³
Ġpursuit
worthy
(âĪħ
Ġrespecting
Ġcdf
Ġka
Ġmitigate
ĠBEC
ĠPertur
uling
Ġjamming
herel
Ġlatest
ĠRange
Ġnuisance
distortion
Ġobten
Ġsymplec
1000
ĠdÎĵ
ĠDie
ensoring
ĠÏģÏĥ
ran
ĠAltogether
Ġemit
Ġfiberwise
Ġcheap
Ġcocom
reath
Ġfj
ĠHarr
ĠInductive
Ġpointers
Ġunivalent
mic
Ġfactorized
LF
1993
Ã©odory
angulations
143
Ġcollocation
oooo
ĠDraw
Ġpyq
Ġ|),
Ġ94
Weil
ĠProduct
ĠSj
refer
Ġmoll
ĠSun
Ġ92
balls
amps
ĠHuang
136
Ġhyperparameter
Ġacquire
Ġtouches
jectively
Ġ1980
ĠAus
theoretical
hart
tq
)âŁ©,
Ġportions
ĠNn
riv
ĠPlanck
crit
IZATION
Ġevolutions
ancherel
Ġchap
âĪŀ}
ĠGalton
tp
iregular
signment
DN
Ġextern
,âĪĤ
ALS
ĠCertain
ĠMathematically
ĠÎ´v
athÃ©odory
Ġdescript
Ġsurpr
Dv
Ġraise
ĠFu
ĠDY
Ġextrapolation
Ġzu
uto
ĠGIT
ĠÎ»s
STR
ialgebraic
isque
policy
ĠTSP
clid
Ġbubbles
TC
Ġsavings
ĠÏģi
Ġsubtraction
Ġpostponed
atten
(âĢ¢))
ekind
Ëĺ
ï¸Ĥ
arcs
Ġoptimistic
"),
liest
whel
artingale
ĠCm
Ġ]âŁ©
Ġreconstructions
wide
essel
ectrum
Ġadvection
Ġsupervis
ĠTB
place
ĠQA
centration
ĠVery
ĠREL
Ġfronts
ĠKirch
ĠÎ³x
Ġmultilevel
Ġaimed
ĠMinimal
acyclic
Ġpseudocode
ĠNoise
Ġfulfilling
Ġcodomain
Ġtraversing
ĠLaguerre
bri
ĠFeller
ĠOFDM
Ġrescale
ĠTransition
Ġxv
ĠSize
Ġecc
ceiver
Ġsyzy
integration
Ġ>>
modulo
Ġ86
ĠKO
Ġslicing
FEM
fs
ĠMul
jet
ĠTE
response
Ġcounit
Ġcontinuing
agn
aley
ĠkÎ±
ĠNI
anglement
131
Am
ĠNonlinear
Ġrejects
Ġxp
Ġ)âŁ¨
Ġinvert
capacity
Ġgg
zh
Ġorthant
lm
Ġstandardized
Ġdeck
Ġemphasized
ora
ĠTam
ĠInference
ĠâĪī
aged
theorem
edimensional
Ġzt
Ġrectifiable
control
pC
Ġpress
lem
competitive
Ġspikes
ĠBou
iler
Î´q
ĠAMP
Ġ1991
ĠPenrose
ĠMSO
Ġomitting
ĠAssociated
Ġrealised
Ġintegrators
negl
onds
Ġhour
Ġunfortunately
Ġsigm
PCA
conv
ðĿĳĵ
Ġbidding
(Â±
ĠRear
kins
Ïīt
ĠPQ
Ġanisot
ĠRules
Ġrefr
ĠâĪĤ)
Ġnews
Ġparallelism
ĠGames
Ġpret
)âĪ§
142
âĪĪ[âĪĴ
Ġenforces
ĠSingular
ĠDQ
Ġcollar
Ġconormal
Ġ<<
Ġpruned
ĠBoch
tan
itous
ĠBow
Ġleveraging
Ġunification
event
Ġâĭĸ
Ġequilateral
Ġdistribute
RM
tolerant
Ġ--
Ġrhom
ĠPfaffian
Ġago
ĠTL
enty
onaldson
Ġconsult
ĠHarn
Ġtowers
Ġcumulant
acements
Ġassociating
ĠSier
âĮĭ)
Ġhorosp
Ġforecasting
Ġamalgamation
Ġimpacts
Ġexperien
gons
ĠKG
Ġparticulier
conditional
essage
Ġsubdivisions
Mi
Ġoptics
ĠðĿľĤ
Ġmonopole
Ġtune
Ġpremis
Ġstringent
ĠConsistency
Ġenforcing
Ġpostp
components
Ġcoercivity
Ġadjoin
foil
Ñĩ
Ġsemist
generating
Ġholonomic
Ġ001
Ġoverwhel
holonomic
ĠTopological
ĠNat
TIES
Ġdrawings
Ġparking
Ġkilled
ĠpE
âĸ·
opic
schemes
Ġautoregressive
Ġâī¤)
Ġdisreg
Ġportra
reci
ĠStone
Ġsummed
Ġisolation
133
Ġinterpolant
[.
ĠGU
actal
Ġlogarithmically
Ġasserted
kj
Ġstructurally
ĠMaurer
AI
ĠLer
triangle
ĠVirasoro
ĠQCD
averaged
othÃ¨
Ġdiffering
ĠCorrespondingly
}ÃĹ
Ġhg
ĠEvidently
truth
DH
Ġuj
Ġclin
Ġtriplets
nÎ±
Ġinstantiation
ĠFukaya
ĠHY
]âĪĴ
Ġseeking
ancies
iH
Ġpublicly
ĠNielsen
SG
ĠpÏī
Ġperce
Ġá¹ĺ
ceptional
armed
oe
pj
amoto
Ġinstrumental
Ġreplications
cooperative
etic
Ġincome
ĠAbel
Ġunavoid
Ġacknowledg
ona
ĠBorn
Î³t
ĠCommon
child
Ġricher
ĠHE
Ġrelaxing
Ġgaussian
ĠSSP
Ġsemidirect
iche
Ġhierarchies
Ġsnapshots
FR
Ġww
ĠâĪĤ/âĪĤ
Ġnumbering
neutral
Ġ91
Ġcompositional
ĠRand
ĠTar
Ġderivable
ĠRt
ĠBaire
ĠÃ¬
stack
ĠÃĹ{
Ġsymmetrically
Ġformalization
ivalence
ĠPlÃ¼cker
alled
amped
Ġstiffness
Ġtick
ĠSubcase
ĠPas
kx
abc
Ġxyz
ĠVandermonde
ABILITY
ĠTak
Ġsex
autonomous
Ġtrusted
ĠPageRank
Ġtransducer
Ġrigh
Ġ),(
KR
pR
sts
Ġdiscretisation
computed
ĠâĢ¢]
auss
ocusing
Ġspectrally
144
price
0000000000000000
FE
HER
Ġobtient
Ġ87
copy
Ã©rate
Ġ+âĪ¥
linked
ĠRever
Ġescap
Ġfluids
Ġfillings
##
erner
ĠProbabilistic
ĠBig
Ġdeficiency
ĠiÏµ
Ġsurvive
Ġcompressive
Ġquantifying
Ġtravelling
Ġlcm
ĠSha
Ġcompressing
Des
xs
Ġcharacterise
ĠPontryagin
ĠWishart
Ġdeduces
CSI
solvable
divisible
ĠHill
elli
MRES
Ġsubdomains
Ġmarker
Under
ensed
nell
urd
Ġbackbone
Ġloading
Ġeconomics
Ġmigration
Moody
rency
ĠAcknowledgment
âĮī.
Ġsuspect
Ġ(âĪħ)
ĠAmerican
Ġindication
Ġsoftmax
Ġcoins
ĠEh
strictly
ĠHB
Ġeval
Ġ600
Ġcaps
âĮĿ
Smale
Ġinward
ersh
Ġbacktracking
Ġrecommended
ĠpW
cribed
uu
Ġ011
ĠHMM
Ġthinking
Equation
pur
Ġdiscipl
Ġacquired
amy
ĠZi
ĠFilter
Ġdispersive
ĠEventually
Ġgossip
rival
Ġrenaming
ĠÎ±s
âĩĴ(
recting
Ġgenerations
Ġpendant
ĠðĿĳĦ
ĠConstructing
ðĿĳĶ
Cont
Ġscatter
atus
ĠLK
Ġtriggered
eler
Ġfunding
ĠCNOT
Ġ1024
Ġinterpretable
Ġmotivations
Ġpostpone
von
ĠIG
aneously
Ġexplosion
istration
rer
ĠHO
Ġ\(
ĠRHom
Ban
(âĢ¢).
ĠAoI
ĠACKNOWLEDGM
ĠCounting
anted
Ġrapp
Ġá¹ĸ
location
ĠDol
ĠTopology
ĠMack
ĠQuery
ĠCross
ðĿĳ¤
Ġmagnetization
Ġmf
Ġhomomorphic
enko
Ġenlarged
Ġmit
ĠRU
ĠNet
Chen
Dav
sight
ÐµÐ½
Ġtip
lep
ĠHarnack
ĠHN
ocated
Ġtags
Ġtis
137
extend
ĠâĪģ
Ġneu
Ġzj
Ġcorruption
isers
ĠMUL
Ġcrude
ĠËļ,
LIMIN
Ġmx
Ġpreconditioned
SVM
ĠÎ±r
ĠBeyond
Ġbeams
ĠBurgers
Ġcommittee
ĠÎ»a
Ġfunded
ĠRisk
ĠHybrid
Ġbehaviours
PM
Ġpolylog
ĠDm
âĭĦ
ĠÎ±Î²Î³
Ġconcatenating
ĠConvention
ĠEvaluating
ĠEi
Ġmel
Ġaxial
Ġsized
ĠKing
sover
Ġdecoders
ellar
Ġindirectly
ĠGAP
ĠVaR
ĠPop
Ġsurveys
consistency
groupoid
Ġhj
thin
Ġarb
apse
ĠÎ»e
walk
ĠdegrÃ©
Ġrb
ĠOPTIM
Ġopportunities
ĠRamanujan
ðĿĳı
ĠPRELIMIN
ĠFinal
ĠXÎ²
Ġ93
Ġsensible
ĠSimon
ĠConcretely
Ġnonlocality
ĠKoop
ĠEffect
Type
retization
ĠCv
Ġclopen
Ġverif
Ġafford
unt
Ġinfinitesimally
ĠHeuristic
ĠPlancherel
ulators
ĠMumford
ĠÎ·n
Ġmaybe
ĠCop
Ġpalindrom
homotopic
encing
ĠTrees
Ġexpressible
+âĢ¢âĢ¢âĢ¢+
Ġaccessed
Ġsemicontinuity
Ġcertainty
ĠDedekind
Ġrej
Ġcrystalline
ÅĻ
Ġworthwhile
nets
negligible
FW
Ġnormals
Ġentr
Ġdevised
Nikodym
Ġpackings
Ġeu
ĠProvided
ĠProject
ĠAccur
Ġ[,
Ġpec
Ġein
ĠGoing
Ġcommands
ĠFore
Ġcofinal
ĠDividing
ĠKt
hold
ĠGol
atitude
ĠJava
complexes
door
Ġrenders
dA
Ġsight
elson
Ġtraceless
ĠSurprisingly
asawa
ĠMu
letter
ĠMt
astings
Xs
objects
Ġzigzag
correlation
Ġcomputability
Ġgratefully
offel
iscern
ĠâĹĩ
yes
holder
Ġhypo
Ġfork
Ġaltogether
sification
topological
antelli
ĠValues
Ġsymmetrized
Ġinterchanging
ĠâĮª
Ġsinks
Ġintricate
ĠEfficient
indeed
Ġirrever
ĠZZ
ĠðĿĶ
Ġreducibility
ĠâĪł(
ÑĢÐ°
odimensional
ĠLev
Ġmth
Ġgeo
vs
Ġinterconnection
Ġflipped
ĠâŁ¦
pler
Ġsemiparametric
ĠDEC
combin
ĠThreshold
ppers
Ġadjoints
cons
Ġporous
PG
ĠVn
Bern
Ġcaches
Ġearliest
ĠProcesses
ĠïĢ
Sa
ĠNecess
archimedean
prot
Ġgoodness
:|
Ġshrinks
ĠGroups
ĠÎ»y
imination
ĠSymmetry
rowth
ĠHx
Ġrecipe
ĠProcessing
ĠBall
Ġsubsampling
bell
resol
Ġrealizability
Seg
associative
)âĪª
pF
Ġabcd
soliton
Ġinterleaving
ota
Ġpartie
Ġcalculi
)!!
Ġtranslational
ĠTQFT
ĠÎ³Î´
âī¤|
Ġexpands
Ġbialgebra
(.)
ofunctor
cohomology
Ġwitnessed
rÃ©duc
skii
Ġaccumulate
Ġmanipulate
Liu
Ġproportions
ĠÎ¾n
Ã©z
Ġrobber
ĠNotably
Ġtous
Ġlr
iÎ¾
ĠâİĿ
odable
Ġrisky
ĠWhether
Ġzn
auder
AX
Ġaside
rating
anned
Ġsixth
Ġbatches
nh
ðĿľĥ
Ġconics
Ġenrich
Ġplanted
Ġrg
ĠMiller
eps
Ġintensive
ĠâİĽ
Ġâİł
ARIES
Ġnaturality
Ġpermet
Beltrami
Ġ)])
ĠSMT
Dec
itching
eth
Ġ(âĪħ,
utable
ĠExpression
ĠMarc
Ġbusiness
subalgebra
ĠMAR
ĠÎ»v
Ġphe
ENSION
FI
ÏĢZ
Ġjp
ĠInters
usually
Ġsemialgebraic
ANS
Ã©rie
Ġtied
âĪĴ,
ĠRead
orovich
entry
Ġfonctions
ĠExtensions
ĠÎ½n
Ġ125
Ġâİŀ
Ġactivations
torsor
peak
connectivity
ĠDonaldson
Ġintuitionistic
Ġmirr
pay
ĠAppend
Ġlongitude
orses
Ġbiggest
identity
ĠÃ¤
Ġconflicts
Ġwp
ĠBs
efficiency
Ġâĺ
iveness
ĠGenerate
Up
Ġpresum
OV
Ġsubnetwork
onally
ĠÎ»f
ĠâĲ£
Ġinfluential
ĠAPs
Ġquarter
abin
MPC
bq
aterals
ERS
zzi
ectation
Ġfactored
)"
Ġhops
Ġanomalies
TY
ĠKoopman
Ġlp
Ġspend
Ġuseless
Ġcentrally
ramed
[{
ĠiT
Ġ(||
ĠNA
Ġ))/
Ġwreath
Ġdestabil
ĠkQ
Ġ144
Ġoptional
qt
ĠâĦĵi
ĠpQ
Ġrl
osons
ðĿĳģ
ĠComposition
Ġ>,
ĠðĿľĶ
Mn
ĠCÎ»
ĠCoordin
Ġsettled
Ly
AGE
Ġneighbouring
)]).
Ġimbalance
valuation
Ġcomprise
ĠprÃ©cÃ©d
Ġwq
umps
Ġconcentrations
thick
Ġfocal
server
Ġchase
Ġcommod
Ġdeclared
tight
Ġpropagated
ĠParis
ĠKp
Ġrankings
ĠdÃ©finit
Ġimpractical
organ
ĠðĿĳĮ
Ġstuck
Ġemerged
ĠPs
making
ĠProving
const
Ġremarkably
fan
Ġhm
ĠXT
ĠâĪŀ}.
hig
activity
ĠCodes
Ġpropagators
Ġsubadditive
Ġcoarsen
yx
ĠExcept
Ġcz
ĠLOS
ĠFIN
ĠÄĭ
ucing
Ġ(âĪ§
ĠPal
ĠEstimating
ĠOl
median
forcing
Dr
Ġteacher
Ġhs
aved
ĠPat
ĠvariÃ©tÃ©
Ġcensoring
Ġdies
ĠILP
Ġunambiguous
160
Ġ#Â»
Ġsketching
aires
Ġunif
ĠChoice
ĠÎ²k
ĠCq
ulis
look
ado
Ġcontamin
Ġmultisets
bedded
Bound
ĠâĪĤ-
)(|
ĠNesterov
PV
ishi
dX
Ġbil
ĠPotts
ĠâĬĤâĬĤ
Ġprotect
ĠUSA
Ġexcursions
Ġindust
Ġfp
ĠðĿľĳ
ĠElse
count
ĠHt
ĠâĪĩ,
havi
onomy
Ġclas
ĠResNet
etter
Ġunrelated
Ġextractor
Ġappreci
Ġpolyomin
Ġconcentrates
ĠAq
Ġgroupes
1992
ĠCÏĦ
Ġenclosing
Ġbimodules
Rs
Ġurn
Ä«
ĠTech
TO
achie
ABC
idences
ĠÏīi
subset
Ġseq
Î²t
ĠBaum
Markovian
enz
Ġinferences
ÑĮ
ĠGMM
Ġanalogs
SN
ĠRj
ĠâĬ¥.
Ġnegativity
kar
Ġâī¾
ĠWE
ĠNodes
ĠBochner
Ġdesire
cuspidal
Ġcollectively
Roch
ĠQuadratic
Ġ{âĪħ
Ġrelabeling
Ġprism
ĠOrb
wi
orsque
ĠGPU
ĠAux
Ġxxx
ðĿĲ´
Ġwires
decom
Ġcomplications
Ram
Ġsx
ĠÏĢt
Ġcancels
ĠNET
)âĪĴ(
Brown
affected
KW
adition
Ġpenalization
Ġ(âĭĨ)
ĠQx
ĠÏĥÏĦ
ukai
ĠADM
ĠFt
oph
causal
ĠÂµt
uller
ideg
ITE
neighbors
cx
Ġtit
Ġformulating
upp
ĠMG
Ġparticipating
ĠpÏĢ
ĠâĮŀ
ĠChevalley
Ġcollapsed
ĠZhu
ĠEmb
spline
actically
ĠNis
ĠâĪ¥âŁ¨
ĠÎ²q
iao
Ġmicrolocal
ĠMatrices
Ġaiming
Ġtrait
DO
Ba
oscopic
FER
HW
total
Ġfs
Ġmarkers
ĠWORK
Ġexplic
ĠHW
Ġupwards
Wol
ĠNc
last
draw
ĠDar
mag
138
gate
Ġinterpolate
)âĪ¼
ĠHierarch
array
Ġcompactified
diffe
Ġsubcarrier
ĠCourant
ĠFellowship
ACES
Ġdropout
Hig
atched
Ġzones
alitÃ©
Ġrighthand
ĠXZ
Ġinjections
ĠLines
Ġsupergravity
lander
Ġepisode
ĠPrivacy
ĠBÃ¼chi
ĠFa
Ġbuildings
viron
Ġmultiplexing
Ġ]/(
parsity
Ġdiagonalization
ĠALGORITHM
ĠBq
ĠMayer
Ġcoalescent
Ġdisagreement
hoc
ĠÎ´p
Ġrevealing
hetic
256
ðĿĳĥ
Ġtrefoil
Ġrepulsive
Ġion
ĠpGq
ĠPap
ĠÃĦ
Ġmodulated
Ġdates
Ġmodalities
Ġnonconstant
Ġbf
ĠCos
Ġattainable
has
Ġdrug
Ġancestors
Ġhydrodynamic
(âĪŀ
acians
ĠIB
ĠðĿĳĬ
Ġweakened
typical
ĠRBM
Ġrefines
Ġoccupy
ĠANR
yq
ĠâĢ¦
Ġmonadic
ĠMotivation
Ġradar
Ġtrail
Ġcorpus
Ġ[âĢ¢,
Ġpictured
ĠGap
Ġsuccessors
ĠParse
Ġ]:
Ġáºĭi
ĠFermat
Ġhemisphere
ĠLovÃ¡sz
Ġparsing
Ġsubdivided
145
ĠGray
Ġ<,
(âĪĴâĪĨ)
ĠÎ»m
Ã©om
Ġactor
Ġwj
Ġblocklength
)âī¥
ĠNs
twist
ðĿľı
TM
Ġnonstandard
population
ðĿĳħ
Ġpeers
ĠnaÃ¯ve
Ġcondensed
Ġregulator
ĠDecom
Ġbm
ĠMixed
ĠAgent
Ġmotives
ĠAssertion
âĩĲ
ĠWL
ĠWard
Ġpoll
backward
Ġhypothetical
Ġcausally
ĠCarnot
lich
Ġeventual
Ġgs
aint
ĠkT
ĠdÃ©duit
Ð·
Ġmeasurability
Ġherein
DING
\(
urt
shop
Ġinversions
Ġpermutes
ĠDouble
Ġrevolution
Ġirr
ĠâĮĭ.
Ġsemimartingale
ĠLv
Ġrout
ĠTom
Ġperf
Ġmajorization
ĠCluster
orte
ĠJoint
Ġunpublished
ĠRat
ĠJn
Ġforwarding
Ġoptima
Ġslab
available
ĠSchema
Ġfk
Ġconvection
Ġoverfitting
shape
ĠÎ±u
vester
lya
HC
Ġbiom
Ġlossy
Ġ+...+
Ġoblig
Ġcoproducts
hdan
Ġargu
ĠpRq
ĠROC
Ġoptimizations
Ġquasilinear
Ġpeculi
ĠFUNC
âĪ¥=
Ġgraphic
ifferent
ĠGG
Laplacian
|âĪ¥
esh
Ġpartner
Ġproposing
ĠFEM
ĠDavis
Ġconfluent
photon
exts
ĠPaths
truncated
::
Ed
polation
zon
Ġnv
ĠNone
Ġreviewers
FG
Ġorange
Ġdivisibility
ĠnÏĦ
Ġscene
Ġreversibility
easibility
ĠAfterwards
ĠRud
Ġplanner
Ġfoncteur
Ġunavoidable
Ġoptimizes
139
ĠCond
Ġthousands
Ġ.),
ĠCompact
activ
Ġslide
ĠPark
ĠVR
ellinger
Ġbicon
Ġbordism
ĠNÃ©
Ġva
Ġratings
Ġlabelings
ĠObserving
Ġfacilitates
ĠâĦĿ
THE
Ïµn
ĠSimpl
orandom
ĠLocally
asticity
Cantelli
Pn
rigid
ĠDegree
ĠEe
ĠEdition
Ġaccelerate
mach
ĠNumer
Ġlossless
Ġcomplementarity
Ġwalker
relativistic
separation
Ġhexagons
Graph
Ġconforming
assen
quist
Ġnavigation
Such
ĠirrÃ©duc
ÃĹ[
yson
propagation
rim
ĠÎ±Î±
Ġraising
ĠSplitting
ĠMaster
ĠRearranging
ĠUnit
ief
ĠCriterion
continu
ĠElectric
Ġmonog
ĠOrig
Ġstacking
Ġsubexponential
Ġabbreviation
NL
aided
itedimensional
pnq
ewner
Ġquin
Ġambiguous
Ġconstructor
ĠAlexandrov
Ġ))}
Ġtrip
Ġerrone
Ġpostulate
prior
Ġsketches
Ġprogressively
Ġfavour
Ġannihilated
Ġbuses
ĠâĦĵn
Ġquaternions
Ġthr
leman
Ġresidually
Ġfm
Ġxc
Ġ108
Ġpyramid
eny
ĠSBM
Ġproportionality
BSs
ĠTm
ĠWeib
ĠâŁ¨âĢ¢
links
Ġundesirable
Ġcontributed
Ġreconstructing
Ġmodest
Ġdipole
semin
henko
ĠPRELIMINARIES
ĠNW
ĠHV
ĠKost
Ġaccounted
iscrete
ĠREM
Ã©non
Ġdilat
ĠSzeg
CY
arse
Ġaffinity
uary
ĠVAR
Ġterminated
ĠRy
ĠCalder
gx
Ġlisse
Ġubiquitous
TER
vertical
correcting
Ġbidirectional
Gen
orial
omes
Ġannotation
Ġannotations
Ġgreed
Ġdegenerations
Ġlisting
Ġbusy
Ġdissertation
ĠMajorana
Ġsky
efel
Ġfibred
RK
kÏĢ
ĠÏīt
ĠRegularity
Ġquadrilaterals
Ġzx
ĠBinomial
Ġnesting
ĠMont
ĠNR
igeon
Bm
arante
ĠRoberts
Ã©di
Ġdesingular
Ġtrends
Ġ+âĢ¢
Ġoccupancy
Ġfactoring
MCMC
ĠFunctional
nearest
enched
Ġsetups
ĠBasis
ĠHJB
ĠcatÃ©gorie
ĠPCP
Ġultrap
uses
Ġhorob
Ġperverse
Ġglance
Stein
Ġweakening
auth
âī»
ijn
ĠFul
Ġglu
Ru
Wal
ĠOU
antorovich
ĠWhittaker
ĠUniversal
Ġclasse
Ġzw
Ġrotationally
Ġbreakdown
orok
ĠLW
Ġcrossover
dÏĨ
Ġaccesses
ĠHawkes
}âĪĪ
icking
TIAL
ias
Ġparametrix
ospectral
Ġtwof
Ġrestart
Hs
ĠnÎ³
ĠPX
Ġinteracts
Ġsinc
ĠâĮĿ
ĠOz
ĠCalculus
Ġoverwhelming
accur
Ġperc
Ġrestated
conjugacy
Ġmonop
Ġlf
ĠâĻ¡
arey
ĠVas
Ġgapped
partitions
(âĪĴ(
Ġthoroughly
ĠCd
ĠDetection
Ġrationals
Ġhardly
EV
irani
Ġdisadvantage
ĠnÎµ
Ġdefective
pL
odesics
following
ĠCAS
pta
lattices
Ġbending
/âŁ¨
introdu
rod
rows
Ġbroadcasting
venumber
ĠIntegral
ĠAchie
scaling
Ġblows
ĠPML
ibles
ectious
Ġgerbe
ĠFalse
Ġruling
shifted
ĠAPPRO
atom
Ġinvestigates
)âĩĴ(
âĦµ
Ġwitnessing
example
bounds
ĠKel
Ġmultiuser
Ln
ĠâĪŀ);
ĠBSDE
Ġreproduces
jump
leg
ĠWol
orsesho
temperature
ĠReview
spherical
Ġpes
Ġreproduced
readth
Ġoriginates
âĬĨ[
GHz
Ġretained
ountain
Ġabstractions
Ġfalling
ĠChristoffel
Ġfollowers
ĠXe
extended
ĠÃ©gal
ĠkÏĢ
ĠÎĵn
safe
Ġgraphon
Xu
ĠImplicit
Ġ....
ĠComm
Ġbuckets
systems
ĠGir
loaded
alternating
Ġignores
simon
âĭĬ
ĠÏĢr
ĠPeter
Ġnetworked
ĠExtended
Ġisotopies
eto
tiques
Ġ012
ĠAnt
rie
Ġ('
double
Ġgradings
ĠTy
ĠMAB
Ġwidths
Ġcomplexification
tration
Ġsandw
iden
1991
icol
ichartz
Ġcope
Ġinsightful
ĠBY
ĠComb
Ġ`,
ikov
Ġdefinitely
bruch
Ġfed
Ġku
Ġpropagates
ĠSFT
ĠCompare
Ko
ĠRemarkably
uraev
ĠCX
Ġdiscarding
augh
Ġadditions
Fn
centered
ĠBlas
Pe
etz
Ġbroadly
Ġretrieved
Ġcompromise
ĠEI
Ġnormalizer
Ġcataly
Ġinterchangeably
Numerical
bipartite
Ġtz
ĠNm
ĠConst
ĠÃ°
Ã¡r
dessus
ientist
ANG
archy
Ġcyber
Ġswar
ĠParseval
etary
adays
KÃ¤hler
pN
Ġexploitation
strategy
Ġquerying
UCT
ĠCramÃ©r
Ġrw
ĠÂµi
clusive
Ġmarginally
kal
Ã©bri
Ġeasiest
Ġ1970
Ġerased
Ġcrowds
Ġunw
stry
typically
isomorphisms
ĠxT
Ġintercept
Ġsupersingular
ĠnN
Ġinscribed
ĠHellinger
Bott
Ġgrade
Ġontology
ĠVlasov
))âĪĴ
Ġplatforms
ĠMichael
iencies
zq
Ġcardinalities
ĠExpl
ĠSke
proj
ilt
Ġanisotropy
uw
imit
ĠðĿĳĪ
Ġ.).
Ġpertaining
ounter
CB
ĠForward
ĠAbstract
approximately
ĠÄĹ
Theorems
Ġainsi
Ġinhom
Ġjudgment
Ġter
ĠChanging
ĠLoop
zebruch
ĠACC
Ġ|+|
ordinary
Ġcached
Ġcart
KN
Ġdrawbacks
bt
ĠMarg
private
Ġquote
Ġhalfspaces
Ġundergoes
ĠPure
ĠDIST
âĢĸ
ĠBroad
Ġâĸ¼
Ġremovable
While
ĠpâĦĵ
ĠBZ
ĠPerf
Ġtels
Ġsle
infin
fast
Ġprobing
ĠRestricting
handed
ĠSPAR
ĠReach
Ġresilience
Ġyn
Ġbisimilarity
ĠÎ³j
Ġprobes
Ġprojectively
ĠEilenberg
ĠÎ´g
Ġlengthy
Ġrevised
bard
âŁ©).
ĠAzum
Ġcoordinated
parity
ĠSylow
Ġreparameter
ĠkN
ĠWn
Inter
Ġtemplates
ĠHp
endall
Ġvanilla
Ġ)âī¤
Ġlocalisation
ĠÎ¼i
ĠLx
ðĿĲµ
ĠnÏĥ
ĠFenchel
She
Ġdamage
ĠGoogle
Ġfurn
arriers
Ġflight
ĠÎ´m
Ġtightly
ĠStiefel
Ġrenewable
Ġports
olec
Ġfly
ĠPattern
airs
pet
Î»I
152
versarial
ROM
orphe
TD
ĠRk
LOS
Ġtraverses
Ġsubstructure
Ġthreefolds
Ġlogically
Ġtiny
meaning
Ġbip
ĠFloquet
Ġmisclassification
Ġak
Ġ160
Ġgenome
Ġpreconditioning
Ġcompensated
WL
Ġpump
ĠDx
Ġflats
Ġmort
ĠSame
ĠIdentity
ĠEXAMP
Ġbags
ĠÎ±Î»
Ġcorrelators
iÏĦ
Ġaccuracies
IME
Ġindeterminates
Ġassures
Ġ1989
Ġperturbing
radius
kel
Ġunaffected
Ġconflicting
access
akian
âĮĭ+
Red
Sing
ĠFv
Ġevidently
ĠFace
query
ĠSpring
Ġeqs
ðĿĲ·
ĠIdentifying
Ġhulls
transmission
147
ĠiA
ĠWave
okes
Ġexamination
dele
batim
Ġassure
ctoral
Ġqm
commuting
once
Ġspecially
ĠInequalities
uniqueness
EW
Ġisomorphisme
Ġfriends
Ġcoordinator
ĠInduction
ĠSam
},{
ĠMaple
lund
currence
Ġtwofold
ĠIO
Î»y
ĠPOMDP
ĠÏīn
Ġdoubled
ĠMULTI
Ġvague
ĠRow
Ġcompli
ĠâĪŀ].
inese
Ġhelped
slot
establ
Ġhoroc
Ġquasisymmetric
empor
ĠâĪ¥âĪĩ(
ĠOrthogonal
ĠRubin
ĠNovi
Ġforever
Ġpurification
Ġrand
Ġ+âĪŀ[
ĠMaps
Ġconverting
ĠUnion
reduc
Ġviz
horn
monoid
Ġnonuniform
ĠHereafter
ĠMaximal
Ġcollaborative
egin
relax
jamin
Ġtensoring
Ġelic
mutative
ndant
Laplace
tA
Ġ=âĪĴ
kÃ¤hler
Ġoc
Ġsutured
Ġ105
Ġbroadcasts
Ġongoing
ĠÏĥt
MAC
ĠiÎ½
ĠCz
gmund
ĠPIR
ĠÎ·i
ieri
Ġunconditionally
sto
ĠInfinite
Ġ121
Ġpromised
kii
zos
ĠSupport
sheet
versa
Î±s
Ġphilosophy
Ġwhp
Ġshortcut
Ġmultivalued
ĠDerivation
Ġvk
Ġverbatim
Ġwavenumber
0001
Ġgenericity
ĠZFC
Ġsettle
Ġplur
shown
Ġmv
single
Ġlaser
wicz
fractional
Ġhomogenized
Ġphenot
Ġidentifiers
Ġpendulum
Amp
Ġmargins
Ġ234
Ġgat
Ġexperiences
taking
Ġrecol
mata
Ġglass
ividual
just
alsh
ERIM
Ġcoth
âĪĴâĨĴ
ĠIwasawa
bins
ĠdÎ¦
Ġmisspecification
Ġbordered
ĠSEC
(âĪĴ,
]\{
ĠXA
comb
ĠCSS
Ġremedy
ĠConnes
orphic
1990
Ġretains
Ġarguably
/[
ĠRegret
}(
ĠStrichartz
Ġcondensation
whe
ĠLaplacians
Ġjumping
Ġdiscriminative
notice
onn
ĠÏģu
ĠSuc
Ġconstantly
OB
ĠTau
ĠConway
Ġhomologous
Ġbiqu
ĠNag
Ġmodality
reversal
Pi
Ġcaten
Ġseu
Ġbranes
Ġexperienced
cteurs
Ġequivariance
Ġbehavioral
Ġyielded
cob
oundness
iman
Ġnoncrossing
Ġsolar
ĠVariable
horizontal
ĠLeray
ĠLength
Ġpresentable
Ġrefining
ĠSEM
ĠHZ
ĠHof
Ġ))).
Ġtheme
Ġfans
Ġlic
Ġencaps
Ġtester
Ġelliptical
ĠCUR
ĠGabor
Ġfeel
âĢ¢âĢ¢âĢ¢<
bly
onvex
ĠdâĦĵ
ĠTj
ikhonov
]},
Ġmaintenance
ĠdÃ©finie
Ġdecodes
Ġsciences
Ġcg
Ġrobustly
(.
Rao
Ġincentives
cence
ĠDÏķ
ĠHyperbolic
according
Ġmanually
Ġ124
Ġcars
cross
ĠOMP
Ġanywhere
ĠâĪĨ/
Ġforecasts
mq
Ġsubmodules
ĠBohr
Lieb
Ġbideg
ĠYon
Ġ(âĪĨ(
Assume
ctory
Ġisolate
Rn
ĠEt
ĠOL
ĠMechanism
ĠISP
ÏĢÎ±
vative
rote
ĠScaling
SDP
Ġresist
Ġintegrands
Ġreparametrization
ĠMackey
reds
ĠLDA
Ġattenuation
ĠHuber
Ġlef
Ġstocks
Î²H
Ġcontention
track
Ġá¸£
Ġwarped
ĠDIF
ĠÎ±Âµ
Ġaffinely
ĠReconstruction
Ġbearing
ĠEhr
ĠGm
configuration
Second
Ġsac
Ġinterconnected
ĠRobinson
Ġsymmetrical
Ġabbreviated
Ġrecombin
Ġpron
channels
certain
Ġ(.,
tral
ĠDeterministic
tination
ĠJames
Ġsecant
Ġlateral
Ġfal
ĠWa
ĠâĮĪ(
Ġultrametric
strand
146
flip
Ġparticipant
ĠBk
ĠPp
Ġsqueezing
ðĿľİ
ĠLTE
Ġenlarge
|))
ĠREG
Ġ2020
ĠMAN
Ġteams
Ġparagraphs
ĠFrench
Ġ));
algÃ¨bre
Ġnecessit
ĠGFF
iber
dÎ²
reme
Ġmos
ĠFac
obayashi
ategories
ĠEZ
Ġoverflow
contractible
ĠPubl
provided
ĠLg
ðĿľĭ
Ġprolongation
Ġequicontinuous
Ġqx
ĠKC
tinct
Ġchaque
qr
Ġholomorphically
Ġantipode
scalar
âĹ»
141
Ġ)|)
ĠCÎ±
Ġprobable
Diff
ady
dominated
INEAR
ĠÂ©
Ġapproached
ĠGÃ¶del
Ð¿
ĠUR
Ġsubsum
categorical
ĠBetween
Ġconten
ĠIterating
regret
ĠRQ
AH
Ġdanger
Bx
LDP
ĠRound
overing
Ġpercept
Ġowner
Ġjh
Ġmovements
Ġwv
Ġnonetheless
Ġsubclasses
ĠOperators
ĠKazhdan
Ġvisualized
lege
ĠLq
Ġseeing
Ġmakespan
ĠÎ´A
interacting
Kac
ĠÎ±e
anson
ĠAlternative
ĠMPS
Ġcompensation
home
ĠBrou
mander
Sq
(âĢ¢;
Ġrounded
sciss
ecomposition
Ġunsatisfiable
Two
ĠRAND
ologie
ĠÎ´i
exist
Ġexemple
Ġgathered
Ġ]],
Ġencoders
ĠâĪ¥.âĪ¥
ĠChecking
Ġindustry
monotonic
ĠCes
ĠSquare
ansen
Ġefficacy
PF
ĠnL
venting
Ġpermute
Ġconjugating
ĠPython
ĠSource
parametri
ĠNovikov
sorted
vision
Ġinflection
Ġunitarity
ĠUni
Em
mk
ermine
ĠRemove
ĠERM
ĠVM
ationary
ĠâĦĵk
rowing
ĠMori
ĠRelax
item
Ġanyway
Ġextremes
Ġsurprise
ometer
glas
measured
Ġgrammars
multiplicative
zel
Ġxf
Ġpays
Ġbon
ĠTypical
ĠFra
Ġclassifies
translation
Ti
ĠCarathÃ©odory
ĠBerry
Ġpossessing
ĠPrediction
ĠSched
Ġpioneering
ĠHand
filters
cases
Ġsb
omplex
Penrose
Ġblur
Ġplasma
Ġinfectious
Î»i
Ġcoarsely
ĠBlaschke
ĠBehavi
uki
Ġdess
ĠWolf
Ġcoexistence
amm
Ġrecording
tinger
ĠOff
ĠProposed
qi
Ġpractition
Ġarchimedean
ĠEXPERIM
Ġ(âĮĪ
ĠCoding
Ġtridiagonal
ĠMapping
Fl
isor
ĠAccuracy
ART
break
ĠExpansion
ĠPk
ĠPin
Ġ800
ĠPOVMs
ĠPerturb
Ġâĺħ
Ġpremises
Gl
IB
ĠSPT
ĠÎ»Î±
illar
Ġ+âĪŀ]
multiple
Ġeccentric
ĠDh
ĠÏģt
IFO
ĠIdeally
agger
Ġsuivante
ĠBÃ©z
fiber
Witt
ĠQW
minimization
Ġomn
ĠDK
Ã¶s
ĠVariance
pAq
leb
Ġparti
ĠIteration
ĠiÎ´
ĠBurn
ĠËĨQ
ĠDevelop
Ġdamped
born
ĠLanc
semistable
Bre
ĠConstant
Ġparameterize
SH
zeros
Ġ(âĸ³
ĠÌ
Ġrace
ĠQED
ĠGp
Ġtris
Ġfacial
Ġsurvives
Ġredefine
ĠQQ
Ġdownstream
Ġfinishing
âĪĴâĪĨ
ĠâŁ©(
Ġphysicists
Ġskewness
Ġcoalitions
vations
Ġsubadditivity
olem
Ġcommunicated
Ġerasures
ĠChinese
(||
roph
ĠPseudo
Ġdiffuse
xture
reliable
ĠGeV
Ġretaining
ĠDX
Ġprecedes
ĠWat
asiewicz
uchs
Ġintersected
ĠâĪ¥âĥĹ
ĠÎ·t
refin
abelling
Ġdrivers
Ġoccupies
Ġweek
pha
Ġbv
Ġproviders
Ġextrema
ĠExtend
Ġyt
Ġconvey
))+
ĠMMD
realistic
underst
ĠBaker
ĠMob
obs
Ġruin
ĠArchimedean
Ġentailment
Ġseulement
between
Ġdeviates
Ġpackages
ĠthÃ©or
ĠkG
collection
DV
Ġunoriented
Ġdivid
ĠSin
Ġequator
Ġsubcase
Ġinferior
ĠRIS
Ġsubmodularity
ĠConjug
Ġpriorities
Ġsust
Ġcity
orig
Ġvo
Ġinterventions
ĠDPP
every
ĠSequential
âĸł
ĠOM
Ġmais
Trans
ĠIterative
ĠFG
Ġanalysing
ĠExisting
ĠDev
Ġparticipation
Ġembeddable
Ġkc
ĠMoving
Ġsnr
ĠHarris
degrees
Ġguided
Ġclearing
Ġspanner
Ġparametrizing
ificant
demand
ergodic
Ġentier
Ġtimestamp
ĠâĿ
itaev
Ġclim
ĠClosed
mr
apsed
FORM
ĠCCA
Ġopponent
Ġexplores
Ġstacked
Ġdictionaries
ĠGrover
erves
ĠWall
ĠLoS
finition
Ġexpansive
Ġterr
ĠUntil
terfly
Ã¨res
Ġpulls
ĠDuality
ĠalgÃ©bri
Cur
ĠðĿľī
ĠDoing
ĠVariational
ðĿľĩ
arrival
essentially
Ġtangents
Ġadmitted
ĠÃªtre
Ġnonnegativity
Ġmerit
ĠËĨS
curvature
ĠdÃ©mon
Ġancillary
ĠTits
ĠUi
ĠÎ»z
akh
ICATION
Serre
Ġtal
148
Ġcompanies
Ġinert
ĠGV
ĠÐ²
ĠâŁ¨|
KE
ĠÎ´Ïķ
Ġcomplemented
bitrary
ĠÃĺ
Ġpresheaves
Ġsacrif
Az
Ġorthogonally
Ġquantitatively
Ġmovie
ĠSr
ĠIg
SES
luing
ĠSchool
ndon
Ġcoarser
ĠDAGs
ĠpÎĵ
ĠhyperkÃ¤hler
Ġcher
ourse
ĠSecurity
psq
ĠVerification
oeb
Ġquenched
149
cycl
Ġ[.
Ġrat
ĠÎ³p
ĠBMO
iant
variation
Ġepi
characteristic
Ġresilient
ĠIID
support
eptember
Ġdictated
Ġoriginated
Ġdrif
Ġquasim
ĠTikhonov
owered
ĠFlat
ĠRatio
Ġinversely
([âĪĴ
isce
cessibility
exceptional
Ġintegrity
Ġ[âĪĴâĪŀ,
ĠSBSs
Ġng
Ġcopulas
Ġreconfiguration
Ġadopts
Ġparametrised
itman
Ġ[?])
Ġmisses
plot
ĠÂµq
ĠCONT
ouds
ĠÃ¼
Ġsubjective
ĠLieb
Ġdiverging
ĠLab
implicit
Ġzoom
iren
ĠNeighb
lfors
tini
ĠWhy
neighbourhood
Ġoccasionally
lle
ĠCass
Ġ1987
Abelian
ĠKrein
Ġneutrino
oric
Ġgeneralises
statistics
inform
Fix
Nash
gated
ĠStudent
ĠNil
ardo
155
ĠtL
itably
operation
ĠRunning
Ġ{âĪĤ
Ġnumeric
Ġparametrizations
Ġseverely
minimizing
Ġintermit
ĠÏĪn
Ġabsorb
Ġunknotted
Ra
Ġhomotopically
ĠSylvester
Ġsigmoid
ĠAvailable
invertible
Lind
ĠÂ¨Â¨Â¨,
Ġprojectiv
ĠNM
Ġstabiliser
ĠNumbers
ĠIntegration
conformal
aments
Ġ1234
dxdt
Ġbive
Ġfolds
ĠSpf
Ġ?],
ĠTypes
Ġpreuve
Ġdeeply
Indeed
dig
Ġunstructured
Ġchir
ĠÎ´k
encer
Ġcoalgebras
Ġconverts
ATA
Ġalgebroids
plots
ĠÎ²s
âŁ§
ĠMoser
Ġbehaved
motion
ĠMISO
ĠExec
Ġwx
(âĪĴ)
Ġblank
Ġearth
Combin
start
ĠÎĽn
Ġtendency
Ġadjustments
ĠBad
ĠINR
Ġclub
thur
Ġplum
parabolic
Ġbigon
Ġciphertext
Ġdiminishing
triggered
ĠÑģ
ĠâŁ¨{
ĠCorrectness
tm
}},
ĠTermin
reier
Ġunequal
Ġeqn
Order
Ġclinical
orokhod
Ri
ĠLj
ĠÎ´E
Ġstip
Ġholographic
Ġalleviate
ĠStraight
Ġdisplacements
ĠCombinatorial
Ġsublevel
Chand
Rx
posi
002
ĠÅĺ
OO
ĠTCP
ordre
ĠString
Ġori
Ġalpha
ĠWrons
|âĪĴ|
ĠPur
Ġdiagrammatic
fall
Te
ifts
pXq
Ġfrequentist
Ġconstitutive
Ġcontacts
Ġnilpot
Ġtruncate
Ġskewed
ĠPrincipal
âĢ¢âĢ¢âĢ¢ÃĹ
Ka
quad
Ġvalency
surgery
ERM
yy
(âĪħ)
ĠWeibull
Ġseparators
ĠâĥĴ
Ġimpul
aligned
Ġlogit
ĠClark
ufact
ĠMp
Ġcoadjoint
Ġmontrer
|âĪĤ
ĠYi
Ġ|âĢ¢|
ĠAndrew
Ġaffinoid
ĠdonnÃ©e
figure
packing
Ġâī¤,
Kh
Ġenumerative
âīĪ
1989
lett
Ġpremium
ĠâľĹ
ĠSas
Ġinvocation
)[[
eig
yman
Ent
ĠLuc
ĠâĨĴ+âĪŀ
ĠÏĢx
Ġreplacements
Ġqueried
ĠRBF
USSION
Ġquintic
HF
Ġperme
NOMA
ĠcÎµ
Ġfaced
licz
Ġdilations
ĠEdges
Ġattempting
ĠRing
ĠÎ³Î±
Ġbringing
ĠmR
Ġpseudorandom
ĠÎ¸Î¸
ĠCTL
ĠBv
ĠYoneda
isive
Ġmodifies
ĠPrice
Ġparsimon
Ġclutter
)|(
Ls
Ġdestinations
ĠDISCUSSION
Ġimpedance
titious
Ġpercenti
secure
ĠMid
Ġ={
Ġconcre
ĠExpected
Ġbacter
ĠBX
ĠSegre
outer
Ġhalts
ĠStrictly
jq
Ġpigeon
surfaces
ÏĢm
wan
Ġduplicate
freeness
âĪļ
Ġeconomy
Ġinnermost
LQ
ua
Ġslit
ĠÎ¼n
ĠAppendices
obtained
ĠPROPOSITION
Ġdelivers
match
Ġwat
Ġbreakthrough
Ġdesigner
ĠEnumer
klore
ĠiÎº
ĠCharlie
Ġ210
ĠBeltrami
Ġgathering
Ġreact
Ġpolylogarithmic
weights
âŁ©(
Ġbasics
180
Ġaggregator
otzkin
LD
Ġcater
ĠGMRES
Ġscr
156
ĠFields
Optimal
ĠTurning
asm
ĠÄļ
jee
immer
ĠÎ³k
Ġparabola
ðĿĲ¿
uistic
Ġmathematicians
jj
,âĭĨ
uil
ĠiH
ĠND
Ġsuperpotential
Ġspontaneous
Ġdissimilarity
uits
utivity
Ã©ment
FC
Ġunusual
ucid
RV
ĠâĪĨ).
ĠVolterra
Acc
ĠKirchhoff
Ġpessim
greedy
ĠnÂµ
Ġproteins
Ġresemble
ĠKE
ĠFeedback
ĠSoient
ÏģÏĥ
ĠLZ
Ġpremier
Ġbanks
Ġbyproduct
Ġatm
Ġclick
automorphism
anishi
Ġ`}
Left
transl
predictable
Ġhoney
Ġequational
summ
ðĿĲ¾
ĠJournal
ĠAk
Ġ1988
piece
UB
ĠUT
Ġscanning
life
Ġdonne
IE
tang
157
rev
Ġpet
ĠIMP
Ġindustrial
bon
verages
ĠHz
Ġinterchanged
Ġtrades
ĠPaul
Ġpvq
Ġdeconvolution
ĠnÏĢ
oresc
teen
Ġannounce
Ġprin
Ġconfused
Ġcredible
ĠBenjamin
vir
Ġbich
ictitious
covariance
apes
Boost
Ġgm
ĠXB
Ġá¹ª
Ġrecommendations
";
Wasserstein
yner
urities
Ġconstituents
ĠLCA
Ġrealm
Ġsuperset
ĠVertices
labeling
Ġencompasses
iÏķ
Ġkink
Ġevolved
Ġpebble
ĠProc
))))
Ġdownwards
interpre
oisin
Ġcovert
Ġcriticality
enne
Ġalive
consum
bres
Ġ,âĪŀ
Ġxw
ĠHop
Ġflaw
Ġdivisorial
ĠGeometrically
checking
Ġvp
ional
Ġannihilator
Ġconcurrence
ALL
ĠColor
Ġlecture
Ġindiscern
MATION
fractal
ĠRs
ĠPhysical
Ġproduit
Ġ(?).
Ġsou
Ġacl
Ġlocalizing
Ġmistake
vironment
Ġturbulence
Ġactuator
Ġchrom
Ġ]âĪĴ
Cal
ĠDj
Ġunnormalized
Ġweakest
ĠNotons
Ġattempted
Ġproduc
Ġblown
Ġcorrector
Ġmicros
Linear
ĠMos
Ġsupplied
import
Ġpuq
Ġej
ĠEg
ĠSkorokhod
ĠKZ
ĠVB
ĠObj
Ġvx
Ġhumans
Ġstrange
Ġmultigrid
ĠâŁ¨,
ĠDecoding
Ġintegrates
Ġspatio
ĠNu
Ã©gr
Ġinfra
ĠWilliams
Ġbeamform
Ġsnake
Ġhundreds
ĠKm
bx
ĠxÎ±
olet
ĠPush
Ġtimestep
Ġakin
ĠKendall
ĠExplo
Ġnan
ĠKv
vac
ĠNorth
Ġgender
ĠLar
Ġinjected
Ġlox
ENO
Ġ())
ĠâĪ§,
Ġrecognizing
passing
ĠWKB
risk
loom
Ġstrike
ĠtX
ĠBerger
Ġloosely
ĠISS
Ġseparatrix
ĠAccess
Fq
dc
ĠSv
Âµt
explicit
IQ
ĠDÏĨ
Ġ?.
ĠAffine
ĠgÃ©om
cryst
dÎ¶
ĠLTI
Ġproc
Ġcountries
ĠpÎµ
ĠNB
necessarily
Dis
extremal
Ġvox
Ġgenera
ĠAuxiliary
ĠCount
âŁ¨âĪĩ
Ġsummations
asure
blad
ĠPMF
ĠContinuity
eston
winger
âĪ¥âī¤
Ġincrementally
Ci
ĠÎ³Î²
Ġselector
Ġmor
Ġ<-
unital
ourcing
Ġagn
Ġcodebooks
Ġforwards
coalgebra
xiv
Ġzk
Proper
functional
ACH
Ġencounters
hlmann
ĠKeeping
Assumption
ographical
problems
NI
Ġhalting
Poly
ĠPearson
Ġmirrors
Ġgreedily
jÏī
Ġwir
Ġimplementable
Âµn
ĠHI
Ġimprec
hausen
Bas
Ġfrustr
ticip
ĠKatz
Ġselling
ĠHahn
urie
Solomon
Bro
Î»s
ĠRewriting
Ġgenot
Rad
extensions
Ġfragmentation
ĠEvans
pseud
ĠtÎ±
ĠnÏģ
Ki
ĠFair
Ġcloning
nice
Ġformule
ðĿĲ¶
Ġclaw
Ġspreads
ĠTucker
RAS
Ġhopping
Ġtemporarily
ĠCHA
ĠBass
ĠMOD
idential
Ġinaccurate
Pa
Ġpending
Ġbreadth
Î»r
ĠÅŁ
TT
ĠCanonical
ĠReference
ĠÎ±Î´
Ġprioriti
ĠÏĥj
Ġresolves
ĠLead
expon
ĠdÃ©fini
Ġhh
ĠRoot
ĠWerner
ĠâĪ¨,
owing
ĠShi
nilpotent
pute
âŁ¨âŁ¨
iavin
Ġpipeline
ĠWP
Reduce
pH
ĠdÎ´
âŁ©]
Ġeigend
Ve
ĠPÃ³
ĠEuclid
Ġny
Ġgj
ĠMCG
ĠSemantics
pY
wis
Ġhv
Ġemitted
Right
ĠMonotonicity
chosen
ĠApplied
Dy
RB
Ġmaj
Vietoris
Ġwrote
ĠÎ»c
Ġconstrains
Ġregularizing
,âĪ¥
ĠHr
umbel
ocity
Ġbottle
Free
Ġju
Ġodds
vw
ĠDk
ĠOD
Ġ(*)
Ġlacks
Ġportfolios
ĠJSJ
xxxxxxxx
Ġmil
posal
orbifold
vn
acte
conforming
ĠâĪ¥âĪĨâĪ¥
Ġcomplication
ĠSchauder
Ġmisspecified
Lip
ĠMaz
olov
Ġengend
Ac
Ġabsurd
ardi
ĠTradition
Some
irming
Ġbijectively
LW
ĠRod
ermann
zig
Ġonedimensional
imp
ĠMad
Ġ(âĪĴ(
Ġparametrizes
Ġ)âĪª
Ġsubcarriers
Ġvert
ÏĢy
death
framed
Äħ
ĠReprint
resi
reason
Ġidealized
pointing
OMP
Ġstre
Ġprefactor
ĠColumn
Dn
Ġtruncating
Ġqudit
ĠRNA
ĠLoewner
ĠReplace
ĠCCS
ĠPerforming
Condition
ĠAw
dL
ĠAllocation
Soit
Ġannealing
Ġcustomary
along
ĠFarey
Ġcertified
ASS
ĠRational
ĠMoment
Fe
ĠAnsatz
oments
Ġprofits
ĠTransformation
computation
Hastings
Ġads
ĠWright
Ġsinus
Ġabsciss
Ġ122
figurations
connections
Ġcoarsening
established
AmpÃ¨re
ĠÃĸ
âĻŃ
ZZ
wn
ĠdÏµ
ĠNp
ypic
ĠCÏģ
return
fraction
reversible
'd
measurement
----------------
Ġendofunctor
Ġdefense
recursive
ĠTemporal
Ġassembl
ĠBoy
extthm
Ag
zers
ĠMut
ĠÂµs
Ġscientist
primary
elic
ĠOptimality
Ġcomposable
Ġdiagnosis
010
ĠâĦĵj
Ġeast
've
Ġnoteworthy
Ã¤ck
ĠaR
Ġvein
Ġzon
ĠâĪĴ{
153
Ġpeeling
Ġvideos
<|
167
Ġ)((
riff
ipses
Ġoverlay
Ġrearrange
ðĿĽ¾
Ġindeterminate
era
respondence
holds
Ġgiant
Ke
alty
ĠLattice
Na
ðĿĳĢ
ĠParts
ĠÏĢk
encoder
ĠâĮī.
159
QA
Ġmonads
Ġbiholomorphic
Ġfc
Ġprovers
Ġsuperim
common
DK
dG
occ
ĠlinÃ©
ĠVolume
TW
Ġ+âĪĨ
Bou
ĠÎ²p
Ġregistration
1987
ygmund
ĠCoefficient
products
ĠRemoving
Ġlightlike
Ġmus
ĠRog
iev
ÏĢq
Ġdecoration
ĠÎ£ÏĦ
ĠSequence
Ġorganised
Ġinspiration
ĠRestricted
ĠWir
ĠJap
Ġespace
Ġendogenous
Ġcards
ĠÏĥÏĥ
Ġrotor
Ġtemporary
Ġsys
Ġgeodesically
Ġkv
ĠCycle
154
Ġcascades
ĠLQG
ĠÎºn
Ġseparations
Ġmanaged
Ġtriggering
ĠMove
Ġ]].
ĠjÏī
Ġmanufact
Ġinaccessible
method
âĪĭ
basic
Ġqa
(âĪĨ,
Ġelaborated
fork
ĠSAR
ĠCAP
ĠQuad
Ġbinning
Ġhappened
ĠAj
ublic
ĠâĻ¦
ĠDw
Ġrelied
ĠEY
Ġwellknown
Ġscalings
ĠBSC
ĠkÏĦ
Ġstere
|âĨĴâĪŀ
accept
ĠvÃ©rifie
ĠÂµm
ĠðĿľĵ
Ġancestral
orelli
Ġassisted
Ġboldface
Ġconducting
anne
LV
ĠdÎµ
ĠhD
ĠPort
Ġstretching
Ġprogressions
Lusztig
Ġwhom
Ġintegrations
Ġxr
ropri
ĠDEFIN
Ġsellers
sx
ĠQt
Ġvulnerable
ĠWronsk
emi
Ġheuristically
ĠNÃ©ron
Ġstub
rol
ĠAIC
ĠRandomized
Ġsymplectomorphism
precision
ĠUB
ĠOracle
ðĿľĮ
ĠSeptember
ĠÏĨj
Ġcollide
Ġsharpness
ĠKrull
ĠGENERAL
Pol
ĠTao
Ġexcessive
Ġsesqu
dden
ĠâĮī,
ĠKleene
Ġanalyzes
Scholes
adequ
Ġpredetermined
Ġuncoded
gro
Ġemail
ĠLCS
Ġrhs
Ġcommitted
Ġhc
Ġprovision
Similarly
Ġnonabelian
ĠChris
Nt
Ġreplicated
ĠInterpret
ĠRemarque
attach
âĬĻ
ĠPerfect
Ġepidem
ĠGeom
factorial
ĠÃ©lÃ©ments
ĠâĪŀ},
emer
Ġrecursions
idirectional
ĠLanczos
ĠDynamical
orum
ĠCIR
resonant
Ġprecompact
iteration
Ġadoption
Ġ/âĪĨ
ĠIDs
ĠQN
Ġdiameters
Ġcontextuality
ĠGrid
Ġeduc
ERC
Ġpseudol
ĠÅ»
Ġwebsite
Ġfinie
Ġalgorithmically
appro
Ġaltered
ĠErgodic
Ġfreeness
Ġinterlacing
nn
Ġsuperiority
JP
game
hem
ĠXp
Ġcurse
Ã©l
Ġcomparative
Ġ,.
ĠDelay
Banach
Ġerroneous
Chandra
jectory
elles
Ġwavefront
Ġ(?)
Ġsubschemes
Ġpurchase
WT
Ġvoid
Ġcontrap
ĠFORMULATION
Ġgam
Ġsubdivide
Sat
fusc
Ġuniformization
ĠCaputo
ĠMLP
Ġbidegree
ĠLect
solved
isite
ayama
Ġhd
ĠOUT
Ġ{+âĪŀ
Ġhalt
operad
ĠStackelberg
Ġwu
ĠGUE
ardless
Ġinstantiated
Ġdraft
âŁ©),
typing
osely
vents
Ġinsensitive
ĠLyndon
rotation
Ġmoderately
evolution
orseshoe
west
bic
ĠMRC
ĠEncoding
Ġovertwisted
ĠSupplement
reversing
Ġbou
Ã¡th
decomposable
Yang
signaling
statistic
Ġabundance
anese
Ġposter
Ã©galitÃ©
Ïģu
speed
Ġcochains
ĠHoff
Ġstretched
ĠSlater
fair
ĠLs
Ġbear
DAG
Ġinessential
ĠGau
Ġclone
Ġideally
Ġconsuming
Ġshaped
ulatory
ĠWire
Ġtorsor
trained
Ġcompetitors
actually
ĠStar
simil
ĠDoob
ĠBias
Sti
Ġpacked
Ġdroite
ĠdiffÃ©ren
Ġreverses
ĠRDF
ĠEcon
Ġlearners
tism
Ġcash
Ġkg
ĠÎµi
Ġcorr
ĠSER
Ġ1986
Ġadapts
balancing
Rich
roof
Ġsupervisor
Ġpencils
ĠCritical
Ġtetrahedral
Ġknotted
Ġá¹Ģ
coh
ĠDatalog
ĠâĪħ).
Chap
Ġportrait
ĠPj
Ġ:-
Ġdownloaded
perturbative
Ġalt
ĠChange
Ġconcentric
Ġunspecified
ĠCapacity
Ġdevel
construction
Ġrationale
ĠAllen
Land
}))
ĠTa
Also
ĠOk
ALU
ĠTerms
SINR
ĠCb
Ġindifferent
Ġtempting
Thomas
Ġ...)
boxes
Ġconcurrency
Dirac
ĠDMC
Ġ".
Ġ|âĪĨ|
Ġworry
Ġtol
Ġsuperflu
ĠLeast
correlated
eci
?,
ĠPm
Ġprohibitive
Ġfeedforward
Ġreviewing
Color
jan
ðĿĽ½
unstable
ynolds
vq
ĠBrill
educed
That
ï£
isolated
Ġsubfamily
ĠâĪ©{
ĠHubbard
Littlewood
Ġuri
Ġ(((
Existence
machine
aba
Ġ192
Ġarithmetical
aptic
unless
ĠOrient
ICAL
RAN
ĠTransfer
iteria
Ġtimescale
Ġcontaminated
CNF
Ġenvelopes
covariant
ĠBrouwer
Ġenorm
ĠSull
Ġbill
abol
Ġpreparations
Ġspo
Ġperceived
Bell
urch
151
ĠExtr
iÎ²
CES
ARD
EMENT
ĠTask
ĠGx
Ġsubjected
proving
Ġsilent
Ġqudits
qx
ĠSg
poset
antes
ĠAdvanced
tv
ĠÎ±I
ĠYou
Ġperception
158
Ġga
ĠWalsh
Ġunifying
Ġuncovered
neth
Ġdip
next
ĠâĪħ}.
ĠImmedi
uded
Ġwavefunction
Ġ{+,
raf
Ġconsecutively
Ġparenthesis
Ġsupercuspidal
ĠModeling
cv
Ġyj
Ġpostulates
estimation
ĠSus
ĠEst
Ġunobservable
pol
wara
tiner
Ġrephrased
understood
ĠPad
ĠXq
ogonality
ĠRecovery
codes
lings
ĠKF
ĠDetailed
ĠCASE
ĠprÃ©cÃ©dent
ĠClique
Ġadaptivity
Lev
ĠThereby
Ġ,|
oson
coefficients
ĠYao
Ġcontag
ĠâŁ¨âĪĨ
Obser
ĠÇį
WER
âĢ¢}
ĠChan
ĠFed
operators
colorings
Ġunmarked
plicial
ĠHirzebruch
SF
Ġ"(
ĠCharacterization
Å¾
ĠLTS
ĠðĿľĪ
ĠDataset
Ġselfish
ĠKx
ubic
Ġaversion
Ġfut
ĠSpo
ĠNMF
Ġelucid
Ġfused
ĠKU
ĠUr
ĠÎĵi
Ġisolating
Ġferromagnetic
ĠdC
Peters
ĠMemory
ycl
Ġsales
Ġdetectable
ĠUnif
ĠDÃ©finition
ĠMalliavin
false
Ġcro
Ġclouds
ÏĢik
exc
ĠÎµt
Ġsubordinator
ĠBz
Ġextremum
ĠÏĨt
ĠArm
Ġconjectural
pled
othÃ¨se
ĠÂµÎ±
ĠÎ²m
itH
Ġeigenbasis
QAM
ĠREC
oscill
processed
ĠFriedman
html
Ġanticipated
ĠEPS
eced
ĠInvariance
Ġparse
uffle
Ġdeadlock
nj
ĠConnected
ĠNeg
Convergence
Ġintimately
Ġneglecting
ĠBrid
Ġmulticur
ĠYes
luence
ĠGumbel
ĠOA
Ġlowering
ĠSVRG
Ġpursued
Gn
pread
ĠConley
update
differentially
Ġtumor
Ġtravels
ĠRCA
Ġsinglet
Sect
Ġ103
Ġapparatus
Ġtriviality
pP
Ġduplication
Ġparallels
lexive
Ġom
eno
Ga
semann
Ġsubordinate
Lee
cou
ĠCollecting
ĠCoker
Ġaggregates
ĠJu
Ġï¿½ï¿½ï¿½
Ġá¸ĥ
ULAR
Specifically
PAR
ĠSud
adem
Ġdisent
Ġconvergences
Ġtropicalization
Ġabort
WA
Ġquoted
Ġsummarise
Ġppq
Klein
ĠâĪĴ.
aman
ĠJL
ĠÏĪi
ĠStre
Ġcosmic
ĠQCoh
Ġsteer
Der
enability
ĠRANDOM
ĠQKD
ĠÂµx
But
taken
Div
ategies
ĠAlb
Ġdomino
Ġcommodity
Sever
car
Ġhx
Ġlocalize
Ġ(|âĪĩ
iliation
Ġdose
ĠCai
Ġartifacts
').
(),
Ġpinning
Ġequidistribution
Ġneckl
ĠSilver
Ġisother
maximum
Ġrod
LN
Ġoutdegree
Ġvaleurs
ĠHet
nÎ´
âĪ©{
Ġinvari
Ġvc
Ġstric
ĠÐ¸
Ġregressors
Euler
ĠnH
Ġtilted
feedback
Â±âĪŀ
ĠMILP
Ġgenuinely
ĠActive
ĠRao
modified
ĠSUSY
Moore
ĠNETW
Ġeine
ĠRSS
ðĿľī
xu
ĠIi
ĠFal
ĠDÎ¦
ĠFractional
contraction
ĠTI
ĠPoinc
Ġissued
Ġprune
atile
Ġtextbook
Ġcritically
ĠCf
selian
Ġlookup
ĠCorrelation
Bayesian
rq
ĠcN
Ġgrain
Ġpentag
ĠpÏĨ
Î¾q
score
Ġdecrement
Ġdelim
Ġopportunistic
025
Ġbz
Ġâĸ¡(
168
Ġchron
Not
ourag
ÏĢs
Part
honest
ĠQD
Ġfoundational
ĠCPS
Ġirreversible
RY
Ġinflow
Ġspeech
ĠHorizon
dat
Ġreserved
Ġ){
Ġassistance
Ġnonclassical
Ġoffering
Ġsuperscripts
counter
ĠNik
ĠGrassmannians
ĠSpringer
Ġá¸¢s
Ġallocating
Ġdrag
Ġeffet
"-
yt
Ġacyl
Ġcontainer
Ġhf
pository
Â¨,
Ġinferring
skew
informative
Opt
Ġupt
Ġdeem
Ġcite
ĠWin
ĠÅ½
Ġnz
Ġchip
ĠÏĥx
ĠâĦĵâĦĵ
Ġprogramme
Ġpessimistic
weg
ematic
ĠLindblad
ĠMCS
ĠHarish
Ġmetastable
kT
ĠVaart
Ġunrealistic
192
ĠBasically
UPS
Ġpitch
ĠQE
Ġwaveform
nT
Ġdistorted
Ġadditively
Ġsubstrings
Det
oz
Ġmerges
tiveness
ĠBat
viation
Ġinterpolated
sequential
Ġpersists
ĠTRS
quement
reachable
Pic
)/âĪĤ
ĠRELATED
analysis
ĠKepler
300
List
Ġmeters
166
Ġbihol
ĠScal
ĠBruijn
ĠMIP
adi
Ġinstabilities
regions
]])
Èĭ
Ġdial
antom
Ġcommerc
white
Ġsharply
ĠHs
ĠPrinciples
OLOG
kk
Ġpathological
Whitney
Ġcooling
Ġincorrectly
Ġpun
Cha
Ġdiffraction
coloured
Ġindepend
Ġredex
Ã¶rmander
iten
isy
Ġxg
ĠcoNP
ubov
KdV
[âŁ¨
pÎ±
Ġmb
Ġconstructors
Ġ126
ĠSteinberg
ĠAttack
sampled
ĠsÎ±
)(âĪĤ
ĠGeneration
Ġcomulti
tification
rc
ĠMBS
project
Ġgq
Ġunavailable
ĠElectrical
dominant
ĠGraphical
Ġpreconditioners
Tor
sj
ĠÂµp
Ġencourag
They
ĠpÎ·
ĠOs
ĠJeff
Ġfactorizes
represented
Sta
ĠTorelli
ĠSymm
Ġje
Ġgraphically
Ġselections
ĠLMI
Ġdeph
Ġsho
Ġagnostic
iger
Ġuntwisted
Î²x
Ġirreps
Ġreconc
Ġcrash
FK
ĠâĪĴ(âĪĴ
Ġua
Ġ104
ISTA
owicz
Ġweakness
BZ
Ġáºį
Ġblood
intersections
Ġinnovations
Fried
Ġdualizing
Ġfacing
Ġbw
ĠLas
Ġzf
volving
Ġparametrisation
coding
ville
ĠÎ³q
ĠLusztig
ĠProv
Ġwar
Ġshaping
Weight
(âĮĬ
Ġqf
Ġbacklog
ĠTransmission
Ġintermedi
Ġheteros
dN
ĠSX
Ġtwe
Ġaccessibility
1988
Ġsofic
Ġpronounced
alian
Ġrack
ĠOh
Ġdepolar
Ġultrafilters
Ġinfl
Ġdrives
Aug
Ġ/âŁ¨
Ġ1985
Ġposteriors
(Â¬
ĠRepresentations
Ġâĸ¡,
SPS
ĠBourgain
Ġfictitious
ĠAlon
ĠLikelihood
Sy
ĠEXT
Ġfuel
Ġconcreteness
ĠdÎº
Ġlump
ĠxP
uman
1986
âª¯
âĮŁ
spectra
flows
iÎ³
ĠYamabe
Ġsubformula
Ġhints
ÏĢj
posability
Ġaspherical
solutions
Ġjammer
Ġpermissible
iso
Ġequilib
Ïµq
Ġâĥ¦
ĠConvolution
ĠRoth
Ġsupermartingale
ilipp
Ġattaining
Ġconcurrently
How
dÏĢ
lon
Ġtam
Ġpartners
Ġgranted
Ġsudden
Ġdilatation
Hol
Ġposit
irenberg
Ġkb
Ġminib
testing
|-
ĠNor
dimensions
Kq
Ġ(âī¥
Ġsits
Ġartifact
mc
Ġcirculation
ĠPlots
quantile
mg
Ġlanding
derivation
Coh
Ġcompete
Ġtraditionally
Ġbilliards
usivity
ĠDET
Ġpertin
ĠPerform
Ġcrowd
grand
Ġerg
Ġ240
Ġoctahedron
modes
Ġconfirming
ottky
Ġintensively
ĠÎ´F
iseux
ĠDetermine
filtered
Ġrh
Ġpseudoconvex
Ġatmosp
ĠmN
Î³x
training
robor
clusters
utz
ĠCarleman
Ġcompiler
ĠVec
Ġparameterizations
Ġlozen
Go
ĠLLL
ĠICA
Ġbegan
Ġadmission
Ġunify
ĠConsensus
ĠESS
Ġpushdown
ĠBRST
ĠXI
ĠOrlicz
estimate
ĠOdd
Bonnet
Ġ118
Ġbrick
Ġnw
ĠHeston
ĠÎ´f
Ġ}-
ĠÎ½i
Ġdisordered
Ġâİ©
ĠPÃ³lya
take
ĠcÎ»
Ġâİ§
Ġâİ¨
ĠAggreg
Ġsynthesize
ĠSher
SET
Ġgk
Ġconfounding
Ġburn
Ġ{}
âĢ°
Ġsynthesized
fibration
Ġcamp
Ġsech
Ġowners
ĠDNF
Ġmotive
Ġunders
Ġcaterp
hab
Mas
Ġsurviving
Vn
rett
Ġmesure
ĠCob
pers
ĠKleinian
Ġmatric
Ġunsafe
Ġplumbing
)]|
State
ĠIncreasing
ĠZq
independence
Ġclarified
Ġwedges
Ġsubsemigroup
âĨĶ
ĠLLR
ĠEmploy
Ġhin
ĠSAG
Ġ}(
Ġsuffit
ĠContext
SIM
ĠHawking
ĠDEFINI
ĠNotes
Ġsurrounded
âĪĵ
ĠLCP
Ġsqueezed
pb
lot
Ġ|<
ĠRein
Ġtexts
tein
ĠVt
ĠOwing
!.
Dou
Ġaband
ĠAnti
Ġtrem
Ġpublications
Main
ĠBQ
]ÃĹ[
Ġrendering
ĠUnique
ĠScientific
Ġanticanonical
Ġmultiplicatively
Ġnullspace
Ġcertify
SB
ulin
Ġupcoming
Ġlexicographical
Ġmotifs
ination
ito
ĠIW
marginal
Ġquadruples
Ġsans
ĠImageNet
Ġlooked
Ġmaintenant
Ġloxodromic
Ġpredecessors
Ġouts
ĠÎ³s
ĠArr
Ġexpressiveness
Map
ĠcÎ±
Ġpaq
ĠConnection
Ġvr
Ġïģ
Ġattackers
branch
Ġ(Â±)
Ġellipses
pleteness
ĠQMA
165
ĠAhlfors
Ġinterpretability
Ġmanifestly
primitive
ĠRoy
Ġcomplexe
estimator
ĠMagn
angements
Ġtackled
Ġ|>
ĠâĪĨ),
Ġavons
splines
ĠÎ£n
Ġsparsification
Form
Î¸n
Ġallocates
ife
Ġï¿½ï¿½
ĠBusemann
augment
Ġswarm
ĠÎ±a
ĠPanel
Jones
Ġdecodable
Ġassessing
selected
Ġquel
ĠrÎ±
Ġsuperlinear
ĠVariables
ĠNg
Ġneat
weighting
moves
Ġconve
Ġweaken
ĠJacobians
Ġfolklore
Ġâ§
Ġ113
Ġben
cies
ĠDim
ĠYES
ĠcÏĦ
ÃĹ{
filtration
lag
Ġsolen
subsets
Ġdecouple
Ġreduct
Ġ201
Ġreplicates
raded
Morse
ĠSIMULATION
ĠSchematic
.âĢ¢
ĠDan
those
Ġskipped
ĠÃ©tant
ĠÃĵ
Ġgraphe
Ġmissed
Ġsibling
OG
Ġauf
Ġpebbles
Each
Vari
ĠGinzburg
Ġthereafter
ĠrÃ©sultats
Ġstencil
tings
anonym
ĠMcC
Ġmimics
Ġwandering
Ġlands
170
Ġwebs
ĠAuslander
ĠSullivan
ĠÅĽ
Ġvacc
Ġentrance
ĠSoci
DES
success
three
ĠâĪŀ,âĪŀ
ĠÐ¾
Ġlacking
ĠSDR
ĠElementary
ĠâŁ²
ĠEll
Ġcops
Ġdegrades
Ġ1984
sd
aras
ĠKol
Î±j
important
argeting
Ġinsist
ĠSand
Ġpmq
Nets
ĠsSet
ĠRc
Ġtilt
Ġequivariantly
ATES
brand
ĠNystrÃ¶m
Ġlane
Ġanc
Ġ]+
Ġdestr
ĠnÎ²
ĠZhao
complement
Ġrac
permutation
below
VS
Ġobfusc
ĠJe
Ġouterplanar
ĠMAIN
ĠSpatial
ĠContribution
ĠRED
Ġgall
ÑĤÐ¾
Ġknock
Ġannihilates
Ġanteced
Ġuc
ĠGet
otope
(âĪĴâĪŀ,
ĠETH
Ġdescrip
Ġtriv
Ġcoinciding
covered
elve
hifts
ĠDijk
Ġvirus
ricks
Î²q
feasible
ĠmÎ±
ĠDyson
Ġassort
Approxim
163
theoretically
Ġnontrivially
enabled
Ġouvert
ĠNegative
rectif
ĠMeyer
elman
oulos
romagne
ĠsÃ©
Ġbuffers
Ġdeficit
Ġencourage
ĠEarth
ĠRNN
ĠÎ´s
ailure
ĠKnot
ĠÄĸ
Ġtradeoffs
Ġaccompanied
push
slow
Ġfamille
ĠOPE
orohod
iÎ·
ova
ĠÎ±v
ĠLeh
Ġ(:,
auzy
Ġrevisited
Ġdramatic
Ġmg
ĠTim
ĠnâĦĵ
IMENSION
correction
El
Î±p
Ġ(+,
Ġsrc
'),
Fisher
ĠSubmitted
ĠRichardson
ĠBrief
icht
Ġdiss
Î³q
ucial
ĠFrance
ĠVerma
Ġellipsoids
ĠVisual
Tri
Ġ04
Ġepisodes
Ġgrounded
ĠNeither
ĠSubtracting
Ġpreferential
Bin
minimum
Ġrejecting
eries
Ġtitle
ĠSig
Ġforeach
Ġsynchronizing
dire
arithmetic
Ġdoor
ĠERC
Ġsubstrate
Ġdoubles
999
Ġstepping
tangle
Ġunreliable
ĠÎ³r
ĠGenerating
ĠBlue
cof
Ġsz
tilting
Ġcentering
ĠWR
ĠUtil
ĠÎ¸T
Ġbisector
urewicz
176
Ġ135
Ġphrases
Ġcompromised
Ġmistakes
Ġcooperate
Î±Î³
Ġmyopic
ĠCalderÃ³n
Qs
|âĪĨ
ĠÎ±c
intuitive
ĠBloom
empl
Ġwrapped
;(
Ġ222
ĠShar
Ġnondegeneracy
ĠQue
Ġdecimal
ĠÎ±d
Ġimpression
richs
sometimes
Ġpushes
Problem
ĠDirected
Ae
ĠWeiss
athan
Strong
Ġsesquilinear
thaul
HEM
ĠTarget
ĠÎ»Ïģ
Ġpromote
?"
ĠFormulas
Ġbudgets
Fp
ĠâĪĪ(
ĠKuranishi
eles
ĠSPD
Ġurban
Ġdiagonalized
heavy
enb
Ġarose
Ġvital
ĠâĢ¢}
Ġproperness
described
Ġsubcomplexes
inberg
Ġld
ĠBry
ĠInves
Ġpreventing
ĠFerre
Ġlorsque
ĠPK
ĠÎ³u
Ġ134
Ġtro
ĠRabin
Ġze
ĠInterference
Galois
rp
ĠCj
ĠKAM
ĠÂ´|
PSK
MU
tivated
Ġvars
Ġlibraries
lp
Ġfixation
Ġregularisation
nick
ĠSx
Ġhomologically
ĠGeneralization
ĠInterval
Ġkinetics
tL
Sj
ĠCLE
Ġworm
Ġbeforehand
Ġholonomies
Ġclearer
otion
Ġpeculiar
Ġhr
Ġcontient
Ġzy
Ġillustrations
Ġmortality
Ġdispatch
EH
vv
ĠMK
Ġscript
Ġtissue
ĠSPDE
ĠPOD
ĠBÃ¶
ĠReceiver
Ġbord
ĠAustr
Ġexplor
bias
ibrations
yen
ĠÎ»g
ĠGod
symmetri
thern
kovich
tot
Ġpredator
destination
ĠkÎ´
signature
Ġtransported
Ġnaively
Ġ]))
Kr
ĠModified
Ġwalking
Ġhide
Ġqz
Ġcorank
ĠÎ´r
Ġcontrasts
ĠContrary
Maxwell
Ġtaxa
dles
ked
ĠÇ¦
ĠreprÃ©sentations
ĠUne
ĠInteger
]âĪĪ
Ġ+.
Ġdisjointness
Ġhosts
ĠthÃ©orie
ĠnC
EA
ODE
Ġfills
attr
ĠHOL
Ġcomplexified
completion
Ġbandwidths
ĠiâĦı
Ġlesser
ĠdI
Ġgoverns
js
Ġcorrobor
Ġ1982
ETRIC
ĠLOCAL
ĠPossible
âĭħ,
Ġot
Ġwides
Ġbadly
nÏµ
ĠSchottky
Ġbim
undamental
illiam
major
ĠÎ£t
ĠdÃ©monstration
ographs
Notice
Ġgalaxies
ĠTer
ĠSoft
imuth
Ġgolden
ĠARE
Ġ[âĢ¢
ĠEfficiency
ĠGPS
ĠFH
sent
ĠDNNs
Ïĥn
Ġconstellations
PW
Ġsubharmonic
ĠÃ©g
ĠCausal
ĠðĿľħ
ĠSeq
depend
Ġapert
Ġliveness
Ġsamplers
ĠConstrained
ĠSLO
Ġloaded
Ġrang
Ġtransfinite
Ġpmf
Ġ).(
definition
functors
ĠXP
Ġsuggestion
ĠOperations
Ġvectorial
ĠDur
ĠSimons
ĠIndependence
Conjecture
constraint
Ham
Ġinduit
pzq
Ġinterchanges
ĠcaractÃ©r
dZ
Ġree
ĠFrob
Ġpolymers
ĠMitt
Ġsecondly
obe
Ġdescriptive
(âĸ¡
Ġconsume
ĠDistributions
Ġpertinent
main
ĠFN
seq
Ġpurple
ĠMr
ĠAPPL
Dirichlet
ĠBab
iagonal
!,
Dg
Ġiw
Cher
andle
Ġparallelization
ĠðĿĲ½
ĠNewman
Arch
Ġcave
Ġmother
Ġqueuing
heim
lam
Ġrepulsion
Ġbg
ĠZt
Ġdens
silon
ket
orf
ĠMs
ĠResid
umar
ĠLabor
ĠINTER
ĠâĢ¢|
clustering
Ġ.]
ĠVCG
ĠzI
abÃ³
ocolim
ĠCamp
ĠBDD
amenable
ĠGree
Ġâĩĳ
ipp
}{
ĠâĪĨ;
ĠÅĮ
ĠImpact
Ġnonholonomic
)]]
ĠMultiplic
Ġcsc
162
Schur
ÐµÑĤ
Ġparadig
ĠcÎ´
Ġhab
ĠMari
ĠVP
IAL
ĠpÎ£
Ġconfidential
Ġassessed
Ġconfluence
ĠKamp
ĠÏģe
Ġthinning
ĠvÃ©rifi
DW
nÏĦ
Ġpth
Ġisn
ĠTN
Ġunlimited
Ġdiamonds
ĠEhrhart
ĠÎ²Î»
Ġwidespread
iced
ĠAssign
ĠÄł
ibli
homologous
ĠBw
))[
transformation
Ġsubgame
Ġadjoining
âĨĹ
Ġformalisms
Wolfe
ommer
ountably
Ġaccessing
ĠValid
Ġcoalescence
Ġtelescop
Ġequitable
Ġhealthy
Ġcake
ali
ĠDq
164
species
ĠSelberg
ĠKaw
Ġfinest
ĠUncertain
Aq
bp
ĠBuch
polytopes
nels
Ġdissemin
ĠIK
ĠVARI
before
ĠSturmian
ws
Ġcommercial
Ġgraf
Weak
ĠIntersection
ĠSatisf
ĠpÎ´
Ġregularizers
ĠËĨM
ĠGev
Ġfid
ademic
Ġbool
Ġinspecting
Ð½Ð¾
Ġplease
ĠTuraev
ĠconsÃ©qu
Ġsubpaths
âĨĴÂ±âĪŀ
ĠSUB
adjusted
quette
Ġsubgaussian
ĠSocial
ivable
Ġmeridians
Lear
Ġprey
Ġconstraining
ĠGeneric
bor
vt
Ġitiner
rell
]](
Ġstimulating
Sketch
Ġcloses
Other
ĠCun
ĠDER
Ġprint
/{
ffice
echt
dM
atment
175
ĠReynolds
signal
eight
ĠKobayashi
Ġmonths
ĠPon
Random
ĠprÃ©
representable
Ġstaying
ĠCyl
ĠHarmonic
Hard
ĠÎ±z
ĠÎ²u
Ġpseudometric
Qp
VC
idom
Ġdeforming
ĠHÃ¶rmander
Ïģt
ĠAma
Ġrns
Ġspends
Ġrestore
queue
ĠMargulis
pant
Ġresh
ĠÂµr
Ġpoli
effler
Ġbug
shirani
ĠSkorohod
Ġrealisations
Ġdepths
converted
ĠSelmer
ĠnD
lemma
Ġretracts
associated
ĠExploiting
relevant
addle
Ġintegro
tains
Ġswapped
Ġ!(
Ġ|âĪĩ(
Ġexhaust
Ġcancellations
Ġjunctions
ĠRefin
Ġincoherence
NAM
especially
Ġ{âĥĹ
ĠComponent
Ġaward
ĠxR
Ġtwelve
Ġkilling
irings
Ġhyperboloid
ĠWorld
Ġreds
ĠSage
Ġcomultiplication
ĠÎ¾t
descent
ticulation
Ġspring
ĠIto
Ġpjq
Ġhb
ĠÎ¾j
localized
ĠCertainly
Taylor
iÏĥ
het
ibshirani
Ġsummaries
Ġhiding
Ġcosimplicial
ĠCurves
LEMENT
ĠDown
Ġfaisce
Ġnegated
Ġoverestim
Ġ.=
ĠÏĨk
ressure
ĠGq
ĠprÃ©sent
ðĿĽ¿
Fre
anski
oon
ĠProve
169
ĠâĢł)
ĠStat
Ġâĸ³(
Ġbackgrounds
margin
Ġrecombination
rophic
bid
Ġ(âĬ¥
sique
ĠMCP
ĠGNS
ĠVirtual
subspace
ĠPeriodic
ĠArithme
ĠFeature
bps
Ġinhibit
ĠDun
ĠProx
Ġumbil
Cap
ĠFox
venues
ĠHÃ©non
ĠÎ»Ïĥ
Ġshorten
sink
ÏĢG
ÏĢf
Ġlemmata
ðĿĲ¼
ĠÎ²r
ĠmodÃ¨
Ġhalves
Ġintelligence
ĠKap
ĠtT
oticing
ĠirrÃ©ductible
versals
derivatives
ĠPotential
ĠHm
ĠLAR
union
Ġâĭĥ
incom
Ġlotter
Ġlaboratory
higher
ĠÎ»T
ĠdBm
ĠCompleteness
Ben
ĠSNRs
ĠËĩËĩËĩ
ĠACKNOWLEDGMENTS
ĠWireless
cov
Ġextracts
elements
Ġpipe
arden
Ġactively
ĠUpd
Higgs
PB
Ġ(âĩĴ
ĠÃ·
Ġ1983
Ġtraded
uz
ĠAlternating
ĠpCq
ĠWik
Ġexplicite
Ġpretty
cliques
Ġanalyst
Ġâĩ¤
ĠLen
Ġpermission
Ã©rn
Ġambiguities
ĠTwitter
iously
ĠaA
ĠHAR
Ġappendices
Ġquorum
LG
pD
grade
moving
]!
irnov
Ġprincipled
âĪĪ{âĪĴ
Ġsubdiagram
Borel
ĠYM
Ġtwodimensional
uster
ĠSkolem
RD
ĠQG
Landau
Ġhint
decoding
Ġrolling
Ġprivi
ĠRobert
Ġabnormal
crossings
adequate
significant
âĪĴâĮĬ
ĠÎ±y
Ġvisually
Ġfractals
Bal
|)|
ĠGy
ĠSpa
ULL
rease
ĠBd
ĠâŁ©]
ĠGANs
enter
Ġconjunctions
ĠPlanar
CQ
ĠBegin
simply
ios
ĠHU
ĠPetersen
Ġtrapezoidal
AU
tag
Ġ106
ĠStructures
Ġunicast
Ġpalindromic
Ġpresumably
VP
ĠDani
viii
ĠBratt
Ġcatast
fac
Ġach
Ġweather
ungen
Quantum
ĠnE
ĠCCF
ĠPrivate
riques
âĪ¥âĪŀ
Ġreplicate
ĠCentre
ĠTY
least
akr
ĠCVaR
Ġfronthaul
ullen
mona
(âĪĨ(
Ġsuperconduc
ĠGevrey
Ġ140
Ġsemistandard
231
Ġbot
ĠBitcoin
Ġys
Ã©rateur
ĠBm
hermitian
Ġlikelihoods
Sal
ĠCÎ·
ĠGover
ĠSufficient
Ġacquires
Ġbilateral
ĠâĪĥ(
ĠPuiseux
uated
Ġbutterfly
Ġ1960
supported
Ġinitiate
pÂµ
asive
Ġanarchy
ĠCalculating
Ġflattening
Ġrew
idis
Ġqe
ĠKD
ĠÏģx
Ġmemories
Ġhimself
Ġpractitioners
IPT
Ġcelle
ĠJK
TIONAL
Ġsummarised
ĠVeech
cope
often
Ġ130
ĠBran
Ġclever
ĠDES
Ġuna
Ġspecializes
Ġprototypical
ĠgH
ĠPID
Ġstemming
177
Flow
Lasso
Ġuf
Ġsubmit
Ġhen
Ġattacked
parent
Ġroof
Ġ|+âŁ©
ĠLan
)âĪ¥.
Ġpositional
CZ
ĠCer
ĠKantorovich
ĠALL
ĠLSH
ĠScheduling
Ġave
stell
allen
Ġbicategory
Ġseminorms
Ġencouragement
Gi
Ġuncountably
parameterized
multiplication
Ġprincipally
Ġbears
FH
John
ĠLevin
ĠBOUND
Ġfingerprint
Ġregeneration
member
Ġ.}.
ĠPx
ĠMit
restimate
Ġsubsheaf
Ġmeanings
Ġnoticeable
ĠEstimator
ĠStraightforward
Î²Î³
Ġcold
orders
Ġexciting
ĠHelly
................
Bir
003
fib
ĠdK
ĠLm
ĠErdÃ¶s
ĠÎ³m
ĠVariation
Ji
ĠÎ´h
ĠâĪĤ,
Î´u
DU
eme
ĠObtain
atrices
ĠÎ»h
being
Ġdistinguishability
locking
controllable
rated
ĠÎ»E
Ġrotates
ĠElliptic
Ġprecedence
ĠSISO
Ġfinitedimensional
vu
tik
ĠZG
ANN
Ġpermeability
omorphy
Ġconsumes
Ġ321
Ġpseudoin
ĠKampen
(.,
atonovich
wald
Ġpilots
ĠDob
Î»j
ĠACM
ĠJanuary
ĠMandel
iversity
pyq
Ġopened
Ġfalsif
Ġscratch
ĠrT
Ġwelldefined
ithful
ĠâĬ¤,
PU
Ġgc
Ġ|/|
arev
ickel
Ġaxisymmetric
Ġexplanatory
Zygmund
ĠðĿĳĤ
Ġprofitable
ilber
arthest
Ġ(>
Ġcensored
ĠCoverage
Ġsplic
ĠcaractÃ¨re
Ġok
earing
Ġinterpolates
Ġnucleus
Ġoriginate
ĠWronskian
riend
Ġsuffixes
ĠArt
ĠÎµk
Ġsaddles
Leffler
forced
Ġcrepant
ĠMinimization
Ġenormous
mentation
ĠâĪĤâĪĤ
Claim
Ġliquidity
Ġindefinitely
aign
|{
Ġinsure
ĠMarch
ĠYt
Ġ[âĥĹ
Yu
ĠâĪŀ[
Class
Ġadmin
Ġapartment
ĠDouglas
TIN
Ġposted
Ġmidpoints
attachary
tiori
erer
ĠÎ³e
decay
Ġliftings
ĠCurrently
Ġunexpl
Ġbivector
Ġuntr
cylinder
ĠpropriÃ©tÃ©
Ġunderestim
gauge
sers
Conf
seg
within
Ġcommensurable
XP
Ġsubdividing
FLY
IGHT
issner
ĠSynthetic
ifference
ĠQq
Ġpassivity
directional
Ġought
ppler
Ġassist
Ġguiding
ivergence
ĠMotzkin
Ġpolymorphism
ĠCombine
JK
ĠtÎ»
Ġazimuth
ĠOPTIMAL
heimer
174
ĠdÏĩ
ĠâĬĹ,
ðĿĳī
circuit
DMA
ĠKH
Ġrepro
Ġsubsample
Ġtransducers
Ġpedest
gaussian
nb
ĠAinsi
Ġtriad
heng
Ġlandmarks
Ġreq
exchange
ĠArthur
ĠâĢ¢,âĢ¢
ĠpÎ½
Ã¤t
Ġsubrepresentation
Ġalternation
ĠMittag
ĠiS
itated
ĠAZ
ĠSchatten
Ġsemilattice
loyd
Ġcryptos
IES
ĠYn
branching
Ġadvertising
GV
repe
umm
ĠKon
ĠPTAS
Ġindistinguishability
Ġverifiable
ĠâĦĵp
ĠStream
lies
Ġtrains
Ġtrader
Ġwid
posterior
Ġtrellis
Ã´le
().
Ġvm
ĠÎ¸x
ĠKPZ
stro
ĠÎ±Ïģ
structible
Ġdegrade
Pear
Ġinvisible
ĠExactly
ĠKÃ¼n
Ġleverages
Ġentered
Ġcoreset
conservative
mechan
Ġhq
ined
Ġprerequ
leson
Ġsubtracted
Ġeye
ifi
ĠÎ´S
ĠUnderstanding
Ġcircularly
ĠPoincare
Ġfortiori
ĠÎ±L
Ġadvisor
riffith
BFGS
Ġgenealog
OUS
aro
rik
Ġ}:
Ġcommutant
ĠHg
ĠJoh
1985
Ġâ«
Ġlq
Ġqv
161
Ġfailing
electron
ĠFIFO
Ġ360
Ġphrased
Rm
ĠHong
Ġsocle
PRE
ĠLSTM
JR
Ġ213
Ġasynchron
ĠAxioms
ĠTukey
Ġlh
Ġwaste
Cho
charging
Ġsyzygy
ĠMov
ĠËĨr
Asymptotic
ĠnÃ©
acun
ĠKom
onese
Âµs
ĠDiffusion
ĠAK
Ġ3000
ĠIdentify
stopping
Cost
ĠWyner
Ġdescents
ĠShape
ĠTDMA
Ġsusceptibility
Ġgranularity
Ct
Ġcul
among
actus
ĠQL
thread
Ġmanager
approximated
ĠpolynÃ´
attered
ĠÎ´e
ilde
Cartier
resolved
Ġling
Ġsuppression
ebted
Ġchapters
ipf
ĠrÃ©g
|âŁ¨
Ġisospectral
asks
ĠCommunications
ĠWest
(âĪĴâĪĨ
Ġ)'
flux
ĠMcM
Ġwc
ĠKs
absolute
Ġcoisotropic
renormal
Ġwavegu
Ġnegatives
disper
Ġlagr
slice
xm
ĠCanada
different
turn
Ġmonogamy
ĠÎ²e
congru
ĠDirection
Ġ",
ubes
icontinuity
Ġ{âĪŀ}.
Ġhedge
ĠQB
Ġbreather
rotter
ĠpÏķ
Ġud
ĠLayer
ĠAlgebras
ĠHMC
Ġregulatory
ymplectic
relay
ĠIdentification
Ġdust
Ġindebted
Bt
will
Ġbend
ĠNoticing
ĠBlow
ĠÎ³P
Ġtechnicalities
legal
Ġhorseshoe
ĠGon
ĠÎ±P
Ġscatterers
ĠPOLY
applied
Ġescaping
pV
Ġtl
Ġnest
ĠWar
ĠHq
ĠÎ»P
Ġagre
Ġreflective
|â©½
ĠiÏĪ
ĠâĪ¼,
Ġapproximants
Ġteaching
Ġsun
Ġsold
Ġ||.
Ġdegeneracies
Ġdwell
Ġseas
Ġdurations
ANTUM
ĠAld
ĠADE
Ġlaid
ĠInvoking
iÎ½
Ġisos
ĠBord
hot
Ġcorrid
ĠALGEB
====
Pet
zn
rend
ĠChi
Ġmutant
ushin
ĠDetermining
ĠrN
ĠÎ³I
ĠKnowing
[âĪĤ
fn
Ġtransposed
bounding
ukov
Ġunlabelled
ĠÎ³Ïĥ
Ġapproximable
Ġáºİ
ĠMIT
ĠÏĢÎ±
Ġ)})
contact
HJ
ĠDig
ppq
Ġali
ĠWhittle
Ġdeclaring
dÏĪ
Ġequating
Ġadmet
Ġ)(âĪĤ
Ġá¸Ĭ
urance
ĠGordon
Ġpathway
rys
ĠReduced
cq
iance
ĠSEP
Ġbicl
ĠEntanglement
SK
Ġbanded
USUM
Ġsubtyping
Ġmonomorphisms
ĠSimultane
Ġ<:
Ġexchangeability
Ġdescriptor
Ġassemble
Ġ109
)#
ĠFuj
Ġinformations
Ġsided
isp
Ġfunctionally
abelle
xa
tele
ĠsystÃ¨me
ĠNFA
Ġnowadays
ORM
ĠRVs
Ġinseparable
Inf
Ġorigins
Ġplanarity
ĠEngel
Ġflops
ĠCPTP
MRI
Ġtrapezoid
ĠREMAR
ĠBratteli
Ġinp
ariness
Ġ05
ĠXN
Ġholim
Ġbloss
oftware
Ġminimisation
Den
coch
ĠÃģ
Ġmetabol
Ġprescribe
Bra
PZ
ĠVS
sidered
ĠReason
identifi
ĠFeder
ĠCole
ĠSupposons
Ġcubics
ĠCharacteristic
Ġgovernment
Ġdisposal
Ġregularize
ĠCasson
ĠEmploying
stepping
packet
ĠÎ³Î³
ĠLemmata
ĠNaive
cove
Ġmisleading
Ġelevation
Ġah
Ġolder
ĠConj
Ġproportionally
Ġcosmology
Ġunambiguously
Ġassociations
aito
comodule
ĠAdversarial
suited
ï¸ĥ
Ġrephrase
ĠTanner
Ġbigraded
ĠCast
iscid
ĠTechnically
oor
ĠÏĢj
Ġsemantically
localization
ĠRobustness
Ġminimising
afety
ERA
Ws
Ġtrie
Ġoutperformed
Ġvoisin
Ġ*-
Ġdiscretely
Ġ{âĪŀ},
tou
xe
Ġice
Ġshot
ischer
ĠAnalytic
Ġmediator
Ġgauged
Ġmillions
Ġisland
ĠWH
Ġklt
ĠMotion
DÏķ
Ġcancelled
ĠSociety
Ġeligible
Ġcanceled
aulty
Ġprobabilistically
Ġinapp
ĠAgents
aracteristic
Ġpinned
Ġnonsymmetric
Ġmotor
ĠConject
ĠSOLU
bracket
ðĿĲ¹
dynamical
Ġwise
Ġuplo
Î»z
Ġwarping
zin
ĠFLO
ĠGalile
Ġdislocation
Î¸t
ĠClaims
Ġschematically
ecks
Ġclo
ĠðĿĳľ
ĠBerkovich
ND
ĠðĿĳį
Ġexpanders
ĠSink
ĠFROM
ĠOcc
))âŁ©
ĠJT
Ġinvestors
Ġacknowledged
,âĬ¥
ĠFourth
ĠLX
ĠOE
Ġnonstationary
Ġeccentricity
ĠtH
ocations
Ġtranscript
ĠCHAN
ĠSant
ĠÎ´y
Ġelle
valence
ĠStabil
TICAL
ĠConditioned
ĠPolynomials
Ġpadding
around
âĮľ
Ġeavesdroppers
ĠdonnÃ©
ĠGale
Ġtruncations
Ġtremend
Ġos
Ð¾Ð²
Î±m
Ġconnexe
payoff
ĠWord
Archimedean
bimodules
ĠBond
ĠNoisy
Ġregressions
Uniform
rectifiable
XIM
ĠGin
Ġadic
idelines
Ġshuffling
ocate
angling
eigens
Ġappending
IZED
ĠMAS
Ġroutines
ĠBowen
oÃ¹
ĠCette
Ġdecryption
lift
ĠQI
Ġspecializing
Ġmulticlass
Ġdephasing
Ġequiv
ĠÎ´Ïģ
Lagrangian
Ġcentroids
Ġimputation
Ġ,âĥĹ
Ġfactorize
Ġmultiplies
Ġ(\
ifiers
ĠËĺ,
ĠGraduate
ĠPry
ĠdÃ©pend
ĠâĮĭ+
ĠSeparation
ĠWillmore
ĠPay
Ġinterferers
keeping
Ġintroductory
Kir
ĠPAT
Ġastro
VARI
ordell
enses
ila
Ġsuboptimality
ĠJP
equivalences
ĠDÏĪ
ĠQj
undy
Ġrecurrences
sufficiently
ĠYe
ĠRees
ramm
similarly
blocking
ĠFo
Ġacute
quasicon
ĠCÂµ
ĠBach
Ġsearched
Ġrecap
Ġpolymatroid
Ġdroplet
Ġcondensate
)âĪĪ[
Ġanticom
Ġairc
ĠTp
ĠDs
ĠÏĢs
ĠYork
Ġenerge
LI
Point
illes
ĠMechanics
ĠErrors
Ġpercentile
uum
ĠâĮĭ)
Ġmedial
ĠKnowledge
Ġinfrared
ĠEPSRC
Ġrests
Greedy
ðĿĳĮ
ĠâĩĦ
tilinear
ativeness
Ġtransit
Ġgeneralisations
Ġfv
ĠnI
sheaf
ĠmÃ©trique
ĠKeller
Ġorbitals
ĠMSR
ĠFrequency
exclusion
Ġwrit
Ġdeemed
Â¯
Ġphantom
Ġglues
exponentially
ej
Ġproto
Ġclosedness
insker
ĠÃĥi
concavity
Yi
Ġcable
1984
Ġshadows
clength
Ġbasins
Ġnullity
011
ku
Ġcheckerboard
ÃĿÃĿ
Ġrim
Ġoverly
Ġtoral
ĠSUM
Ġsessions
collision
hell
Ġsubshifts
ĠMultiplication
Ġaxiomatization
ĠAY
ĠBMS
ĠDifference
Ay
ĠOx
Ġcountry
ĠtÏĥ
Ġtargeting
ieu
Ġcentres
ĠËĨD
ĠDoppler
Ġpigeonhole
acency
Ġaltitude
ĠContro
ĠEli
Ġunseen
Ġnonexpansive
ĠAutomata
ĠpJ
Ġ)âŁ©.
Ġrobotics
iment
!!
Ġpaying
Ġquart
Ġimpair
porting
ÑĢÐµ
bank
file
Ġdud
ĠPere
ĠÎ´a
Ġrogue
Ġspecializations
Ġalternately
extendible
ĠAO
Ġabelianization
stationarity
ĠRecursive
ĠÎ´H
Ġmaximin
Green
ferm
ĠStern
cean
ðĿĲ¸
Ġincentiv
Gq
mx
Ġ231
Ã¨ve
Ġborrowed
Had
Ġantif
ĠâĪħ),
ĠStudies
Ġpositioned
Ġwz
ĠRRT
odules
emple
chev
arently
pile
Ġdually
Ġmethodologies
puq
interpretation
Petersson
dT
Ġdash
Ġreferen
ĠtB
ĠTemper
Ġbead
ĠWt
Ġ-,
olevo
wick
Ġexiting
Ġabandon
Ġbang
Ġlip
ĠKy
ĠJoin
perturbation
Nirenberg
ĠÎ²c
ĠMeasures
Ã£o
General
ultimate
ĠRg
Ġapprox
ĠCompres
ĠTurÃ¡n
're
ĠÎ½t
Ġirrep
ĠMapReduce
ĠStructural
Ġvoltages
ĠMinistry
receiver
ivisible
uskal
Ġchamp
Nn
tangent
Ġfood
Ġ116
ĠSZ
ĠXm
Ġunrooted
ĠCorollaire
Ġcompetitor
FIG
Hor
still
Ġstal
ĠÎ¸q
ĠABA
Ġlearnable
jp
Fourier
ĠBri
ĠÏĥq
vous
Ġ114
âĮĭâĪĴ
ĠSequences
Minkowski
ĠÎ¸m
Ġbasepoints
ĠËĺ.
ĠMinimizing
ĠÎ»B
Ġlieu
ðĿľĻ
ĠHOMFLY
Legend
soft
Ġwomen
ynchronization
GHZ
odyne
âĮī)
Ġ)+(
derived
ĠBere
ĠPlay
sinh
ĠÎ³v
Ġnetworking
Ġinterestingly
pkq
Ġplato
Ġchois
cluded
Ġbacksc
ĠMaass
ĠTriangle
Ġhind
ĠASE
ĠÏģk
Richardson
Ġhocolim
ĠMg
Ġdeserves
ĠTight
ĠMÃ¼ller
ðĿĲ»
Tits
Ġcolle
jectories
Ġchemistry
ĠFBS
ĠÎ±Ïĥ
ĠpropriÃ©tÃ©s
Ġcontingency
ĠnÎ¸
Ġtoolbox
ĠÅ©n
ĠEffective
ĠTt
ĠGARCH
Ġelementwise
Ġencouraging
same
400
Ġmanual
FTs
ĠSf
Ġcofiber
={
ĠHk
signe
ĠpÎ»q
Nord
Tucker
ationally
ĠXV
Ġâī¤|
178
Ġfarthest
Ġprone
DÏĨ
ĠÎ±f
ĠYau
Ġcutset
ĠPosterior
tative
Ã«
Add
ĠPSNR
Stud
Ġ802
Ġpenet
Ġdiseases
Ġsymplectically
ĠComposing
thresholding
bodies
Ġweld
ĠHierarchical
(âĪ§
nan
Ġhospital
Ġhinges
ĠJiang
Cox
ĠÎ»w
Ġsubstructures
Ġgratitude
Ġplants
ĠHey
finitely
Ġabbreviations
ĠAmazon
ĠTOP
Ġanim
ĠChang
lectivity
Ġtransferring
Ġbiconnected
Ġicos
edia
Ġ312
ĠâŁ¨âĢ¢âŁ©
RN
ÑĢÐ¸
potentially
Brownian
ĠPoll
ĠxN
monotonicity
ĠArithmetic
Key
dot
Î±k
Ġcompliance
inally
ĠmÃ©
ĠmâĦĵ
ĠHG
ĠQo
ĠHull
Ġdifferentiated
ĠSymplectic
ĠMPI
ĠSensitivity
Ġamoeb
Edge
IO
[âĢ¢]
ĠCg
ĠSimply
ORT
circles
Ġunused
ĠIIA
interaction
Ġprogressive
Williams
brot
dR
Ġ)](
ĠOct
Ġgrasp
Ġstepsizes
choice
Ġsalient
ĠPascal
riel
roux
ĠJo
ĠPSfrag
ĠFacebook
RIP
Ġcela
Lur
focus
Ġmand
boundedness
Ġmovies
gler
ĠÎ´Îµ
ĠÂ´,
ĠMSTs
Ġintelligent
Manin
Ġsubwords
Ġfilm
ĠTransmit
sembling
Ġelectrostatic
Ġhundred
âĪĴ{
Ġutilisant
Ġsuccession
ĠContraction
Ġcourbe
alytic
ĠSPA
ĠÅ·i
Ġpleth
Ġaperture
Gre
Ġcow
compactness
coupling
ichi
Ġoutstanding
ĠconsidÃ©r
ĠIsabelle
Ġmanipulating
Ġanchors
Ġtos
allis
Ġbright
Ġbuying
ĠGeneralizing
dissip
ĠcT
orous
ĠDually
ĠISO
ĠDISTRI
Ġcurious
Ġinstantaneously
reflection
reasonable
ĠArticle
ICE
asymptotically
Ġbeads
ĠRauzy
ĠMON
ilinson
ĠOffice
Î±r
Ġresorting
strings
Ġadequately
ĠHalf
pGq
Ġ/*
ĠQuestions
Ġcofin
Ïĥq
187
instant
ĠÎ¼k
ĠKA
ĠÎ´L
helah
pSq
)âĨĴ(
Ġcohe
ĠSymbol
Ġguessed
Ġthreat
ĠAward
ĠWind
Ã©li
Ġsquaring
Ġ115
imm
ĠmaniÃ¨re
Ġannealed
Ġ|âī¥
ĠXr
ĠRelativity
ĠKÃ¼nneth
kÏĦ
ĠiB
Ġindegree
Ġclassifications
Î»p
particles
inched
DoF
alev
ĠMiddle
BIC
Ġsequents
ĠBerge
interpreted
nÎµ
orphisms
braid
}/
unknown
Ġcanonique
SIR
Ġrepetitive
Ġhelic
Ġ(âĩĲ
ston
ĠDeletion
YT
placement
ĠSpectrum
Ġanchored
ĠGROUPS
enthal
Although
Ġqualification
Ġillumination
Hel
ĠKq
Ġeigendecomposition
Ġea
Ġcheaper
Ġcollateral
ĠMahler
Ġpuisque
ĠOPF
Ġpreparing
ĠSYSTEMS
Ġinevitable
produ
ĠdÎ¼
ussen
diffeomorphism
ĠConformal
ĠBOUN
Ġstandpoint
isch
ĠâĨĴ,
gner
Ġdisagree
Ġsupplemented
Ġturbulent
Ġrecru
1982
ĠExpres
Ġemphasise
Ġja
Ġjac
Ġparameterizing
Ġbind
ĠDri
Ġconstante
ĠPROPER
nis
adically
ĠÎ»d
explo
ĠDGA
ĠServer
Ġsociety
Ġtolerate
ĠÎ¾q
Ġdetour
Ã§on
Ġsupposer
âĪĩ(
modal
Ġsitting
ĠDMT
Ġcompartment
Ġlocalement
ĠSmale
ORD
covers
iation
md
Ġâĳ
ĠdÎĽ
234
ĠMatÃ©rn
ĠMeasurement
ĠGermany
ĠÐ½
ĠNormalized
Da
ĠElectron
ĠHomotopy
imodular
Ġdistortions
yproof
Ġunderline
mu
yb
imodal
lightly
Ġstimulus
kowski
Wei
Ġjkl
sense
ĠCramer
ĠâĪĴ}
Ġlearnt
Ã¨ne
obally
tening
Ġinviscid
Ġhoneycomb
Ġtand
ĠIgn
abet
elons
forest
Ġbandlimited
Ġdegenerated
quotients
ĠMou
ĠOsc
ĠPropagation
Ġlth
Ġaggregating
illiard
resil
Ġ,...
Ġ{âĢ¢,
Ġbootstrapping
lt
geometry
ĠInterest
Ġcommunicates
Ġstalk
Ġ1978
lan
|;
Ġcoaction
Ġsubsumes
spanner
ĠPolar
ĠReferring
inclusion
Ïģn
Ġ117
rogram
ĠRr
auber
ĠConfiguration
Ġsupermodular
Ġimmune
Ġramp
ĠÃ´
Ġsemicircle
ĠBeck
ĠInver
Ġinstantons
Ġpsy
ng
Ġpolyomino
involution
odec
mapping
Ġflood
roids
dj
cession
Ġlocale
Ġguidelines
Ġhighlighting
ĠHurst
ĠÎ±N
ĠÎ»A
Ġrenormalizable
ĠRHP
starting
ĠCurve
Ġraref
Ġaircraft
Tu
avis
Ġsomme
Ã©quation
sten
ĠObs
Ġdisintegration
Ġsubterm
Ġcorrelator
ĠÂ±âĪŀ.
Ñħ
ectif
ĠSSC
Gra
LZ
Ġvh
ĠSteen
ĠMonotone
Ġcad
ĠTang
ĠSSS
Mer
ĠÎ´Î»
illance
ĠâŁ¨âŁ©
aci
ĠWZ
ĠÎ³g
ĠÏĢp
Ġcrack
ĠAmb
hamel
Ġlept
Ġtwenty
Ġreply
ĠSeidel
Ġhyperbola
Ġ/[
Ġscientists
Ġdielectric
Ġuncolored
ĠQuot
ĠParity
ahori
Ġshells
cet
itability
Ġcameras
Bor
Ġ<)
oval
Ġpebb
Wiener
tc
Ġmultipath
Ġsupervision
roni
OW
Valu
ĠÏĥp
Ġ107
Proj
Ġvacua
ĠQUANTUM
Ġindiscernible
mul
ĠâĪĨ|
Ġgradual
Ġformalizes
Ġorganize
ĠMorgan
ĠMacaulay
Ġsaturates
adow
graphe
Ġemphasizes
ĠÐº
Ġemergent
ĠâĪĨâĪĴ
1234
âĬĸ
ĠARMA
ĠLambert
Ã¥
init
ĠSIG
ĠProg
âĪ¥âĪĨ
Ġtexture
Ġsubstack
Zhu
Ġfutures
ĠÎ²v
Ġadm
iT
ĠMordell
ĠÃ¨
ĠMatch
Ġrewrites
Ġinterleaved
Ġabscissa
Ġrouted
plicator
Hn
heast
ĠCyclic
Ġfee
ĠdÃ©signe
Ġ)âĨĴ
Ġ:)
ĠÎ»Î´
Ġlocalised
ĠABCD
arwal
Ġstellar
Ġdiscretizing
ĠRelay
Ġdecorations
ĠGovern
Dx
ĠIp
hidden
Ġimagin
ĠSNPs
ĠRuelle
Sw
Ġuy
ĠÎ¸s
COMP
Ġanticipate
Ev
bisim
may
geodesics
PTER
ĠÂµI
suitable
Ġtemporally
ĠHirsch
ĠOption
Ġnormalizes
Ġ||âĪĤ
ĠShift
paired
ĠFm
chord
ungs
Ġunsolved
Ġsubobject
ĠÏĢe
ĠService
Cover
ĠiJ
ĠiP
Ġinfinitary
Ġá»¹i
Ġry
)âĪ¥,
Ġrenormalisation
ĠCalculation
IX
Good
coded
ĠInit
Ġheaps
Ã¨de
ALA
ðĿĲº
Combining
nÎ»
Ġwm
simpl
Ġceiling
ĠâĪŀ:
Ġterme
ĠÃ»i
Ġappended
004
Ġgauche
Ã¯ss
Ġgv
ansky
ĠÄº
Ġ127
Ġtraits
ĠComputations
ĠIsomorphism
bf
Ġ{âĪĩ
Ġhelicity
Ġfootnote
Ġadelic
Î½t
ĠLIM
ĠÎ´N
Ġgalaxy
Group
cot
gre
rea
Ġye
ĠUD
NB
Ġrepository
ĠNH
Ġemptiness
Ġintertwines
Ġsandwich
ĠMMP
paq
NEL
families
ĠUm
Ġcatch
ĠTann
Ġ))),
zyk
Ġchromos
ĠCuntz
jt
atching
ĠKw
Ġarclength
ĠMTL
ĠâĪ©(
smoothness
Ġcascading
Cartesian
Loc
dit
Ġ.},
ĠPseud
oka
shrink
ĠEstimated
absor
KA
Ġ)#
Ġyu
Ġabrupt
aked
Ġscroll
Ġenumerates
Ġignor
enriched
ĠDatasets
omics
uty
=Â±
ĠâŁ©).
ĠĊ
ricing
ĠÎ¶n
Prob
ĠThirdly
ĠÎ²Î´
ĠâĪĩ.
ĠRician
=âĮĬ
uled
tX
ĠLr
ĠUniverse
Ġ)\{
isin
ĠTher
oliubov
Ġsuperconformal
Ġ1979
piq
Ġdeliber
Ġenlarging
ĠiN
Ġresembl
ĠSep
Ġxb
ĠOG
Ze
ponse
Ġresides
Sl
tec
chine
Ġlinearizable
Ġpenultimate
deformed
nÏĢ
Ġgross
andt
âĢ¢âĢ¢âĢ¢âĢ¢
Ġmonopoles
ĠSob
ĠEin
Ġsupposing
ride
opl
Ġfeder
ĠÅ«i
Ġplaquette
ĠXeon
sanov
ĠpÎº
ĠCand
1981
singularity
Ġcocompactly
hp
Ġrelators
Ġefficiencies
ervation
Ġspor
enberger
celes
Data
Ġ>.
Ġconfinement
Ġprohibitively
Ġfunc
parametrized
Sel
ĠâĪ¡
ĠCÏĥ
âŁ©;
alagrand
ĠPrimary
ĠLight
ðĿĳľ
Ġdiscriminate
Ġdiscrepancies
qqqqqqqq
Ġecho
ĠÃĴ
emporary
fort
ĠClassif
ahm
ĠMirror
agi
Ġstochasticity
ĠEarly
,âī¤
coupled
ðĿĳĦ
ĠArc
consuming
ĠRZ
ÏĢR
venth
ĠRegularization
ĠNeighbor
Ġsomm
Ġvoir
Î»u
184
ĠIndividual
Ġsituated
ĠDuhamel
guyen
Ġcet
pov
Ġconcordant
Ġpseudoholomorphic
periodicity
Ġthickened
Ġcurrency
Ġrelativ
ĠTechniques
Ġexhaustion
Ġhomothetic
svÃ¡th
After
compute
onian
Ġbial
asy
opal
ĠPoA
Ġ??).
Ġwired
Ġonset
Ġ{+
Ġparac
than
ĠÏµt
commutativity
romagnetism
toric
ĠDGP
bers
Ġimplique
Ġimpulsive
ĠAveraging
rj
Ġfd
CCs
Ġtracial
Ġfond
Ġ211
Ġâī¦
ukawa
250
Ġsubtlety
ĠSkew
Ġexternally
ropriate
(#
ĠFlag
gun
|âĥĹ
ĠWilliam
ĠInside
ĠVA
Îµq
Ġtextbooks
ĠDas
ĠÎ³Î»
ĠÃĥn
ĠAdditive
Don
wart
ĠdD
specifically
Ġincompatibility
Ġqy
ĠAsymptotics
Ġpseudoinverse
burn
ĠQk
Ġphas
Ġjustifying
ĠLSE
Ġtriggers
ĠCONTRO
riffiths
utch
ĠDSS
Ġdiscriminants
journ
Ġinefficiency
ĠGQ
ĠFactorization
Ġ<âĢ¢âĢ¢âĢ¢<
Ġsubquotient
identally
ĠReducing
Ġlv
ĠCDS
ĠHIV
Ġtensorial
Ġ(;
Ġgases
Ġâī¿
Ġminimise
ĠCarl
ĠfibrÃ©
Ġtricky
Ġmimicking
Ġcaterpillar
Ġstressed
ĠÏĢR
DED
Ġintertwiner
ĠPrym
Jn
isec
ĠâĪĤ[
emptive
ICS
Ġtolerant
ĠWaldhausen
Ġmanageable
bj
ĠDeuts
ĠSPEC
redundant
converges
dY
kas
nested
eser
Ġexisted
esten
ĠBCD
Ġrouter
ĠÅµi
genus
graining
Ġelapsed
ĠÎ¼t
Ġenumerable
ĠSit
Ġdictates
LDPC
language
internal
ĠMj
ĠKat
Ġcollector
ĠpremiÃ¨re
ĠcaractÃ©ris
ĠÎ»Î²
EMENTS
trop
ĠDependence
ĠÏĥs
xyz
contextual
Ġamenability
Ġfacte
Ġwaits
Hir
Ġbab
ims
Ġprobl
Ġkinematics
ĠAbsolute
ĠGreek
ĠÃ¥
Ġmaximizers
factorization
Ġimprecise
=[
Ġ(âĬķ
Ġffi
Ġpresently
ĠassociÃ©
Ġsyntactically
linking
Ġaccompanying
Ġgarb
elÃ¶f
ĠÎ½Âµ
Ġvalley
Ġamalgamated
ĠSato
ĠNeyman
Ġsaved
ĠBehavior
uced
ĠEduc
ĠDub
ĠâĨķ
wright
Ġdressing
undle
Ġalcove
Ġtorque
Lp
gaining
ĠqÎ±
ĠDATA
Ġ(?),
sort
ĠDOF
Ġtrivializations
GLD
generation
Ġmicrostructure
Martin
ĠBhattachary
Kar
)|/
burger
ĠÎ±ÏĦ
Connes
Ġabundant
ĠSatake
aud
ĠBoll
ĠGt
ĠÎ±g
Ġsucceeded
iÃ¨me
assigned
ifting
caling
ĠdÃ©termin
ĠRegge
ĠBCH
ĠTemperley
LÃ¶f
ĠAa
Cx
zo
agement
istributive
Bes
ĠÎ²T
ĠSimpson
ĠSubspace
ĠSolid
ĠnM
ÏĢN
Ġ1981
Ġperfectoid
Ġplausibility
Ġdividend
Ġtopp
ĠLions
RES
iÏĨ
Ġwf
ria
ĠEast
Ġleveraged
existing
measures
Cauchy
ĠBus
ĠBST
ĠâĢ¢.
broken
CFT
Ġarbitrariness
ĠÅ©i
Asc
IAN
ĠCAD
ĠWW
Nak
ĠÄ°
ĠStationary
Ġdoubt
ĠSQL
ĠHolevo
Ġcoarsest
ISE
fidelity
ĠGuarante
ĠÏĦj
itzer
Ġexamines
Ġcampaign
Ġ]}.
ĠGuo
(+
ĠPes
ĠNG
Ġ#,
Ġikx
ĠPhysically
Wu
Ã¯ssÃ©
Ġclones
ĠObjective
physics
ĠTarski
Both
nÎ¸
ĠÎµÎ´
Ġcontagion
UD
Ġtoutes
ĠStratonovich
ĠApprox
iÎµ
ĠHash
URES
ĠFreed
ĠROM
orean
ĠVeronese
ĠTransl
Ġactuators
HV
perhaps
Ġunderlies
221
Ġartificially
Ġpain
ffer
lÃ©ment
ĠSort
ensable
Ġcoupon
ĠManin
ĠTASEP
Ġcontingent
Ġions
ĠKohn
Ġcompilation
nelle
ĠCNNs
prog
Ġá¹«
Ġuniformizer
IK
Ġlocating
ĠËĨX
ĠËļ-
seed
ĠKj
ognition
conditions
ÃŃa
Fil
year
ĠSouth
assified
gf
Ġsensi
Ġindeterminacy
Kat
onorm
00000
ĠDiam
ĠKruskal
iforn
ĠOVER
ĠConcept
Ġá¿
Ġsuperimposed
LTL
chromatic
âŁ©âĪ¥
Ġscatterer
isub
ĠSBP
ĠFIR
ĠDix
Î»Âµ
Ġapproximant
Ġpreceded
ĠSubstitution
ĠInterpretation
PUT
faulty
ulk
Ġloadings
Ġtelescoping
Ġcities
ĠExchange
Ġrz
Ġalluded
Ġbetweenness
Lt
ĠxA
Ġrefutation
ĠKah
âĦĵn
Ġextendable
structs
Ġtrimmed
finding
ĠÎ´V
201
Ġdesingularization
Ġsubmonoid
Ã©trie
Ġequidimensional
Her
ĠVN
Ġacted
ĠCRN
ircuit
Mah
ĠtP
ĠnK
Ġ,+
ĠReedy
ĠSak
ĠBÏģ
ĠsP
ĠhG
Ġâī¤(
Ġnonexistence
ĠRom
ĠâĢ¢;
Ġheading
ĠLamÃ©
utility
enk
Ġimit
Ġminers
Ġsequencing
Ġintegrally
ĠSimulated
Ġextensional
Ġmission
Ġinvokes
Ġinstantiate
Ġfra
Ġcolourings
,<
ĠLed
ĠjÏĥ
Ġderandom
oho
Ġdestroyed
PRO
}âĪª
Ġtrilinear
Ġham
ĠMNO
okh
Ġinevitably
Ġcrowdsourcing
ĠKV
ĠÎ²N
Ġindivisible
ĠSup
Ġeigenpairs
Ġinstitutions
Ġminibatch
Ġmultifractal
Sets
ĠâĬļ
Ġsenders
possible
Ġdefe
ĠDCT
Ġencloses
ĠConvexity
Hoeffding
172
Rev
Shi
ifornia
zj
ĠSyn
tÃ©
atoms
Ġexpose
171
olecular
atable
Ġ119
ĠFern
tinue
ĠAutomatic
rectangle
CNN
Ġlots
ĠLex
Ġpositioning
Ġcanceling
ĠMaximization
Ġjets
Ġabstractly
ĠAMS
ĠNx
cled
179
ÃĹ|
lifer
Ġregressor
ĠdÃ©montre
Kol
mZ
rying
Ġ145
Ġprogresses
achieving
ede
ĠLift
Ġexerc
Îµx
1983
ĠSOL
Ġeconometric
Ġocton
Ġcactus
Ġforall
ermark
agier
Ġvalidates
Ġcohomologies
eano
ĠalgÃ©brique
ĠDijkstra
JM
Ġtant
Ġexpp
ĠQMC
ĠÎ´Î³
Ġvertexes
rous
ĠESP
formations
ĠWiFi
ĠCovering
Nielsen
PHS
Ġjournal
subgraph
ĠHaus
ĠÎµu
hess
Ġrestored
Ġaggressive
ĠLanguage
Ã¸l
ĠkÎ»
Ġretail
Ġauthority
ĠBool
ĠâŁ¨âĥĹ
Ġsegreg
Ġbalances
Ġinvasion
ĠKnuth
Ġunfolded
Kal
ĠMSP
ĠYosh
Ġminimiser
ĠInner
DEN
goal
ĠAndrews
,âĪħ
rema
Ġ09
ĠÏģp
Seidel
ĠÎ±T
Ġuncon
Ġmonetary
virtual
Î¸q
Ġcontinuations
Î½n
ĠScale
autre
Ġfibrewise
tensors
cocycles
ĠLÎ±
ifurc
ĠÎµr
triangulation
Ġundecidability
imoto
agner
SUM
sat
Ġoversampling
âīł
Ġcomplementation
Ġnulle
Ġvoisinage
Ġresemblance
ĠInterpolation
oct
ĠSÎ±
Ġhappening
ĠGirsanov
lang
Ġnuts
âĢļ
uyama
Ġenlight
)|âĪĩ
Ã©tale
Ġparameterised
ĠDesc
Ġlectures
ĠFamily
Ġknew
ĠJX
Ġflowing
critic
hypergraph
Ġparsimonious
ĠdJ
ĠApparently
ĠAbout
ĠPetrov
util
ĠÂµÎ»
ĠâĭĨ-
Ġreplicator
Ġsurveillance
ĠSinkhorn
Bol
eer
ĠASY
roughly
173
Ġretransmission
ĠÂ¤
189
Ġmovable
ĠLQR
Ġobtainable
Ġsuperpositions
pinski
ĠKQ
ĠJon
ĠOPER
chuk
ĠCTMC
Ġnomin
ĠâĪĴ),
ĠShen
oblivious
ĠCarleson
tame
tement
Ġencore
TIV
ĠÇĶ
ĠTIME
Ġlocking
nett
Ġfaithfulness
ĠpKq
Ġsubbundles
Ġutilise
ðĿľĸ
ĠDelta
ĠConser
determinant
ĠâĬ¥)
ĠPractical
GO
disks
ĠCheng
Ġsenses
Seq
four
ĠWA
opoulos
Ġ)]|
ograms
EK
ĠXS
ĠMarket
âª°
ĠPerturbation
ĠLap
ĠLewis
Ġbonus
Ġvy
above
Ġdeadlines
Ġhoroball
sal
ĠDÎ±
Ġsuperalgebras
ĠPresent
ĠÎµj
heren
ĠSURF
sectional
htt
ĠSubset
Ġsubstitutes
ĠAuth
ĠGlauber
ĠXXZ
EXP
Ġcompiled
Ġexponentiation
yj
ĠÎ»N
Ġquantize
winding
Ġcocharacter
Ġrook
ĠClasses
ĠBurnside
Ġmh
velocity
Ġposses
Ġcrossc
ĠCalifornia
Ġnuclei
kâĦĵ
ĠImproved
Ġitemsets
Ġreminder
ĠMcKay
+âĪ¥
MDS
ĠbT
ĠCÎ³
Ġstandards
ĠEnsemble
vj
Ġue
ĠÎ»Î³
ĠCahn
Ã©rique
Ġintermittent
SQ
jasiewicz
ĠSan
Ġmatrice
ÏĦi
triple
ĠUncertainty
Ġalse
ĠVectors
Ġnumerics
ĠStd
Ġprivile
ĠiÎ¶
Ġ(âĻ¢
Ġdif
Ġdiagramme
Back
Singer
Ġnative
ĠMIC
Ġ)...
ĠÎ¾Î¾
signalling
Ġaltering
Ġvf
ĠPaley
tention
Ġsignalling
Ġ!)
ĠLIN
Gorenstein
height
ĠÎ´z
XZ
ĠaÎ±
Ġ4000
Ġcoequal
Ġrectilinear
ĠjÎ±
Ġ*/
Ġfarther
Ġquadrants
ĠDivide
Ġ|;
Ã¨mes
Ġexhaustively
ositive
OLDS
ĠlinÃ©aire
Ren
ilemma
Ġalignments
ĠInn
ĠÎ²y
Î¸i
Ġpayload
ĠCHAPTER
ĠCamer
ĠSRB
ĠsT
ĠObtaining
Ġparities
agli
REED
ĠdÃ©composition
germ
Ġsplitter
backs
ĠFrac
ĠISI
traction
Ġquadrangulation
ĠMcKean
OVA
Ġarena
Hecke
Ġsemil
ĠReissner
Spin
ĠSinger
Ġisotoped
rillov
away
ĠAir
188
Ġpolarity
water
Ġprq
ĠExc
ĠLogarithm
Generalized
Ġici
Ġontological
vo
orated
locations
cepted
Kan
usa
ĠDense
ĠÃ£Ãĳ
Ġsettles
ĠÎ¸r
Ros
ĠSST
Ġoptimizers
185
ĠSchreier
ĠUsers
Ġcontradictory
ĠdÏĳ
ĠÎ±A
ĠÎ»R
Ġupstream
proportion
Ġhypercubes
Kra
Ref
ĠkP
Ïģq
Ġ({(
ĠËļ.
parov
Ġslackness
ĠCompletion
oren
ĠAzumaya
Ġbenign
Ġlev
âĦ¦Îµ
Ġ(âĬĹ
008
Ġâī°
Ġbullet
Ġspiked
ĠpÎ¾q
ĠInductively
fading
Ġtermes
ĠpBq
Ġrhombus
Ġenzy
Ġcatalog
ĠMultic
August
eak
Ġkill
Ġrumor
olding
ĠMassey
Ġ((âĪĴâĪŀ,
symbols
Ġdisciplines
Ġdelimited
ĠDEFINITION
ĠPach
âŁ©-
Ġrecognizable
Ġmyster
ĠMZ
ĠKemp
Ġevader
Îµt
Ġensuing
Ġchirality
Ġtangencies
ĠGeo
Ġmonitored
Ġnecessitates
ĠÎµp
claim
Ġimmig
ĠJackson
ĠReasoning
Mur
Ġscar
Ġsingly
ipedia
gement
Ñİ
ĠWo
Ġquadratures
Ġhomothety
213
aic
ĠInstance
ĠÎ´Î¸
Ġemphasizing
ĠTranslation
illary
Ġregulated
posite
)}|
ĠHypotheses
Ġimperf
ÐµÐ½Ð¸
ĠdiffÃ©renti
segments
qz
)(âĪĩ
ĠAuto
Ġsectorial
Ġaccumulates
ĠHerbrand
mj
ĠZak
197
ĠSpc
Ġrecalls
ĠCSPs
Ġjoints
ĠGovernment
ashes
ĠSid
slope
ĠResource
ĠMHD
ËĿ
006
ĠSCAD
Ġql
ĠOMA
Ġnonequilibrium
embedded
Ġrestatement
ĠPairs
ĠWalk
Ġscram
ĠÎ¦x
ĠShor
Ġrecognizes
ĠBenjamini
Hadamard
Ġunphysical
ĠâŁ³
Ġcommensur
lepiped
gamma
ĠÎ´T
ALM
ĠÇ§
<âĪŀ
Ginzburg
ĠOre
ĠUnd
âĢ¬
hk
ĠCUSUM
ĠRÎ±
ðĿľĤ
restriction
Ġdiscovering
bis
otential
ĠMorley
ĠFerrers
Ġculmin
ĠRAN
ĠGur
ĠÎ²S
ATOR
Ġsleep
ĠAldous
Ġsan
inating
anners
ĠSymp
ĠChannels
ĠCreate
MG
rope
suit
Ġunfair
Ġfemto
Ġallele
message
sie
Ġrelabelling
Ġreplay
Ġthickening
piÅĦski
Ġcog
Ġrth
ĠXa
ĠSquares
Normal
holes
ĠExpectation
isubharmonic
strip
Ġsea
Ġpolylogarithm
parison
adiction
Î»ÏĦ
Ġreputation
ĠOuter
ancer
ĠOzsvÃ¡th
Ãº
Ġcapped
Ġâīģ
ĠKuramoto
Ġwherever
Ġsandpile
ĠGOE
fig
ĠTHEORY
Ġundesired
ĠÏĥr
Ġprevalence
Ġinferential
Ġconcatenate
Ġepimorphisms
Ġsyll
Ġindifference
Î´s
Ġseparatrices
asket
ĠMTM
Ġpivots
automaton
Ġwest
Ġoffsets
ĠIntellig
Ġâĭ¯,
ĠBai
ÏĢh
Ġmaneu
Ġblowups
ĠLh
homomorphisms
Ð¾Ð¼
Eu
entangled
Î±u
overs
hara
dark
ĠFitting
ĠÎ¸p
equality
agen
emerÃ©di
ĠmL
ðĿĳĪ
)/|
azure
Ġcaution
Ġtacit
ĠÃ¶
lengths
visible
ĠNature
Ġlinearize
)|]
Ġshortening
ĠConditioning
Leh
Ġheavier
ĠRogers
ateg
ĠOpp
Î·n
Ġerfc
Ġdagger
ĠFran
Stab
Ġhomotopical
Ġquandles
Ġhappy
Ġundet
,âĪŀ,
Ġglueing
ĠSierpinski
rit
Ġtall
ĠFj
ARE
ĠBeilinson
Ġpolitical
Ġredshift
mac
ĠTon
ĠBf
Ġattacking
effect
Ġexistentially
comings
ĠArf
ĠPreviously
Ġdebt
GRO
Ġpqq
ĠRect
Ġvisco
Ġpathways
rossed
ĠDYNAM
kd
Ġphenomenological
ĠÎµm
ĠGauge
ĠÎ±Îµ
Ġphilosoph
ĠVL
examples
Ġmesoscopic
ISS
Ġsystemic
Ġinitializations
khin
Ġdangerous
Ëľ
ĠÎ³h
ĠÎ´Âµ
ĠJose
ĠcÂµ
Ġpoids
tori
ĠBogom
Moser
ĠHNN
Ġeavesdropping
ĠKostant
named
Ġbelieves
urstenberg
Gamma
Ġsuccesses
Ġdiscoveries
Ġintertwiners
orescence
Ġuntrusted
Flo
Hurwitz
Ġxd
ĠMAG
Ġhomologies
ĠMode
Young
otti
urin
Ġunilateral
Î·t
Ġgeographical
Ġtracked
Ġgd
Ġbeat
arelli
ĠChurch
nois
ĠnA
ĠPier
ĠPeano
Ïĥt
190
Ġruntimes
auty
ĠIwahori
corrected
ĠAJ
Ġsubregion
Ġdiffusivity
ÏĢit
ĠÃ©tÃ©
ĠSurface
ĠGramian
Ġov
ĠKirby
Ġimperative
ĠâĬ²
ĠFDP
ĠMult
ĠUK
ĠâĻł
STRA
âĭī
Ei
nR
rT
ĠFQ
ĠWT
ĠÎ±h
Ġactivate
posium
atical
jl
Âµx
Ġconceivable
pÏĦ
|/|
ĠâĬĴ
Ġeigenpair
uncation
QS
Ġ{âĬ¥
âĬł
deformation
Ġobjet
Ġresponds
Ġshooting
caus
ĠÎ»b
ĠÎ¸N
ORE
Ġremainders
Ã¢te
ĠSd
Ġsubsid
Ġmultigraphs
ĠInvariants
Ġunimportant
ENTIAL
araj
Ġconcl
Ġmetap
186
ĠEnriques
ĠVersion
ĠMeta
Zeh
ARN
ĠrÃ´le
ĠGather
REC
Ġsuccinctly
arasim
ĠVu
Ġ<âĪŀ
ĠPrimal
Ġamplify
ĠDiagonal
Ġplateau
ĠVj
Ġendemic
Ġdiagonalize
Ġstabilizable
ĠÎºÎ»
Ġdescriptors
Ġ{+âĪŀ}
Ġfb
ĠNLP
Ġchips
ĠâĦ¦n
Ġposts
Ġdeveloper
ĠPadÃ©
ĠBis
ĠMDL
ĠWei
Ġcopied
odromy
heric
notation
ĠStatic
ĠÏĪj
sembly
ĠBousfield
ĠResolution
((âĪĴ
Mukai
Ġ136
shows
ĠâĻ¯(
Ġsynaptic
ĠpSq
Ġbornological
ĠiK
Ġbytes
transverse
numbers
ĠImportant
Ġzm
Ġtestable
Ġsummability
Legendre
Ġ1977
Ġviral
ĠfÎ±
Ġdeviating
Ġentrywise
Ġenrichment
Ġdrifts
Ġbeamformer
ĠEducation
Bounded
Ïĥx
208
ishop
196
183
folding
ĠRRH
CU
ĠâĬĭ
Ġintact
ĠIdeal
ĠHansen
ĠÂ¬Â¬
Ġfulfils
ĠHoffman
Ġ0000
ulte
stabilizing
ĠSCS
ĠPLS
Î²i
ĠËĨÎ£
roidal
Ġtens
ĠCRS
ĠProm
ĠâĬ§
velopp
ISM
Ġabstracted
,âĢ¢)
ĠPBW
)âĬķ
Ġprolifer
ĠÎ´Î±
kÎ±
ĠMk
ĠâĢł,
ĠSci
hicle
ĠTG
imi
240
andidate
Ġtrois
Lan
ĠConcentration
ĠProduc
ĠÎ´Ïĥ
ĠâĦ¦i
Ġcategorification
ĠGrig
Ġpushouts
Ġacademic
Ġeta
ago
Ġsiblings
Ġdiscipline
Ġantecedent
ĠRegardless
celerated
Van
sines
lean
ĠIsh
Ġsubtleties
Ġlap
Ġroads
Ġdivise
ĠFranc
Ġ)>
ĠEc
Ġcompacts
Ġsubfactor
ĠâĪ§(
Ġbaseband
Ġrestoration
ographically
ĠdÎł
Ġ.âŁ©
Ġgent
ĠtrÏĩ
Ġanyons
)[âĪĴ
ĠDFG
Ġonwards
Ġ{Â¬
ĠðĿľĴ
Ġgrounds
ĠEXPERIMENTS
(-
rates
tf
Ġzs
Ġisomon
Hod
ÏĢix
Ġdistinctive
ALITY
ĠCremona
ĠBriefly
(âĸ³
ĠpO
ĠHeyting
cod
Ġcovector
Ġsweeping
ommerfeld
Ġisosceles
Lf
Ui
Ã½
Ġoccuring
Ġsustain
ĠALS
ĠPosition
adjointness
ĠIQ
Ġworkflow
sums
occup
uder
ĠÎ´ÏĨ
Ġ"+
ĠLocalization
RH
Ġ(]
Ġunra
Ġboundedly
Thurston
arasimhan
letal
osph
Ġforegoing
ĠBogoliubov
ĠEigenvalues
Ġinhab
illips
ĠCOMPLEX
ĠKÎ±
spread
ĠÃ©galement
Ġislands
apy
Ġlinearised
Ġrequesting
ĠâĬķ,
frames
lyi
Ġobsc
ranked
communication
Ġnutshell
sia
ĠWD
ĠEK
APs
Ġborders
Ġreside
Ġconsequent
ĠSpar
ĠKMS
Ġpassword
ĠCovariance
distingu
Ġcontrapositive
Ġoperated
Ġvacuous
Ġrearranged
ĠInfluence
****
Ġunexplored
Ã¸lner
ĠRichard
ĠConjectures
ĠMukai
Ġassured
centers
itesimal
WF
Ġtranscendence
polarized
Gibbs
ĠLevy
Ġsupplies
wheel
JL
Ġfasc
Ġ)âĪ§
emann
sues
Ġepsilon
cores
Ġinstantiations
Ġcertification
ĠDecompose
Ġmulticurve
uity
Ġ1500
Ġanticomm
ĠForest
Ss
ĠSoundness
Ġïĥ
Ġschedulers
columns
deletion
ÏĢp
1980
Ġslip
Ġdeflation
Ġprovenance
ĠCRT
ĠPrograms
ĠNakag
Ġgerbes
ĠSLOCC
Ġtap
ĠFunctor
Ã©al
iley
decision
igeodesic
(:,
about
Ġstereographic
lik
isner
ĠMart
Ġespaces
ĠÎ½q
195
Ġimmun
Ġforbid
ĠControll
Ġbackpropagation
Ġdeclares
Ap
ĠIj
ĠGiv
Ġ1974
Ġresear
Ġamplifier
ĠPostnikov
Ġnut
Ġqd
ĠKW
Ġseam
Ġliber
Zp
wen
Ġkz
ĠSar
ĠPolyt
cubic
Error
ĠTWO
ĠGel
Ġfreezing
ĠGLM
Global
ĠSou
Ġ1975
Ð½Ñĭ
Ġsmash
ĠImmediate
Ġsporadic
ĠLloyd
ĠPala
Î»m
Ass
ĠSTRUCT
nearly
ĠâĢ«
assignment
Ġhierarchically
cre
Ġoverload
ÏĢa
ictor
Ġquadrangle
itoric
Ġlinguistic
teleyn
ĠcL
ĠTalagrand
ĠLJ
ĠBACK
ĠÎ·q
ĠCurvature
klov
Ġesti
scr
Ġbargaining
Ġdiagnostic
nond
}|.
ĠASS
robot
Ġtamely
ĠApproximating
onnÃ©
nl
tuning
ĠÎ´B
ĠShapiro
Ġeducation
Ġmeridional
ĠMHz
ĠTHH
Act
train
Ġquarks
aviside
Fock
ĠHX
Ġdelet
develop
ĠÃ£i
Ġplaintext
Ġwrapping
Ġtheor
otstrap
Bq
ĠcÏµ
Ġï£¿
Î²s
Ġmultilayer
Ġdemanded
Ã©triques
bilinear
alone
consider
Ġ1976
Ġrelaxes
Ġintense
Ġshortcomings
Ġuz
Ġnonseparating
ĠSchwinger
Ġmanifests
/.
Ġisoc
ĠYukawa
ÏĢz
Ġinspect
referred
dil
informed
ĠNove
Ġundetermined
ĠÏģs
ĠÏģv
Ġoversh
encoding
repancy
Ã¤cklund
ĠPull
ĠQual
ĠÄ½
monomial
transmit
ĠDuplicator
Ġdeductive
Enc
Ġmanifestation
ĠInvestig
Ġmeanwhile
Noether
ezvous
idefinite
Ġsph
Ġprevalent
Ġplotting
Ġindisp
ĠNyquist
ĠFully
Sie
acial
Ġá¹½i
tificial
sheeted
arten
Ġlu
ĠKor
ĠÎ´I
ĠÎ£V
veling
outcome
Ġ{((
ASSI
ĠSurfaces
ĠâŁ§
Ġgallery
Ġconifold
ĠHeter
ĠÎ´M
ĠSierpiÅĦski
sinesq
stab
ĠâĪĨ+
ensatz
222
interior
Ġtransversals
ĠPERFORM
Ġamplified
ĠMaker
ĠCPT
blatt
ĠNakayama
ĠKasparov
ĠNecessary
Ġdepolarizing
ĠIv
olo
Ġdilaton
ĠMFG
pvq
ĠDelete
Ġexhausted
Ġdistributes
kell
utations
ĠVog
Ġspending
ĠCorr
ichever
ĠSPS
Ġpinching
iple
onen
oma
ĠBQP
Ġtheirs
182
Ġexperimentation
Ġacyclicity
Bob
hist
uding
Ġadjacencies
Shap
GI
ĠmT
cones
Ġcheating
Ġtypicality
Ġpersonalized
Hal
KO
Squ
amble
Ġfram
Ġmultiplet
ĠËĩËĩËĩËĩ
Ġcomposante
Ġdiscontinuously
REEDY
uble
athe
atcher
ĠBez
ĠSteenrod
Ġpasting
OFDM
Dual
Ġcapping
Ġrelator
Ġfulfil
Ġmanipulated
HOD
Iq
Lower
ĠBert
Ġsaturate
Ġconvince
ourced
Ġasserting
012
Ġsubmodel
ĠConven
ĠSucc
Ġprojectives
ashberg
Ġworkloads
summable
ĠsA
ĠhÏĦ
ĠSong
stret
Ġstrategyproof
Ġreparameterization
Tx
ĠLot
Ġoblique
Ġcorollaire
ĠBackward
iosync
ĠTk
Ġ)âŁ©,
Ġsubanalytic
)âĪĨ(
din
ĠÏĦm
ĠMises
ĠZer
ĠâĭĨâĭĨ
Ġdiscriminating
Ġfracture
Ġcomputably
ĠAPPROXIM
GRA
ĠoN
ancell
ĠCombinator
ĠMagma
tibles
ĠâĬĺ
ĠModern
etrie
Ġconfirmation
ĠLecture
tH
Ġmountain
propag
TH
ĠÎ²Âµ
ymour
Îºt
ĠSubstitute
Recently
ĠMagnus
spatial
lining
Ġpartir
Ã³s
Bru
Node
neider
worst
Cahn
Ġfiducial
ĠkL
Ġpatching
Ġ168
Ġ`.
ĠEXAMPLE
Ġenvision
Stack
Ġcongested
Ġeveryone
agorean
cki
Ġlowercase
eterminism
Ġfrustration
GPP
NMF
ĠÎ·k
iax
Ġdatap
Ġinfers
probabilistic
ondon
cedastic
Ġpioneered
ĠSSE
Ġparallelepiped
Hi
Ġtur
Ġequity
ĠÎ³c
Ġaba
Ġconditionals
Ġhands
ĠTracy
ĠTail
ochem
Ġ))-
(âĪĨ).
ĠLoosely
Ġoutlines
Ġcaustic
ĠSTEP
Ġextractors
Kt
Vor
patch
ĠÏģA
Ġtransceiver
Ġisomorphically
inequality
ĠÎµN
regularization
ĠPHY
Ġshearlet
lepian
countable
Ġsubchannel
)|||
ĠJacquet
Ġanonymity
Zehnder
Ġpinched
ĠTc
ĠBranch
[]
ĠâĢ¢âĪĴ
othing
analogue
carrier
ĠRv
optimization
ĠPDFs
zhukov
Ġtraps
indexing
CÎµ
Ġ|}.
inking
LECT
submodular
nozhukov
ĠËĺ"
ĠRestriction
ICATIONS
sI
ĠMassive
Ġtransduction
ĠSPACE
Ġpolarizations
NordstrÃ¶m
}âŁ©
ĠXML
ikonal
eigenvalue
ĠSchoen
remental
ĠSper
Ġqut
ĠRitz
ĠXv
aga
Ġretarded
discrimin
dominating
Ġhollow
udi
Ġsojourn
Ġstepwise
Ġcomplicates
estimators
cobordism
VF
abase
ĠJean
âĢ¹
ucially
introduced
Ġvariate
202
integrability
Ġindispensable
oracle
ĠPGD
ĠÎ»Î»
âĭ¯
Ġ....,
ĠRap
Ġnormalizations
ĠMandelbrot
Ep
ĠÃĹ,
Ġfires
Ricci
ĠRaz
ĠBCS
Ġ133
Ġsocalled
Ġparagraphe
Ġlottery
cb
ĠÏĪt
Ġsuperspace
DFS
Ġunpredictable
Ġwinners
Ġly
ĠpÎĽ
ffix
Ġsummarizing
Ġcircumference
Fu
Ġ212
Ġentangling
ĠMEAS
ĠHartree
Hq
OK
Qn
Ġconfine
Ġstag
obis
âĪĨ.
Ġdesignate
Ġhopefully
Ġdub
ĠVO
181
processes
Adap
ĠPERFORMANCE
bm
oster
Ġsignifies
Ġquasimorphism
viewed
ĠConfidence
Ġflavour
erden
ĠSING
,+âĪŀ)
BJ
positions
ĠGupta
ĠStrongly
ĠDaniel
Dt
ĠaT
ĠBaxter
1979
eev
Ġstrengthens
ĠrÏĥ
ĠWel
elimination
Ġunidirectional
ĠÏīq
Ġupwind
shaded
ported
ĠHistor
ĠFUNCTIONS
Ġbiholomorphism
Ġreused
ĠUnited
ĠDemazure
Vect
Ġtranscription
ĠGeer
Ġcoherently
Ġtraders
Ġsuperfluous
Ġintermediary
Cu
cel
ĠvariÃ©tÃ©s
Ġscans
Ġcopying
MAX
Ġminority
Ġneutron
Ġtrin
ĠDMD
Ġsubroutines
Galerkin
Ġupto
Ġblossom
rant
formatics
âĩĶ
ĠPartially
Ġmeaningless
Ġadaptations
ĠBurk
Ġjacob
DMS
ĠTro
Ġplacements
ĠSwiss
Ġmultimodal
ahedra
ĠHj
permut
198
Ġsuprema
ĠMODELS
addition
ĠÎ»ÏĦ
ĠÎ·j
ĠShrink
096
ĠMRI
ĠLifting
accuracy
OLOGY
ĠTian
ĠÎ³a
populations
ĠRobertson
Ġuk
ĠUtility
ĠÂµX
Ġtimeout
SENT
Ġautoco
Rosen
xv
/âĪ¼
ĠGAM
recurrent
Ġquantizers
Ġsynchronize
Frob
ĠcÏĥ
Ġinject
âĪķ
ĠJa
Ġprecoders
ferroni
ĠStrategies
ĠEquivalent
ĠDc
ĠKnown
Cp
Rest
Ġaerial
Dist
Î»a
ĠMoran
indrically
Ġdistillable
acer
ĠLc
ĠKc
ĠVarying
Ġalongside
building
Ġwatermark
iÎº
Ġreorder
ĠFUT
Ġosculating
ðĿľĶ
cience
ĠHDG
riangular
osable
Ġ/{
007
ĠGDoF
Ġpsych
Ġspots
Ġhelping
Ġduplicated
layered
Ġnecklace
aque
inality
Ġlocalizations
agerup
urtosis
Ġpebbling
Ġ216
Ġpert
ĠSwitching
Ġharvest
]=
ĠGSP
ĠintÃ©gr
ĠParticle
Ġdisjunctions
tÎ»
Ãī
ĠÏģr
obÃ¡s
ĠLogistic
Ġsubmission
Ġcorrupt
ients
ĠHeaviside
identical
)âĢ²
ĠSend
ĠBatch
ĠVAE
randomized
ĠnÃĳ
âĬº
bour
stat
ĠâĦ¶
Ġadhe
Ġidiosync
partially
ĠComparisons
ĠrÃ©du
Ġîĥ
resilient
ĠtÂµ
ĠEsc
ĠFinetti
ĠLeon
ĠComponents
ĠConnections
rg
ĠPeng
ĠRoss
Ġspark
ĠÎ³Âµ
Ġduplicates
Ġhousehold
alpha
convolution
ĠABE
Ġmasks
Hess
Vlasov
Ġhous
ĠRÏĢ
phone
ðĿĳĬ
Ġchoix
Ġconsisted
Ġvehicular
ĠSymposium
Ġappreciate
WW
ĠFJ
ĠImprove
Ġcohomologie
Ġlookahead
Subsection
Stieltjes
ĠDJ
ĠZA
distinct
orthonormal
Ġsensitivities
flo
ĠÎ´X
Ġsemirings
Ġpsd
Ġcollaborators
Ġtournaments
Hy
ĠCategory
Ġcorrespondent
Ġdistributing
Ġparser
nings
ĠElimination
ĠActions
Ġinhomogeneity
Ġsinusoidal
Pri
Ġuncontrolled
Ġoverdetermined
Ġrecourse
ĠËļ"
ĠSYM
ĠâĪĴâĪĴâĪĴâĪĴâĨĴ
Ġdepos
adata
ogenies
ĠERR
ĠMixture
ĠparamÃ¨
ĠACA
iese
Ġconfigure
Ġ[?]),
differenti
ĠBalanced
inos
ented
Ġatomistic
ĠfaÃ§on
pressure
ĠHQ
...)
sketch
achev
switching
ĠtN
ĠFÃ¸lner
Ġxh
ĠHf
ĠVersh
ĠÏģm
ĠSPACES
Ġassembled
âīª
Ġcategorized
ĠÏĥk
ORKS
Ġpolytopal
ĠTransactions
ĠArtinian
Ġadjunctions
aison
orsion
anguages
Ġpseudosp
KZ
OFS
ĠNad
Ġplates
Î·q
ĠSpherical
afa
Ġresolvents
GEN
Pu
ĠManifold
Ġprepares
ĠsÃ©rie
Ġocean
Ġerase
ĠSubsections
ĠGoldman
':
KV
sted
ĠNUMBER
Ġreconciliation
âĨĳâĪŀ
Ġunsuccess
Ġsubgradients
Ġsyzygies
Ġlagrangian
Nat
got
ĠIvan
ĠÎ²L
Ġbrace
ĠÅ©k
Ġunknotting
ĠImagine
ĠAlgorithmic
Model
Kuhn
ĠDIFFER
Ġbacteria
FN
Ġpowered
ĠÂ®
ĠLOG
Ġconfounders
Ã¢teaux
Ġassimil
ĠDrop
ĠJune
ĠMLMC
ĠÎ´c
Kim
ĠKitaev
ĠSpeed
âĸ½
ĠOutside
Ġtremendous
Ġmysterious
ĠâĪĴ).
Ġsubposet
ridge
processor
Ġ(âĪ¼
ĠFX
Î³Î´
Ġ)âĪĴ(
ĠHYPER
ĠLaboratory
Ġ(!
ession
Ġâĭı
eared
Ġminer
robi
wq
Ġgenie
radial
Ġrarefaction
Pos
ĠÏģÎ±
ĠSensing
Ġ=>
Ġfollowings
Ġcorpor
Ġwells
TIS
Ġuniverses
Ġmonodromies
ĠEQUATIONS
hg
ĠFle
ĠMessage
abstract
Ġoperadic
Ġdistributivity
Ġalternates
Ġbigons
Thompson
ĠnÃ©cess
Sil
ĠALE
ÎĽn
ERT
ĠËĨRn
Ġqualities
ĠÎµe
Ġphon
Ġkernelization
Ġmerits
ÑģÑĤÐ²
Ġrapport
tg
Ġbibli
ĠAge
ĠSav
stad
ĠKapl
ĠâĦĵq
ordinate
Ġsparsest
geless
Ġrecoverable
ĠBuild
qv
riz
ĠZipf
Ġformulates
Ġsheds
ĠLook
Ġisotope
alignment
reti
Ġdiscreteness
coerc
ĠInsert
Ġvulnerability
Ġtimestamps
Ġconvol
Ġquest
indler
Ġuncoupled
ðĿľĢ
CLT
Ġtandem
ĠIo
ĠReduce
ĠÂµa
NLS
ĠnB
Ġ|âĪĴ|
orderable
ðĿľĳ
ĠMarginal
ienne
Ġpalindrome
Hilliard
MAT
Ġthrow
Ġsubarc
Ġinfeasibility
Ġparallelized
passage
ĠRelationship
Ġdisregard
amplitude
ipartition
ĠpÎ±q
Pf
fun
Ġdoll
ĠkÎ¸
oglu
prin
Ġdivisions
ĠPeters
ĠkÏĥ
ĠNLOS
Ġimbedding
âĪ©(
Ġvacant
smoothing
ĠTrivially
estimates
temp
SIGN
ĠMutual
Ġwarr
Ġ)]]
Ġdemonstrations
ICI
ĠMobile
Ġfather
ĠShelah
ĠBenchmark
ĠÃĹâĢ¢âĢ¢âĢ¢ÃĹ
Ġappliqu
Ġmetrized
Ġinstitution
augmented
agliardo
Maz
lambda
Ġfont
Fan
Hamilton
Ġ{âĪħ,
operads
ÏĢiz
Ġeigenform
ĠMerge
Ny
ĠChu
ĠPrime
ĠSuccess
Ġfish
2020
Ġdualities
ĠObservations
LLC
ĠMETHOD
Ġnilpotency
ĠMSS
keley
learn
ĠScore
ĠLiter
ĠÎ»Î½
Ġquot
Ġtwins
Ġcubature
Ġpreconditions
Learning
Ġwrap
orthogonality
Ġ{âĪħ}
ĠMake
ĠÃľ
aturing
Ġexcision
ĠUltimately
Bri
ĠaÎ»
ĠSaito
ĠWENO
Ġquadrangulations
ashiwara
Ascoli
ĠGFT
Ġâī¤âĪ¥
Î´m
Ġpropre
ĠArbitrary
zI
Ġhl
Ġatypical
Îºn
Wilson
Ġisothermal
Box
Ġ1111
Ġanimal
epth
inton
ĠStefan
NM
tet
ĠKun
1978
Ġfoam
MIN
]]-
ĠMRF
ĠdÎ£
ĠVT
Ġannual
ĠRegime
maximizing
Ġsextic
Dom
Lab
Ġky
equin
Ġquantisation
offoli
Ġspanners
Ġantichains
atilities
halan
ĠHolant
Ġparticipates
ĠOperation
rece
ĠkÂµ
ĠFk
))/(
ĠUnitary
Ġannihilate
lebsch
rez
Ġ=[
EQ
ĠÏĢm
oseness
approximations
Ġsolids
Ġchess
ĠÎ³z
Ġheader
Ġlags
otical
ĠtÎ¾
ensitive
Ġminute
ĠApoll
Norm
ĠTod
ferred
Ġwake
Ġvectorized
Ġprivately
Ġ|âĪĨ(
Ġreservation
window
ĠVel
plications
Ã¡k
Ġlocked
llular
genta
VII
amo
...<
)[(
Ġ=|
ĠLub
ĠKen
Ġlinearizing
smaller
ĠViewing
Ġbunch
Ġvessel
urthe
backtracking
web
ĠÈ³i
Ġcorridor
jo
)]),
,âĮĬ
iÂµ
ĠSlepian
Ġwhit
ĠJin
ĠPara
sensitivity
Ġmonitors
ĠLMS
Conv
ĠjÎ¸
ĠGCD
ĠVF
induction
Maxim
ĠqT
ĠCAL
))}.
iki
Ġenhancing
ĠPrecision
ĠFs
ĠÎ´ÏĪ
Ġlicensed
pÎ»
ĠiÏģ
Ġinformational
Ġtrouble
ĠReaders
ĠGJ
Ġâĭ®
Ġwonderful
Ġcaveat
ĠFISTA
Ġmildly
STRUCTION
published
Ġlimite
logical
ĠADC
ĠTrivial
networks
Ġdemographic
Bernoulli
uillet
enstr
ĠpÏĪ
ĠThue
Ġconnector
Ġmemor
substit
Ġstripe
Ġfootprint
Mal
ĠmÎ»
Ġpgq
ĠMcMullen
Search
lek
ĠFunk
ĠProjective
Ġblu
Ġhandlebodies
ĠArchitect
####
Aj
Ġ(âĨĴ
Ġheterotic
attan
Ġcomposites
Ġsubsurfaces
âĪł
ĠDisjoint
accurate
mgren
Tan
VR
Ġthir
Ġnewform
ĠDAE
Ġaudio
ĠInst
trons
Observe
Zn
ĠÑ
ĠPROOFS
Ġencourages
authors
Ġactors
asant
conquer
Ġbiquandle
inge
ĠENT
ĠÎ»X
Ġworkspace
Ġskeletons
%%
rite
ĠHurewicz
Ġcurvilinear
Ġ{âĪĴ,
ĠCompactness
Ġinsignificant
Ġ020
sizing
ĠWeights
Ġholom
Ġpredomin
ĠÅľn
Ġclimate
Ġgenotype
(<
Cq
Ġsnow
Ġadvertiser
rays
ĠVG
Ġrandomised
Ġvaleur
MPS
Ġpools
Ġtrisection
Test
kv
ĠÎĵt
ĠÄį
ĠCONVER
accessible
ĠÎ¾k
approximability
Ġcoined
ĠAnswer
Ġchore
ÏĢÎ¸
expressed
Ġversal
Reiten
ĠHarder
Ġ.âĸ¡
ĠrK
ounkov
Ġtalking
Ġbh
ĠDil
ĠDup
|,|
Ġrecommender
Ġcocomplete
Ġ1973
ĠMazur
%).
ĠKarp
friend
ðĿľĵ
ĠMultivariate
Ġunwanted
NW
Ïīn
STA
Ġbreakpoints
Comput
visited
Ġextrapol
stellensatz
Ġsera
ĠIIB
Ġremarking
Ġmagnet
Dimensional
ĠpEq
Ġdic
Ġ,[
ĠRock
ĠÎµq
nevich
Ġoutputting
EMS
ĠÃ©quivalent
Ã©crit
ĠFOL
[...]
