#version: 0.2 - Trained by `huggingface/tokenizers`
Ġ t
Ġ a
h e
Ġ â
Ġ i
o n
Ġt he
t i
r e
Ġ s
Ġ (
Ġ o
Ġ c
i n
e r
Ġâ Ī
Ġ f
o r
Ġ w
e n
Ġ p
Ġo f
n d
a t
Ġ 1
ti on
a l
Ġ d
Ġ b
e s
Ġ Î
Ġ 2
Ġ n
Ġi n
e d
Ġ m
r o
Ġ =
Ġa nd
i t
Ġi s
Ġt h
a r
Ġ e
Ġ T
a n
Ġ )
l e
i s
Ġ ,
ĠâĪ Ĵ
Ġ .
Ġt o
in g
i c
Ġ 0
Ġ Ï
e t
Ġth at
o m
Ġf or
Ġâ Ģ
v e
Ġ re
a s
l y
Ġ h
Ġ g
Ġ +
Ġ l
Ġ u
a tion
e c
Ġc on
Ġw e
l l
â Ī
a c
en t
Ġ k
Ġ A
Ġ S
ĠT he
Ġ L
s t
o w
s i
Ġ v
Ġ I
Ġ on
Ġ F
it h
Ġp ro
i m
Ġ q
Ġ C
c e
o t
Ġ P
o u
Ġb e
Ġs u
Ġ [
Ġ r
ĠâĪ Ī
Ġâ ī
Ġa s
Ġ x
s e
u l
Ġw ith
Ġa n
Ġ R
o l
Ġb y
Ġ j
Ġ W
Ġ 3
Ġ N
ĠâĢ ²
Ġs t
Ġe x
q u
Ġ B
a m
v er
Ġ H
Ġ |
Ġ M
i g
ĠâĢ ¢
o re
t s
o d
u m
âĪ Ĵ
r i
Ġa re
u r
Ġd e
Ġ E
u t
Ġ G
a b
e m
Ġ D
Ġc om
c h
a in
) .
re s
p p
it y
) ,
Ġa l
Ġ X
c tion
ti c
i l
at e
Ġâī ¤
ti n
Ġw h
Ġw he
a p
Ġ *
f in
i v
Ġp o
Ġ 4
Ġth is
c t
e l
t er
Ġc an
Ġ :
Ġcom p
ĠW e
i f
i r
u re
Ġh a
g e
u n
ĠÎ ±
Ĩ Ĵ
Ġ y
ti ve
ro m
o ll
Ġâ Ĭ
Ġ ï
p l
Ġï £
Ġ K
ic h
ĠI n
Ġo r
tin g
Ġ le
he r
t e
i d
Ġa ll
Ġ Â
Ġwh ich
Ġf rom
i z
Ġ V
p er
Ġre s
Ġha ve
u s
Ġi f
Ġs p
Ġ O
Ġ {
o g
oll ow
Ġâ ĨĴ
a d
Ġwhe re
i tion
or m
Ġn ot
Ġf ollow
Ġi t
Ġ z
a y
Ġa t
Ġd is
Ġâ Ħ
Ġs et
Ġp ar
ĠÎ »
ĠâĪ ¥
m a
Ġs e
Ġs h
si on
b le
Ġu s
d er
en ce
ar i
ĠT h
ore m
ec t
Ġ U
Ġde fin
o f
al ly
p o
en d
un ction
es s
Ġsu ch
o c
an t
ac h
ation s
Ġu n
Ġt r
Ġc h
en er
ec tion
t ain
Ġc l
Ġf unction
ĠL et
Ġe qu
ou nd
Ġo b
Ġa pp
al l
as e
Ġthe n
p le
ĠP ro
Ġc o
u tion
e re
ar y
ab le
m ent
st r
i es
Ġ Ã
at ed
Ġâī ¥
d u
ac t
Ġ Q
ĠÏ ĥ
ig h
Ġthe re
ĠÂ µ
Ġ >
ro u
Ġ 5
Ġn e
a nd
Ġ Z
Ġ <
Ġsu b
ĠÎ ²
ti m
ĠÎ ³
ĠF or
Ġon e
it e
ac e
Ġb ound
Ġm od
er m
Ġm a
ĠThe orem
in e
ĠÎ ´
a ti
ĠâĪ ŀ
t her
Ġg ener
Ġs y
Ġq u
on d
Ġi m
Ġ Y
Ġan y
Ġt w
Ġh as
i ll
si tion
Ġfor m
b er
Ġas s
Ġi nd
Ġg iv
Ġsh ow
al u
Ġres ul
Ġv er
r ic
) )
ĠÎ µ
ĠÏ ģ
Ġe ach
om e
ĠâĪ Ĥ
Ġtw o
Ġpo in
ou s
ĠÎ ¸
] .
ĠTh is
f f
s o
em ma
ĠÏ Ħ
in ce
f orm
o s
t h
Ġs im
Ġf in
d s
ĠÏ Ģ
o se
ĠL emma
ul ar
g or
ĠâĦ ĵ
Ġc ase
i al
Ġn um
Ġa d
ri b
Ġd en
ĠÃ Ĺ
Î ±
d ition
Ġa b
] ,
Ġex p
Ġw ill
re e
Ġa r
if f
am e
Ġfollow ing
Ġst r
Ġg r
Ġm at
Ġs ol
Ġm e
Ġn on
Ġ 6
âĪ ¥
an s
ir st
Ġ J
ot e
ere n
ic al
Ł ©
ĠThe n
u d
Ġ) ,
Ġon ly
g r
Ġs ome
ap h
Ġal so
at or
Ġc or
âĪ Ī
Ġd iff
Ġf i
e p
ith m
po sition
Ġin t
Ġgiv en
at es
c l
a k
Ġt im
â Ģ
igh t
Ġ ]
Ġ }
ab il
et w
ble m
er s
Ġnum ber
as s
Ġin ter
an ce
Ġex is
ĠÎ ĵ
ĠF ig
ĠÏ ķ
Ġ) .
i re
Ġdis t
p h
Ġ es
res ent
ati s
Ġp re
en ti
Ġv ari
si der
â Ħ
Ġ -
Ġm in
or k
gor ithm
Ġl og
ĠÏ ī
r a
Ġpro blem
ĠÏ µ
Ġfollow s
Ġass um
en sion
x im
Ġob tain
Ġ: =
Ġcomp le
Ġmod el
Ġf irst
ĠâĪ Ĩ
a tive
ĠI f
Ġo p
Ġ /
Ġcon dition
Ġs o
ar d
rou p
Î »
g es
ĠÎ ·
Ġre l
ĠÏ Ĩ
Ġo ur
i ent
Ł ¨
Ġn o
on g
ct or
o p
Ġm et
Ġv alu
v es
Ġin te
Ġtim e
Ġcon str
res p
t y
st em
atis f
u ct
or ph
Ġo ver
abil ity
. ,
ĠPro of
Ġs atisf
Ġpro of
ĠA s
al ity
Ġo ther
Ġcon t
ot h
Ġd es
is e
ti es
Ġapp ro
Ġ he
Ġgr aph
Ġwhe n
Ġp er
Ġre p
ĠÎ ¾
Ġs c
ĠâĦ ¦
Ġdiff eren
ver y
Ġa c
Ġs m
Ġsy stem
ff ic
ĠÏ Ī
ec tive
Ġle t
Ġi d
Ġsol ution
ð Ŀ
Ġsp ace
Ġi ts
u st
Ġt erm
an g
ĠÎ ½
y p
Ġres p
Ġal gorithm
Ġd et
Ġl ine
ĠâĬ Ĺ
i e
as t
Ġpoin t
Ġ "
Ġd o
f ore
Ġdefin ed
or t
o ve
Ġu se
ĠI t
is m
Ġor der
g h
s is
Ġe v
Ġtr ans
Ġcon sider
am ple
Ġm ap
u e
Ġf act
im ension
nd er
Ġe very
Ġs ame
resp ond
Ġ ve
Ġre g
or d
Ġo per
c es
le ment
c ed
Ġ en
Ġh ol
i ed
Ġcor respond
ĠFig ure
Ġthe se
Î ¸
Ï Ģ
Ġus ing
Ġpro per
Ġl im
Ġgener al
v i
am et
Ġd ec
ar k
Ġpro v
Ġes tim
Ġ 7
om orph
Ġcl ass
Ï Ħ
â Ł©
o st
ĠPro position
s er
ri x
ent s
0 0
l d
Ġ ro
Ì ¸
ĠB y
i on
Ġo ut
Ġg roup
Ġfin ite
Ġ ed
ĠâĪ ļ
Ġdist rib
Â µ
Î ²
Ġâ Ł¨
Ġex t
ĠÎ £
e en
Ġcomp ut
etw een
ĠS ince
Ġ 8
ac k
Ġb etween
n ow
i a
c ess
Ġdis c
Ï ĥ
Ġl oc
ou r
iz ation
Ġu nder
a u
Ġpro b
p tion
l es
Ġb as
Î ³
Ġp l
Ġme as
Ġsub s
Ġmat rix
Ġve ctor
ĠThe re
' s
Ġe lement
Ġre c
ffic ient
Ġth an
Ġresul t
e fin
ĠâĪ ©
Ġresul ts
Ġan al
a re
Ġab ove
Ġpar tic
Ġse e
Ġm ore
ou ld
ti al
Ġse qu
Ġcon st
Ġd at
ig n
Ġexis ts
1 0
âĪ ŀ
h od
ge b
x t
âĢ ¢
pl ic
ĠS ection
id e
Ġ Ì¸
Ġrep resent
Ġcon tain
ĠÎ ¦
a ge
ĠC on
iz e
m m
t ed
Ġs ince
Ġpar amet
i qu
ĠÎ Ľ
Ġm an
ul ti
Ġmet hod
i p
ou t
ĠâĬ Ĥ
and om
Ġb ut
Ġop tim
k e
Ġpo ly
ðĿ ĳ
e ver
Ġc ur
Ġï£ ´
Ï ģ
Ġ ;
Ġl ar
i an
Ġdistrib ution
n t
iz ed
Ġdefin e
v ari
Ġâ ĸ
Ġm ay
Ġs ection
Î ´
Ġden ote
iv al
il ar
Ġline ar
Ġr andom
ĠÎ º
Î ¾
an n
1 1
es t
Ġt yp
â ĨĴ
Ġfunction s
Ġst ate
Ġde p
si tive
Ġm ulti
tic al
Ġs ec
ow er
â ī
Ġprob ability
Ġpoin ts
ect ed
e qu
Ġoper ator
âĦ ¦
Ġint o
s ed
Ġsm all
ĠTh us
ro du
Ġ) )
Ġp r
b it
Ġcon ver
ol og
Ġpro ve
Ġstr uct
p t
Ġus ed
or y
Ġp at
a ir
l ow
Ġmin im
tin u
ĠT o
Ġma x
or s
1 2
ve l
ĠS u
Ġdefin ition
Ġpartic ular
Ġdes c
Ġdat a
Ġt ak
in t
Ġch o
Ġb oth
a ting
ĠD efin
Ġn orm
Ġc ol
Ġim p
Ġre m
Ġpro cess
) |
er o
Ġn ow
Ġconst ant
u ction
Ġsu pp
Ġk now
Ġanal y
Ï ī
ĠN ote
Ġfi x
Ġcon n
geb ra
Î µ
Ġcomple x
om ial
Ġequ ival
Ġmeas ure
Ġde g
o ver
Ġb ec
Ġ Ä
Ġin c
Ġt ri
Ġthe orem
ic ation
Ġform ul
u res
et ric
Ġim pl
Ġe m
Ġn od
Ġwe ll
Ġp ap
si ble
a il
ĠâĪ ª
i x
u al
p ar
v ing
ep end
Ġd ire
Ġpo s
Ġw ork
Ġassum e
Ġsequ ence
ĠA l
omorph ism
âĢ ²
Ġcorrespond ing
cl ud
Ã ©
Ġdifferen t
Ġ1 0
Ġequ ation
Ġob ser
Ġvalu e
s ing
ĠâĪ ĩ
Ġhol ds
ac es
Ġimpl ies
Ġc all
Ġpro du
Ġpo sitive
Ġd er
Ġsec ond
Ġâ Ł©
Ġne ed
ow ever
Ġma xim
n e
Ġcom m
Ï ķ
Ġs ing
o b
Ġsu r
Ġpap er
form ation
âĦ ĵ
i le
t en
j ect
Ġu p
Ġa g
Ġdep end
Ġre al
p ut
Ġ 9
Ġsp ec
Ġ \
se e
ĠÏ ĩ
Ġcon tinu
i i
Ġi j
ĠâĪ ¼
Ġappro xim
Ġdo es
Ġex ample
Ġre qu
Î ·
Ġw as
ur ther
Ġ er
al s
te x
iqu e
Ġp air
tic es
Ġd imension
v ed
ol d
as es
ĠâĬ Ĩ
Ġapp l
Ġm ost
1 3
Ġthe ir
au se
ĠM ore
Ġch ar
Ġre du
Ġin equ
n omial
i ve
am pl
Ġbound ed
el d
ic e
epend ent
Ġâĸ ¡
ĥ Ĺ
Ġpat h
Ġst ud
Ġterm s
o od
Ġcomp on
ective ly
Ġs ign
) (
Ġâ ĭ
Ġe t
Ġdet erm
Ġstruct ure
ĠThere fore
w ise
g er
Ġp resent
Ġ( âĪĴ
Ġlar ge
Ġpoly nomial
en s
n ce
Ġst ep
Ġin st
etw ork
Ġac c
Ġcl os
Ġid enti
Ġg et
Ġ ðĿĳ
Ġint rodu
Ġsatisf y
he d
Ġre f
ĠDefin ition
Ġinte gr
Ġh om
oc i
ĠH ence
g y
Ï µ
Ġar g
ĠÎ ¶
s um
Î ½
Ġver tices
e x
r y
Ġobtain ed
ab les
Ï Ī
ou gh
i ly
Ġexis t
âĪ Ĩ
2 0
Ġw r
1 4
Ġver tex
Ġvalu es
Ġl at
ĠâĢ² âĢ²
Ġsim ilar
Ġden ot
Ġr an
Ġbound ary
l oc
k s
en g
1 5
Ġn etwork
Ġ1 2
n ot
Ġd om
Ġal gebra
it s
Ġassum ption
si d
Ġcondition s
Ġloc al
Ġd ia
Ġfin d
Ġ ent
ay s
Ġfix ed
ere d
ac tion
ac ter
gr am
ec h
e ll
Ġass oci
m e
Ġer r
rou gh
vi ous
) -
Ġtyp e
Ġper form
Ġbe en
f t
at ure
e ed
is tic
Ï Ĩ
Ġ end
Ġz ero
a us
ĠN ow
Ġind ependent
Ġresp ectively
Ġdesc rib
v alu
Ġle ast
ation al
Ġsatisf ies
is t
Ġ á
oll ary
Ġf r
er n
Î ĵ
Ġed ge
âī ¤
Ġresp ect
o v
Ġder iv
enti al
ic ally
Ġchar acter
1 6
Ġthe y
Ġin f
Ġsy mm
Ġe ig
ti ce
he n
eng th
u nd
u ll
ĠH owever
y n
Ġâ ©
c y
Ġinequ ality
Ġoptim al
Ġs ize
Ġâ Ĩ
Ġcont r
. .
Ġset s
ver s
ĠSu pp
y m
Ġg e
n ess
ĠR em
c on
âĪ ĩ
Ġex act
Ġequival ent
ĠÂ ±
Ġto p
t r
ve x
if orm
âĪ Ĥ
he re
he s
b in
Ġm ust
in c
Ġm ain
is h
Ġsu m
Ġst and
Ġeig en
Ġcontinu ous
i b
Ġthe ory
1 9
ĠâĪ §
Ġin i
Ġsim ple
Ġa ut
a g
ĠâĪ Ģ
Ġth us
Ġr ight
Ġsubs et
o oth
Ġp h
ĠÎ ¨
at ur
Ġa f
Ġsu p
ĠAs sum
Ġc ou
} .
Ġcon sis
Ġexp res
ĠC or
1 7
Ġne w
Ġdeterm in
Ġh y
ic tion
Ġshow n
se qu
Ġc od
u le
g ence
Ġed ges
ĠRem ark
olog y
Ġpos sible
Ġpro po
Ġvari ables
Ġconstr ain
ĠMore over
Ġproper ties
Ġelement s
Ġm on
Ġun ique
Ġâ ĥĹ
Ġbec ause
ĠSupp ose
Ġproper ty
ly ing
Ġl ength
Ġe as
Ġev en
Ġ Å
Ġlim it
Ġth ree
Ġa ction
Ġha nd
Ġin fin
f ul
vari ant
Ġ2 0
Ġa m
imension al
n ing
Ġinc re
rou nd
i ke
g et
Ġind u
ĠE x
Ġdeg ree
Ġw ould
em ent
Ġgiv es
Ġshow s
Ġdire ct
Ġpro j
Ġpar t
ĠA n
Ġcall ed
Ġparamet er
on al
Ġl in
Ġfi eld
ĠÎ ł
Ġsc he
el ds
Ġâĭ Ĩ
Ġcont ro
ter n
o int
Ġun iform
Ġf e
1 8
ol ic
Ġassoci ated
Ġc y
Ġs em
} ,
c c
e ar
Ġerr or
Ġdisc us
re d
d ing
l ine
r al
Ġbas ed
Ġini tial
Ġsc al
d imensional
i ble
it her
Ġsm ooth
c k
ar t
t al
Ġwh ile
u b
Ġclos ed
Ġhe nce
i ties
Ġstand ard
Ġrequ ire
Ġre str
Ġequ al
Ġhy per
ĠCor ollary
Ġst ates
Ġw ay
Ġin formation
Ġprodu ct
e fficient
Ġle ft
Ġformul a
ĠÎ ĺ
Ġr ate
yn am
Ġall ow
Ġth rough
Ġarg um
ant um
on e
Ġï£ ¬
Ġappro ach
le ar
Ġf am
Ġnorm al
Ġ1 1
Ġext end
Ġreg ular
Ġn atur
Ġman y
ul ation
Ġmet ric
Ġconstr uction
m od
Ġconstr uct
v en
ic s
Ġcon vex
id es
Ġï£ ·
Ġl ower
Ġconn ected
ur n
Ġad dition
Ġrem ain
Ġs er
Ġcontain s
igh b
ate gor
Ġe ff
Ġco efficient
Ġsur f
in al
an ti
o tic
u sion
Ġcomple te
ro p
an ts
ampl es
ment s
ec ts
g n
an e
Ġid e
Ġset ting
Ġcomp act
Ġd x
pp er
Ġequ ations
Ġc ases
ti tion
an ge
Ġme an
v al
Ã Ĺ
c om
t he
ĠF in
Ġknow n
m ma
ie w
Ġsolution s
Ġsu fficient
Ġun it
v ial
Ġm o
Ġwh ose
Ġanaly sis
ord in
ric es
Ġle mma
v ol
Ġqu antum
Ġcor re
Ġy i
Ġestim ate
Ġi ter
w ard
Ġstud y
Ġpre vious
ti v
ro s
Ġar bit
Ġes t
a im
ann el
Ġ) (
Ġcon f
Ġl o
plic it
ĠCon sider
ym pt
Ġnot e
Ġsing le
Ġarbit r
al c
Ġ| |
ver se
b ed
Ġi ma
clud e
g ative
Ġw or
ro w
ĠâĬ ķ
Ġdec om
Ġconver gence
Ġâī ¡
omorph ic
Ġe ither
Ġnod e
Ġdom ain
Ġne ighb
ympt otic
if old
Ġs en
Ġp res
Ġc ent
f or
Ġparamet ers
ĠA pp
Ġpre c
Ġf l
ĠH ere
Ġwe ight
i er
h a
et ry
Ġmodel s
s p
Ġran k
Ġop en
ĠO n
Ġle ad
Ġs l
Ġstr ong
Ġd ynam
Ġgraph s
Ġg ive
Ġcom bin
c le
Ġwr ite
Ġu pper
â Ł¨
ing s
ĠF rom
Ġrepresent ation
] )
Ġwe ak
n er
T he
Ġcon c
Ġp ower
Ġsystem s
Ġle vel
iv en
ech n
Ġâ Į
Ġt ree
le ction
Ġdist ance
Ġch annel
as ing
if ic
Ġor ig
Ġd iv
Ġnod es
Ġs ay
Ġsupp ort
Ġex pl
Î £
si ve
Ġhe re
Ġ ener
ĠR e
Ġsp ect
t o
ec ess
Ġfact or
Ġbe low
Ġdisc re
Ġad d
Ġco ordin
Ġsy m
ĠF urther
Ġl ast
Ġinter s
Ġgener ated
ab el
Ġvari able
u ally
Ġqu anti
ord ing
Ġc alc
) /
er tain
Ġas ymptotic
Ġg l
] ).
s ity
ĠC om
Ġg o
Ġmethod s
Ġâ© ½
ate ly
Î º
Ġh ow
i od
t on
ch ie
Ġbas is
Ġb loc
Ġro ot
ĠG iven
Ġme ans
Ġnatur al
Ġmat rices
Ġmap s
ĠFin ally
Ġpropo sed
Ġidenti f
ĠâĬ ¤
Ġab out
Ġtr ue
ĠÂ ´
ĠN e
Ġh igh
h ood
Ġa chie
ĠU sing
Ġeigen valu
in d
Ġener gy
u g
Ġco s
Ġthere fore
ent ly
Ġco st
Ġproblem s
Ġge om
Ġthe m
Ġpar tition
Ġ Ë
j ective
if ied
Ġl a
ĠR ec
Ġbound s
Ġcompon ent
Ġcur ve
Ġt echn
le ct
Ġ) |
ĠO ur
Ġind ex
Ġcho ice
Ġwith out
Î ¶
Ġrel ation
Ġver y
Ġsp aces
Ġexp on
Ġgr ad
Ġc he
Ġne xt
2 2
Ġn ecess
Ġ '
as ed
Î Ľ
Ġobser v
Ġcontro l
Ġpr im
Ġc ategor
Ġapproxim ation
Ġinfin ite
Ġfam ily
si an
Ġs in
Ġal ong
Ġtak e
en e
ĠâĪ ħ
Ġdenot es
Ġs ide
a ve
g roup
ĠS o
Ġreg ion
Ġto tal
Ġsymm etric
m it
Ġf urther
) ]
Ġstr ate
Ġâ ĩ
ut e
l og
os s
Ġt re
if y
ĠâĪĴ âĨĴ
Ġdet ail
j oint
it er
ĠC h
Ġnot ation
Ġc ir
Ġcomput e
m ore
ĠS im
Ġbe l
Ġcompon ents
Ġem bed
Ġind ic
Ġd ue
m ost
en ces
Ġin variant
Ġg u
pp ing
Ġst at
Ġsatisfy ing
ĠI I
ĠS p
ĠF irst
Î ¦
m an
Ġext ension
Ġalgorithm s
Ġimp ort
l ed
is ion
ul es
Ġth ose
Ġsche me
Ġapp ly
Ġnum er
eren ce
Ġre ad
Ġaf ter
et s
Ġtrans form
Ġp ri
Ġarbitr ary
2 1
Ġinte ger
en cy
ar ch
Ġargum ent
ĠW hen
Ġf ree
ĠI nd
Ġtri ang
Ġre pl
e ad
Ġ Ġ
Ġexpres sion
ver age
ĠâĢ ł
Ġd t
ĠâĬ ¥
Ġsh ould
Ġgroup s
Ġo cc
Ġse par
Ġbe ha
Ġapp ear
Ġden sity
u p
m on
Ġdia gram
ern el
ed i
Ġclass ical
Ġin put
Ġoperator s
Ġbe ing
pl it
Ġle ar
Ġex plicit
Ġcon sid
Ġspec ial
a x
Ġï£ ¯
Ġcl aim
Ġtr an
y s
Ġsurf ace
ab l
Ġprov ed
Ġb i
Ġc ap
Ġ1 3
ĠAl gorithm
Ġcan not
Ġb r
Ġk e
Ġag ain
Ġl oss
in ary
Ġs qu
Ġconsid ered
Ġis omorphism
id ed
Ġï£ º
Ġc lear
Ġmaxim um
ĠAssum e
Ġdecom position
m is
Ġdescrib ed
Ġv ia
ĠE q
Ġl abel
Ġ( (
2 3
orph ism
âĨĴ âĪŀ
Ġ1 9
ri es
Ġyi elds
) âĪ¥
) ).
w ays
2 5
Ġperform ance
Ġprec ise
Ġcoefficient s
Ġin vol
per im
Ġinst ance
ĠThe se
Ġwe re
ĠG aus
ce pt
cl usion
2 4
Ġcho ose
Ġen ough
Ġexact ly
Ġhol d
o id
as tic
Ġper iod
Ġver sion
Ġf low
a f
âī ¥
Ġsen se
Ġd i
Ġdire ction
Ġl ike
Ġpre d
Ġal ways
Ġi r
Ġr un
Ġrel ative
u ting
Ġdia g
Ġa v
Ġinter val
vel op
Ġintegr al
Ġk ernel
e g
Ġproj ection
o le
o ch
u ch
Ġfr ame
ĠâĪ ¨
Ġst ar
on s
Ġcalc ul
ĠO ne
Ġ. .
l ess
Ġdenot ed
Ġche ck
ric t
Ġest abl
Ġ ðĿ
i or
ac y
ator s
Ġvector s
ti l
um n
ul t
Ġ1 6
line ar
re ad
o k
Ġinter p
Ġc r
Ġv iew
Ġrel ations
Ġh yp
Ġma ke
Ġcon clude
Ġexist ence
end ix
u c
s c
Ġc ertain
ĠW ith
Ġl n
Ġ #
em p
ĠRec all
Ġst rict
Ġsub group
Ġimport ant
Ġp erm
Ġtr a
W e
Ġsu per
Ġb und
ĠEx ample
are d
es tion
Ġtim es
iz ing
Ġro w
Ġh ig
ĠFurther more
Ġminim al
Ġprov ide
Ġim m
re t
Ġbeha vi
Ġev alu
os en
Ġd im
ti ll
ĠS t
Ġcomplex ity
Ġqu ad
Ġcomput ation
Ġor th
Ġ( [
Ġcol umn
Ġdiscre te
Ġintrodu ce
â Į
Ġocc ur
an te
sequ ence
Ġgl ob
ent al
Ġrel ated
ens or
olog ical
it ten
Ġt or
Ġdifferen tial
Ġf ound
Ġima ge
Ġmaxim al
Ġ `
Ġref er
Ġp ot
ol ution
Ġ.. .,
Ġat t
p r
Ġpro ced
gr aph
si f
si gn
Ġch ange
Ġman ifold
Ġl ong
ĠSim ilar
il ity
Ġï£ «
Ġï£ Ń
Ġcontr ad
ot op
Ġï£ ¸
Ġï£ ¶
ĠT able
ut ed
( âĪĴ
Ġr ad
re st
Ġâ Ļ
Ġ1 4
Ġch ain
Ġd ual
Ġsing ular
i tive
O N
Ġm orphism
Ġclass es
ic t
Ġc ould
Ġacc ording
Ġ[ ?
Ġbloc k
Ġindu ced
Ġidenti ty
Ġch osen
ch ing
Ġde velop
ĠT r
Ġv al
ari ly
Ġmulti plic
ĠGaus sian
t ri
Ġneighb or
s on
h om
ire d
Ġnumber s
ri ent
Ġimp ro
p ly
Ġcl ust
po s
ot her
ĠâĨ Ĳ
Ġdes ign
Ġno tion
Ġanal og
Ġem p
ĠInd eed
a v
du c
ig ur
ti t
Ġc ell
Ġestim ates
Ġbel ong
Ġre as
Ġex perim
r on
Ġuniform ly
od es
Ġb ack
Ġinte rest
Ġcod e
Ï ĩ
Ġcl ose
Ġgu ar
Ġo rient
Ġal most
) ;
ic ations
iz es
Ġs till
Ġst able
Ġtri vial
Ġa verage
Ġj ust
Ġf ull
Ġcorrespond s
tim e
Ġf our
enti ally
Ġg re
sid e
Ġeas y
Ġpr inc
Ġequival ence
our ce
Ġpro gram
Ġintrodu ced
Ġco ver
Ġt est
Ġqu estion
Ġsim pl
Ġhyp ot
Ġcur ves
as sif
Ġrec all
Ġin clud
Ġbe fore
ad e
d d
Ġi ll
Ġstat ement
Ġpl ay
get her
i vers
Ġto gether
Ġguar ante
2 6
Ġre ce
se l
Ġt urn
u str
Ġminim um
) :
â Ĭ
Ġstrate gy
Ġex amples
Ġcategor y
Ġpo sition
Ġim ple
re nt
Ġconstrain ts
ri tical
Ġother wise
Ġir re
Ġcou n
Ġsubs p
k now
Ġm om
Ġoptim ization
si b
z ero
Ġc ros
tic ally
ic k
Ġnumer ical
Ġs ample
ĠC l
Ġv an
ĠN o
Ġ( âĢ¢
ou nt
Ġconf igur
Ġsufficient ly
l ation
e e
Ġph ase
ĠP o
te xt
an ces
Ġ ],
Ġtran sition
Ġen c
Ġser ies
Ġv ol
Ġse ver
v ant
Ġcomm un
Ġeas ily
Ġproced ure
) ),
Ġ1 5
Ġcontain ed
b ol
Ġsever al
Ġl ess
Ġ} ,
Ġwor ds
ject ure
Ġinters ection
Ġqu as
ĠO b
Ġma k
Ġsupp ose
Ġcon ven
og ene
ĠH am
2 7
Ġexp ected
Ġassumption s
Ġb u
Ġa ct
Ġwhe ther
Ġconstrain t
Ġad j
Ġdepend s
T I
he sis
ĠP r
och astic
Ġf re
ame ly
2 8
un ctor
ĠApp endix
Ġl ow
w ork
Ġglob al
i us
Ġrestr iction
Ġcy cl
ri d
Ġas sign
g in
Ġdifferen ce
Ġorig inal
ol ds
Ġan other
Ġappl ied
Ġno ise
Ġwh at
Ġcomm on
Ġ{ (
tic s
Ġr ule
w h
Ġf il
tiv ity
Ġallow s
Ġsim ply
i k
in k
Ġb o
Ġ ess
Ġpres er
Ġdec re
Ġwith in
Ġne gative
t ur
Ġhig her
Ġobser ve
Ġor bit
Ġ} .
Ġcomp ar
Ġrequire d
en tion
b olic
Ġs it
Ġor d
or der
Ġill ustr
Ġcl assif
Ġá º
el f
Ġpair s
Ġlat tice
Ġup d
r as
a ges
Ġloc ally
Ġcan on
Ġe l
il ton
Ġd s
ĠâĪŀ .
Ġgeom etric
Ġs ampl
Ġimple ment
Ġst ochastic
Ġsatisf ied
Ġdis tin
Ġlear ning
Ġcon text
Ġsu mm
ĠâĪŀ ,
Ġab s
ĠE qu
Ġimm edi
3 0
an sion
Ġcon j
ĠG r
Ġexp ect
know n
ĠIn t
Ġpresent ed
Ġgrad ient
) }
Ġsh all
Ġout put
Ġrepl ac
Ġaut h
Ġdistribution s
Ġpro position
Ġlin k
ĠL ie
Ġcomput ed
Ġbec om
Ġst atis
il ib
Ġtak ing
Ġt ensor
Ġo dd
Ġconver ges
Ġdetermin ed
ĠSimilar ly
Ġbund le
ic ted
Ġval id
Ġconsis ts
Ġconn ection
ĠÎ ¹
Ġreas on
Ġalgebra ic
Ġembed ding
ĠS te
Ġd u
Ġcoordin ates
Ġpolynomial s
Ġeigenvalu es
Ġframe work
Ġnecess ary
D E
of f
vari ance
Ġs plit
Ġperm ut
Ġdynam ics
ti g
Ġmulti ple
Ġsym bol
ip s
ĠL e
p ro
ilib ri
Ġaddition al
a ves
c ing
.. .,
read y
Ġpro p
Ġsim plic
| |
2 9
Ġinst ead
at er
Ġbecom es
/ (
Ġm uch
Ġprecise ly
Ġpar tial
Ġg ood
Ġprov ided
Ġf unctor
Ġsh ort
ur ing
Ġstep s
Ġequ ality
Ġ ?
ce ed
Ġdiag onal
Ġal ready
Ġwr itten
geb ras
Ġincre asing
ĠNe xt
it z
Ġexp ansion
Ġmod ul
l o
Ġdirect ly
Ġev ent
Ġa x
Ġcont rib
Ġ2 00
Ġcomm ut
oc us
Ġorth og
Ġse en
Ġm ark
Ġnetwork s
Ġspect ral
ĠL a
Ġpath s
ĠHam ilton
Ġc ritical
ti f
fin e
Î ¨
Ġf und
ou n
Ġlar ger
ogene ous
ĠÂ §
Ġun ion
Ġredu ced
if ication
ĠW h
Ġs elf
Ġin ves
Ġâ© ¾
rop y
ĠB ut
Ġsqu are
al le
Ġal tern
. )
Ġgeneral ized
Ġpot ential
Ġstrict ly
Ġro b
Ġpri or
Ġb ase
Ġdis joint
Ġconst ants
igh ts
ĠS ch
re g
Ġrec ur
Ġdistin ct
at her
Ġmeas ures
Ġstud ied
Ġke y
ber t
Ġen s
Ġcanon ical
u ts
ed u
Ġcharacter istic
Ġredu ction
ĠAssum ption
Ġcon sequence
Ġdescrib e
duc ible
i res
f er
Ġacc ur
Ġprov ides
Ġ+ âĪŀ
Ġin verse
il d
Ġb l
Ġï£ ³
Ġï£ ±
Ġresul ting
Ġremain s
ne gative
Ġï£ ²
Ġind uction
I n
et y
Ġpr ac
Ġpro t
ĠU n
Ġh owever
Ġ) ]
Ġlin es
ĠM ark
Ġf ocus
Ġm em
Ġequ ilibri
am ental
Ġdistrib uted
Ġdes ired
Ġe fficient
Ã ¶
Ġp olic
Ġad ap
Ġcontain ing
Ġdetail s
is hed
Ġneighbor hood
res s
res ting
ĠË Ĩ
j ects
Ġlo op
Ġclust er
ĠAl so
Ġ2 1
Ġuse ful
Ġâī ²
Ġform al
Ġde l
ech an
w ar
Ġre t
Ġqu er
ĠDefin e
z e
Ġma pping
o ti
Ġtr ain
Ġfi elds
al gebra
3 2
Ġsu c
Ġsmall er
3 1
Ġb et
im in
Ġestim ation
Ġco p
Ġr ational
Ġcy cle
ra tic
Ġb est
Ġbehavi or
Ġne ar
Ġpl ane
Ġconstruct ed
( âĢ¢
Ġextend ed
Ġestim ator
Ġcur rent
Ġus er
Ġh al
Ġla w
Ġdiscus sion
ow n
po int
tri vial
Ġge odes
Ġt as
res h
Ġsu ffic
re n
Ġlat ter
Ġmon ot
op e
Ġhypot hesis
3 4
orm al
Ġappl ications
Ġper tur
Ġbr an
Ġst art
pp ed
l er
Ġide al
Ġsit u
Ġar c
if olds
Ġ2 2
b ack
Ġlead s
Ġtrans formation
Ġsequ ences
otop y
â ĥĹ
ges t
Ġapp lying
al e
Ġirre ducible
res sion
ĠA t
] [
Ġcol lection
Ġconj ug
a ight
Ġl iter
Ġprocess es
Ġform s
Ġg row
po se
Ġâī Ī
b ased
Ġâī ĥ
Ġcontrad iction
th ough
Ġsign al
Ġprob abil
Ġcir c
Ġfund amental
alle l
Ġstr aight
Ġsubsp ace
Ġhyper bolic
Ġam ong
Ġ ].
Ġsymm etry
ri ption
ĠA d
Ġran ge
ĠâĪĴ (
i em
3 3
ii i
Ġb all
ĠâĪ ĳ
he ma
Ġderiv ed
or tion
s h
Ġt ang
Ġorthog onal
Ġph ys
d x
ar get
Ġent ries
Ġrem ark
Ġappl ication
Ġm ention
Ġs he
ir d
âĢ¢ âĢ¢
Ġtyp es
Ġrequ ires
Ġm echan
Ġmom ent
ati ves
Ġinves tig
Ġh or
if t
ab ly
Ġbas ic
Ġsp ar
iqu es
Ġd one
Ġp i
Ġse g
Ġret urn
Ġs ource
Ġtak es
ter s
Ġsol ve
Ġis omorphic
Ġsign ific
iem ann
for ward
E R
p ri
w here
ll ip
Ġwe ights
Ġsim ul
u x
Ġr ing
oc ol
o y
Ġbe gin
Ġ[ âĪĴ
Ġha ving
is hes
Ġan g
ĠS et
Ġfunction al
Ġunder st
Ġbet ter
Ġfre qu
Ġiter ation
Ġcorre ct
Ġder ive
Ġ) âĪ¥
a tic
m in
( (
Ġd ou
Ġderiv ative
Ġinte resting
Ġt es
Ġqu e
ic es
Ġd edu
Ġco inc
Ġaf fine
sequ ently
w ith
Ġconsis t
Ġtop ological
ond ition
Ġquas i
f ree
ac hes
Ġde f
Ġqu oti
Ġvari ance
ra w
is on
Ġexpon ential
Ġm ar
Ġquad ratic
le c
at h
Ġm ess
w e
se ud
Ġc ar
Ġg en
Ġorig in
Ġt arget
ĠMark ov
g ers
Ġsu it
Ġexpl ain
Ġb inary
ĠSu b
ri er
il bert
ĠTh at
Ġcon s
Ġâĩ Ĵ
Ġ1 00
Ġst ability
Ġhal f
Ġdom in
Ġre st
I N
Ġapproxim ate
Ġtop ology
in s
Ġr ati
Ġvari ous
)- (
Ġl ay
Ġc ut
Ġn amely
Ġu til
ĠF ix
ĠOb ser
re es
Ġpo st
r um
Ġstruct ures
Ġspec ific
Ġeigenvalu e
ĠÏ ĳ
I I
3 5
Ġst ation
Ġperiod ic
Ġob jects
iz on
Ġide a
se m
Ġsuffic es
Ġ1 8
od ing
Ġpos sib
Ġdiff ic
A R
ous ly
ĠC ase
ig ure
Ġconfigur ation
iv id
Ġcur v
Ġ( |
Ġobser ved
ore d
Ġus es
ĠS ec
al ities
ĠHamilton ian
l in
Ġstar ting
end s
Ġent ropy
Ġf ac
is k
Ġs a
Ġun ivers
ĠSp ec
ec ting
sel f
ĠD en
Ġdesc ription
b ound
Ġcon jecture
Ġg ame
Ġsupport ed
h and
en ess
âĪĪ [
ĠNo tice
Ġfr action
is ed
Ġa round
s u
Ġsu g
y mm
Ġpat tern
w er
Ġp ur
Ġw ave
Ġthe ore
Ġequilibri um
ch itz
b y
Ġof f
Ġestabl ish
Ġpar allel
Ġro t
Ġcoordin ate
ĠE ach
Ġd y
Ġdiscus sed
Ġprot ocol
Ġav ail
Ġ round
z ation
Ġcent ral
Ġun c
ĠSte p
Ġidentif y
Ġdiv is
Ġp ass
m es
S T
3 6
ips chitz
Î ł
2 00
d efin
Ġassum ed
em s
Ġdimension al
Ġin ver
j ection
Ġs amples
valu ed
mon str
Ġf ul
Ġcap ac
S I
Ġdiscus s
Ġm ass
S E
Ġtrans mit
ak ing
ĠH om
ĠR iemann
Ġob jective
Ġth resh
ve ctor
Ġsignific ant
ang u
Ġob ject
Ġ1 7
Ġm ix
Ġr ather
Ġfi ber
Ġobserv ation
Ġsubset s
O R
Ġdefinition s
Ġdeterm ine
Ġinte gers
Ġeff ect
Ġth ird
Ġpertur b
e f
Ġfin al
Ġsampl ing
Ġm ade
Ġscal ar
The orem
Ġe llip
Ġfinite ly
ĠH ilbert
ĠS ee
Ġappro pri
Ġcontro ll
at ures
is c
Ġd raw
Ġfi b
ĠR es
Ġf ail
Ġof ten
Ġlat er
ari es
L E
m its
ĠInt rodu
or ies
Ġcomp uting
Ġpar ts
Ġadj ac
Ġp ure
Ġpolic y
Ġtak en
Ġpo p
Ġre le
Ġp seud
Ġliter ature
Ġan s
Ġtra ject
Ġargum ents
Ġprinc i
str uction
Ġoper ations
ĠA ll
Ġanaly tic
Â ´
Ġrepresent ed
um e
Ġdepend ing
iv ari
Ġgo al
em ents
en ari
z ed
Ġgener ic
mod ule
Ġcondition al
Ġrepresent ations
Ġ( âĪĤ
Ġspect rum
Ġpl an
Ġsem i
p s
Ġag ent
Ġmak es
Ġc oll
ma nd
Ġrepresent s
Ġcontrib ution
Ġhor izon
Ġind ivid
Ġdat as
Ġp ack
r ation
wh ich
Ġm ight
Ġcurv ature
p e
ĠâĮ Ĭ
Ġcou pl
3 7
Ġl angu
ap e
st e
Ġavail able
Ġá ¹
o sition
Ġgener ality
ak e
Ġcommun ication
Ġk not
f erence
Ġus ual
l ike
Ġoper ation
Ġse lect
Ġaut om
Ġremain ing
Ġrad ius
os ing
Ġcomput ational
f ect
id th
Ġd own
Ġse arch
ti ble
Ġtechn iques
Ġde monstr
Ġus ers
Ġunder lying
Ġquoti ent
ĠG L
ĠI m
Ġcol or
ot t
Ġa ble
Ġprim e
Ġ2 4
Ġproof s
Ġcon e
Ġimpro ve
iz er
r aph
Ġinequ alities
mis sion
Ġ enti
Ġ2 3
Ġs w
Î ĺ
Ġproj ective
Ġrati o
ĠâĬ ¢
T h
Ġw al
Ġrep e
Ġdedu ce
ol ute
Ġr ules
Ġfact ors
Ġneed ed
ting u
Ġco hom
Ġin ner
Ġwork s
Ġtre es
Ġit self
Ġinterp ret
Ġdifferen ti
Ġimp ly
Ġvari ety
le t
Ġob vious
i ting
Ġtr ace
Ġsc enari
Ġext re
Ġsurf aces
Ġstrong ly
im e
v iew
v als
Ġcomp osition
is ing
Ġimmedi ately
Ġj oint
Ġdefin es
Ġnon linear
( |
an k
p uts
Ġal gebras
Ġ !
ple c
Ġreg ard
led ge
i ver
Ġver ify
Ġid en
Ġinter action
Ġstraight forward
Ġtriang le
Ġhe l
Ġw ord
ĠA B
â ĩ
D P
Ġï£ °
P ro
Ġon to
Ġï£ ®
ĠIntrodu ction
Ġcapac ity
Ġhom omorphism
C A
Ġgeodes ic
Ġcou nt
Ġsol ving
Ġï£ »
Ġï£ ¹
g ing
ĠÎ ŀ
ste in
Ġfe as
Ġfl at
Ġad mits
Ġpermut ation
Ġabs olute
ĠEqu ation
Ġhom otopy
am es
Ġ. ..
is son
Ġthresh old
Ġw ant
S P
Ġpi ec
ĠM od
Ġsitu ation
Ġnecess arily
Ġindivid ual
in ts
Ġunivers al
ot s
Ġhom ogeneous
c f
ĠE u
ĠDen ote
4 0
Ġwhen ever
plec tic
3 8
Ġconsider ing
w ay
Ġcomple ment
Ġscal e
ĠS h
Ġc ub
Ġstation ary
Ġsuit able
f unction
) âĪĴ
ĠÏ ±
Ġon es
A T
Ġweight ed
Ġind eed
in variant
Ġl ies
ec ause
Ġcr iter
Ġincre ases
ĠLa gr
Ġexplicit ly
as h
ap l
m ing
Ġgeom etry
if ically
el ian
Ġin clusion
ĠU nder
Ġinter ior
ud e
Ġmo tion
ĠII I
war ds
Ġc re
Ġf ar
Ġdetermin istic
TI ON
Ġmat ching
od e
Ġtrain ing
Ġ È
w r
Ġbelong s
Ġag ents
Ġemp ty
ĠâĪŀ )
pr int
Ġauth ors
Ġappro aches
pl oy
Ġpro ves
R O
Ġall oc
Ġvan ish
Ġprinci ple
Ġm ach
âĪĴ âĪĴ
Ġgener ating
ur al
Ġmo tiv
Ġc aus
3 9
Ġsche mes
ener ate
a pp
Ġpro ceed
ĠA r
Ġl ist
Ġdimension s
ĠðĿ ľ
Ġappropri ate
Ġev olution
Ġcomp ared
Ġex cept
Ġrob ust
oc k
Ġmeasure ment
Ġsl ight
Ġindu ces
at a
A C
ĠQ u
Ġdec ision
Ġ) }
Ġvol ume
Ġ) /
ĠâĪ ĥ
id ence
emp ty
Ġmechan ism
t es
ĠObser ve
Ġexperim ents
) +
Ġformul ation
Ġsimilar ly
l ic
ĠS L
Ġp ric
Ġtrans mission
an ges
cl ide
Ġb and
Ġknow ledge
clide an
Ġachie ve
Ġg ap
c o
Ġr ates
ou rier
Ġco variance
ut ure
Ġemp ir
d en
Ġaut omorphism
ĠD ir
Ġtang ent
i ence
ĠPo isson
Ġdou ble
ma x
i ally
Ġrestr icted
Ġth ough
si m
Ġare a
Ġn ull
Ġsub graph
Ġac ts
âĩ Ĵ
Ġsp in
Ġd uring
Ġexpres sed
ĠC o
ĠM at
Ġcomp ati
Ġre si
Ġr ig
amet er
c hes
ĠA cc
Ġá ¸
Ġconc ern
Ġderiv atives
Ġformul as
Ġinfin ity
om etric
lear ly
Ġ2 5
Ġsuc cess
ĠâĪĨ (
Ġexpect ation
ĠL ipschitz
id ing
Ġp ol
Ġcompar ison
en c
Ġaccur acy
Ã ¨
Ġc ard
mis sible
po sed
d eg
Ġunit ary
Ġh ard
Ġcod es
Ġterm in
Ġlo ok
Ġtas k
com p
E N
Ġcros s
Ġsug ges
Ġh ar
Ġpropo se
Ġman ifolds
Ġdis tingu
ĠF ourier
c tive
Ġrece iv
Ġar r
Ġmention ed
Ġex ec
E S
Ġsim ulation
Ġmat hema
Ġyi eld
com ple
Ġinclud ing
A N
ul er
Ġde v
Ġcomp are
Ġin clude
Ġper fect
iz ations
, ...,
Ġar ri
c all
Ġm ove
a res
Ġre ach
Ġcomplete ly
Ġellip tic
d t
ĠC P
Ġhom ology
ĠA f
ĠC learly
Ġdevelop ed
Ġsa id
Ġ( âĪĨ
Ġupd ate
Ġtheore tical
ine ar
Ġon ce
c ol
Ġconsist ent
Ġunderst and
Ġv is
Ġe ar
Ġtre at
Ġeff ective
str uct
Ġcohom ology
Ġg ain
Ġst ated
âĮ ĭ
os ed
Ġsp ati
ti ally
Ġin side
Ġsym plectic
ĠB e
Ġro le
en ting
g ies
re l
c ts
Ġ| âĪĩ
Ġcir cle
Ġm ut
Ġsmall est
Ġa ff
Ġpro f
Ġfe w
um er
ĠS c
Ġf ace
Ġrec on
Ġsubs tit
Ġat om
pl es
Ġcombin ator
Ġobserv ations
f ace
Ġcombin ation
Ġinter vals
Ġbloc ks
Ġden se
Ġsection s
Ġre d
] ),
on ic
Ġcon clusion
Ġdefin ing
Ġcolumn s
ĠÃ ĳ
Ġappear s
ĠL apl
} )
st able
Ġredu ce
Ġpri v
Ġsp here
Ġcent er
s k
Ġclear ly
el i
Â ±
Ġst abil
Ġact ually
Ġrele vant
Ġread er
ĠPro blem
ur able
ĠO ther
Ġf uture
Ġtor us
Ġquer y
Ġenti re
l u
ĠÎ ¼
Ġresi du
Ġacc ount
Ġlar gest
Ġadjac ent
Ġaltern ative
Ġ) ).
Ġclassif ication
i j
Ġindic es
Ġâī ľ
( [
ĠB ecause
Ġrem o
Ġto ol
ĠThe y
Ġgeneral ization
Ġc our
ymm etric
Ġfeas ible
ĠAcc ording
Ġent ang
Ġde al
Ġhol omorphic
Ġnon zero
Ġre se
ĠA ut
Ġroot s
ĠWh ile
ar ithm
Ġfe atures
Ġse lection
Ġâī ª
ĠEu clidean
Ġass er
Ġincre ase
d ed
form al
Ġscal ing
Ġâ ª
Ġshow ed
v able
ĠSu ch
il i
Ġo pp
Ġlangu age
Ġgener ators
ĠÄ ı
Ġun known
ip al
A L
ce p
Ġprobabil ities
Ġsubs ection
Ġa im
Ġif f
Ġâ İ
ti te
I M
ĠB S
Ġp e
Ġd Âµ
Ġav oid
Ġen v
Ġgen us
Ġphys ical
Ġess entially
Ġp ers
ĠðĿ Ĳ
Ġch anges
Ġseg ment
r am
y stem
Ġrec ent
s et
Ġr isk
Ġestim ated
Ġsub ject
ĠI V
Ġgener ally
m at
Ġclos ure
ari ties
Ġspar se
ĠAf ter
it ed
is ation
Ġdirect ed
Ġgener ate
Ġv i
on t
tic le
Ġ &
ce ll
Ġiter ations
Ġt able
Ġg au
Ġempir ical
ol i
ĠâĪĴ âĪŀ
Ġdi ver
Ġconsis ting
tion s
is ted
Ġab elian
4 5
Ġgre ater
defin ed
Ġreplac ed
ros s
ĠA g
le x
man ifold
Ġerr ors
4 1
Ġtechn ique
e xt
Ġmem ory
ex p
i om
Ġhel p
Ġstr ing
ĠP ar
Ġto o
ty pe
Ġregular ity
os ite
Ġanalog ous
Ġre wr
Ġens ure
o in
Ġha pp
Ġcirc u
| )
Ġinterest ed
Ġweak ly
Ġreg ression
vari ants
is es
Ġmeasure ments
Ġprov ing
Ġcorre lation
Ġsp ann
Ġachie ved
ĠS U
Ġrel ax
ĠâĻ ¯
ĠCon sequently
ĠCl aim
Ġdepend ence
Ġp ut
S S
ĠS O
ĠG al
ivari ant
Ġwal k
Ġcomple tes
Ġregion s
bound ed
Ġ| =
ĠE uler
Ġmess age
Ġoccur s
Ġaction s
Ġequ als
Ġad missible
Ġfe ature
ik eli
Ġmod ule
ikeli hood
Ġâĸ ł
Ġconver ge
Ġb it
Ġful ly
Ġatt ack
Ġs k
Ġd z
Ġsimplic ity
Ġcycl ic
Ġl if
Ġu nd
Ġfind ing
Ġwh ole
Ġcour se
ĠLagr ang
M P
i ency
Ġref erence
ad ing
Ġsp eed
Ġun til
es ian
F T
ĠâĢ¢ )
Ġmultiplic ation
Ġorient ation
ĠâĪ¥ âĪĩ
Ġans wer
Ġj um
Ġi i
Ġcontr ast
Ġcycl es
c ent
4 2
ir on
un c
Ġg rid
ip ar
Ġbo x
âĪ ©
Ġneed s
Ġrow s
Ġestabl ished
Ġlead ing
Ġver tical
Ġgener ator
Ġasymptotic ally
Ġwhere as
Ġshow ing
Ġfrequ ency
Ġcoun ter
5 0
Ġke ep
ĠH e
Ġidentif ied
n ected
v ity
Ġ) -
Ġdecre asing
Ġord ered
Ġembed ded
Ġprodu cts
) !
ic ts
Ġh ome
Ġcros sing
eren ces
Ġorient ed
Ġconstr uc
Ġprinc ipal
Ġslight ly
Ġrec over
id ent
Ġem ploy
Ġdiffic ult
Ġpoly t
Ġpiec e
ĠCom bin
Ġpl ace
Ġcon cept
Ġguarante e
Ġg round
Ġsumm ar
4 4
0 1
Ġde vi
ang ing
Ġbu il
Ġv ir
Ġlay er
Ġrepl ace
Ġan n
an ced
P T
Ġcontinu ity
Ġpric e
Ġd ri
Ġgau ge
Ġan ti
mon ic
pl ane
iqu eness
ap ter
er ior
sive ly
Ġpartic le
Ġl ie
ĠÃ ©
Ġâī º
Ġle aves
Ġredu ces
Ġtrans l
p ort
Ġdec ay
Ġh is
ber g
Ġdiff e
ro id
po ints
al y
end ing
Ġb its
) âŁ©
Ġdis k
Ġquanti ty
Ġab str
c hed
ro xim
Ġdynam ic
Ġprop ortion
Ġspati al
A B
ap s
sp ace
Ġconc ent
a w
Ġcorre l
Ġ(âĢ¢ )
N R
r ing
d le
M C
Ġguarante es
Ġvari ation
Ġelement ary
Ġb al
ĠLagrang ian
Ġbec ome
Ġsol ved
Ġsymbol s
Ġext r
Ġex h
Ġhorizon tal
Ġcover ing
Ġ3 0
iff eren
Ġinter n
ĠI d
â Ĩ
ult ane
Ġsh ape
4 3
Ġperform ed
Ġpseud o
Ġpred iction
f i
Ġm is
Ġsh ar
Ġexpl o
og raph
9 9
Ġenv iron
Ġad ding
here nt
Ġf igure
Ġchannel s
Ġk er
E M
au ch
Ġ3 2
it t
ĠC ondition
Ġexpression s
Ġcho ices
ire ct
ĠSub s
Ġsplit ting
Ġt ight
our ces
Ġ] )
Ġb re
Ġnatur ally
g an
Ġad vant
Ġ( {
Ġm er
Ġcom es
Ġqu ite
Ġcommut ative
ĠP l
Ġx y
ĠJ ac
Ġnormal ized
s ur
Ġrese arch
Ġsu re
Ġout side
Ġt u
Ġj k
Ġprac tice
Ġtransform ations
ore l
P P
w o
Ġpre print
ol ation
or ing
bit s
c ome
Ġcho osing
Ġs ides
Ġang le
ĠÂ ¬
Ġbl ack
auch y
Ġi k
Ġassum ing
Ġin variants
Ġimplement ation
ec k
Ġcor ollary
i ti
Ġe lect
Ġf a
ĠD e
Ġneighb our
Ġb ott
and id
j or
Ġiden tical
Ġlinear ly
Ġac cess
Ġdeg rees
Ġstatis tical
l ing
Ġdynam ical
ĠP h
vol ution
Ġtechn ical
Ġcompati ble
I C
Ġam ount
4 8
Ġrun ning
Ġappl ies
Ġgrow th
od y
c ategor
Ġcriter ion
ĠAl though
Ġstrate gies
M A
Ġlog arithm
Ġintegr ation
Ġinterpret ation
Ġcombinator ial
et ries
Ġmean ing
Ġess ential
Ġturn s
Ġsim ultane
Ġrelations h
Ġextend s
Ġtrans lation
ĠSec ond
4 6
Ġac tive
Ġb ro
ĠÎ ¥
row n
Ġcalc ulation
Ġnon negative
ĠCh o
I T
Ġdatas et
Ġvan ishes
Ġo mit
Ġplan ar
, âĪŀ
Ġâ Ĺ
c he
Ġsp an
Ġus ually
Ġf eed
Ġpartic les
ĠC auchy
i pped
l ier
Ġarbitr arily
Ġre view
ffic iency
Ġmach ine
ri ef
Ġfor ward
Ġp ay
Ġlin ks
Ġsw it
cl es
Ġmod ified
Ġmix ed
ac ting
Ġgo es
Ġdivis or
Ġunique ly
Ġd r
Ġselect ed
Ġcell s
Ġc andid
Ġ) ),
Ġcont act
Ġmeas urable
tim es
Ġdomain s
Ġanaly ze
Ġp en
4 7
Ġdiscre ti
ĠâĨ ĵ
Ġf ast
ce ption
ĠB orel
s ub
Ġcalcul ate
Ġmon oid
Ġlear n
ĠO F
Ġrep ort
n orm
Ġdel ay
il ies
ro b
d iv
Ġc ore
Ġtri ple
c ur
tim al
Ġvir t
Th is
Ġauth or
as ter
Ġscenari o
Ġax iom
d y
Ġeigen vector
Ġorbit s
Ġpre f
Ġexis ting
Ġplay er
Ġindependent ly
Ġevalu ation
Ġinc om
Ġá »
Ġcon ser
Ġlabel s
Ġorder ing
Ġ) ;
Ġdetail ed
Ġpl ot
R E
Ġunc ertain
ĠApp lying
ut es
Ġbel ie
Ġat tr
Ġperturb ation
Ġprop ag
ĠO p
u tive
| ,
Ġne g
Ġun iqueness
Ġre fin
ĠâĮ Ī
Ġmodul i
Ġs ke
Ġm es
ĠÃ ĥ
Ġalloc ation
L S
Ġ[ (
Ġmonot one
Ġadd itive
call ed
Ġprac tical
ul arities
ch ron
Ġb ig
v ation
ac le
Ġcap t
ĠA N
Ġdep th
ĠB ay
Ġno tice
Ġima ges
ĠE n
Ġb rief
Ġinter ference
Ġac ross
L emma
Ġinver tible
Ġsimplic ial
o per
Ġres olution
Ġin jective
Ġcoinc ides
are nt
Ġconven tion
P S
Ġv ary
Ġdiff usion
Ġbran ch
M S
ĠCombin ing
ĠE xt
Ġp ull
â ĭ
Ġfil ter
Ġexp and
Ġ, ...,
Ġspec ified
Ġcategor ies
Ġb ipar
ĠC ar
Ġutil ity
X iv
S ch
ct ang
Ġent ry
in es
Ġpop ulation
ĠI N
t a
Ġinst ances
Ġsy nt
Ġresp on
b o
si tivity
Ġfam ilies
Ġ2 7
Ġcorrespond ence
n ormal
v ent
ĠâĬ Ķ
ĠâĪħ .
Ġlog ic
Ġexperim ent
Ġcharacter ization
( âĪĨ
Ġintern al
ang ed
Ġa ux
m al
Ġpost erior
Ġbi jection
00 0
h ol
Ġcomput ations
ol ated
s m
Ġsem an
Ġreplac ing
Ġequivalent ly
R A
ten cy
Ġm i
Ġassign ment
Ġle af
od ic
w idth
H S
Ġt ail
erm in
Ġtheorem s
Ġtraject ory
M M
ib ility
ĠRiemann ian
ĠA nd
Ġar ticle
ĠB o
ac hed
Ġz er
. (
Ġad vers
Ġmathema tical
Ġrelative ly
, âĪĴ
Ġcoupl ing
l im
h n
m ann
Ġimmedi ate
at ter
Ġmodul o
Ġch all
re te
ĠP er
Ġconjug ate
Ġcon formal
Ġcard in
ĠÃ ł
ĠO r
Ġadd ress
Ġmak ing
] :
Ġquanti ties
Ġpres ence
Ġsimul ations
Ġf it
â ĸ
H E
Ġl ight
Ġdifferenti able
p ec
Ġinvestig ate
Ġconfigur ations
Ġsh ift
âĪ ª
Ġhe ight
ch ange
Ġdiagram s
ĠL em
Ġpred ic
ĠF ollow
led g
ot ent
loc al
Ġlabel ed
g odic
g round
Ġgrad ed
Ġve loc
Ġveloc ity
Ġmorphism s
Ġo sc
ĠOther wise
ĠS P
Ġf ore
4 9
el s
Ġarc s
Ġdis pl
p res
ri ting
o very
ĠB rown
ĠM on
Ġrot ation
reg ular
not her
Ġprov en
y l
gr ad
it es
ĠAg ain
Ġrec ently
Ġev ents
Ġcon clud
le y
re nce
Ġbehavi our
| .
Ġwh o
Ġsing ularities
Ġj oin
Ġâĸ ³
Ġ2 8
Ġa way
s ue
Ġk ind
Ġmark ed
Ġpar ab
ative ly
ĠSpec ifically
Ġe fficiency
Ġestim ators
Ġeff ects
q q
Ġpartition s
Ġma jor
Ġnon trivial
Ġevalu ate
C C
ĠTheorem s
Ġw ide
Ġ| ,
Ġtr unc
Ġlim its
im al
Ġmon omial
y ing
Ġa ver
tinu ous
us h
0 5
)) )
Ġl ikelihood
ĠM or
Ġ[ [
Ġpur pose
ĠP re
Ġextension s
mod ules
Ġloc ation
ĠA nother
ÏĢ i
ure d
Ġf aces
Ġpreser ves
Ġse ems
Ġb low
Ġst age
Ġconven ient
Ġre ctang
Ġdirection s
Ġdu ality
Ġis om
Ã ¼
Ġmod ules
Ġat ten
ĠN ot
ĠM a
ier arch
I S
fin ite
Ġpen al
ĠJac ob
Ġint u
Ġim plicit
m er
Ġde mand
ig roup
Ã ¤
Ġprodu ce
Ġdefin ite
epend ence
ĠN P
ĠR ep
Ġfeed back
o ting
Ġdiffe omorphism
Ġe q
om en
Ġpair wise
Ġexpon ent
b e
om in
Ġcod ing
g inal
Ġadd ed
Ġcr uc
er ing
or ts
Ġillustr ate
C P
Ġenviron ment
Ï ĳ
c ase
Ġh ist
re asing
Ġentang lement
con vex
t w
ĠA ck
Ġreg ime
Ġd ig
Ġinf lu
Ġne ver
Ġpol ar
(âĢ¢ )
Ġt il
Ġsc ore
Ġcop ies
Ġdistingu ish
Ġsignificant ly
Ġreceiv ed
Ġindu ctive
t ree
ĠAn y
Ġtrans fer
ful ly
if ies
Ġlevel s
ec tivity
Ġthan k
Ġle mm
Ġallow ed
e ties
Ġens ures
Ġequ ipped
Ġsubgroup s
pos es
i ers
Ġextre me
Ġt em
Ġfraction al
c al
] ]
Ġagain st
Ġdet ection
Ġrandom ly
Ġparamet ri
ĠS ome
Ġderiv ation
f old
ĠG ener
Ġad op
re am
âŁ© ,
ĠB r
her ical
Ġbipar tite
Ġstatis tics
Ġpoly g
et ermin
act or
Ġ5 0
Ġdisc on
ĠA b
Ġout er
now ledg
Ġl es
Ġmetric s
Ġar row
Ġal though
Ġquer ies
in ter
Ġnot ations
ich let
ĠT wo
ĠâĦ ı
ĠAck nowledg
ĠðĿĳ ĸ
b es
Ġcardin ality
Ġexpon entially
Ġear lier
" .
Ġex ception
Ġpossib ly
Ġde le
Ġrun s
Ġb in
Ġbott om
par t
Ġinf erence
Ġtyp ical
ĠBrown ian
Ġintrodu ction
Ġcoinc ide
âĮ ī
ili ary
Ġfin ally
ĠâĪħ ,
âĢ¢âĢ¢ âĢ¢
Ġel imin
Ġdemonstr ate
ĠÅ ©
â ©
ĠFollow ing
ĠNe w
ĠCon jecture
Ġax is
ĠS T
Ġprevious ly
v ice
ĠR el
I G
Ġc are
Ġzer os
w or
Ġ| .
ĠÎ± Î²
Ġp x
Ġcircu it
Ġadvant age
Ġinvol ved
Ġ2 6
Ġinfinite ly
Ġar Xiv
Ġ( âĪĩ
Ġer godic
ĠAl ice
Ġintegr als
Ġrestr ict
od er
Ġon line
r or
Ġd Ã©
Ġin v
ia g
Ġindic ates
Ġabstr act
Ġo w
Ġmo ves
Ġst ack
Ġdetermin es
tern al
ĠB ob
Ġw ays
al se
Ġinclud es
m s
res enting
ad ic
am in
Ġin puts
qu e
Ġfil tr
ĠË ļ
ĠV ar
ĠâĻ £
ut h
Ġad mit
Ġmultiplic ity
.. .
Ġapproxim ations
Ġtes ting
ĠâĪ¥ (
Ġgo ing
Ġin ser
ĠâĪ ¶
Ġn or
rop ic
Ġstat ements
Ġto wards
ect or
Ġag g
Ġac ting
Ġg ames
Ġup on
Ġsetting s
ĠL i
Ġâª ¯
sk i
il inear
Ġp ick
Ġext ra
Ġ| (
Ġmulti pl
Ġhar monic
Ġvanish ing
enc ies
on om
hen omen
Ġquanti f
Ġmem ber
Ġt emp
Ġrelationsh ip
id den
Ġinvol ving
cl ass
D F
ĠDir ichlet
Ġsc hed
Ġsign als
Ġsimpl ify
Ġdetermin ant
5 6
) âĪĪ
ĠT aking
b r
Ġmar ginal
] ;
Ġosc ill
Ġit em
Ġto t
Ġgiv ing
Ġrep resenting
ĠâĮ ĭ
ĠS tr
ĠS e
Ġt ends
Ġr ise
Ġexplain ed
Ġor gan
g ed
Ġh ierarch
Ġver s
Ġview ed
A P
o is
ĠBe fore
Ġneighb ors
te gr
Ġn ature
Ġbund les
Ġadap tive
Ġman ner
Ġp henomen
âĪ ¼
Ġsum s
Ġs izes
Ġtr ack
ĠRe g
Ġatten tion
Ġinterp re
le vel
ĠD ue
form s
Ġstrong er
r ank
g ue
con nected
Ġover all
ac ian
âĬ Ĺ
Ġcluster ing
g o
d ec
Ġwor st
Ġmonot onic
Ġprobabil istic
âĪŀ ,
Ġ19 9
ĠA C
ĠWith out
per iod
Ġintegr able
ul ations
Ġtraject ories
Ġsingular ity
sem ble
ĠF orm
Ġprim itive
Ġcruc ial
Ġrespon se
ed y
Ġexpres s
Ġ(âĢ¢ ,
Ġparab olic
hes es
e an
Ġaux iliary
Ġexec ution
Ġinters ect
ten ess
) [
D S
" ,
ab ell
A s
Â ¨
Ġsub sequence
i able
Ġel se
E C
ĠÎ ©
Ġmom ents
Ġinc ident
ot ed
Ġexh i
6 0
Ġmod ular
ĠE very
Ġ3 1
Ġjum p
d e
Ġdec oding
s ymmetric
ati vity
g ent
ens ors
A S
Ġun e
Ġad joint
B S
T S
Ġsy n
yp e
ole an
Ġb ra
Ġsur jective
Ġm id
ĠH a
Ġde formation
Ġis sue
5 1
m as
Ġpresent ation
Ġconn ecting
ĠO ut
Ġbi as
F or
app roxim
Ġint r
ĠÅ «
Ġend s
Ġdepend ent
Ġinvol ves
] -
Ġposition s
Ġrequire ment
iti an
Ġsure ly
Ġmat ch
ĠCom put
Ġsimultane ously
Ġtyp ically
5 5
c ri
at ch
ĠTh rough
Ġrece iver
m ark
Ġassign ed
Ġref lection
Ġcon sum
Ġimpro ved
Ġpiece wise
Ġcalcul ated
Ġf oli
Ġsem igroup
ren g
Ġun bounded
Ġlong er
Ġstud ies
N N
Ġrefer red
Ġpermut ations
te red
Ġf air
Ġrepe ated
Ġat tain
Ġtreat ment
Ġsh if
Ġtor sion
Ġpolyt ope
Ġquad r
re en
Ġcontr action
ill ing
Ġl ift
categor y
Ġide as
Ġp ict
ithm e
ĠÂ ¨
he st
Ġtas ks
Ġlim iting
Ġit ems
ac tive
Ġwh y
verse ly
t or
cl ic
Ġidentif ication
vari ate
Ġmod e
op timal
Ġimplement ed
Ġclust ers
Ġpro ject
og n
Ġp ub
op f
Ġbro ad
Ġplay ers
h ing
Ġout come
Ġch ild
Ġfac ts
Ġsqu ares
Ġc oc
Ġillustr ated
t z
Ġcent ered
ting ale
Ġres ol
Ġw in
Ġmess ages
Ġdiver gence
Ġ/ (
ĠCom p
ĠP S
Ġsubsp aces
ĠB an
vi ally
ay er
Ġout puts
Ġover l
Ġvari eties
Ġagg reg
um ul
Ġpar tially
ti ma
Ġregular ization
Ġpriv acy
Ġdraw n
n on
Ġe p
m edi
Ġopp osite
Ġcomp lic
Ġ( )
Ġthrough out
Ġlimit ed
Ġform ally
Ġbr ack
us tif
5 2
res sed
st ead
Ġy et
ĠE r
Ġs oc
Ġdiffic ul
Î ¹
Ġdesc ent
c i
Ġquestion s
Ġas k
Ġthe ories
Ġ[? ,
Ġmain tain
Ġdescrib es
Ġc f
ĠL y
Ġcomplex es
Ġresp ective
Ġet c
' t
po ly
Ġma gn
m ut
Ġ= âĩĴ
on ormal
is ts
Ġefficient ly
Ġremain der
al gebras
ĠH erm
Ġex ternal
Ġdecre ases
r imin
Ġs ent
Ġconsis tency
Ġcharacter ized
Ġst reng
p ath
st ep
U C
ĠâĨ ĳ
ĠB oth
r ight
Ġf alse
itt le
Ġord inary
Ġlemm as
st ate
bes gue
5 7
Ġuncertain ty
Ġseman tics
ĠLapl acian
Ġseg ments
Ġas p
Ġrewr ite
Ġtes ts
Ġbl ue
Ġprof ile
Ġminim ization
ðĿ ľ
Ġrig id
Ġcount able
Ġfiltr ation
A M
ri ed
Ġpattern s
Ġw idth
Ġhyper sur
Ġ[? ]
Ġcombin ed
u ing
ĠS ym
Ġother s
00 00
ur ity
ĠÏ ĸ
Ġd ans
et er
Ġcon volution
ĠÃ Ĥ
ur istic
Ġinclud ed
Ġáº ĭ
it ude
Ġasser tion
ĠT HE
Ġshe af
ove red
Ġoptim ality
ĠO f
Ġact ual
Ġtrans port
(âĢ¢ ,
ens ity
Ġhand le
ĠB ern
Ġar ithme
ĠF r
Ġp our
Ġ| )
âŁ© .
ul ts
ĠÂµ Î½
Ġhome omorphism
¿ ½
Ġcop y
Ġprogram ming
ĠPro per
Ġback ground
Ġ? ?
Ġs low
Ġsepar able
Ġmeasure d
Ġb ar
im od
Ġ} )
0 9
Ġcandid ate
Ġreg ret
Ġu l
Ġrecon struction
or ff
Ġevalu ated
F igure
Ġref erences
Ġminim ize
Ġ her
Ġam plit
Ġget s
Ġvari ational
a tically
, (
5 3
Ġj ob
Ġc us
Ġn ond
Ġcoun ting
A G
ed ge
Ġsp herical
C S
sp ec
ĠLe besgue
si ties
Ġal ph
l or
Ġâĸ ·
Ġachie ves
Ġen umer
Ġreturn s
Ġ( âĪ
function s
Ġs ends
Ġinterpre ted
Ġcom e
ĠE s
Ġnotion s
Ġlo ad
ow ers
Ġhapp ens
Ġres ource
Ġ{ âĪĴ
5 4
k in
Ġrel ay
b i
ole v
Ġ0 1
Ġno is
Ġun stable
period ic
Ġim plic
Ġst o
Ġind ependence
ĠM ulti
Ġprojection s
Ġj ustif
R S
Ġbegin ning
Ġcaus al
pl an
ĠBan ach
Ġproportion al
Ġin variance
i ans
ple x
d orff
Ġdevi ation
ist rib
Ġmark et
l der
ort un
ĠÂ º
Ġorth onormal
ne tic
at on
Ġindic ate
Ġenc oding
ĠE nd
am p
ĠMod el
Ġend points
Ġcombin ing
Ġminim izing
Ġpoly hed
aus dorff
Ġbrief ly
Ġne ural
ec ti
Ġneighbour hood
Ġrec overy
Ġa ug
Ġachie vable
Ġpred ict
Ġappl ic
Ġb id
ĠB es
c d
19 9
od ed
Ġow n
Ġgener ates
tima ting
Ġhypot heses
Ġapproxim ately
Ġst ri
Ġhig hest
Ġu v
b re
Ġar ise
ad joint
ot ropic
ĠAN D
Ġtriang les
loc k
Ġorder s
C on
Ġinc or
ll i
Ġmultiplic ative
Ġver ified
Ġmat ter
ĠA x
Ġco ar
ib b
5 8
Ġcomplic ated
Ġin sp
er ial
Ġha d
Ġconven ience
Ġconnection s
ĠS NR
Ġdatas ets
ĠG e
Ġq q
th at
Ġ( âĥĹ
Ġsh are
ĠLem mas
Ġcharacter ize
en sive
ĠâĬ Ļ
Ġx x
ir ing
the less
Ġqu ality
Ï ±
ec utive
Ġcomple tion
Ã© s
Ġ2 9
( {
u se
Ġdisc rimin
lin der
or al
Ġque ue
cep ts
0 8
Ġtem per
Ġpreser ving
Ġfactor ization
Ġconclud es
Ġpl ac
Ġcalcul ations
ĠBay esian
medi ate
lec ting
S ection
um ann
Ġs of
ene f
ĠL P
C h
Ġguarante ed
ĠP RO
ĠT ake
L P
Ġmoment um
ĠCho ose
Ġm ic
Ġre ve
Ġreal ization
Ġprocess ing
Ġnon empty
ĠCh apter
Ġun less
ul us
og en
Pro position
âĭ Ĩ
ay lor
Ġaver ag
ĠâĪĴ âĪĴâĪĴ
ed om
Ġinters ects
Ġvari ant
Ġre ver
ĠC R
d ependent
Ġsp e
ĠR ic
Ġtr ade
b l
ĠB ased
rob en
Ġ rough
Ġske w
x y
ic on
c op
Ġsk et
Ġj i
Ġflow s
pec ially
ĠÄ Ģ
a h
Ġgeneral ize
Ġdi am
Ġclose ly
Ġset up
Ġrecur sive
s es
Ġdifferen ces
Ġd v
Ġmes h
Ġsol ves
un ov
Ġloop s
ar Ã©
Ġsugges ts
ob olev
Ġâī «
un ct
Ġb ody
E T
fi eld
Ġprodu ces
mat rix
z ing
E D
ph as
lect ed
Ġanalog ue
ĠN on
ĠM C
+ âĪŀ
ĠI s
Ġcont ent
Ġun its
roben ius
b rid
Ġmore over
Ġm ed
Ġadap t
n a
ra g
Ġcons ecutive
G L
Ġsimpl er
Ġappear ing
Ġvirt ual
Ġpass ing
Ġbu ild
Ġst ream
Ġor acle
Ġm n
ĠV I
Ġalph ab
Ġco herent
ĠRe f
Ġam b
Ġne ither
Ġf aster
Ġnot ed
sc ale
Ġim pos
ĠThrough out
er c
Ġinvol ution
Ġlogarithm ic
Ġarithme tic
Ġth ink
Ġsyn chron
Ġdist ances
Ġprior i
ĠH opf
ch ain
inc arÃ©
ĠÄ Ľ
Ġnorm s
Ġs ays
ĠI ts
7 5
Ġis olated
Ġrel ies
Ġconstrain ed
Ġconver se
ĠB l
Ġ0 0
Ġb enef
Ġsub sequ
Ġcomp e
Ġsign ature
Ġcost s
Ġhe uristic
iz able
gr u
str ain
Ġem phas
Ġcontrad icts
Ġsubstit ution
y ond
Ã¶ lder
âĪ §
p or
ĠS C
Ġser vice
Ġâĩ Ĳ
Ġrem ove
A l
otop ic
av ity
d iag
Ġend ow
Ġform er
Ġcorre ction
comple x
Ġ3 3
Ġs af
Ġremo ved
ĠCom par
Ġsched ul
Ġw ire
Ġinterp olation
Ġscenari os
Ġunderst ood
Ġapproxim ated
Ġthe r
Ġd on
Ġpl us
Ġaccur ate
n o
Ġpre ced
irect ed
Ġp owers
Ġfi ve
ap unov
rou po
Ġmi xt
op es
Ġtool s
Ġloc us
Ġsoc ial
- -
h ard
Ġchain s
Ġconf idence
ĠV er
Ġl abell
ul ated
Ġcontribution s
m ar
Ġy ear
R e
Ġre ward
âŁ© âŁ¨
Ġan ten
f l
Ġp q
ĠB C
Ġfre edom
c or
t u
0 6
L U
ĠâĪĨ ,
ib r
roupo id
Ġlength s
Ġbound aries
Ġimp act
Ġshort est
Ġtu ple
Ġtransition s
Ġmat erial
Ġno vel
Ġinteraction s
Ġex change
Ġinter mediate
] (
Ġmod es
Ġcy linder
Ġobtain s
Ġtri vially
ĠIn stead
Ġ4 0
ĠT aylor
ĠM in
ĠD es
Ġinflu ence
Ġgener ation
ĠâŁ© ,
Ġtr ad
Ġspec ify
Ġmo ving
Ġconstruction s
Ġsampl ed
Ġapp endix
Ġes pecially
ĠÃ »
5 9
Ġpossib ility
Ġmat roid
Ġinf er
Ġshar p
ĠC O
ĠEx p
Ġâī »
ĠA D
Ġunderstand ing
Ġk l
par amet
ĠS V
comple te
re m
Ã ¡
sel ves
ĠA P
Ġpro g
Pro of
Ġspar sity
ist ence
Ġco vers
ĠU p
par ameter
ĠCon versely
Ġp ush
Ġar ises
Ġconvex ity
z z
ĠC he
Ġma g
ĠðĿĳ Ľ
equ ival
Ġexperim ental
ĠNew ton
Ġdeg enerate
g ener
Ġcons tit
is im
ĠC art
Ġsum mand
Ġima g
ic ting
a i
he ad
ĠÄ ħ
Ġful f
ĠÅ ľ
Ġcalcul us
Ġt rop
Ġdecre ase
Ġdi ameter
Ġfollow ed
Ġhyper plane
Ġt e
Ġstar ts
Ġes timating
Ġpap ers
ĠLy apunov
ĠC F
Ġequ ivariant
G D
ĠWe yl
Ġdiff er
Ġs ix
Ġball s
Ġconstruc ting
Ġw ind
L et
Ġde form
Ġd id
Ġadap ted
ĠC S
6 4
Ġt an
Ġtot ally
ï ¸
Ġform ed
Ġ3 4
Ġhigh ly
Ġtriang ulation
Ġimport ance
Ġvalu ation
ul a
Ġno ting
Ġâĩ Ķ
vers al
Ġbas es
Ġkernel s
Ġs pl
b ility
Ġn il
Ġfail s
Ġs ources
ĠMat hema
Ġsol id
Ġcod imension
Ġspann ing
Ġcontinuous ly
8 0
Ġbe am
ĠâĨĴ âĪŀ
ĠN amely
an cy
ab or
Ġparticular ly
Ġpar ity
er ving
I P
6 7
Ġrepresent ative
S t
Ġrestriction s
Ġsepar ately
ens us
itive ly
si gh
le ft
Ġpoint wise
sing ular
Ġ{ |
et her
Ġsimple x
Ġprogram s
Ġp p
man ifolds
ul i
ĠÄ ¤
ion s
Ġcon du
we ight
0 2
the ore
re p
Ġtran sitive
ĠÄ ĥ
Ġevent ually
ĠB ound
ĠH ausdorff
Ġcontroll er
Ġimprove ment
Ġfib ration
Ġde ep
atter ing
Ġi gn
F S
Ġresidu al
Ġx i
Ġindex ed
Ġlike ly
ri an
Ġtor ic
Ġcub ic
ac ts
Ġmagn itude
Ġt ext
ter m
ĠS obolev
e y
Ġnumer ically
Ġpict ure
Ġfl u
Ġk n
Ġnormal ization
ĠNe umann
Ġar ch
Ġiter ative
an c
Ġrandom ized
ĠDir ac
h ler
E x
Ġcomput er
Ġwh ite
ĠD ec
Ġreason able
f aces
ĠGr aph
at en
Ġcomput es
Ġrig or
ĠRes ults
ĠP O
Ġversion s
ĠC ON
t ro
Ġcon tin
Ġminim izer
end ed
es ted
here nce
c os
ĠM o
u es
) }.
Ġprec ision
ĠÈ ³
ĠSubs ection
Ġcomple teness
in stein
Ġvary ing
Ġb ilinear
d z
Ġfunctor s
ĠÄ ¥
Ġknot s
Ġthe sis
Ġpay off
Ġroot ed
equ ivariant
od rom
Ġ( ?
Ġevery where
Ġsl ope
â© ½
ĠM an
ĠBo olean
Ġ) âĪĴ
Ġaug ment
ĠPo incarÃ©
e v
ĠP art
oun ts
Ġatt rib
Ġmonotonic ity
ĠAd dition
Ġcon gru
Ġbre ak
Ġcir cles
or n
Ġpoint ed
Ġcom b
Ġconcent r
ĠK L
6 6
Ġcontroll ed
Ġh idden
ĠLapl ace
ar ity
Ġimpos sible
Ġpl ays
Ġterm inal
g l
Ġst ead
Ġp t
Ġh ull
Ġformul ated
Ġs i
Ġden sities
Ġmix ing
it ness
Ġb if
Ġarr ay
a ut
Ġcommut es
0 7
ar c
Ġ| âĪĤ
I R
Ġch anging
Ġthan ks
ĠW r
ĠðĿĳ ĺ
Ġtemper ature
ĠGal ois
Ġlay ers
Ġloc ations
\ {
Ġsto pping
Ġspann ed
enti als
Ġsymm etries
ĠÏ ħ
Ġbe yond
act ed
th is
Ġd ÏĦ
Ġconcern ing
Ġchar ge
as hed
Ġread s
e as
um ber
Ġremo ving
Ġinvestig ated
Ġtop olog
k en
Ġbra id
Ġupd ates
Ġpack et
Ġiden tically
Ġp ast
Ġsepar ation
Ġá¹ ½
Ġcar ry
Ġstruct ural
k er
Ġperform s
al og
Ġdesign ed
Ġintrodu cing
ĠC her
Ġen semble
ĠP DE
Ġcomput able
Ġsitu ations
Ġchall en
Ġdiscreti zation
Ġv ac
Ġcol ors
Ġarg ue
b les
6 8
Ġproper ly
Ġs n
w ord
iz ers
ĠC H
Ġspace time
pres erving
ĠGener al
Ġspec ifically
Ġbal anced
Ġrec ogn
h ic
Ġdep icted
Ġt ell
Ġtr uth
i ability
u k
Ġnois y
y cle
U L
ĠP ic
Ġwor th
Ġscal es
Ġsome times
ĠF robenius
ĠD o
Ġround s
Ġd rop
ĠâĩĲ âĩĴ
tin e
Ġaltern ating
Ġad v
Ġtre ated
Ġfiber s
Ġop t
Ġt un
Ġ( âĪ¥
Ġarri ve
Ġapp e
Ġstead y
Ġtriang ular
Ġreason ing
Ġeigenvector s
A TION
Ġpriv ate
i ous
Ġtw ice
Ġisom etry
1 00
si ze
ar r
Ġcl ique
Ġmod ify
Ġcorrel ations
me as
Ġrelax ation
and s
ĠPro p
Ġsepar ate
ĠTr ans
Ġinst ant
ĠM et
Ġcontin ue
it al
Ġidenti ties
Ġalphab et
ĠâĬ ĥ
Ġcoll ision
ĠS um
Ġpref ix
âĪŀ )
Ġfor ce
Ġp a
he res
Ġmod ification
Ġsec urity
Ġabsolute ly
Ġpop ular
Ġbuil ding
( âĪĤ
efin ite
il ities
ĠB er
Ġsu ff
Ġmodel ing
Ġl ittle
Ġdiscussion s
Ġglob ally
Ġpenal ty
or ting
Ġisomorphism s
ĠS E
Ġrequire ments
Ġ= :
ur c
ĠH Ã¶lder
p ective
ever theless
ĠS m
Ġorgan ized
0 4
Ġgeodes ics
Ġser ver
Ġ rou
tr ans
Ġrecur sion
Ġobtain ing
lo op
ĠO nce
Ġor b
Ġcus p
9 8
ifferen tial
Ġ) +
war z
Ġcol our
com es
lec ts
ĠF IG
ir m
Ġcoupl ed
Ġis su
ĠÃ ¿
y per
Ġsub st
Ġqu bits
Ġex per
ĠâĨ Ķ
6 5
d is
Ġb ad
Ġexception al
deg enerate
Ġgrow s
os es
Ġd Î¸
Ġcoar se
Ġautom aton
Ġse em
Ġtw isted
Ġregard ing
Ġextre mal
Ġband width
ow ski
om p
D I
Ġflu id
) =
Ġcolor ing
6 1
Ġcombin ations
oc al
Ġfl ux
Ġcub e
ĠN evertheless
Ġn ame
y clic
hom ogeneous
Ġphys ics
Ġsepar ated
Ġc e
Ġweak er
Ġm ul
un iform
Ġgre at
ĠâĦ ľ
Ġprim ary
Ġtw ist
Ġst atic
B C
Ġw a
ĠT ype
Ġle ave
7 8
Ġtrans verse
9 5
Ġw ish
it ect
Ġstand s
7 0
Ġperturb ations
Ġin sigh
pro cess
Ġp age
Ġres cal
Ġadvers ary
Ġatom s
action s
Ġmar tingale
Ġg roupoid
ĠâŁ© .
ĠÅ ¨
Ġn ice
Ġpropag ation
Ġs ort
Ġwork ing
) ].
Ġhe ter
Ġw itness
Ġreal ized
Ġdescrib ing
Ġs ad
6 2
Ġcar ried
Ġtra ffic
sm ooth
Ġ[? ].
Ġsuc ces
Ġconc ave
Ġpers pective
ĠAn aly
Ġembedding s
et he
Ġlet ting
Ġpolic ies
Ġmixt ure
Ġcre ate
Ġp arent
ub e
Ġá» ¹
Ġcont our
Ġst ore
Ġs ake
Ġexhi bit
Ġdeg ener
Ġex ceed
Ġout per
Ġperform ing
cri pt
Ġsc attering
Ã¤ hler
Ġá¹ ¼
Ġdat ab
Ġsl ot
ĠD isc
Ġdou b
ill ed
Ġ. )
6 3
Ġpresent s
ĠC C
ĠE ven
or age
Ġincor por
Ġre ly
Ġâĭ Ĭ
ĠCher n
ĠHerm itian
Ġre verse
s ure
ve red
Ġhe at
Ġ[? ],
Ġdomin ated
Ġlat tices
Ġpar a
ĠK er
ĠÄ Ŀ
[ (
Ġconc rete
ĠMon te
Ġac tiv
Ġáº ¼
, +
Ġs ensor
Ġsimilar ity
Ġstudy ing
imin aries
ĠS S
7 7
Ġimag inary
Ġreas ons
eg end
A D
Ġsequ ential
Ġprov iding
Ġco vered
ĠM ax
Ġsubsequ ent
p x
Ġpos s
Ġgre edy
Ġassoci ate
Ġide als
are st
Ġmin or
Ġreport ed
s ince
Ġac cept
Ġve hic
Ġal ign
Ġdomin ant
Ġyear s
rodu ct
Ġdet ect
Ġang les
ĠâĪŀ ),
l ar
ach ing
8 8
Ġb ir
Ġrepe at
Ġbran ching
Ġpur poses
Ġpure ly
Ġp ort
O M
ĠSection s
Ġbif urc
Ġpre fer
Ġhapp en
Ġi l
ear ch
Ġmonoid al
Ġfore st
Ġapplic able
ver gence
âĪĪ {
Ġá» ¸
umer ical
Ġco oper
Ġd g
Ġallow ing
ĠCon clusion
Ġstr ings
Ġsh ared
Ġpreser ve
ðĿ Ĳ
Ġconver gent
Ġout comes
B M
Ġhyper graph
Ġprodu ced
Ġp u
comp act
âĮ Ĭ
Ġsimpl ified
0 3
ĠD el
Ġ3 6
Ġr ings
ĠAssum ing
ul ate
Ġs ite
Ġconcent ration
Ġma pped
Ġformul ate
Ġpull back
g s
i o
com mut
il le
A V
k ing
en ch
Ġarch itect
Ġdifficul ty
Ġtrop ical
Ġfoli ation
Ġmulti variate
Ġquanti zation
Ġvalu ed
6 9
pr ising
Ġstreng th
Ġ|| |
oun g
Ġcons ensus
Ġar ising
Ġ| âŁ¨
8 7
al es
Ġp unct
resp ectively
Ġanaly tical
Ġmar gin
uct u
Ġis ometric
Ġfour th
L L
Ġâĭ ħ
ĠH od
Ġmaxim ize
Ġs atur
c rib
Ġinfin ites
l ig
Ġev ol
ĠP ut
a pping
Ġcompar ing
l ink
theore tic
Î ŀ
ist ance
sid ed
Ġtemp oral
8 9
Ġâĭ Ħ
ch anged
ĠÅ µ
Ġ3 5
as so
Ġsimul ated
pos able
Ġcon cepts
se par
Ġthrough put
Ġn a
or th
ĠÃ £
f ortun
Ġconsider ation
on es
ystem s
si p
Ġsem id
Ġi Î¸
[ [
Ġpreced ing
Ġc umul
Ġco verage
Ġ _
¾ ±
Ġsumm ation
sib ly
Ġextend ing
go ing
S p
Ġbuil t
Ġhe ad
Ġcor ner
ĠO P
ce ler
ĠÄ ľ
ĠÄ Ī
Ġdispl ay
ĠR ad
t t
in tegr
Ġparamet ric
Ġread y
Ġst orage
Ġcomp osite
Ġautomorphism s
Ġrep rodu
âĸ ¡
IM O
Ġcos h
er t
and ard
Ġcomm ute
Ġmid dle
ĠðĿ Ľ
v y
deg ree
Ġcriter ia
Ġbelie f
ish ing
Ġconsider s
ĠEx amples
Ġread ily
Ġbrack et
wh at
Ġp an
Ġwire less
Ġfl ag
ĠÄ ģ
I t
Ġaxiom s
Ġtransform ed
Ġwind ow
l n
Ġmis sing
cop ic
Ġphenomen on
vious ly
e ff
ĠUn ivers
Ġspe aking
Ġd Î¾
ĠA m
II I
Ġsub t
Ġintu ition
Ġfail ure
act able
o ks
Ġdiv ided
Ġrefin ement
Ġsad dle
ific ations
ĠTh m
Ġpreser ved
ig u
clud ing
ĠM R
ĠL egend
Ġaff ect
Ġadj ust
Ġobvious ly
Ġsp read
ĠI R
8 4
Ġlet ters
ĠS ol
Ġamplit ude
Ġcom ing
C or
ins ic
Ġthere in
ter ior
Ġcol ored
struct ure
Ġhypersur face
Ġ) âŁ©
Ġrewr itten
Ġposs ess
Ġinvol ve
Ġmon odrom
Ġgu ess
IN G
Ġstatis tic
a z
ĠWh at
Ġcharacter s
ĠWr ite
Ġ @
Ġobserv able
Ġcapt ure
9 7
Ġhelp ful
fortun ately
ou lli
ðĿĳ ¥
Ġsub div
d f
ĠNot ation
Ġasymptotic s
Ġk in
Ġit h
al ing
Ġpair ing
as sive
Ġdist ortion
Ġmotiv ated
ĠN ash
Ġlabell ed
it ary
Ġendow ed
Ġissu es
tif ic
T r
Ġfl uctu
Ġmut ual
Ġk j
Ġnon e
ĠSubs tit
Ġres ources
am ed
Ġwor ld
Ġpolyg on
all s
Ġsin h
diag onal
Ġsub manifold
b und
ĠâĬ º
ench mark
ĠC M
xim al
ator y
ust om
ĠB ell
Ġre plic
Ġdiv ide
ĠÏ Ĥ
Ġfin ds
Ġs gn
Ġschedul ing
Ġqu bit
Ġsmooth ness
Ġestabl ishes
Ġcomp osed
âĪ ħ
Ġex am
ve y
Ġcheck ing
ll er
it ting
ĠN S
Ġn et
ĠâĢ¢ ,
Ġexplo it
Ġf lex
ĠS M
) ],
ĠÅ ·
Ġprotocol s
Ġin g
ĠHod ge
Ġwide ly
ĠProper ty
Ġcorrel ated
Ġw aves
Ġdevelop ment
ĠEs tim
ĠR S
Ġprim es
Ġemploy ed
Ġexpl ore
L O
p otent
ĠC N
Ġc of
k es
Ġpos et
7 2
9 6
en berg
ĠâĦ İ
Ġver ification
Ġconc aten
Ġtrad ition
8 5
ĠM L
Ġp n
Ġshe aves
i h
Ġ. ,
ograph ic
p lying
Ġend point
Ġeas ier
ĠR E
)/ (
form ing
ind ependent
ĠB el
og ether
ĠâĮ ī
Ġautom atically
Ġag ree
ĠâĪŀ ).
ĠS to
Ġconjug acy
ax is
ĠP rel
am ma
po sitive
ĠL S
Ġsket ch
Ġfa ith
Ġcomputation ally
Ġdetermin ing
Ġr ay
Ġ Ð
Ġop tion
Ġprim al
Ġqu ick
Ġcomb ine
p ite
Ġsqu ared
ĠG reen
Ġ100 0
Ġph ases
ĠL o
ac he
Ġex c
ne ighb
Ġm ac
D M
Ġhist ory
Ġvi ol
ĠâĻ Ń
du al
ĠG P
Ġme et
ĠO DE
ac tif
Ġdis ks
ĠâĪĴ âĪĴ
Ġcheck ed
Ġrobust ness
ĠðĿĳ Ĺ
Ġwal ks
Ġcondu ct
or ation
k y
Ġlaw s
Ġr am
Ġanaly zed
Ġ] (
s en
Ã© n
ĠAddition ally
ĠM S
sib ility
I f
c ast
im um
ĠL O
Ġclaim ed
sim ilar
T L
ĠC r
Ġlocal ization
Ġtransform s
Ġmain ly
Ġc as
ĠMor se
Ġformula e
Ġinver sion
Ġlog ical
Ġdistingu ished
Ġloc ated
Ġw riting
Ġun ity
8 6
Ġsummar ized
O F
Ġ) :
ud get
valu e
Ġ] ]
o ot
Ġdri ft
Ġï£ ¦
ĠÅ ¼
ĠCar lo
Ġrad ial
Ġ6 4
Ġc ustom
ĠE X
Ġtermin ology
Ġf erm
7 9
w ell
Ġsub algebra
ĠH es
sc he
Ġinter face
ĠY oung
Ġr k
ven ess
Ġarr ang
ĠBern oulli
Ġpot entials
Ġsh r
ĠGaus s
s qu
| âī¤
om ain
I F
Ġtrunc ated
Ġsup rem
ĠV ol
ĠA R
Ġm ob
a vi
Ġindic ator
Î ¼
Ġocc up
P C
Ġback ward
Ġd B
ĠD u
Ġev idence
L e
Ġremark s
E E
Ġâª °
Ġcon v
Ġsug gest
ot str
h ar
D A
t op
Ġg ate
7 6
Ġse ed
Ġconn ectivity
l ight
s ch
ĠâĬ ł
Ġarri val
w are
Ġb rid
Ġspec ies
Ġcharacteristic s
Ġmonodrom y
ĠAssumption s
Ġre form
Ġmodel ed
Ġr a
sequ ences
Ġarrow s
ry st
Ġpack ets
pos sibly
ĠJacob ian
Ġund irected
Ġsummar ize
Ġb enchmark
Ġindic ated
ĠâĪ ĸ
cl osed
Ġvac u
ver tex
Ġint ensity
Ġbound ing
Ġim pose
in er
commut ative
Ġnot hing
ampl ing
Ġrec ord
Ġdev oted
ac ing
ord an
7 3
D G
plan es
Ġsuprem um
Ġden omin
m id
ĠM ain
Ġs s
Ġac yclic
ĠN umerical
S ee
Ġfib re
ĠðĿĳ ¡
Ġt end
Ġswit ching
F ig
Ġac cep
Ġcon sequently
Ġpol es
Ġequilibri a
ĠM ar
Ġvari ants
Ġac celer
red ient
Ġsimpl est
Ġre ached
Ġproced ures
om m
re ement
Ġindividual s
Ġ(âĪĴ âĪŀ,
Ġij k
el ine
Ġtable au
Ġhy brid
)) |
mod ular
Ġ: "
D R
aus sian
Ġis otopy
et a
Ġsugges ted
Ġex terior
d i
Ġhierarch y
ĠS R
âĪĴ (
Ġsome what
Ġlat ent
7 1
ynam ic
Ġbelong ing
Ġeff ectively
Ġlow est
Ġredu nd
Ġre v
ĠF e
Ġtr y
Ġautom ata
Ġ( ,
rep resent
Ġatom ic
Ġcon es
on ent
âĨĴ +âĪŀ
bi ased
Ġidentify ing
Ġl ack
l ength
Ġsumm ary
t ent
is s
Ġillustr ates
Ġformal ism
ivari ate
Ġd Ïĥ
Ġne arest
Ġcomp actif
le ton
Ġconjug ation
ĠP a
ĠF OR
av y
r Ã¶
ymm etry
Ġsen sing
ĠOb viously
d et
Ġcom ments
Ġdivis ors
Ġst ress
Ġstabil izer
Ġparameter ized
Å ©
Ġlangu ages
O P
ĠL ore
Ġresidu e
Ġmag netic
7 4
( âĪ¥
om ic
Ġasp ects
Ġre normal
Ġrece ive
Ġrandom ness
Ġrough ly
Ġexam ine
) },
Ġadjac ency
m p
âĢ¢ ,
Ġcl ock
Ġsl ice
C H
Ġspec ification
g ine
Ġrectang le
ĠCo x
Ġpiec es
ati f
Ġm ir
lo ad
Ġregard ed
Ġvers us
Ġadop t
Ġsit es
Ġini tially
or ient
ĠÃ ķ
ti tive
Ġf ading
c ritical
s ol
Ġsh ad
Ġgl uing
ĠÅ ¶
ĠË ĺ
Ġ20 17
C E
Ġinfinites imal
Ġmut ually
Ġfrequ encies
9 0
8 3
Ġcell ular
ĠâĪĴ âĪĨ
po sing
ĠâĪĨ )
Ġfunction als
Ġá¸ ¡
Ġobserv ables
Ġrecur sively
Ġtransmit ter
Ġintersection s
te re
ar ds
Ġomit ted
us ing
Ġbelie ve
Ġed ition
Ġang ular
S h
ple te
p re
Ġupd ated
Ġsequ el
ĠR P
Ġtransmit ted
ĠC al
Ġcomple ted
Ġdecom pose
Ġb udget
Ġindu ce
ĠC L
Ð ¾
Ġconsum ption
b ut
il es
os p
r u
Ġen ables
ĠâĢ²âĢ² âĢ²
ĠF act
Ġrecur rence
âŁ© )
n ers
ĠS k
Ġing redient
Ġexpl an
ention ed
ĠAcknowledg ements
Ġb ul
Ġenc oded
Ġredu c
8 2
ĠT echn
ĠD F
ĠâĬ ĵ
Ġcompact ness
Ġp rices
Ġv s
ĠT e
Ġcorrect ly
Ġd Î»
Ġst op
ĠF unction
ĠL og
Ġjum ps
= âĪĴ
8 1
ĠK Ã¤hler
b al
Ġ( âŁ¨
l i
Ġun like
Ġoptim um
Å «
Ġá ¾±
Ġthough t
tinu ity
v an
ĠâĪ «
Ġt ensors
Ġpara graph
Ġres on
Ġpossib ilities
Ġg cd
Ġexpansion s
ĠâŁ© âŁ¨
ĠIn i
Ġp s
cy cle
l abel
ĠðĿĳ ¥
ĠInt u
ĠĠ Ġ
ur b
Ġï ¿½
Ġï£ ¾
Ġelect ric
SI ON
Ġd ot
Ġscal ed
approxim ation
Ġk i
Ġï£ ¼
ĠT op
Ġcompact ly
Ġph ot
ĠC ol
pp ings
Ġspect ra
tal e
)| |
Ġ(? ?
ĠD P
a ult
Ġpartic ip
Ġeigen functions
ĠD iff
rom atic
Ġman ip
ros copic
n et
Ġlet ter
Ġbo otstr
Ġdecomposition s
Ġgr ant
Ġ20 16
ĠThe ir
t ra
Ġimm er
ĠSubstit uting
Ġredu cing
st ant
Ġco herence
at z
Ġis otropic
f low
ĠHes sian
ĠIN T
Ġ) [
Ġsp heres
ĠAnaly sis
ĠA L
Ġcrossing s
Ġem er
Ġexpon ents
Ġgeneral izes
Ġoverl ap
Ġcl ause
id el
Ġnear ly
( âĥĹ
Ġcirc ular
Ġrigor ous
Ġsynt he
Ġd il
Ġbran ches
Ã¶ b
Ġmechan ics
ĠE instein
ĠX Y
ari al
Ġï£ ½
is ter
Ï ĸ
A n
ĠR F
Ġ\ {
ash ion
Ġpre par
Ġsur prising
Ġt et
s l
Ġcomp ression
Ġdatab ase
Ġam ounts
Ġcomplement ary
Ġmotiv ation
âĦ ı
Ġtradition al
Ġchall eng
Ġpres sure
Ġs end
Ã© vy
Ġcircu its
Ġs ending
M L
al it
ĠH F
ink owski
pro blem
Ġco vari
ĠâĨ ¾
e b
ĠUn fortunately
Ġrecon struct
Ġ lying
), (
ind ex
Ġ $
n ote
ĠâĪĨ .
Ġclassif ier
ĠI C
Ġmic ro
Ġvis ual
Ġref ers
ord ism
Ġdecom posed
Ġma ppings
Ġconcern ed
ibb s
Ġdec oder
Ġpe ak
Ġcondition ed
Ġdec ide
Ġsur ger
Ġob st
Ġcre ated
Ġh ole
ĠF lo
Ġatt ached
Ġbe h
ĠO ver
ĠV ari
d ro
d im
ĠB P
Ġimmer sion
Ġ) ))
Ã© e
ĠApp l
m ulti
ĠSet ting
B P
Ġv isc
ĠD C
Ġentang led
Ġconser vation
ding er
Ġabs or
V M
m n
Ġnil potent
Ġsuccess ful
Ġv ar
D efin
B F
ĠM M
Ġlabel ing
Ġpot entially
Ġcoll ap
Ġth in
h am
Ġg ates
Ġdig raph
h aps
9 4
Ġemphas ize
B y
ĠC SI
Ġchild ren
ĠEqu ival
ĠIn ter
Ġn ested
istrib ution
Ġchalleng ing
ĠM IMO
ur s
Ġtr ig
Ġdemonstr ated
ell ing
Ġg over
ï¸ ģ
am b
Ġtell s
Ġconn ect
Ġc er
/ /
Ġlif ting
âĨ ĵ
Ġapproxim ating
Ġfor ces
ĠS ing
Ġmonomial s
f r
Ġbounded ness
Ġâ ľ
ĠL Ã©vy
Ġf rag
ĠN etwork
d Âµ
d isc
r ad
Ġc ot
Ġneg lig
Ġend omorphism
ĠSch rÃ¶
Ġ+âĪŀ .
Ġbo ok
Ġf ashion
Ġsol vable
ĠJacob i
ĠR andom
ĠD G
Ġcl ient
Ġh ope
con strain
Ġ20 15
ec om
ĠâĪĤ (
ĠA PP
ĠA S
ĠâĢ º
Ġtra vel
Ġpertur bed
s ets
Ġann ulus
paramet ric
Ġpres crib
Ġrob ot
Ë ĩ
Ġd ashed
Ġd p
Ġbox es
ĠIntu itively
Ġentire ly
Ġen for
im age
Ġcommun ity
Ġid emp
s ection
Ġpl ots
Ġrel ate
enti f
O T
and er
et ri
C D
ĠIn put
Ġar m
Ġg ave
l at
Ġpredic ate
ann ing
ĠÃ ¢
ĠB as
x x
Ġsupp orts
ĠM A
ĠÃ Ľ
Ġin form
Â ¬
ĠAl tern
ou pl
n as
Ġspl its
Ġsub d
Ġpo le
ir able
re ct
Ġans w
M R
sh ip
ĠFig ures
Ġmaxim ization
ĠâĬ ĩ
Ġvari ations
Ġsubgraph s
par se
con tinuous
E s
Ã© r
Ġillustr ation
ĠâĬ ĳ
Ġsmooth ing
Ġl isted
r yp
ud es
Ġtop ic
I V
Ġhol onom
Ġob struction
ĠRes earch
Ġbeh ind
ĠD et
Ġmechanism s
Ġshar ing
| =
lement ary
hed ron
Ġconsider ations
Ġ20 14
Ġcontinu ation
Ġlook ing
Ġcol im
ĠSch ur
Ġintr insic
Ġden oting
Ġg ene
ord ered
weight ed
Ġch a
)) (
Ġimplic ation
Ġrec overed
an ks
Ġconvention al
Ġabs ence
ĠPrel iminaries
Ġcontrol s
Ġ6 0
Ġle x
Ġsub tree
Ġpl aces
Ġth ick
+ (
rel ated
Ġpub lic
un e
9 2
L ipschitz
Ġs ound
Ġhome omorphic
Ġd f
Ġm edi
ĠJ ordan
Ġst ored
y i
Ġjoint ly
wor ds
ĠPro b
Ġincre ased
Ġsubstit uting
Ġd Î½
grad ed
Ġle g
ail s
Ġcompar able
Ġch ord
Ġreceiv es
ĠS er
Ġsaf e
Ġconser v
Ġsemid efinite
âĬ ¥
ĠL ike
Ġfix ing
ati l
rom ov
Ġquanti t
id er
Ð µ
ĠÃ Ĭ
Ġst e
Ġen h
Ġv on
Ġclos er
l f
Ġsur vey
ĠZ h
un g
Ġmonot on
lec tive
ĠL R
9 3
ĠâĹ ģ
z y
d es
) ÃĹ
ou v
ĠÄ ±
ĠM O
Ġprog ress
Ġcontr ary
ĠÃ© tale
Ġbal ance
Ġimp lying
Ġstri p
Ġâİ ª
ap id
Ġmin d
af ter
Ġneglig ible
Ġintrodu ces
Ġincre ment
u ed
ĠG ibbs
ar acter
ĠQu estion
nt z
Ġre aches
Ġfaith ful
ĠâĪ ĭ
t hen
Ġconf irm
Ġdiff ers
su per
ðĿĳ ¡
the ory
Ġ| {
Ġd P
ĠBes ides
u ff
Ġdes tin
Ġd ro
Ġsen sitivity
re call
ĠSchrÃ¶ dinger
Ġcon sequences
ĠM inkowski
Ġsp ir
Ġdev ices
u ri
I D
Ġsubdiv ision
ĠP C
ĠâĪŀ -
ĠEx perim
ĠâĪ Ŀ
Ġdev ice
Ġfr ont
ĠUnivers ity
Ġminim izes
Ġc uts
P R
Ġm y
Defin ition
ĠâĪ¥ âĪĤ
Ġcho oses
Ġdis sip
d own
Ġpub l
ĠD ata
Ġsign s
Ġaverag ing
Ġf ine
Ġa u
Ġ4 5
an o
Ġmodul us
um ent
Ġswit ch
Ġne ur
Ġto ler
Ġbifurc ation
Ġbu y
inc reasing
Ġvalid ity
Ġpower ful
Ġimpro ves
Ġparametri zed
ĠH ig
Ġsign ed
b ody
os ity
a ving
ĠMet hod
Ġlif ts
UC TION
ecti ves
Ġ20 13
Ġsol ver
Ġpan el
Ġin j
yn chron
ĠA ug
Ġstructure d
Ġimplicit ly
Ġfor cing
p ace
Ġ4 8
Ġpre lim
Ġalgebra ically
ve c
Ġcorrect ness
is ting
Ġassum es
re qu
Ġre action
Ġcommon ly
Ġconver ging
ĠL inear
al most
el le
or ds
Ġanten nas
Ġr ays
Ġtet ra
ĠCompar ison
ĠC ay
Ġare as
it a
ad get
Ġtu ples
Ġco variant
Ã ³
D D
Ġprelim inary
ĠA ct
ĠC T
Ã ´
ĠW ork
Ġequival ences
Ġs ector
d r
Ġimpl ied
ĠE M
Ġvacu um
N e
Ġqu i
etermin istic
Ġbootstr ap
Ġcoun ts
Ġ+ ,
Ġim posed
d iff
bund le
U T
Ġh um
Ġorb ifold
Ġ20 18
Â¨ Â¨
Ġn om
ĠS A
c ondition
Ġreve al
ĠM ost
es ts
Ġshr ink
Ġconclusion s
Ġt n
Ġwin ning
Ġgraph ical
Ã¨ me
Ġhe avy
Ġpolyt opes
G S
Ġpropo s
ĠK le
it eness
Ġd a
Ġrecall ing
Ġp ortion
Ġr apid
Ġne ut
ĠR ob
Ġyield ing
re du
ĠProposition s
ĠThe ory
( âĪĩ
on ality
Ġacc om
IN R
o x
Ġ] ;
Ġsepar ating
Ġf ig
Ġobser ving
Ġmat ches
Ġsof t
Ġgre en
Ġc ause
Ġrequ iring
ill s
Ġdenomin ator
I d
is her
Ġs ensors
Ġear ly
Ġ4 2
Ġ| âĪĨ
Ġco b
Ġab ility
th ing
Ġ20 12
Ġdis per
ĠC A
âĬ ¤
Ġmultipl ier
Ġoccur rence
ogene ity
tere x
Ġc ache
ĠCon struction
Ġn m
ĠRec ently
ĠG romov
us er
Ġclos est
ire ction
Ġ20 22
ĠB V
ĠLagr ange
or ov
Ġintegr ating
tri e
Ġfib r
9 1
Ġsub category
Ġbul k
Cor ollary
ne w
o h
Ġfurther more
Ġextr act
Ġalgorithm ic
Ġinsp ired
Ġcompati bility
Ġthem selves
Ġmach ines
ĠCart an
Ġjoin ing
O n
ĠLore ntz
ĠâĪ ĵ
ge ometric
atil ity
orem entioned
ad s
Ġpo sitivity
Ġrelax ed
ac tible
Ġattack s
I m
Ġcan ce
T o
ĠM SE
Ġadvers arial
Ġreal izations
su pp
Ġaf orementioned
ĠâĪĴ |
O ur
ĠComput e
ĠT V
ĠD M
Ġc ryst
Ġag rees
Ġcongru ence
l en
Ġquick ly
k i
sp here
Ġel astic
Ġ20 10
Ġlearn ed
k h
Ġthere by
po ch
em ber
sis tent
ĠÈ ²
Ġdo ing
ill i
Ġfi le
Ġran ges
ur st
Ġqu iver
Ġf av
Ġmaxim izing
ĠR ed
Ġag reement
ĠG u
tim ate
ĠEq s
Ġsec ure
mod el
Ġv or
em pt
ĠP R
P o
Ġun changed
ĠM c
Ġgain s
n s
Ġf usion
h yper
Ġtrunc ation
ĠRic ci
ĠB i
ĠL ocal
qu bit
s tit
Ġarchitect ure
Ġmir ror
I ST
an i
c ut
U M
bo x
N ote
Ġd W
Ġhyper planes
ĠI P
20 13
Ġshif ted
ty p
ĠW i
I L
ĠMan y
Ġevalu ating
ĠB u
Ġun biased
Ġc le
Ġsucces sive
el ike
Ġaugment ed
ĠIn te
ĠÃ© t
Ġplac ed
ĠA lex
Ġun i
Ġdiv ision
Ġmo lec
Ġmat ched
Ġá¸ ł
Ġsingle ton
Ġ20 11
Ġdiv ides
ec ke
Ġext en
um p
Ġfin ish
ĠD E
ĠB ar
Ġ3 7
âĪĨ )
Ġpred icted
ater al
Ġdeal ing
Ġb c
Ġattain ed
Ġprec ondition
Ġs ont
Ġequ ally
ĠForm ally
Ġchallen ge
K S
Ġdefin able
Ġiter ated
Ġm ild
Ġrefin ed
Ġrequ est
Ġd iction
Ġr Ã©
Ġf old
on ym
Ġplan es
Ġexpl oration
ven ue
Ġv ot
âĬ Ĩ
Ġform ation
hed ral
ros sing
ĠSp in
Ġjob s
ĠGr ass
ent ral
RO D
O S
Ġcandid ates
v ised
Ġamb igu
Ġcumul ative
N S
Ġgeometric ally
Ġenc oun
Ġcounter part
Ġb atch
ĠH ar
al th
Ġdivis ible
ĠP ol
Ġp k
process ing
Ġab use
m enting
ĠPre print
Ġrou ting
Ġatt empt
ib ration
Ġcontrib ute
ll ing
ti er
Ã ł
aus es
Ġtr aces
Ġdiv iding
Ġstr atif
a ire
Ġinters ecting
ĠG ro
ĠâĦ ĺ
â Ļ
Ġen velop
Ġvari es
f oli
b lock
constrain ed
ĠðĿĳ Ŀ
âĬ Ĥ
{ |
Ġdraw ing
Ġn i
ĠApp roxim
+ |
Ġsem isim
Ġbin omial
Ġanaly tically
Ġcontinu um
Ġkeep ing
ane ous
Ġcommun ic
S im
Ġout line
Ġsub tr
ĠS D
Ġextreme ly
b as
Ġcan cell
wor ld
ĠÅ Ŀ
du le
Ġd w
ar ting
Ġsuccess fully
Ġmed ian
ĠD L
Ġcar ries
Ġpack ing
ĠE d
Ġmonoton ically
Ġgrad ing
on ential
Ġcoun terex
Ġgradient s
tex ts
Ġregular ized
Ġa uction
Ġá¸ ¢
ĠC D
N C
ĠE R
Ġtri ples
Ġfil tered
Ġin her
Ġsurger y
Ġmul tic
Ġass ess
ĠD ef
Ġconserv ative
p roduct
Ġch apter
ĠCon vergence
at t
Ġt i
and ing
ĠINT ROD
T hen
: //
ĠObser vation
Ġsimul ate
ih il
a o
Ġ5 00
Ġdes irable
ĠD S
Ġhomomorphism s
ĠINTROD UCTION
ac ed
c ks
ĠFlo er
r ational
ĠL ip
20 15
Ġarrang ement
Ġreduc ible
s uch
n ed
Ġn p
str uc
Ġexpand ing
Ġestablish ing
Ġinterp ol
Ġdiscrimin ant
Ġd ur
Ġe con
Ġaddition ally
on gest
Ġfr ames
Ġfe wer
O L
Ġorient able
ĠG H
t re
Ġc at
ug ging
erc ise
Ġe poch
Ġg adget
ĠZ ar
ĠO PT
Ġfix es
Ġb os
Ġ4 1
Ġequal ities
as k
Ġoutper forms
ass er
Ġ+ (
ĠOut put
Ġinductive ly
Ġob j
Ġover view
ĠG F
Ġsh ap
Ġrec ip
ĠI D
Ġcoc ycle
it on
Ġbas eline
ĠM ap
ĠQu antum
Ġper col
ĠCox eter
Ġgr avity
ï ¿½
Ġperiod s
Ġprescrib ed
Ġquantit ative
ou d
ĠAn alog
ĠIn tegr
ĠÅ ´
Ġout going
ix ed
f rom
Ġdeform ations
Ġmod ifications
ĠâŁ¨ âĪĩ
ĠM ean
Ġc al
R T
Ġcomp r
ĠM DP
20 16
âĬ ķ
o hn
Ġvol atility
20 14
Ġk ine
Ġappe ared
Ġnond eg
at ern
valu es
Ġ+âĪŀ ,
| (
ĠD ifferen
G M
f actor
ir c
sem bles
Ġpx q
Ġpre ference
Î ¥
ĠÄ Ĥ
Ġcirc um
om position
ĠâĹ ĭ
Ġanalog y
Ġlinear ized
Ġinsigh t
Ġmember s
re c
en ing
Ġhas h
ma tic
Ġtr actable
U S
Ġp X
Ġanalog ously
poly nomial
ĠIni tial
Ġw all
Ġre trie
Ġâī į
Ġo ld
ĠK n
( )
Ġ( âĪŀ)
dec reasing
ĠN E
Ġan om
Ġincom ing
Ġcode word
Ġaverag ed
Ġparametri zation
bre vi
Ġrec omm
ĠS i
Ã© or
Ġclaim s
Ġso on
ĠâĪ¶ =
âŁ© |
ĠBay es
)| .
r andom
Ġ4 3
Ġinf imum
ar m
20 12
Ġdestin ation
ĠÄ ī
Ġchar t
Ġ( +
r s
Ã© t
Ġmaxim ally
r ate
ĠT ime
Ġrob ots
mid t
b a
Ġprediction s
art z
o vi
Ġd ed
Ġto ut
u ck
Ġadd ressed
amin ation
Ġbu ff
Sch warz
form ally
Ġcall s
ĠC ov
ĠD T
Ġun imod
Ġsche dule
ren ces
U R
Ġcent ers
par tite
Ġpric ing
20 17
oid al
d v
Ġv ice
ĠP T
ĠS N
ĠConsider ing
Ġpass es
tu ple
s in
ĠðĿĳ ļ
Ġreplac ement
Ġn u
Ġse lecting
ĠBel ow
Ġanaly zing
ĠI S
Ġbenef it
Ġproj ected
Ġminim ax
ĠD R
Ġna ive
w riting
og ram
N et
Ġ{ {
al k
in f
20 11
Ġhierarch ical
Ġc d
Ġr s
Ġoptim ize
Ġcontrad icting
Ġtor i
am s
Ġcapt ures
wh ile
Ġrepresent atives
ouv ille
M F
ĠG l
ed ges
con n
ĠâŁ© |
) âĪĤ
Ġsemisim ple
Ġhigh light
Ġh tt
Ġprepar ation
Ġb is
Ġcurrent ly
Ġsec ret
ĠPo ly
as ting
eck er
Ġ3 8
ĠEqu ations
Ġp y
id able
Ġconcern s
str ong
Ġbrid ge
Ġfluctu ations
C l
Ġche cks
Ġhom otopic
Ġd Ïī
Ġâĩ Ŀ
Ġsec re
Ġm ere
ĠÅ ª
an aly
Ġ4 4
ĠL ast
Ã¨ re
Ġhe x
âĮ Ī
Ġinvestig ation
M E
ect ral
Ġqu alit
Ġser ve
Ġ200 9
ab i
f il
Ġf an
Ġsen sitive
Ġcob ordism
ĠS H
s plit
ĠAug ust
Ġtil ing
Ġcl auses
K L
si g
c rossing
ĠS DP
Ġcou ple
ĠB B
em ic
Ġdef ault
Ġregard less
ĠU AV
con stant
igh ting
der s
Ñ Ĥ
Ġl ot
Ġch anged
Ġser vers
Ġiter ates
ĠGrass mann
Ġdepend ency
u sive
Ġl ed
isk i
âĪĴ |
c over
is ons
d a
Ġ0 00
Ġind ecom
A x
Ġover head
ĠCay ley
Ġmob ile
Ġapp arent
Ġco in
a ff
Ġann ihil
Ġ: :
ne y
G aussian
Ġme ets
Ġcompe titive
Ġ? ,
tw are
Ġcor ners
Ġorigin ally
ĠâĪ¥ âĪĨ
f ord
Ġscore s
Ġreach able
Ã »
Ġáº Ĳ
Ġexplan ation
Ġtrain ed
Ġve c
ĠE S
Ġ+ +
Ġther mod
p i
Ġpartition ed
Ġconc ur
Ġoccur ring
Ġpar ties
ard ing
ĠR am
o i
Ġd oc
Ġcare ful
ou l
b ing
Ġx n
neighb or
ĠC at
Ġwor se
ĠH yp
Ġfin ishes
as i
ĠH ad
Ġmulti plying
ur ning
ĠdÃ© fin
Ġbroad cast
Ġconj unction
) âĪĨ
d Î¸
p ass
Ġquoti ents
Ġw t
Ġunit al
v ability
Ã© ri
Ġl ists
sp aces
Ð °
Ġdevi ations
ĠLet ting
Ġconjecture d
in ters
Ġrun time
Ġrank ing
ĠSc ience
Ġcomm uting
he v
Ġfree ly
Ġlocal ized
ĠEquival ently
it ation
Ġcard inal
Ġtopolog ically
ĠAcknowledg ments
hol omorphic
Ġcovari ates
Ġappropri ately
ĠIn equ
Ġgr ate
Ġadapt ation
Ġtrans versal
l ov
Ġproceed s
Ġrestr icts
en able
Ġtrack ing
ing er
Ġdiffeomorphism s
ĠC V
ro v
Ġlead er
Ġáº ĳ
ĠâĻ ¢
ĠAl g
20 10
âĸ ³
Ġadop ted
Ġ3 9
con c
Ġphenomen a
Ġreal istic
ac ement
ic tive
el ess
Ġen gine
Ġvisc osity
Ġcontr actible
Ġmajor ity
ĠP L
Ġenc ode
Ġl k
Ġatt emp
Ġsimultane ous
p q
ĠCl ass
ĠProof s
A r
ĠâĢ¢ âĢ¢âĢ¢
ĠB M
ĠE l
Ġiter ate
ĠCl iff
Ġobser ver
Ġeff ort
ĠL ear
Ġassign s
Ã ĳ
Ġstar ted
Ġre venue
Ġd m
Ġpre p
he l
id al
ĠV or
ĠM P
Ġa part
im es
grad ient
comp onent
an on
Ġquadr ature
Ġt ile
Ġexten sively
Ġrestr icting
ĠT ogether
ĠC E
Ġamb ient
at um
EN DI
âĪ Ģ
u v
ind ric
ro g
ĠÄ Ĵ
Ġdesign s
Ġansw ers
Ġre tr
re al
Ġport foli
ĠZar iski
Ġpercol ation
L i
rom ag
Ã ª
â© ¾
Ġplot ted
Ġpar ad
Ġcon texts
Ġqu atern
Ġign ore
ENDI X
Ġsub modular
Ġwhen ce
Ġd S
ĠHa ar
d ate
ĠOp tim
Ġmin us
or bit
Ġdecision s
Ġsynthe tic
. "
Ġimplic ations
Ġassoci ative
âĢ¢ âĪ¥
Ġd R
ĠRel ated
ĠH ecke
Ġhum an
is omorphism
Ġconcentr ated
Ġmethod ology
Ġprodu ction
Ġno tic
an ov
ĠR M
che t
ion ic
val id
p n
om etry
Ġin jection
ĠS W
g u
Ġb ond
Ġmost ly
ary ing
ĠH o
Ġexhi bits
EN T
Ġf all
og onal
an cing
á ¹
Ġext ensive
Ġconcaten ation
Ġover come
ĠL M
Ġkin ds
ang le
Ġan ces
ograph y
p air
k n
Ġ Ç
am ard
Ġanten na
Ġprof iles
Ġde ploy
u er
ĠS ystem
Ġour selves
ad d
ĠAm ong
Ġst ay
Ġbi jective
l ayer
ces sible
ĠD RA
Ġinitial ization
ĠFirst ly
C M
Ġactiv ation
Ġmon it
Ġsimpl ifies
Ġb us
ĠâĪĳ ï¸ģ
Ġsur v
Ġac qu
Ġdiction ary
al so
Ġintu itive
ĠV II
Ġg h
N E
Ġfeas ibility
ĠD er
Ġcontr act
n ode
m orphism
ĠY ang
cl ust
Ġshif ts
Ġsecre cy
Ġdiscre p
ĠâĨ ł
Ġfor get
ĠS INR
Ġ(âĪ Ģ
bo ok
vari ety
Ġmer omorphic
Ġf on
C T
Ġas ymmetric
ates t
Ġpartition ing
Ġsee k
ob al
Ġsimplic es
Ġ) }.
ĠP D
Ġiter atively
Ġnod al
Ġsym bolic
Ġuni verse
Ġre ally
L R
Ġtheore tic
ĠR T
at o
am ing
et ti
al g
Ġwe b
Ġab brevi
Ġfil ters
vers ity
Ġgr av
Ġinc on
Ġper haps
Ġpolyhed ral
Ġdedu ced
Ġtransl ations
ĠF P
col oring
Ġreduction s
Ġdiscon nected
u bin
Ġ(âĪĴ )
Ġelimin ation
ĠAPP ENDIX
Ġfilter ing
C R
Ġc s
lin ed
ĠB R
ĠS ever
Ġdist urb
Ġoptim ized
Ġholonom y
' ,
am ber
Ġcol lect
in i
en se
Ġres er
it ch
olog ies
Ġintegr ated
Ġexpect ations
Ġp m
Ġmaxim izes
ynam ics
ĠK illing
/ |
Ġfr act
ĠâĻ ®
Ġtes ted
Ġintegr and
N A
Ġd V
Ġvers a
ur a
ad ap
Ġrecur rent
Ġref lex
Ġcompactif ication
Ġfac ets
epend ing
ar row
Ġkine tic
)) ]
Ġsc ope
har monic
Ġpolyhed ron
C om
ĠPh D
le vant
Ġre arr
ĠAltern atively
Ġindecom posable
âĨ ĳ
Ð ¸
ĠA c
-- --
Ġarg min
Ġfrequ ently
ĠX i
sm all
Ġp ix
N F
Ġj j
Ġtun ing
Ġsu sp
m o
Ġgeneral izations
Ġ200 0
ogen ous
Ġâĩ Ģ
Ġcalcul ating
Ġout age
Ġproposition s
Ġcon ject
ĠK ron
Ġassoci ation
ĠK K
B R
ĠP e
Ġdesc end
Ġsecond ary
Ġeig ens
Ġassign ments
á¹ ½
Ġrati os
Ġfac et
ĠSte in
Ġcy l
ĠS Y
Ġbro ken
Ġ+âĪŀ )
ĠâĢ ļ
o o
Ġam ple
ĠS DE
ĠAct ually
erm an
Ġ %
ĠPRO OF
k ov
s ym
res sing
200 9
a ard
ĠH u
ĠHa ving
ar ge
w w
ĠHamilton ians
ĠR HS
Ġof fer
Ġcondition ing
van ishing
is otropic
[ âĪĴ
if ert
Ġk m
C G
ĠLegend rian
ĠâŁ© )
ĠX n
Ġvehic le
Ġis otopic
Ã ¹
Ġt t
Ġachie ving
Ġhol es
Y au
Ġth read
oc ation
Ġ{ Â±
Ġr ation
Ġcertain ly
co ordin
Ġ nd
Ġread ing
et te
á º
Ġi ii
Ġwave let
Ġorient ations
ĠIn formation
Ġperfect ly
Ġclassif ied
Ġp as
Ġdemonstr ates
Ġbeha ves
ĠCliff ord
Ġorthog onality
U RE
Ġeigen function
Ġnondeg enerate
s ec
Ġop tions
j ug
Ġlink ed
Ġcol lected
CA L
Ġgrow ing
Ġreve als
Ġneighborhood s
Ġcare fully
ĠK h
Ġdel ta
Ġmedi um
Ġsub c
Ġshad ow
ok ing
Ġenumer ation
ob ser
Ġrot ations
, [
g ular
me an
Ġdis j
20 18
res sive
Ġst ages
Ġrequ ests
oun ting
Ġver ifies
Ġf ill
Ġpre m
Ġidemp otent
s he
Ġan tic
equival ent
Ġis o
a ul
ĠCon c
Ġrescal ing
ĠMathema tics
v in
Ġc n
M od
Ġtrade off
ĠM T
Ġtermin ates
ĠDRA FT
Ġpoin ting
Ġv ide
Ġrepeated ly
ĠD i
Ġr i
Ġsubs ystem
p end
ĠP ick
ard ed
Ġaff ected
ĠË Ŀ
ĠÃ ª
Ġcomm it
Ġqu ar
respond ing
anc ial
Ġa p
ĠSe ifert
r d
st ation
s olution
ri pt
] }
Ġneighbor ing
ener gy
par tition
re lation
Ġsystem atic
Ġisom etries
ul ating
Ġintegr ate
Ġcance l
Ġther mal
ĠC W
k not
Ġtriang ulations
È ³
Ġdomin ating
Ġtransl ate
ĠB A
ĠPa uli
Ġn k
ĠL T
g el
Ġm assive
Ġd q
Ġsumm ing
C LU
A d
Ġsatur ated
M ore
Ġac know
ĠS I
ĠTh anks
Ġsub problem
Ġupd ating
Ġidentif ies
or i
Ġrever sible
Ġsof tware
ul se
min imal
defin ite
Ġd n
Ġdi versity
Ġhex ag
il it
ĠË Ļ
l iers
Ġfam ili
Ġprefer red
categor ies
Ġbar rier
ma il
ro t
ĠA v
ĠF ound
tro l
k a
com put
are to
ĠC G
C L
[ |
Ġg erm
L a
ĠðĿĳ ĳ
cell s
Ġrem ov
asser stein
Ġpref erences
Ġd H
ĠâĦ µ
ĠA T
) \
Ġenc ryp
Ġal ors
AB LE
F in
Ġadvant ages
Ġattr actor
ĠCart esian
Ġs om
ĠR L
ĠH S
N O
Ġl i
Ġfig ures
Ġe le
Ġal g
Ġhypersur faces
Ġexplo iting
Ġelect ron
Ġop in
ar s
Ġdifferential s
Ġlex ic
Ġelimin ate
ep t
Ġb ic
Ġdur ation
} ;
ĠHe eg
Ġdet ected
Ġconn ects
ĠâĢ °
Ġex position
Ġspir it
Ġal one
ĠE m
Ġrel ates
k o
l ikelihood
ĠâĪ¥ âĢ¢âĪ¥
- )
Ġis ot
Ġs ous
ĠH ow
Ġrectang les
sion s
Ġasp ect
- (
ri p
ĠR R
Ġdomin ates
ell ow
âĪ ¨
G r
vers es
Ġex clud
ĠI r
P r
Ġr ich
eas ible
anon ical
idel ity
ĠT uring
ack ing
ak er
ĠP ri
ĠâĪ ı
Ġp iv
p a
Ġd X
Ġincom plete
ecti veness
} ).
ĠR H
Ë Ĩ
ĠPro cess
Ġdimension ality
Ġpo ol
]) :
Ġl g
Ġcaus ed
ĠPh ase
x i
Ġdoub ly
Ġm m
op en
Ġpo or
ang ent
Ġexp ensive
ĠS n
ĠF isher
label ed
Ġinclusion s
lin es
Ġend ing
ig en
Ġaggreg ation
ovi an
Ġrece ivers
ĠP A
Ġgeneral ised
âĪĪ (
Ġsuc ceed
Ð ½
ĠDe hn
st andard
Ġattrib utes
Ġsynchron ization
R ec
Ġ. (
pl o
Ġr ibb
U n
ĠHyp ot
M s
Ġsl ots
N s
ĠHeeg aard
,âĪŀ )
ĠR o
ĠâĪ¥ .
C F
Ġbran ched
Ġdifficul ties
Ġtil es
Ġexec uted
e k
Ġprior ity
hol m
ĠSever al
ĠÎ± n
b all
ĠS GD
Ġclass ic
sim ple
Ġvalu ations
Ġt ag
ough ly
Ġprof it
Ġquanti le
Ġf illing
ĠG o
pr ime
Ã¼ ller
Ġfair ness
Ġexpl ored
Ġoccur rences
ol es
Ġin er
ĠC e
Ġre tain
Ġlinear ity
ol m
ĠLear ning
ĠâĬ Ĭ
am ent
ip her
Ġsuper position
ĠPro gram
ĠC ur
un k
Ġt ables
Ġknow s
Ġobst acle
Ä ģ
Ġfulf illed
Ġsubs cript
Ġex amin
Ġ4 6
ain ing
ch annel
Ġini ti
ann on
Ġaccep ted
ĠCON CLU
Ġrestr ictive
v arying
ĠS G
Ġd Ïģ
' .
Ġpropos al
c ore
Ġcommut ator
Ã©or Ã¨me
d imension
ĠD A
Ġresol vent
ĠLe ft
tr an
D u
Ġcharacter izes
ĠRecall ing
class ical
Ġwe lf
ĠB ol
Ġintegr ability
Ġtransl ates
at s
Ġaccording ly
Ġcaus es
ĠCal abi
Ġvi olation
Ġfrag ment
ĠHad amard
m ap
Ġa ge
Ġl and
Ġbig ger
for th
âĪ ĥ
U E
Ġenc oder
Ġderiv ations
Ġd k
ĠKle in
der iv
us ed
form ed
Ġrelationsh ips
ĠFin d
yp t
c r
qu es
Ġpositive ly
ĠA A
Ġwelf are
ĠUn like
IT H
ĠB ack
ðĿĳ ĸ
Ġsaf ety
Ġ200 8
Ġy ou
C O
Ġtr ick
ĠðĿĳ ł
a j
Ġsummand s
Ġd Î±
ynchron ous
Ġen j
Ġmere ly
Ġpoly n
ĠC hen
Ġpro mis
ac her
w artz
ĠCompar ing
Ġpredic tive
ati v
cl ose
Ġsecond s
Ġexh aus
ĠËĨ R
ĠâŁ¨ âŁ¨
Ġdri ven
ĠT R
Ġfocus ed
ĠF i
Ï ħ
ĠLike wise
ĠG S
Ġp R
ĠÄ İ
Ġ9 0
( âŁ¨
e ven
is enberg
enc il
Ġfl ip
Ġe ase
E P
ĠMa xim
Ġminim a
Ġpolyg ons
ĠâĦ ĳ
d ÏĦ
ĠChe b
e ting
ĠCon t
ĠAccording ly
" )
Ġtan h
S u
Ġstreng then
Ġp ati
Ġaggreg ate
) âĪ©
Ġtermin ation
sch ild
Ġflex ible
ol ar
ch i
Ġformul ations
ĠO N
e lement
Ġext ent
Ġnon singular
S te
Ġrescal ed
Ġche m
S m
Ġfin ancial
Ġrep air
Ġpl anning
B D
Ġfair ly
Ġbrack ets
g ood
ĠâĢ ¹
Ġstr atum
ĠT yp
ĠR ay
Ġaim s
) âĪĩ
Ġdiscrep ancy
Ġs es
Ġplay ed
ĠB ir
Ġ8 0
ĠKron ecker
c ube
Ġf u
Ġrectang ular
Ġex it
on est
Ġnon local
ĠP areto
Ġmultipl iers
Ġlif e
B G
Ġp A
Ġredund ant
Ġcontinu ed
am i
V E
sem b
z es
Ġh itting
ĠComp uting
Ġob e
Ġch amber
abil ities
ĠF red
Ġ. .,
ord ance
ĠÈ ·
ĠR un
so v
st age
Ġser ves
Ġt ub
Ġmathema tics
Ġam enable
Ġul tra
ĠS F
ĠPr inc
Ġnon parametric
Ġun s
Ġbir ational
s parse
Ġr are
Ġcos et
Ġman ag
ac les
Ġse lects
Ġn ames
Ġnom inal
bound ary
Ġun ivariate
Ġmultiplic ities
ĠB F
Ġoper ational
istrib uted
Ġgener ically
onom ous
Ġportfoli o
ĠP P
á »
ĠÄ ¨
assif ication
Ġlog istic
ĠS y
Ġsem icon
Ġen able
ch o
Ġlo oks
Ġtrans vers
ĠðĿĳ ĵ
Ġev ident
Ġeff ectiveness
Ġdisplay ed
ĠMo tiv
Ġsubstit ute
s ymmetry
Ġd Î·
Ġâī ³
graph s
ot al
ĠStr uct
n stein
Ġbeha ve
Ġcos m
Ġsmooth ly
ĠSch warz
ĠâŁ¨ (
Ġbuff er
i eck
Ġmulti ply
u it
Ġsuit ably
z en
ĠG roup
Ġac tivity
ĠLe vi
bal anced
ys hev
ĠN umber
Ġcl oud
ar ing
U N
Ġle aving
sim plex
Ġamplit udes
ad j
Ġtran si
Ġheter ogeneous
ĠO per
Ġminim izers
Ġdiscon tinuous
Ġse es
Ġâĭ ī
Ġsuff ix
Ġc aching
ig m
Ġan onym
â Ĺ
art esian
| âĪĴ
Ġpro ximal
{ (
ĠG R
á» ¹
ĠInequ ality
ĠL in
Ġcompar isons
ĠSecond ly
if ier
Ġcode words
sk y
Ġvis ible
Ġalign ment
o ir
per fect
ĠB G
ĠTechn ical
posed ness
Ġmut ation
ĠCONCLU SION
ĠM I
Ġinter acting
ĠM ath
Ġpolar ization
indric al
z er
Ġr n
Ġb isim
R em
Ġvalid ation
ĠA F
Ï Ĥ
Ġcomp an
ĠD AG
ĠM ac
st ates
ĠS ur
Ġtrans pose
ir al
ven tion
the nd
ĠÂ ¯
im ed
meas urable
Ġcl ar
ex act
ĠAb elian
Ġcapt ured
Ã¶b ius
ĠS em
Ġmeaning ful
E G
h al
n ov
ĠTe ich
b and
Ġde ad
)| ,
ad es
at ement
ver ag
thend ieck
Ġfamili ar
w hen
Ġderiv ing
in cluding
ĠCom plex
Ġinc idence
we ak
Ġevalu ations
ĠH H
ĠN O
Ġfl o
Ġloss es
c ription
Ġpossess es
Ġener gies
ĠI sing
Ġz eta
Ġnot ational
Ġthresh olds
Ġk th
ĠH ard
Ġáº ½
Ġi p
ĠM as
ĠPut ting
Ġt x
algebra ic
Ġcomp ens
S ince
Ġdat um
Ġambigu ity
Ġad ds
ĠF l
ĠFound ation
Ġgap s
on oi
oc ks
Ġattack er
Ġmatch ings
oc lin
Ġclassif y
Ġsubt le
Ġcub es
ure nt
Ġopp osed
Ġimplement ations
Ġmat h
Ġdet ector
ram ified
Ġrel ating
Ġe ight
Ġfac ilit
it ational
al ition
Ġsynt hesis
ĠAs s
Ġcross es
Ġâ ĥ
IT Y
od ies
Ġfor b
Ġord inal
an tine
Ġsubst anti
au x
l ass
or able
Ġcon ic
Ġsin k
Ġlinear ization
Ġreg imes
Ġremark able
ĠK e
Ġdisc overed
Ġmod er
ĠHam ming
Ġsignific ance
ĠProper ties
Ġgrate ful
ĠÎ¸ n
Ġribb on
Ġalloc ated
Ġw ater
ðĿĳ Ľ
ist able
Ġbre vity
B r
Ġm s
ĠHig gs
ĠâĢ¢ âŁ©
Ġmeas uring
ĠGr ad
Ġlink ing
Ã©n yi
Ñ Ģ
Ġdec ays
Ġinstant aneous
Ġreturn ed
Ġcomp ressed
Ġsem ic
O C
Ġin str
Ġper cent
Ġexpand ed
Ġer as
Ġm aster
ect ors
bas is
con tr
Ġn r
ĠS ti
ĠC n
llip tic
Ġconstruc ts
ĠÃ İ
ĠC AT
ti ves
ĠF D
Ġdisper sion
Ġcur l
Ġcommun ications
Ġ(?? )
Ġpack age
s up
ĠL ater
he nce
Ġstabil ization
Ġdes pite
Ġshap es
Ġto wer
W h
Ġcr ypt
par ticle
Ġbeam forming
H T
ĠâĪĴ ,
Ġ[ |
ĠS w
Ġtoler ance
Ġx t
ĠR ight
200 8
s ample
Ġre writing
g en
ĠC alc
Ñ ģ
Ġcounterex ample
Ġpre image
Ġquantif y
po le
k l
Ġoptim izing
ens en
Ġexplain s
Ġrapid ly
f act
romag netic
ĠM Ã¶bius
ĠD is
B A
Ġsupp orting
Ġpat ch
Ġ) âĪĪ
Ġfr on
m etric
meas ure
ĠJ ohn
oun ted
Ġsub manifolds
) âĢ¢
Ġam pl
or ter
ar b
} |
Ġreal ize
ĠF S
ati ble
Ġcondition ally
Ġtrans action
Ã© chet
I s
Ġr id
ĠB en
Ġ{ [
Ġrecip ro
d ist
ĠCP U
Î± Î²
i ences
T here
ĠHe isenberg
ĠLi ouville
Ġconstruc tive
ĠE nt
ĠL asso
ĠT ri
Ġinser tion
ĠU S
Ġl ongest
L ie
ĠT S
ĠD r
on ly
Ã ¢
Ġdon c
Ġindic ating
Ġst ating
tz mann
form ance
ĠInte resting
ĠAr tin
Ġo u
Ġsepar ates
it ter
ant or
ĠÂ ¡
Ġcontr acting
sig ning
Ġenviron ments
arc her
Ġdot ted
Ġconf l
Ġ- (
Ġa vec
Ġrad i
Ġin herent
ethe rian
un ing
sim plic
C ar
Ġx j
ĠM N
ĠCho osing
ĠGro thendieck
ĠL A
Ġrepe tition
equival ence
tim ately
Ġp il
Ġth ings
ĠOp timal
Ġst ays
Ġoper ad
our s
Ġutil ize
Ġaccur ately
Ġabstr action
Ġinsigh ts
Ġout lined
imod ule
H ere
Ġch ose
Ġvehic les
Ġc t
Ġso le
c ap
ĠLa urent
represent ation
Ġdevelop ing
A pp
mon ot
Ġmet a
om ially
ðĿ Ľ
ĠCheb yshev
ĠSt arting
ĠP CA
] |
Ä ı
p ot
Ġrel ational
Ġ200 6
Ġacc umul
ĠT or
Ġdispl acement
Ġcollap se
ĠHypot hesis
ĠS ect
aves dro
Ġattrib ute
Ġto ward
ĠâŁ¨ âĢ¢,
h r
ac tic
ott om
ection s
Ġhar ves
Ġpredic ates
Ġt p
Ġvol t
ðĿĳ ĺ
Ġcontrib utes
Ġatt ach
Ġjustif ied
Ġnon commutative
Ġcle an
analy tic
Ġstat us
Ġn ous
Ġmod ern
Ġslow ly
C s
Ġu r
Ġt el
om ent
ic ks
oclin ic
ĠAlex ander
Ġmac roscopic
Ġske leton
ĠCon strain
Ġrigid ity
Ġtr ust
Ġrel iability
Ġchallen ges
out put
Ġ4 9
Ġcategor ical
ĠE P
Ġcut ting
d ifferential
ĠU E
in finite
requ ency
Ġcod ed
Ġstr ata
re hen
Ġconf usion
D L
ĠN ormal
r up
ĠI ter
Ġco alition
ĠDisc us
se y
dis joint
Ġref lected
com ing
]. )
yn man
n ik
entral ized
Ġnon convex
10 1
ĠM il
n es
ri l
Ġcer tific
Ġprinci ples
Ġsol vers
i ÏĢ
Ġasser ts
Ġa ware
Ġb a
Ġdele ting
ĠRad on
ĠðĿĳ ¢
S L
ĠM F
Ġn c
Ġcur ren
Ġthe ta
G P
ĠAnalog ously
Ġlat ency
Ġgrav itational
ĠSim ulation
Ġincom pres
Ġimprove ments
Ġpar ty
Ġbre aking
er ror
Ġsub matrix
Ġcentral ized
us cript
ĠAB C
abel ian
Ġan not
ĠÃ ±
Ġ( "
Ġadj unction
ĠFred holm
ĠðĿĳ ĩ
hed ra
Ġirre levant
ĠVor onoi
am mar
Ġar ms
Ġgeometric al
m un
ch astic
ri ds
ĠDes pite
ĠPic ard
plic ation
b ecause
s s
ĠF O
group s
Ġp c
B B
br an
ĠâĪĩ (
Ġextr acted
vari able
Ġun ramified
Ġdec or
Ġdef ect
Ġle ak
Ġvi olated
c ill
et hing
ĠSto kes
Ġdiag on
Ġsubstanti ally
Ġâĸ ²
mat rices
.. ..
Ġcas c
Ġform ing
Ã £
Ġfa ult
Ġpl ant
ĠEr ror
Ġ0 2
lat tice
E q
O p
ort ed
me ans
ĠPh ys
Ġlif ted
Ġg as
Ġc i
Ġrel iable
Ġex cess
ĠW here
Ġfibr ations
ĠE T
Ġ200 7
Ġdistin ction
l as
Ġdifferenti ation
Ġ5 6
sis tency
Ġj th
ain ed
âĢ¢âĢ¢âĢ¢ +
Ġo Ã¹
Ġ4 7
Ġasser tions
S AT
Ġt ack
Ġ( Â±
olm og
f igur
Ġtransl ated
Ġconfl ict
par ts
v is
ip otent
Ġminim ized
uc lear
re edy
Ġsubst an
Ġal geb
v ance
Ġi x
Ġcom ment
Ġlimit ations
ĠO R
Ġnumer ator
Ġdoes n
cy cles
Ġde als
ĠFr Ã©chet
ĠR A
ĠÎ Ķ
Ġsh ares
Ġp j
Ġsub sequently
Ġenc odes
u nder
Ġbir th
| /
ĠË ĩ
ĠL C
ĠW asserstein
Ġobj ectives
Ġdistribution al
cl ock
ĠZh ang
it Ã©
ĠÎ» x
Ġe avesdro
ĠH ol
iqu id
Ġimpro ving
M ac
ĠBern stein
(âĪĨ )
Î» x
ĠBes sel
orient ed
Ġbehavi ors
is er
d V
Ġâī ł
Ġaltern atives
ĠNS F
ign er
ĠðĿĳ İ
d B
Ġoff ers
for ce
ĠInteresting ly
ĠEr d
E L
ĠâĪ ł
Ġaccom pl
Ġsp ac
Ġf its
Ġsuffic e
ĠS ystems
Ġcl iques
Ġint ended
Ġredu ctive
fl at
Ġinst ability
ĠTHE OR
Ġemploy ing
Ġb order
ĠI ll
ĠBS s
Ġcooper ative
er kin
Ġdy adic
ĠTh om
ĠÎ» n
Ġt en
Ġh o
Ġcount ably
Ġd A
0000 0000
Ġavoid s
ĠE v
Ġcut off
ĠÃ Ŀ
Ġcanon ically
Ġminim ality
Ġj l
oll aries
K M
ĠB ra
S et
tingu ish
ĠFe ynman
o ple
ĠS olution
Ġ9 5
d el
aw a
Ġplac ement
Ġd ie
Å ·
ĠR G
Ġmotiv ates
Ġsent ence
olmog orov
Ġreg ister
ĠA M
Ġb ub
Ġ20 19
} }
ĠL L
Ġl ibr
Ġconstit ute
Ġmer ge
Ġaver ages
Ġâ Ł
Ġpri ors
ĠR et
ĠK r
Ġband s
ĠC an
val ent
Ġdiffe omorphic
Ġac cessible
Ġref lects
d Î¾
Ġfit ting
N P
al d
sh ot
ĠSh annon
ĠWi ener
um es
Ġind is
ival ent
Ġtarget s
ĠâĬ ©
Ġphot on
Ġf idelity
ĠâĪĴ )
| +
ch anging
Ġout liers
Ġverify ing
r ich
Ġsw ap
200 6
igh ter
ĠP i
ĠM LE
Ġu pl
Ġa i
d istance
Ġunimod ular
Ġp z
Ġn s
Ġoper ating
Ġtheore tically
Ġmer id
Ġt ame
ĠSV D
ia gram
ĠV alu
m Ã¼ller
Ġn amed
Ġ) },
ir ms
efin ed
Ġconject ures
ĠR C
op tim
Ġpre vent
Ġrecomm end
Ġconser ved
ĠAlgorithm s
ĠTh ird
ĠLegend re
Ġqualit ative
Ġref ere
Ġmember ship
Å ĳ
Ġd amp
G N
ĠC ap
f irst
w itz
Ġneut ral
m ed
Ġvis ited
Ġas signing
Ġsupp ly
R iemann
Ġáº ı
Ġar tific
ĠMax well
ĠL im
Ġdepend encies
ĠV al
Ġsc ience
Ġmotion s
Ġfin iteness
Ġgl ue
ĠPS L
Ġc red
ĠR B
Ġneur ons
ĠH el
ĠRe pl
Ġvari ances
Ġ/ /
Ġincorpor ate
Ġcomp rehen
Ġc c
Ġtopolog ies
I nd
P l
Ġwork ers
Ġapproxim ates
Ġsubstan tial
G H
Ġst ret
Ġn arrow
Ġel abor
ic ity
Ġbenef its
Ġreflex ive
Ġax es
j ected
t n
ĠB D
Ġp in
sche tz
Ġsay ing
ĠA i
ĠL ine
Ġre wards
Ã¨ s
ĠBol tzmann
Ġcontinu es
u j
Ġtrans position
Ġus age
ph ase
sh ap
re f
Ġgre atest
Q U
station ary
Ġpl at
Ġinc ur
Ġdec oupl
ĠC antor
Ġnonlinear ity
Ġw edge
Ġempir ically
Ġsh orter
ĠSo it
h i
ĠX X
ĠCondition s
ĠC all
le igh
Ġsuper ior
Ġinves t
Ġellip so
Ġsom ething
Ġdown link
Ġhand led
Ġh it
Ġun fold
ĠAs ymptotic
ĠS z
ĠD om
with out
Ġgr ammar
Ġtriang ulated
l iv
ĠIn stit
Ġcombinator ics
Ġn j
ar p
Ġconsider ably
s ke
Ġex cl
ag ent
, âĢ¢
Ġp T
F A
ĠRep e
plan ar
Ð¾ Ð
re str
ĠâĪĴ âĪĩ
squ are
Ġfor th
ĠGe ometric
Ġtr ading
11 1
Ġcur ved
[ âĪ¥
Ġattain s
Ġopp ortun
Ġmultipl ied
Ġdel i
ĠâĪ¥ ,
Ġsequ entially
Ġreach ability
Ġdel ays
Ġquantif ier
en ed
Ġinter tw
Ġdele tion
Ġent er
Ġspin or
' )
Ġh op
Ġi v
Ġb old
ĠJ ensen
ctor s
Ġscalar s
Ġphys ically
av oid
ĠB L
200 7
Ġhard ness
Ġoff line
c ale
Ġsubs ystems
Ġtre nd
ĠOn ly
it ney
Ġch romatic
ĠSc he
Ġnumer ous
ĠN ational
Ġconven tions
z ations
ĠMat rix
ĠâĬ ĸ
Ġhe avi
Ġconduct ed
Ġro les
er y
Ġran ks
Ġrenormal ization
Ġpers istence
Ġexplo ited
Ġ)| |
ĠP ath
ĠLast ly
Ġmac ro
Ġquad ril
pl us
ĠÄ ´
Ġaff ects
ĠD iv
Ġinf ected
ĠA dd
ĠðĿĳ £
ĠW ang
Ġcancell ation
Ġcros sed
Ġ5 2
Ġmatroid s
/ âĪĤ
tor sion
Ġevery thing
Ġproposition al
imed ean
Ġhe p
Ġvide o
ĠðĿĳ Ĳ
C o
d o
Ġproject or
Ġpolyn omially
Ġdec ode
Ġdesign ing
tw isted
Ġbr ing
o ke
Ġconcur rent
V I
Ġfunctor ial
conc ave
Ġi id
omp act
Ġo ct
ĠK o
ĠS ign
orth ogonal
P s
ĠRe eb
ic ular
ĠE F
Ã ¯
ĠR K
Ġprocess or
Ġ(âĢ¢ ),
Ġ12 8
m y
g on
r ig
ĠM U
ĠL ower
Ġq i
ign e
exp onential
Ã©s ent
ex istence
ĠD uring
ĠAL G
J ac
con ver
ĠX t
Ġchar ges
ĠDefinition s
Ġcre ates
P O
ap er
Ġdis e
ĠAl gebra
Ġanaly ses
Ġcharacter izing
zz y
ĠDiscus sion
ĠT ABLE
Ġwe ighting
in te
mit ted
Ġin struction
Ġpers ist
Ġnorm ally
Ġn t
ic z
ĠC over
Ġcyl indrical
Ġpre v
s ystem
Ġneighbour s
ĠW il
F s
Ġ5 4
Ġseman tic
Ġtransi ent
Ġw on
Ġcent re
Ġbi ased
ĠGr am
ĠEx plicit
ĠG amma
d ri
ou red
um b
u bert
ĠCon trol
per tur
ĠËĩ Ëĩ
approxim ate
Ġdoc ument
Ġincompres sible
ĠSto chastic
Ġb ag
Ġpredict or
Ġtri als
Ġsh ock
Ġ(âĪĨ )
Rem ark
n or
Ġcomple ting
Ġrecover s
Ġp f
ĠPl ayer
ĠÎ± i
m itian
Ġdiscreti zed
ĠâĪĴ âĪĤ
ĠA re
Ġmass es
Ġp encil
h or
ĠQ C
Ġcent r
ĠTeich mÃ¼ller
ĠUp date
ativ istic
ĠSt ud
pend icular
Ġâĸ ¶
Ġattemp ts
Ġwa iting
ĠZ F
ĠLe f
âĪĨ (
Ġcollection s
hom ology
et ch
ĠL u
i en
Ġtem pl
Ġexhaus tive
ou se
ĠE ve
AC E
Ġpro m
Ġvirt ue
Ġas ynchronous
Ġrep r
Ġh onest
Ġt aut
Ġdegener acy
ĠS l
Ġ{ âĪŀ
ĠðĿĽ ¼
Ġpunct ured
am ilton
le ts
ĠCo hen
ĠR oughly
Ġconsist ently
ĠIn tern
Ġstack s
Ġfr amed
Ġinser t
y cles
ĠF il
W itten
Ġk k
Ġpe ople
Ġprodu cing
Ġsort ed
ĠâĪŀ ]
Ġquad ric
Ġl ost
Ġupl ink
c her
00 1
ĠâĪĢ (
Ġb atter
Ġpo sed
ten s
ĠF erm
str ing
Ġâī ¼
Ġinst anti
Ġun knot
ĠC B
ĠðĿĲ ´
Ġrese archer
Ġman uscript
Ġhist ogram
cent er
o S
Ġan ch
Ġtail s
e q
ĠR ES
Ġspati ally
Ġhom ological
ĠR ank
L M
urst on
Ġto ken
Ġenvelop e
Ġs r
ĠÎµ n
S ec
im orphism
ĠðĿĳ ¦
Ġ) /(
ĠB a
Ġm al
Ġ# (
Ġequ id
ĠForm ula
Ġhel ps
ic ated
% ,
ĠB ur
Ġcoll abor
Ġass et
Ġl c
Ġbegin s
struct ures
ĠT ree
Ġfind ings
Ġreconstruct ed
Ġsur rog
ĠRay leigh
Ġf n
ĠSt ab
ĠDifferen t
Ġens uring
Ġremov al
Ġdifferent ly
Ġke ys
Fin ally
y le
um ents
Ġj ud
d etermin
Ġin homogeneous
Ġ, (
ĠR ule
ĠE ff
Ġclassif iers
Ġsub optimal
S C
a ger
Ġdiam ond
b ur
omorphism s
is omorphic
D T
ĠE valu
ĠÂ¨ Â¨Â¨
Ġaccep ting
n p
Ġincre ments
un ique
Ġsimpl ification
Ġcorrection s
Ġcon d
Ġleft most
ĠConclusion s
ou x
ier str
Ġx k
Ġsubs che
s ome
ons es
Ġn uclear
ĠP U
normal ized
ĠIll ustr
Ġ# {
tu ples
ĠDen oting
con jug
im eter
ĠMark ovian
ĠMC MC
Ġram ification
iv ing
om y
ify ing
n umber
Ġper pendicular
Ġdecom poses
Ġfor ced
as ts
Ġsl ower
ur witz
Ġb ary
bl ue
Ġcof ibr
)) âĪ¥
lim ited
N G
ĠK olmogorov
Ġsub complex
Ġad equ
Ġreflection s
Ġtableau x
px q
Ġcustom ers
pro b
Ġb d
ĠAD MM
ĠR est
Ġdemand s
Ġle verage
ext ension
Ġc ri
ĠM AT
ĠÂ £
Ġmod elling
Ġph y
ĠI ma
Ġfract al
Ġput ting
Ġsymm etri
u ine
qu et
Ġfil es
shap ed
Q u
ell ed
integr able
Ġt s
c oc
Ġloc ality
n ecess
Ġexclud ed
Ġtw ists
Ġsur round
ĠD y
Ġs q
ĠM e
Ġen lar
ĠL DP
Ġsur jection
Ġfocus es
Ġexceed s
ĠSum ming
Ġsuper sc
Ġin it
Ġex ercise
Ġsub variety
Ġsub class
ad missible
Ġrele vance
ĠC Îµ
Ġsa w
plit z
s ay
Ġr ul
h o
Ġb odies
Ġdisc s
Ġreach ing
as se
a pped
Ġ) ].
Ġb es
ab led
âĪ¥ âĪĩ
Ġelse where
Ġd ay
ĠH yper
Ġsol iton
ĠðĿĳ Ł
in ess
ail ed
ĠSch ubert
Ġgover ned
Ġingredient s
Ä ±
ent ropy
ĠE C
Ġbo olean
ĠRemark s
ti bility
Ġro ute
Ġram ified
Ġcommut ation
Ġun ipotent
Ġ200 5
Ġvolt age
d ifferen
ĠW riting
V D
Ġtang ential
Ġanonym ous
Ġtransmission s
Ġ5 5
ĠWe il
om b
ell er
i pping
Ġattr active
ĠRe al
Ġh u
Ġim posing
Ġu u
id em
Ġop tical
ound ed
Ġenh ance
r ange
Ġref lect
AR I
en der
, Â±
ĠB T
ilibri um
Ġdec idable
ro se
ĠF ano
Ġoscill ator
clock wise
Ġpl ug
Ġmargin als
ti zation
paramet ers
k ernel
Ġcon ges
ĠFin ite
More over
Ġflex ibility
ĠLef schetz
Ġcol lective
Ġi y
Ġarg ued
ethe less
Ġun ified
e plitz
Ġme eting
ĠD B
ers on
Ġoverl apping
x n
Ġsp ins
ĠU se
Ġg amma
Ġdec entralized
Ġview point
Ġforb idden
TION S
ĠN i
Ġman if
ad ratic
Q P
Ġde ux
ĠGal erkin
Ġen sembles
ĠC ent
ĠPDE s
Ġmechan ical
Ġright most
ĠS eg
ies z
Ġmod al
S to
Ġhyp ered
ĠT w
ĠM i
Ġadv ance
c alc
ĠM eas
iz ability
Ġfon ction
Ġd h
t rees
is ations
Ġfib res
l ong
! )
Ġresp onses
spec ified
Ġhom otop
} ),
ĠGeneral ized
Ġ12 3
Ġshe ll
Ġp v
Ġfoli ations
Ġreceiv ing
Ġalgeb roid
ĠP M
Ġavoid ing
Ġpil ot
Th m
Ġsuccess or
Ġre new
Ġ)) (
ĠReg ular
Ġpubl ished
c end
Ġinitial ized
Ġprob ably
l Ã©
Ġan isotropic
bed ding
ke y
Ġsl opes
ĠGr ant
S ub
Ġ5 1
Ġlear ner
Ġl iquid
clust er
ir th
Ä Ŀ
V ar
Ġacceler ation
Ġdoub ling
Ġknow ing
ĠG M
Ġind irect
Ġaltern ate
ĠK al
The se
Ġde fer
ĠP ost
am er
Ġun constrained
c ode
ric e
Ġconsider able
ĠPl ugging
Ġsubt rees
ec reasing
ĠP DF
Ġoscill ations
A b
ĠW igner
qu asi
Ġ= (
Al gorithm
Ġvis it
B L
Ġenfor ce
Ġclock wise
ne g
ĠAx iom
Ġappear ance
Ġj n
Ġimple menting
Ġconcentr ate
Ġ5 3
Ġmes hes
Ġcommun ities
Ġclassif ying
ðĿĳ ł
ere lliptic
ĠTh ough
R P
ĠA z
Ġy y
ĠD ep
par allel
form ula
Ġi Ïī
ri f
ĠP f
neighbor hood
Ġgreat ly
Ġl m
Ġal le
Ġl ens
Ġsemigroup s
Ġi Î±
Ġcounter parts
Ġl asso
i Ïī
ĠPO VM
ĠApp ly
Ġblow up
Ġmark ing
ers ed
Ġâľ ĵ
Ġ200 4
Ġlog ics
Ġirre gular
Ġ7 0
âĪĴâĪĴ âĪĴâĪĴ
Ġthermod ynamic
Ġvirt ually
Ġul tr
Ġchem ical
Ġ1 20
Ġquanti zed
gener ic
Ġellipso id
Ġf alls
Ġbuy er
Ġvalu able
f requency
ĠL and
Ġco prime
le v
ĠPer formance
ĠU C
Ġser v
ĠBas ic
ĠðĿĳ ģ
art ment
amet ric
Ġsc at
Ġent ers
Ġfraction s
Ġp M
Ġspec ifies
|| |
ĠE L
app ear
Ġun ary
ĠD yn
% .
Ġtetra hedron
Ġcom mand
dec omposition
Ġm k
ĠDo F
ul as
Ġans atz
âĪª {
Ġequ ip
ĠC SP
ĠAppl ications
Ġdele ted
ĠSt andard
min im
Ġhom ogen
N o
T P
Ġcomposition s
es ting
Ġanaly se
Ġco v
Ch apter
La gr
ĠÏĢ i
Ġt ube
Ġdescription s
Ġcooper ation
, âĪĨ
ĠÎ´ t
ĠPro f
Ġkeep s
Ġredund ancy
Ġfam ous
Ġsole ly
g rid
Ġpromis ing
ĠC as
n etwork
ner gy
Ġcurren ts
Ġch ance
ĠM AP
Ġunc ondition
g ment
Ġatt aching
Ġinterpret ations
rup ted
ĠR V
no ise
Ġrigor ously
Ġreson ance
Ġtang le
Ġnorm ality
ĠLa w
. -
ĠIt Ã´
Ġcylinder s
Ġd ark
d irection
ĠSt ate
ro ot
Ġgen uine
Ġnond ecreasing
Ġdisc over
Ġadmit ting
Ġliter als
ple ment
is en
st er
ot o
g ences
Ġmaxim ized
Ġdissip ation
Ġtri al
E n
ĠSol ving
h op
f am
t ogether
Ġhyper geometric
ĠF und
Ġour s
Ġtermin ate
Ġobe ys
Ġrad ii
spec ific
ĠI F
ĠG W
ve re
Ġset t
Ġmoder ate
Ġdec l
Ġsupp osed
r Ã©
] /
ar g
Ġbott len
ĠMathema tical
Ġrec ords
Ġent ails
{ âĪĴ
br ane
D C
Ġcha otic
inter val
Ġliter al
Ġwork er
Ġg rids
ĠðĿĲ ¿
Ġcoun ted
Ġk ept
pr ints
ĠâĢ ¡
Ġarr ays
Ġartific ial
Ġb ins
ĠReg arding
Ġutil ized
Ġcre ation
Ġob s
e ur
Ġm p
od ers
Ġpe ut
ierstr ass
Ġfib ered
Ġresp ects
Ġspecify ing
ĠQ R
Ġrou tine
ĠAd S
ĠD av
t here
Ġeras ure
Ġch iral
ĠP oint
ĠC I
Ġsh uff
Ġcon duc
re ducible
p X
ĠRep resent
Ġcontroll ability
Ġd F
s n
ĠGraph s
Ġz one
Ġpo se
Ġrad ical
ĠY et
ĠEx istence
Ġb ivariate
pro per
a e
p on
Ġt j
Ġstrate g
Ġth ing
as on
ĠL oc
Ġhtt p
un ctive
Ġh t
Ġas semb
Ġcap able
Ġbi ological
Ġcomp os
Ġi ÏĢ
R es
Ġrecogn ition
ĠPrinc i
Ġproj ects
ĠComp ared
Ġget ting
f ixed
Ġk âĦĵ
Ġindis tinguish
Ġcommut ativity
Ġincor rect
G A
oid s
Ġb n
âĪ¥ .
Ġcus ps
ĠStr ong
c n
ĠB etti
add itive
ĠÎ» i
div is
Ġspace times
Ġcustom er
Ġparameter ization
12 3
Ġ) =
it able
ĠP n
Ġdisc overy
Ġ3 00
Ġd ots
Ġround ing
ĠH C
Ġchar ts
Ġaccept ance
P ar
ĠSp an
atur al
Ġimm ersed
Ex ample
Ġdirection al
ĠT n
Ġresol ve
hyper bolic
Ġheavi ly
al ized
Ġs ti
ĠA W
ĠâĢ¢ ),
Ġbatter y
Ġband it
Ġopin ion
ĠAr g
Ġd Ïķ
ĠCon tr
Ġlimit ation
Ġcot angent
S O
ang ular
T R
r in
ĠSte iner
ĠMO DE
Ġmulti set
Ġto uch
Ġdec iding
Ġre n
Ġances tor
Ġan cill
den oted
Ġjustif y
ĠP our
+ ,
Ġm im
ĠI J
t un
Ġcontroll ers
ĠM AC
Ġdri ving
d eterministic
ĠRed uction
ĠS B
Ġ)) |
ĠP os
Ġ) ],
Ġdiscon tinuity
Ġw ants
Ġinj ectivity
ĠTHEOR EM
Ġdeli very
Ġoccup ied
ðĿĳ ¢
Ġn R
Ġf illed
ord on
Ġj o
Ġmanag ement
Ġir rational
Ġautom atic
ĠA V
path s
ĠHerm ite
ĠL E
, "
ou ra
Ġinser ted
Ġ( .
ĠP GL
Ġrever sed
ĠEstim ation
Ġmathema tically
Ġdevelop ments
Ġ) ÃĹ
Ġanalog ues
Sch midt
a R
tic ity
ĠGrassmann ian
Ġre in
Ġve l
Ġp assive
um ulation
t wo
Ġcop ula
Ġquadr u
Ġp d
Ġcl arity
Ġex clude
ĠL p
ĠR O
Ġmaintain ing
ĠR ham
Ġx z
ĠE G
ĠD f
Ġquas icon
Ġp g
n el
Ġprocess ed
Ġwr ong
d W
Ġdele te
Ġfu zzy
vector s
Ġ( =
ch aracter
Ġf ri
Î± n
ĠG C
ĠApproxim ation
Ġs ig
Ġlibr ary
Ġsu cc
Ġdig ital
en tive
ĠTo eplitz
n z
ĠIn c
Ġp df
ĠCh r
Ġas c
ĠUn iform
Ġdeform ed
ph ys
ĠWhen ever
od al
Ġaddress es
ĠBl och
Ġperm it
Ġfocus ing
Ġturn ed
ic ial
Ġgeom etries
il b
ĠF re
u i
ĠM H
Ġro ad
Ġco chain
Ġsche ma
Ġx q
Ġneg ation
Ġrepresent able
Ġevol ves
Ġengine ering
Ġdraw back
u clidean
ub l
Ġ200 3
ĠR iesz
disc rete
Ġp le
oci ties
Ġmer ging
Ġaugment ation
ĠS LE
Ġsurrog ate
ĠðĿĳ ĭ
ĠE V
200 5
ĠPro ceed
Ġspecific ations
Ġhomeomorphism s
tro ll
ĠðĿĳ ŀ
tain ed
ĠâĪ ¤
Ġcapac ities
Ġreveal ed
ĠP H
ĠH P
Ġp ages
ĠâĬ ¨
Ġanom al
vi ties
d omin
w all
Ġsugges tions
ĠOptim ization
Ġcontroll ing
Ġque ues
tic les
Ġcryst al
ĠB in
ĠÅ Ļ
ac ity
Ġst ock
Åĳ s
cell ent
Ġconstit utes
as ymptotic
20 19
v ich
es tim
ĠK os
Ġsim il
Ġtr ying
Ġcomp ares
ĠB O
ĠInstit ute
Ġ) âĪĤ
ĠIn ser
Ġperiodic ity
Ġq p
Ġpass age
ĠËĨ âĦ¦
Ġsn ap
Ġcomprehen sive
Ġcomm e
ph istic
Ġpl au
L A
Ġgeneral izing
f e
si zed
Ġinter change
Ġsynt ax
H owever
Ġresol ved
Ġsk ip
Ġdi hedral
ĠP B
ĠD istribution
Ġmemory less
U sing
Ġh ost
Ġread ers
ĠD at
l and
ĠP et
our n
Ġob ey
Ġf resh
dri ven
c er
Ġexper ience
Ġco ales
ĠSt atement
Ġheuristic s
ĠNo ting
Ġalign ed
ĠÄ Į
ĠJ ones
ĠðĿĳ Ĵ
Ġb illi
iv es
ĠAn n
ĠE p
Ġresearcher s
d omain
Ġcon formally
ĠTh urston
Ġaut onomous
ĠL ax
ĠÄ ĵ
ĠâĮ ¢
)) /
cy clic
Ġencoun tered
Ġcomp l
Ġd c
ĠBr u
l oss
Ġtim elike
Ġf if
Ġmod ulation
S pec
Ġtil ings
Ġgr ay
Ġcont ents
Ġ] |
Ġcer tif
ay a
Ġv oting
n amely
t j
ĠS el
ĠD MS
Ġrep ar
Ġpur su
Ġlarge ly
LE M
Ġsc reen
ĠS AT
an ck
Ġprocess ors
Ġtravel ing
Ġper imeter
Ġbin ding
Ġpt q
F P
ĠT P
coordin ate
O D
Ġy z
Ġmic roscopic
Ġe ver
Ġ] ).
Ġ1 11
Ġexis te
Ġbu ck
Ġhard ware
Ġcommunic ate
Ġvel ocities
Ġr t
ĠÄ ª
Ġcombin es
ĠOp en
ĠComput ation
Ġso phistic
mod e
ĠH all
redu ced
Ġshe ar
ĠK S
ĠEu rop
ĠNetwork s
Th us
ĠChern off
k ens
Ġsurv ival
i Î¸
Ġn h
ĠS ample
ĠA verage
resh old
ĠÎ² n
super vised
um in
Ġsatisf iable
Ġsynchron ous
Ġindu cing
Ġinser ting
we ep
Ġpop ulations
ĠDel igne
or bits
ĠV C
ĠâĪĩ )
Ġr d
Ġn q
Ġcre ating
M ax
Ã© es
Ġcon fin
Ġsign atures
Ġr Ã©s
Ġrep orts
EE E
ĠAppl ication
Ġt q
Ġ(âĪ ħ
Ġa a
ic ious
Ġconver t
Ġinf easible
Ġembed s
Ġextr action
ĠU pper
ĠN C
Ġconvolution al
Ġdise ase
Ġacc umulation
Ġaut o
ve ction
Ġsub gradient
ĠE E
Ġinsp ection
ĠR us
ĠÎ¸ i
ĠP E
Ġpos ets
Ġex cur
Ġ| /
p aces
d epending
âĦ ľ
odes ic
Ġpercent age
restr icted
ore nstein
Ġmo ved
ann er
ĠH urwitz
ĠHard y
Ġmon ic
Ġacc ounts
t ors
Ġo d
l a
Ġrepl aces
Ġre jection
Ġview s
Ġmove ment
TI C
Ġisot ropy
c ost
d iver
ĠWh itney
+ )
Ġ25 6
n i
i ab
Ġsu iv
os er
ĠCon f
Ġdig its
Ġded icated
Ġw alls
ĠN L
as ion
d l
Ġsampl er
ĠExt ension
Ġsp ans
im ages
Ġhar der
Ġac cepts
Ġq n
Ġher mitian
olog ically
rop ies
Ġprec oding
Ġh im
Ġ| +
s w
Ġgo als
ib n
Ġpolyg onal
Ġsh orth
Ġm ill
p ower
are n
D e
ĠT ables
ĠMod els
ĠA p
N T
Ġp B
Ġhypergraph s
Ġpunct ures
Ġ5 7
S M
Ġimportant ly
Ġlo ose
ĠW ITH
ion e
Ġdisturb ance
avi er
ĠLorentz ian
Ġmin ors
Ġp ent
ĠâĢ¢ âĢ¢
Ġ î
Ġth or
Ġse ven
ĠM V
ĠE H
ich ot
200 4
ĠSt atis
Ġpre processing
amilton ian
Jac ob
Ġcontr acts
Ġintu itively
Ġsem inal
Al g
ĠR D
ĠN N
ant ly
Ġserv ices
ĠGr Ã¶b
Ġc artesian
col ored
DE s
Ġsearch ing
G E
ĠRES UL
h l
Ġhol ding
Ne w
ĠH och
Ġnew ly
ĠK P
Ġt urning
Ġcollision s
i entif
Ġinter f
ĠMaxim um
Ġcusp idal
Ġstratif ication
d ata
ĠExperim ents
ĠGrÃ¶b ner
ĠV i
(âĢ¢ ),
Ġelimin ated
v oir
ĠMotiv ated
Ġcoupl ings
Ġex cellent
âĪ¥ ,
m oment
Ġ(âĢ¢ |
Ġfr aming
Ġfail ures
pro of
, âĢ¢âĢ¢âĢ¢
Ġtransmit ters
Ġcomple ments
O r
che ck
Ġrot ating
ri ers
Ġdynam ically
ĠT H
ĠW F
ĠEX P
il s
ĠF ock
Ġco erc
ĠPre c
Ġoutper form
Ġ| âĪĴ
Ġst ations
ĠRe LU
E X
Ġmotiv ic
Î» t
Ġsl ices
Ġinc entive
Ġs d
ĠB H
emp oral
Ġobser ves
ĠTh ree
Ġinter act
Ġextre m
Ġparad igm
f unctor
ĠP ower
Ġstream ing
Ġdispl ays
oot hed
Ġradi ation
)) ;
ĠErd Åĳs
Ġthreshold ing
ĠF I
Ġgener ative
Ġ200 2
ĠI EEE
ĠAd ap
Ġanti p
Ġswit ches
Ġpre l
Ġergodic ity
Ġzero es
Ġd ate
1 10
Ġdecay ing
ab s
âĨ Ĳ
qu antum
Ġperform ances
ter ms
ĠR W
Ġc p
| âĪĩ
Ġcompe tition
Ġd b
Ġfit ness
Ġcontroll able
Ġex em
ic ate
Ġ) \
Ġhist or
Ġ7 5
Ġreform ulation
order ing
Å Ŀ
er r
Ġl amination
Ġs ectors
ĠT est
Ġexperiment ally
al ed
Q C
Ġmaintain s
Ġâĭ ¯
Ġ?? .
Ġp G
ĠâĢ¢ )âĪ¥
Ġexpress es
Ġquar tic
ĠâĪĨ -
Ġferm ionic
Ġn ets
con sistent
ge red
ĠAd ding
ĠSch wartz
Ġjustif ication
ubin i
Ġmod elled
Ġconges tion
B E
NN s
Ġp Î±
squ ares
Ġâī Ģ
ver tices
Ġph r
Ġtop ics
Ġte am
ĠK ar
Ġstr ands
Ġcoordin ation
ch anges
Ġbottlen eck
S U
in du
ĠIn v
Ã ±
Ġdil ation
A t
Ġdis appear
Ġsophistic ated
ou th
S o
ĠS ie
ĠCh ow
Ġf at
Ġsem istable
Ġshad ed
ial gebra
st anding
Ġar ity
ies t
Ġrepe ating
Ġund ec
Ġhyp erelliptic
Ġbas ically
r ons
Ġg i
Ġal ter
Ġpro x
Ġhom ogeneity
Ġgeneral isation
Ġcertific ate
Ġassoci ates
Ġvol umes
Ġarchitect ures
Ġsummar izes
r n
Ġpay ment
Ġincrement al
ÏĢ x
ĠH T
S n
d ep
aul ay
l ands
D s
d ay
F L
Ġattr acting
oun ced
cur ve
Ġcontr acted
d w
p rop
Ġdep art
ĠWe ierstrass
Ġoptim ally
Ġt ax
Ġi e
Ġ(âĪ ĥ
Ġplay ing
Ġunc or
F urther
ĠB ro
=âĪĴ âĪŀ
diff usion
adap tive
ĠD ou
j ectivity
ĠD Ã©
Ġinf ection
Ġaccept able
ti a
Ġcohom ological
âŁ© âŁ©
Ġgl ued
Ġbal ancing
Ġep imorphism
Ġd Î³
Ġpolyhed ra
se ll
Ġhu ge
ution s
I Z
Ġd l
Ġ7 2
ĠC p
Ġcongru ent
ĠÎ´ n
ĠBound s
Ġalternative ly
ĠCl assification
Ġign ored
ĠÎ» I
he af
Ġpro te
X Y
Ġser ved
ĠDefin ing
olic y
Ġconclud ing
Ġjoin ed
Ġanom aly
mar tingale
ĠG A
Ã Ń
ĠâĨ ĺ
Ġnormal izing
calc ulus
Ġh osp
Ġgroupoid s
ĠIllustr ation
Ġinv oke
Ġsatisf action
B o
ĠL ee
áº ĳ
Ġte le
V ER
ati o
strong ly
Ġsatur ation
Ġmed ia
] ÃĹ
Ġattr action
Ġth Ã©orÃ¨me
Ġdep icts
Ġt ighter
Ġadjust ed
ĠJ ust
ĠðĿĲ ¶
ĠF ubini
Ġobst acles
ĠâĮ £
ĠEn c
Ġ) âĪ©
Ġh i
Ġsucces sively
ain s
Ġpat ches
Ġunivers ality
ĠSV M
ĠM ach
i um
P rop
R G
ĠWe ak
Ġapplic ability
Ġu b
en n
Ġon t
Ġgen es
u ation
Ġn th
ĠSp ace
Ġpseud oc
ĠPRO B
ĠM er
Ġexec ute
ĠMN IST
Ġtw isting
Ġto ok
âĹ ģ
Ġab c
M ark
Ġshorth and
ĠSum m
loc ks
H om
Ġphy log
Ġvis its
ĠC i
Ġstore s
A A
Ġwe alth
ĠI l
ĠC ost
lass ical
ĠDyn kin
Ã© c
Ġwr ites
Ġdec ided
s q
ount able
Ġchord al
Ġtriple t
H ilbert
ct an
Ġconfirm ed
Ġcolim its
Ġtree width
Ġenumer ate
cri p
figur ation
h at
ĠEurop ean
Ġindivid ually
Ġrad io
Ġpro xim
pl ayer
Ġ ^
it ons
ĠF un
Ġul timately
ĠL B
S tr
Ġy x
liv ious
z ul
Ġconstit u
Ġreal s
Ġpenal ized
Ġvalid ate
ĠâĢ ĸ
am a
n ull
Ġresolution s
ĠFIG URE
K P
Ġprot ot
ĠC ut
log arithm
Ġcap ital
Ġcontour s
amet ers
c oll
Ġintr actable
act ors
ĠPro j
ĠâĪĪ [
res olution
ĠC DF
Ġco variate
ut ation
c s
ĠS equ
ĠL ind
ir cle
Ġcomp ound
ĠR i
ĠâĨ ¦
seud o
Ġw i
ibn iz
ĠU s
ĠP F
Ġaut omorphic
200 0
Ġstratif ied
Ġde grad
ĠK ac
Ġ200 1
w in
Ġindex es
Ġnotic ed
gh t
Ġgroup e
r ay
Ġsurprising ly
loc ally
ĠComplex ity
ientif ic
ix ing
ĠT O
Ġbelief s
ĠV an
pl ay
c u
Ġquantif ied
Ġre ality
Ġpredict ors
cor responding
ske leton
och romatic
ĠR u
Ġsub module
or o
Ġim poses
Ġask ed
Ġres et
ĠIr r
Ġs orting
Ġind etermin
ĠL D
af fine
lim it
ĠB lock
ĠF C
ĠL ang
con vergence
Ġabsor bing
Ġformal ize
Ġc m
Ġdetermin ation
ĠE mp
re y
Ġ] [
Ġpres enting
ĠF A
Ġevol ve
Ġcal ibration
Ġmulti dimensional
Ġdecom posable
sche me
p k
ĠP red
Ġr anging
Ġ+ âĢ¢âĢ¢âĢ¢+
ĠE nergy
ti ent
Ġaf fin
il ateral
ul ator
Ġv w
u ly
Ġp ulse
Ġsen der
Ġblock ing
ĠPro t
Ġacc ordance
Ġdet ecting
Ġshrink ing
ĠG T
ĠCl ust
Ġeavesdro pper
ĠCon n
re ver
ĠPol ish
Ġstream s
Ġy q
Ġrel ays
Ġdifferenti ability
ĠEx act
Ġcharacter izations
Ġarg max
ĠBack ground
Ġtrans cend
st ream
p A
ern ing
Ġpl ain
ĠG old
Ġcolour s
Ġsubsche me
ĠGrad ient
| <
r t
Ġrepr Ã©sent
b c
ĠT D
ĠCO MP
ĠT i
âĦ İ
Ġdamp ing
Ġcosm ological
Ġdef ic
ĠS he
ĠRepl acing
Ġrec tif
j k
) âī¤
Ġpersist ent
Ġsub linear
Ġpr uning
Ġspac elike
Ġmaxim a
sp ect
si vity
M at
Ġp end
ï¿½ ï¿½
ĠSpec ial
Ġlabell ing
b ottom
up s
ĠÃ ŀ
id enti
Ġbreak s
ep ar
Ġclient s
Ġencryp tion
Ġfore c
af e
ĠâĬ İ
Ġutil izing
ĠIn f
Ġexamin ed
Ġbos onic
str ict
Jacob i
Ġh its
Sto kes
Ġmulti ples
Ġtermin als
ĠWh ite
c anonical
alg am
ĠB n
os ure
Ġstop s
em ory
ĠF R
ĠO T
st ance
ĠQ U
Ġelect romagnetic
act ory
Ġpred ecess
force ment
Ġmotiv ate
Ġtub ular
Ġh p
Ġde ath
ag on
n m
M ar
Z h
Ġdro pped
Ġ| [
ĠG D
an a
ĠMin im
Ġima ging
ĠL G
S ym
ĠS Q
Ġann uli
Ġtechn ology
ĠðĿĳ Ĩ
Ġd Î¶
âī ¡
Ġnois eless
Ġparticip ants
Ġsl iding
Ġquadril ateral
Ġmodify ing
ti vities
Ġ] }
ðĿĳ ļ
Ġ(âĪĴ âĪĨ)
ĠA u
ĠV ir
ĠL F
Ġtra ver
um ford
d Ïī
Ġeigens pace
Ġdesc ending
or g
Ġse vere
Ġn n
ĠP y
ĠN avier
Ġin verses
ĠPar tition
w ave
Ġg Ã©n
Ġexpres sing
Ġmon o
Ġrev is
Ġj am
Ġ5 8
Ġsynt actic
Ġsu s
Ġfacilit ate
+ +
A F
ti le
ĠG ra
Ġsupersc ript
us p
EN TS
Ġmolec ules
ĠMean while
Ġstatis tically
p red
ĠP G
Ġdis till
ric hed
Ġfin er
Ġcha os
w ood
ĠâĬ ŀ
Ġaut oc
omorph ically
ĠâĪĪ ]
Ġtrans actions
Ġrecover ing
A ut
ac ent
) ])
a it
qu anti
Ġtrans mits
Ġreprodu ce
Ġreal izable
ĠSu per
p ret
b b
Ġprel iminaries
200 3
Ġâĥ Ŀ
ĠðĿľ Ĩ
Ġvot ers
Ġbet a
ĠRam sey
Ġspecial ization
Ġrot ational
kh off
Ġnotic ing
ĠT s
at tern
iab atic
Ġmonoid s
Ġnear by
tran sitive
ĠIntegr ating
, {
ĠRESUL TS
ĠQ P
Ġprim arily
ĠC t
perim etric
ĠSt ability
Ġmin i
B O
Ġ} ;
200 2
ĠL am
fil ter
ĠRest ric
is sion
Ġreason ably
m i
Ġg ather
ĠT ate
Ġcode book
Ġhyper bol
ma ximal
Ġcarry ing
Ġviol ate
Ġinfer red
ĠF n
inters ection
Ġsusp ension
Ġ9 9
Ġmon ad
h ow
ĠB re
Ġtempl ate
ack s
Ġsupp lementary
R C
Ġi a
ĠðĿĳ ĥ
ĠCh aracter
Ġh n
ac ci
Lagr ange
Ġdec oded
ĠMulti plying
Ġdetermin ants
Ġdec ides
Ġproceed ing
struc ting
Ġsu ite
Ġc a
Ġdec ades
Ġtack le
Ġk p
ĠC a
Ġele g
Ġreg is
in a
ĠDisc rete
Ġp S
Ġv v
ig e
Ġdiscus sing
Ġmark ets
Ġiniti ated
Ġtri es
. ).
Ġ6 3
Ġshif ting
Ġin ac
sen sitive
Ġkin em
Ġpropo ses
ex cept
Ġdissip ative
Ġw ins
on ometric
Ġforest s
ate gy
C at
P A
Ġvor tex
Ġsound ness
Ġenti ties
ĠâĹ Ĩ
ĠMil nor
Ġre lying
Ġ4 00
ide al
Ġdistrib utive
Ġarri ves
Ġpix els
ĠâĪĴ âŁ¨
ĠD D
p y
B H
Ġclos ures
Ġsubd omain
Ġsubsection s
Ġenh anced
S NR
be ha
Ġs weep
monstr ation
Ġnever theless
ene tic
ĠC K
ĠN a
Ġhy dro
Ġv ic
, âĥĹ
equ al
ĠFunction s
Ġ) âĪĨ
Ġevol ving
ÃĹ (
, |
Ġmi tig
ass oci
t est
| ).
ise ly
i ors
Ġunlike ly
Ġdecor ated
ĠâĪĴâĪŀ ,
hor izon
ĠP V
s ation
Ġc u
Ġwitness es
Ġb or
ĠM ag
ĠK ir
Ġframework s
ĠF ried
den se
app l
Ġpropag ator
ĠCom mun
ĠU L
ĠJ ul
Ġmoment a
Ġtransmit ting
Ġtight ness
R L
Ġchar ged
y a
ĠR Ã©nyi
Ġun weighted
ĠApp ro
ĠC Q
ĠEq n
Ġdiagon als
ĠKos zul
i tivity
ĠH y
Ġlexic ographic
M in
ĠV III
ĠMM SE
Ġnow here
Ġre fine
Ġremo ves
ak i
Ġp w
Ġsubstitution s
ĠR n
ĠSer re
Ġc ette
ĠEuler ian
cent ric
Ġdelay ed
Ġlike wise
Ġas ks
it ations
Ġâ ¨
ĠRep ort
con troll
ĠMODE L
Ġcr it
pro jective
z able
ĠP I
lo ading
ĠM n
separ able
Ġun obser
ĠBl ack
Ġp ip
Ġ6 5
pt q
âĢ² âĢ²
Ġincreasing ly
Ġincon sistent
Ġun labeled
N i
ĠC oll
Ġf irm
f ron
es ter
Ġin nov
m et
Ġl ive
Ġtrans p
Su pp
d Ïĥ
Ġpix el
Ġanti symmetric
ener acy
uc tive
ĠWe ight
conn ection
Ġretrie val
Ġcop roduct
C ol
Ġa periodic
n y
ull back
Ġ)| .
Ġbes ides
Ġsimil arities
âĪĪ âĪĨ
b ow
Ġresidu als
Ġiner tia
Ġind efinite
tor us
âĢ¢ ]
ĠÎ³ n
Ġaccom mod
E qu
Ġse ller
Ġevalu ates
ĠStruct ure
Ġbase point
aw are
ĠCh annel
Ġdistinguish ing
h ip
Ġsub jects
ĠProblem s
Ġdu plic
Ġbra ided
)| )
Ġk r
AN D
si l
ĠâĪħ )
Ġis otop
Ġexper t
Ġunion s
Ġinher its
SS O
ĠA G
ĠMar tin
M T
amb igu
Ġoper ate
ĠRes ult
ĠH D
Ġes c
h ole
ĠM E
R ank
Ġneur on
Ġmerid ian
Ġsatisf iability
Ġferm ions
ĠM DS
B s
Q R
erm ost
Ġmanif est
Ġim perfect
Ġp F
Ġoscill atory
Ġcontraction s
ad a
ĠD eg
Ġsub ordin
Ġirre duc
Ġutil ities
Ġhtt ps
Ġcaus ality
Ġadequ ate
S e
ĠL HS
! (
ĠCh ap
Ġhyperbolic ity
Riemann ian
Ġhyper cube
integr al
Ġqu and
ver ti
of t
ĠF L
ĠF ib
ĠB K
Ġar ctan
Ġj unction
id s
Ġg irth
Ġcap ability
: (
Ġpolar ized
ĠM PC
lar ge
Ġcontrad ict
Ġsem in
M o
ĠF at
ĠE isen
R R
ÏĢ t
Ġi b
Ġfif th
âĪĴ )
ĠId entif
Ġ?? ,
Ġent ropies
Ġform at
Ġdiver ges
i ro
other wise
ĠH er
Ġcos ets
Ġinform ative
Ġmonit oring
Ġfactor izations
Ġindistinguish able
lear ning
Ġsimplify ing
Ġ{ âŁ¨
Ġto kens
Ġappe aling
ĠP ot
o herence
hand le
Ã¶ r
Ġdiscon tinu
Ġin s
Ġdiscuss es
ĠNO MA
Ġreprodu cing
ĠInitial ize
vol ume
Ġ(+ )
ðĿĳ £
Ġd L
á ¸
Ġc b
Ġsection al
ĠS q
ĠâĪĴâĪŀ .
Ġarr anged
Ġd ÏĨ
Ġstation arity
Ġcurv atures
H e
Ġ1 10
Ġk q
ill en
Ġses sion
Ġen cl
Ġtransport ation
ĠGl obal
ĠS ampling
Ġproject ors
Ġrandom ization
ĠCh ar
ĠâĪ¥ âĪ¥
iv ed
Ġbuil ds
th rough
âĢ¢ (
ĠLand au
Ġconst ell
Ġrecipro cal
Ġp ants
ĠD em
Ġacceler ated
brid ge
on ents
ĠConc erning
defin able
ĠProb ability
ĠâĪ¥ )
Ġdown ward
Ġnecess ity
Ġt v
uri ous
od d
Ġfl av
Ġs tim
Ġsugges ting
Ġpa ired
Ġstochastic ally
Ġhe d
B T
Ġrem in
ĠðĿľ İ
l aw
R F
ĠSch midt
ell ip
a un
Ġhe red
ĠC IF
Ġprac tically
Ġsub rou
crip ts
ĠLi u
Ġam algam
Ġconcept ual
en semble
du e
Ġl j
over l
ĠT M
k m
R I
Ġwin ding
con e
ĠÃ ®
ow s
Ġ[ âĪĨ
Ġ199 8
Ġwork load
Ġecon omic
Ġarrang ements
Ġref lecting
ĠUp on
âĻ ¯
ĠOr der
ĠCont rib
Ġcolour ing
ac ies
Ġcor rupted
Ġtrig onometric
Ġr r
Ġdia gn
ĠÂ ¸
Ġunit aries
Ġconver ted
ĠD iag
ĠR ather
Ġrel ativistic
Ġi c
f olds
Ġepoch s
par ty
arb oux
ĠK ur
Ġsuff er
) '
separ ated
ĠâĨ ·
sol id
ĠU Es
ĠAss oci
ĠCon vex
ĠÎ´ x
Ġavail ability
M or
Ġenj oy
ur m
Ġtetra hedra
ĠS plit
ĠI w
Ġmon ochromatic
Ġleg i
ĠÎ» Âµ
ang led
ATION S
Ġm ism
comp atible
Ġquatern ion
Ġevolution ary
su fficient
Ġsp ik
Ġr c
Ġprob e
K n
Ġconjug ates
ĠCon tinu
Ġclar ify
Ġs tic
Ġhence forth
d istribution
Ġsm art
Ġp C
Ġd ÏĢ
Ġâİ ¢
Ġproxim ity
r un
ĠB E
ĠË ľ
Ġtemp or
d ashed
in put
Ġ5 9
Ġk s
Ġmulti linear
Ġsuper vised
ĠE N
Ġrefer ring
Ġelect ro
ĠT C
Ġsemic lassical
o T
Ġdon n
U s
ĠK u
l ab
aus al
in son
( âĪŀ)
Ġd ichot
Ġsemicon tinuous
Ġtran sitivity
ul ates
ĠD I
Ġuncor related
Ġâİ ¥
Ġhe art
Ġr ating
Ġd Q
st ances
Ã¡ s
Ġdx dy
ĠNon etheless
ĠJ S
Ġ9 6
op t
Ġd ram
Ġviol ates
ĠPrinci ple
Ġex pos
Ġpick ing
Ġ[ âĪĤ
Ġcon ical
ĠE A
ĠJul ia
tain ing
ĠF p
Ġfulf ill
ĠÃ Ķ
Ġ} |
st ability
ĠP u
z ag
ĠðĿ Ĵ
V A
Ġrever sing
um my
ĠSumm ary
ash i
ĠExperim ental
Ġâĩ ĵ
ok ed
neg ativity
Ġdeal t
ĠT erm
l if
âĪ¥ )
Ġconstr u
ĠAr Xiv
av a
G al
at tice
ang ement
ĠG reedy
Ġsm oothed
ĠÎ» t
l s
Ġtrivial ization
ĠB or
Ġp âĦ¦
monot one
Ġreform ulated
ĠEd ge
ĠFig s
ĠDec omposition
o ys
M a
ĠI T
AT E
verag ing
z a
ĠP en
ĠS IR
iv ity
un it
P er
ĠValu e
ĠK um
ass um
200 1
Ġsent ences
Ġcentr ality
ĠâĪ¥ |
Ġso it
Ġfail ed
oper ator
Ġpo si
ðĿĳ ¦
* -
Ġw ider
Ġre actions
Ġu i
ĠLe ibniz
ĠKal man
rodu cts
ĠI M
| >
Ġperm an
Ġany thing
bl ack
prob ability
d ef
Ġconc avity
Ġg p
ater ial
ĠThe ore
Ġtransitive ly
tr ue
Ġis ol
. âĸ¡
Ġi Î»
Ġassemb ly
ĠC oun
Ġeff orts
Ð »
Ġad verti
O PT
an sive
Ã¼ r
ĠG orenstein
)) ).
Ġdomin ation
Ġi q
Ġhom oclinic
ĠâĨĲ âĪĴ
á¸ ¡
ĠĠ ĠĠ
ĠIt em
ist ant
Ġrecord ed
iner y
ER I
ĠRob ust
d Î»
en ced
Ġy es
ĠPar ameter
Ġhand les
Ġdx dt
tic ular
ĠÂ »
Ġpar alle
Ġch ords
Ġhe ld
ced ure
Ġbr ings
tun ately
ĠOver all
Ġt m
ĠTh ose
Ġn x
Ġcoll inear
Ġjo ins
uch sian
ir ical
id ently
Ġd ict
Ġj m
Ġmention ing
Ġinter fer
Ġfl ips
d p
Ġunknown s
Ġun necess
Ġwon der
Ġposterior i
Ġintertw in
Ġpick ed
ĠðĿĳ ı
Ġschedul ed
ra ft
is ot
em acher
ĠH or
Ġe f
ĠS qu
ĠG i
Ġdisj unction
Ġid le
)( âĪĴ
Ã©t Ã©
Ġproj ecting
Ġiso perimetric
ĠðĿĳ Ļ
Ġ} ).
Ġâĸ ½
Ġ19 99
im ura
G s
Ġspread ing
ma xim
ĠS K
C ase
Ġmaintain ed
Ġu m
Ġsupp ress
Rec all
Ġnu cle
ĠðĿĳ ħ
ol a
Ġsepar ability
Ġimple ments
Ġenc oura
u sively
Ġd d
Ġ) âĪĩ
Ġtr ac
Ġce le
Ġr u
Ġass oc
ĠLog ic
Ġ( âĭĨ
Ã© qu
col or
Ġcolim it
Ġadjust ment
Ġd ays
inte ger
Ġre ject
Ġrespon sible
ĠD n
Ġprog ression
Ġmob ility
Ġconf irms
Ã Ł
Ġspe ak
e ister
Ġpreser vation
Ġidemp ot
j i
Ġmach inery
Ġmaterial s
sp in
t able
e igen
Ġconver sion
Ġbisim ulation
Ġpayoff s
g iven
Ġplat form
ĠK ernel
ac c
Ë ļ
U P
Ġcoc ompact
Ġfirst ly
Ġout ward
Ġcomp il
Ġinter faces
Ġvari ability
ĠKK T
ĠWith in
Ġnot es
ĠÏĦ n
ĠGe ometry
Ġrefere e
ĠIm port
Ġarri vals
ĠâĢ² âĪĴ
Ġdesc ends
ĠBir khoff
oul omb
Ġk t
be it
po p
ĠAt t
Ġencoun ter
ĠODE s
Ġl ag
Ġparamet r
Ġexplo its
Ġleak age
Ġunivers ally
olog ous
10 2
Ġstar s
Ġbenef icial
Ġtruth ful
Ġm ov
Ġ] -
ĠMethod s
Ġdown load
Ġra ised
s ite
Ġcore s
) âŁ¨
e per
ac tical
idem eister
Ġsub algebras
F rom
mat ching
O ne
ul ant
o ided
Ġfulf ills
orient able
ĠL TL
Ġgh ost
Ġmet ri
v ar
Ġmanip ulation
Ġtre ating
ĠSp ectral
T s
Ġincom p
sp ring
plo ys
q p
st atic
Ġb ank
nik ov
od a
Ġhistor ical
Ġc amer
{ âĪ¥
Ġhand ling
ĠQu anti
Ġpunct ure
ĠÎ² Î³
ST EM
Ġendomorphism s
Ġz z
Ġexpres sive
Ġt alk
Ġun able
ĠQ p
SI C
Î´ t
ĠL arge
fi ers
Ġdatab ases
ĠT ra
Ġp b
M ills
Ġne f
Ġdegener ation
Ġfluctu ation
Ġtim ed
ĠL es
Ġoff set
Ġre versal
Ġnormal ize
Ġabbrevi ate
id ability
Ġver ifier
ĠM IS
H P
Ġinvest ment
ĠM W
S ol
Ġáº Ĭ
ĠN ode
Ġsc oring
Ġcover ings
Ġlegi timate
Ġv ast
Ġplau sible
Ġav oided
Ġ6 2
Ġst ems
ĠPoly nomial
Ġcounter clockwise
Ġrid ge
ot omic
Ġinvolution s
ĠD IS
Ġscal able
Ġb orn
Ġto m
ĠChe ck
ĠA X
ĠRel ation
ðĿĳ Ł
Ġcomp rom
Ġshort ly
ĠNot ations
ti zed
Ġent ering
12 0
Ġ10 1
ĠP age
Ä Ľ
ĠDep artment
Ġfav or
ol is
Ġcasc ade
st ud
Ġsus cep
ĠFin ding
M c
SP ACE
Ġenti ty
rom e
Ġx s
ĠâĬ Ľ
Ġinter le
Ġa ir
Ġp N
Ġaccompl ished
G R
amb da
phys ical
ĠCIF AR
Ġr ain
ĠG en
ĠAC K
ro zen
12 5
N ow
Ġspl ine
an y
ĠRe idemeister
Ġ)) ]
ĠSim ple
Ġperturb ative
a a
Ġcele br
lect ric
ĠR ot
h ift
f it
Ġderiv es
ro ll
ĠPer ron
er ve
ĠE lement
Ġdig it
ðĿĳ İ
b s
e urs
Ġeigen states
)) }
po in
Ġ] ),
Ġá¹ Ĺ
Ġbilli ard
d m
Ġnegative ly
ak es
ĠÃ© lÃ©
at ches
Ġstr and
p u
Ġdis ag
ogn itive
ĠN LS
Ġelabor ate
ĠâŁ¨ âĪĴ
ĠHoch schild
Ġsegment ation
ĠDifferen ti
Ġhar mon
ĠClass ical
Ġcri tic
ĠE vent
Ġsubproblem s
ĠS BS
aun ay
Ġres istance
Ġstrateg ic
Ġe lection
Ġrecogn ized
Ġalloc ations
ĠComput ational
ĠH ilb
Ġadv anced
ĠRad emacher
Ġdomin ance
hen tic
col our
z antine
âĢ¢ )
redu ction
tens or
aps es
Ġsa ving
Ġreform ulate
Ġco algebra
d n
Ġdraw s
Ġphot ons
ĠInser ting
Ġcharacter isation
Ġattr acted
ĠÄ «
Ġign oring
Ġexist ential
Ġhe alth
Ġv u
Ġcomp osing
Ġnorm ed
ï¸ Ģ
Ġmid point
Ġcent roid
ĠÃ ħ
Ġd Î²
Ġse ar
Ġde gr
Ġesc ape
G T
Ġenj oys
Ġorbit al
Ġl en
Ġlexic ograph
Ġden o
Ġ(( âĪĴ
---- ----
sem i
Ġexec uting
wor th
ĠWil son
un ivers
u ous
Ġup ward
Ġbo ost
ĠSche me
Ġindex ing
10 5
Ġ([ âĪĴ
Ġunfold ing
I CA
Ġinher ited
Ġcol oured
ĠAl ong
ĠCon struct
hol tz
Ġfrequ ent
ĠTyp ically
Ġpro min
ĠDet ails
ĠB al
ðĿĳ ĩ
H M
Ġm j
ĠVer tex
Ġ6 1
ĠSt urm
ĠSY STEM
ti e
Ġf oot
D f
inter vals
diver gence
bund les
Ġexper ts
Ġsubtr acting
Ġinvestig ating
ll ig
ittle wood
h aus
Ġre nd
ph y
Ġem ploys
pr im
E xt
Ġp us
vari eties
ĠT x
Ġpiv ot
ĠL n
Ġresidu es
Ġfin ished
Ġl ose
ĠâĬ £
L C
Ġpl ugging
ĠInd ex
rob ust
zz o
Ġi Ïķ
S R
Ġs ie
Ġcor ollaries
Ġrel ativity
ĠâŁ© âŁ©
Ġquadr ant
Ġd E
ĠFat ou
âĭ ħ
morphism s
B l
ĠEx ercise
Po isson
Ġcelebr ated
Ġobserv ability
H ence
Ġorder ings
Ġr p
W ave
= =
s a
optim ality
âĦ ĳ
Ġsol vability
Ġint en
Ġrel abel
Ġad iabatic
Ġidentif iability
Ġhigh l
F F
ĠF PT
Ġt ape
ap r
Ġforget ful
Ġl is
Ġstep size
ĠÎ± t
in verse
Ã© d
ĠÃĿ Ãĳ
Ġtyp ing
si ans
S er
Ġtransvers ality
Ġleg al
ust ed
Ã© tri
ĠC oulomb
Ġcorrect ed
Ġmolec ular
d Î½
bur g
ĠM echan
Ġdifferenti ating
struct ured
Ġferm ion
Ġh ing
Mac aulay
S A
Ġsl ack
IN E
os h
ĠL ow
Ġrank ed
co herent
Ġro om
c ub
Ġconclud ed
Ġincorpor ating
tit ude
ĠCar tier
As sum
} ]
Ġscal ability
Ġp H
ĠN ak
fam ily
it or
Ġstraightforward ly
b u
Ġquantif ication
g al
Ġasc ending
Ġrem ind
ill er
abl ing
ĠEs s
n r
v ided
ur y
Ġâ¨ ¿
em per
Ġmixt ures
Ġdel icate
ĠB N
ĠG B
Ġsimul ating
mark ed
Ġstri ps
Ġwa it
Ġconstruc tible
Ġinter vention
ĠD ifferential
Ġcolor ings
re w
= (
Ġmulti partite
Ġcontain ment
act ability
Ġclass ically
M DP
Ġep is
le ctor
Âµ Î½
SI S
similar ity
Ġcycl ically
Ġto y
Ġstud ents
Ġperm its
il o
Ġz i
ĠðĿĳ Ķ
ĠBra uer
Ġspecial ized
Ġe i
ag in
Ġgu ard
Ġaggreg ated
Ġmass less
Ġme ant
al ind
st ar
Ġphylog enetic
here d
qu oti
ĠExplicit ly
ĠâĬĹ (
Ġcompe ting
eff ding
i y
ĠD ynamic
d g
t x
Ġw ild
ĠProt ocol
ĠCSI T
Ġsp ine
F irst
Ġsub g
ĠSub sequently
B K
Ġen abled
ak en
ble matic
Ġuncertain ties
L apl
ber ger
ĠH igh
W hen
Ġsp ike
Ġrequ ested
o sov
ĠHel m
Ġstabil izing
ĠIs om
Ġreal izes
Ġeleg ant
ĠrÃ©s ult
h s
Ġ[ âĪĩ
ĠE D
ĠZ p
M SE
M on
Ġconf lic
Ġsubsequ ences
ate ll
ĠD irect
Ġsucceed s
ĠðĿľ ı
ĠG n
Ġpers on
ĠðĿĳ Ģ
Ġcar rier
Ġprep ared
S D
Ġ( #
Ġv Ã©ri
Ġquanti fiers
ting ales
Ġmin ing
Ġbroad c
ĠÎ² i
ĠÃ Ģ
loc ality
ĠðĿĲ »
Ġex tin
Ġre jected
ĠFor tunately
Ġregis ters
ter min
simplic es
f ounded
| âī¥
ĠY u
h t
ĠQu illen
Ġfit ted
ĠCor responding
ĠðĿľ ķ
ack et
ĠSc iences
Ġensure d
Ġc ast
ĠEstim ate
Ġland sc
ĠA E
Ġtrig ger
Ġbub ble
Ġinvestig ations
Ġswit ched
ĠðĿĳ §
Ġsignal ing
Ġse ll
ĠH en
s ource
Ġretr action
al a
ðĿĳ ĳ
} -
Ġfrag ments
10 4
valid ation
ĠBell man
Ġdrop s
q s
in formation
Ġex clusion
Ġlearn s
irection al
Ġrein forcement
) âĮī
l ds
ĠNo etherian
Ġhosp it
Ġsubs cripts
Ġrelax ations
Ġc ipher
Ġp P
ol er
Ġhexag on
ĠS IM
p Z
ĠK an
s pl
Ġcomplex ities
o herent
Ġq qq
comp are
col umn
e ger
g ain
ĠD epending
10 3
Ġp Î»
ĠChr ist
ĠSie gel
adj acent
T ate
Ġshrink age
ir y
gl obal
Ġprev ents
ĠR x
ĠG E
âĨ ¾
ĠâĪĴ [
ĠF ast
ĠF low
ser ies
Ġstud ent
Ġ/ âĪĤ
Ġpati ents
Ġsuit ed
Ġsp ent
Ġm Ãª
Ġanch or
Ġsub mitted
Ġde eper
enti st
f ull
R eg
c irc
v a
Ġtrans versely
Ġwork ed
ynam ical
Ġbid der
Ġst em
spec ial
Ġl amin
Ġuniform ity
Ġuns atisf
Ġtrans duc
ĠDy ck
] /(
ĠS en
ĠU N
ĠI H
ĠB PS
Î ©
Ġd ummy
qu as
Ġsequ ent
ĠE ither
Ġnond eterministic
Ġsched uler
Ġdeploy ment
Ġformal ized
Ġd G
Ġ| âĥĹ
ĠP RE
Ġuncondition al
s ampling
ĠH ess
ĠC FT
There fore
Ġc row
Ġ6 7
Ġb ath
Ġcond ens
ĠR AM
l ower
ĠSh ap
ĠD arboux
Ġex posed
sp ired
A K
M I
dep th
ĠJohn son
Ġinf lation
ank el
Ġbuy ers
ĠP AR
ĠB on
Ġz ig
Ġhe ap
Ġdifferenti ate
Ġr aw
11 2
ĠDes ign
ĠF uture
Ġterm ed
Ġad vice
Ġk h
Ġpoin ter
Ġpu zz
Ġan ne
Ġresi l
Ġsub mer
Ġgre y
P I
Ġinter active
Ġs and
ĠMas lov
Ġoper ates
Ġt ors
ĠH al
Ġecon om
ĠMor ita
Ġrecogn ize
b oth
Ġdigraph s
Ġprep are
is ometric
ĠSm all
ĠD O
d Î·
ĠâĪª {
Ġfr uit
ĠIma ge
] ],
I nt
Ġunc lear
Ġm ult
ĠM D
F OR
ĠM B
Ġent ail
Ġ] /
Ġquadru ple
ator ial
Ġinitial ize
Ġmark s
Ġincur red
Ġ] âĪ¥
Ġiner tial
d om
ĠAre a
Ġidempot ents
ĠL abel
ot ted
h ib
fr ame
Ġi g
Ġreson ant
âĪĪ âĪĤ
on acci
ĠB ethe
Ex p
ĠF ree
pr inc
determin ed
Ġr x
Ġdisc ounted
Ġst oring
z i
Ġcap abilities
Ġco kernel
Ġsupp lement
Ġord in
Ġ+ )
Ġarri ving
Ġany more
ÏĢ n
amet ri
Ġa z
st atis
ĠI A
Ã³ n
ww w
ĠðĿĲ µ
Ġtes sell
ĠðĿĲ ¾
Ġoscill ators
poly t
Ġtransform ing
Ġ15 0
hom omorphism
ivid ing
d ensity
Ġb b
Ġcryst all
Ġmanip ulations
ĠS itter
ĠD ual
ĠK i
âĮĭ ,
Ġactiv ated
Ġt ies
ĠB og
Ġdis p
Ġdec lar
ĠDel aunay
reg man
abell ed
ĠâĨ Ĺ
Ð ¼
ĠS al
| ),
Ġshe et
ĠÎ¸ t
ĠPri v
Ġtra pped
Ġ6 6
Ġrul ed
ĠSt an
Ġt ending
AR Y
10 8
Ġ( Â¬
G C
cur rent
Ġmulti scale
equ ilibrium
Ġsqu ee
ch ar
tr acking
Ġdi verse
SE P
Ġsemin orm
ov anov
avoid ing
Ġchar ging
Further more
ax ter
Ġav g
Ġdef ects
Ġoff spring
ing ly
Ġp or
Ġv ote
ĠS parse
Ġf inger
AC K
ĠG AN
tr ami
Ġapproach ing
Ġsig ma
p m
ĠR eed
im ir
Ġextr ap
Ġc x
ad der
Ġt a
ĠEr r
L AB
10 6
Ġcal ibr
Ġreson ances
Ġst air
Ġhighlight ed
Ġ199 6
g a
ĠF E
m ers
struc tive
Ġpl ate
Ġm r
ĠAcknowledg ement
ar rier
ĠF T
chain s
ĠMA X
ĠS ets
ĠLO CC
ail able
Ġsatisf actory
" ).
ĠEn gine
ĠLDP C
Ġcontext ual
ĠR equ
ian chi
Ġmal icious
Ġcentral izer
onic ity
action al
Ġpro long
Î± t
Ġspeed up
ĠH K
ĠâĪ¥ [
Ġcr is
ĠTr an
Ġregular ly
c ati
ir reducible
ĠC ard
Ġst ably
gener ated
ĠÎ± Î³
Ġ? ].
ti que
Ġaut hentic
ĠT A
ĠId e
Ġinv oking
Ġflag s
Ġbor row
ĠR ate
Ġdecre ased
ogen y
Ġ| âī¤
Ġ. }
TI M
10 7
ĠP ass
ĠEisen stein
Ġqueue ing
Ġi h
ĠSchwarz schild
Ġanswer ing
Ġmultic ast
Ġa e
ĠHelm holtz
Ġep ist
Ġforth coming
Ġloc i
F i
Ġfac ility
ĠOut line
ĠâĢ¢ (
Ġwin ner
mis sibility
Ġresp ond
Ġregular izer
ĠÏĥ i
Ġsystem atically
Ġjustif ies
Ä ī
Ġact u
Ġvor ticity
le ase
sym plectic
en na
verag ed
ĠRK HS
po st
ĠS till
Ġb imodule
Ġsurround ing
ĠRec ent
us z
a hedron
Ã §
V i
l ist
Ġacknow ledge
ĠK ra
id emic
ĠH M
coc ycle
ilo so
s ations
ar a
ĠâĪŀ }
Ġsol itons
Ġs j
Ġunc ountable
Ġ6 8
Ġbr ain
Ġprov able
ðĿĳ ĭ
ĠRus sian
s ler
in variance
Ġresult ant
Ġpart ly
os is
Ġpopular ity
Ġse p
Ġpro xy
Ġess ence
ES S
ep ing
Ġlemm e
ĠU l
Ġreal izing
Ġ(âĪĴ ,
ol f
âĪĴ âĪŀ
ag ain
av ig
Ġgadget s
Ġprov ably
19 99
Ġspeed s
des ign
TI VE
ĠN t
Ġoscill ation
ĠK ullback
at son
Ġ(âĪĨ ,
ĠB W
Ġex cluding
Ġâİ ľ
ĠOn line
overl apping
] âĪ¥
cur l
Ġste ep
ĠðĿľ ĩ
Ġcoc ycles
ĠH aw
ov ich
Ġthread s
ĠMo ore
Ġsepar ator
Ġgood s
Ã¶ m
Ġin vent
G ordon
13 2
Ġbid s
Ġc v
reg ion
Ġm ist
ĠN UM
ĠE ar
ĠP ain
indu ced
ĠAddition al
ĠâĨĲ âĨĴ
Ġload s
L T
Ġ:: =
ÏĢ k
ou ts
Ġflux es
d irected
UC B
term inal
Ġr j
Ġdomin ate
Ġsti ff
bo ard
h y
O s
ĠâĪĴâĪĴâĪĴ âĪĴ
Ġunnecess ary
c ting
ĠMulti ple
ĠPROB LEM
* *
Ġdiscrimin ation
Ġâİ Ł
Ġvot er
ĠBy zantine
Ġblow ing
Ġs at
Ġst yle
Ġpan els
ðĿĳ Ŀ
pot ential
ul ty
Ġpro blematic
ĠOr gan
Ġstabil izers
Ġf o
Ġsw apping
: =
p an
ĠâĪŀ ;
Ġoptim isation
A ll
Ġm t
Ġbraid s
ĠF our
in ity
Ġrele ase
ĠF DR
Ġincorpor ated
il ding
V er
ge odesic
Ġobstruction s
B e
ph antine
Ġi u
Ġellip se
b el
Ġtr uly
ĠC ore
els en
Ġantic ip
TI NG
wr ite
ĠM ST
ape z
ĠÎ± x
Ġa id
Ġbijection s
ĠGener ally
Ġflo or
sh ift
Ġdiver gent
ph r
Ġass ets
Ġcod im
Ġspar sif
f o
ĠK now
NO W
Ġdes tro
con tained
ti able
Ġheter ogeneity
Ġd Y
ib ler
Ġpre images
ĠT T
Ġr m
Ġar cc
ĠFerm i
ĠMeas ure
12 8
Ġser ving
Ġsub path
th us
ern ary
Ġelastic ity
Ġprecondition er
Ġq r
res sible
Ġmaxim izer
Ġg al
ĠSk etch
par able
comp ass
Ġpropag ate
Ġar t
Ġexamin ing
f itting
Ġbenchmark s
imod ules
ĠL EM
G F
Ġ| }
Ġob livious
ĠðĿĽ ½
H erm
ĠD istributed
ĠPar tial
Ġplac ing
Ġáº ĩ
Ġmaxim ality
qu adratic
Ġscreen ing
ĠPro cedure
Ã© gor
ab olic
ĠâĪŀ ))
ĠâĬ ´
Ġattr actors
Ġhered itary
Ġremark ed
ĠR a
Ġpred icts
separ ating
s atur
Ġqu al
ĠA ff
Ġgr and
al an
Ġen riched
Ġto urn
Ġfound ation
Ġbroad er
Ġthick ness
ĠX OR
ĠËĨ B
ĠÂ ¢
ĠB regman
Ġsub str
Ġmut ations
ĠD ans
. [
ig ible
xx xx
ic ing
Ġpers onal
Ġas ymmetry
ĠH ankel
ra ge
Ġre sembles
Ġdecoupl ed
Ġsuper symmetric
Ġoper ads
stud ied
K K
Ġdim in
H ausdorff
Ġc ognitive
Ġmon tre
Ġfiltr ations
Ġdisc arded
ĠA I
Ġs on
H A
Ġ{ âĪ¥
Ġ8 1
Ġa us
Ġs cho
se lection
ĠQ M
ĠSm ith
Ġbrid ges
Ġpati ent
Ġto ur
ĠRic cati
ĠS ay
com position
Ġrep ul
Ġcos ine
onom ic
gr ading
ĠBer g
m l
Ġsubs olution
Ġcondu ctor
b ro
ĠA o
Ġadap ting
e w
Ġcompan ion
Ġu t
ver sion
Ġminim ally
ĠDo es
ĠB eta
tri vially
Ġrelay ing
Ġvari ed
Ġj t
p z
Ġ[ ]
âĢ¢ |
Ġrot ated
Ġpro ver
Ġmultiplic ations
E instein
Ġsubrou tine
Ġep idemic
r uct
top ology
ol s
g g
rel ative
Ġgene tic
ĠTrans form
aren ts
S V
Ġobser vers
el a
Ġoccur red
os ting
Ġw arp
ĠQ oS
port ation
Ġp K
ĠIn formally
elf and
Ġaff ir
ĠEstim ates
Ġrepetition s
Ġassoci ativity
ĠAn osov
ĠRel ative
Ġpseud od
Ġann ounced
Ġachie vability
Ġtra versal
ĠAlgebra ic
O b
Ġabs ent
Ġassoc ia
st abil
G e
ĠÈ §
d q
Ġsc ientific
ob ject
F r
ĠE mail
c a
ĠK as
ma tive
ĠAut om
199 8
Ġdescend ant
Ġidentif ications
Ġpass ed
equival ently
f ollow
ot z
Ġc up
Ġsem im
ric tion
Ġloc k
ha ul
Ġi R
os tic
Ġinter l
Ġp icks
Ġsp her
Ġs atell
moment um
Ġapp end
Ġviol ating
pro jection
: ,
Ġpr Ã©c
). )
com m
Ġd vol
Ġhyper parameters
A E
ough t
Ġidentif iable
ĠðĿĳ ¤
ĠComput er
ot he
ĠG ood
ĠEmp irical
complex ity
Ġanomal ous
âĦ ĺ
n odes
ĠB ER
Ġ( ),
al though
Ġrel i
ðĿĳ Ĵ
Ġt f
Ġen compass
Ġdemonstr ating
exp ected
ĠIni tially
Ġdel iver
ĠÏµ n
ĠEngine ering
Ġre sid
tur ning
Ġt urb
ĠC Î´
Î» n
Ġem an
b n
al gorithm
ĠH i
Ġund efined
ĠðĿĲ ¹
Ġrenormal ized
Ġfav orable
Ġgover ning
ĠRet urn
ĠÏģ n
ĠN ous
b eck
P L
ĠInt el
vel ength
ĠT ensor
Ġpeak s
ĠO pt
ĠLA SSO
ul o
Ġh ours
ĠL Q
Ġde b
ĠDer iv
an es
con t
Ġtor oidal
Ste p
ĠÎ³ i
Ġ199 7
ut te
P D
S W
Ġelimin ating
ig raph
ipher al
Ġsp acing
adap ted
Ġv n
Ġp Y
ĠmÃª me
ang er
ĠâĬ¥ ,
Le ibler
F robenius
C K
199 6
beha ved
Ġexcl usively
abil istic
Ġstabil izes
ĠSupp lementary
Ġprot ected
Ġcirc ulant
C he
P E
Ġvis ibility
Ġnor th
tur ing
Ġautoc or
Ġelectron ic
ĠFund amental
Ġt ension
Ġn l
Ġoff ered
Ġcompr ises
Ġn ine
Ġno etherian
tin omial
Ġ{âĪŀ }
Ġcont ra
ĠAr ch
on ov
T A
it udes
ric k
str Ã¶m
us ting
Ġpredecess or
- ,
h m
Ġe ll
au ti
Ġintern ally
Ġseed s
b locks
p T
ak ov
Ġimag ine
Ġc ited
Ġt ernary
Ñ ĥ
Ġcollap sing
' ll
Ġcon tig
ĠW ald
ĠS ymmetric
ĠIm plement
ĠSy nt
ubl ished
ĠN y
ĠËĨ t
ampl ed
Ġlife time
Ġback wards
g i
Ġexchange able
n c
e u
E r
Ġp Âµ
Ġnormal ised
Ġcycl otomic
Ġansw ered
exp ansion
Ġde m
ĠCon v
Ġbipar tition
10 9
Ġs ave
ĠL ag
Ġpresent ations
sem igroup
Ġgain ed
OR K
Ġd M
o ints
el ing
ĠâĮĬ (
ri al
Ġcent red
ĠQ n
Ġdisc ount
ular ity
Ġcounterex amples
Ġdiscontinu ities
ĠI so
Ġq s
H z
Ġdiver gences
Ġdescend ants
Ġill umin
Ġbar s
Ġdeno ising
ĠR ich
ĠT ow
P H
Ġ1 12
Ġf rozen
ru pt
Ġsem iring
Ġpromin ent
ĠBound ed
d ynamic
Ġconf lu
Ġdetect ors
ĠN orm
ĠK re
ab e
Ġdecoupl ing
Ġappe al
pertur bed
Ġexpl oring
G AN
B V
Ġun f
Ġquanti les
Ġrecall ed
H u
ĠEvalu ation
in si
Ġnot able
n q
)) :
ĠRepe ating
Ġcoll apses
Ġt y
AD MM
Ġimp r
Ġexcur sion
p ure
Ġself adjoint
p c
t ailed
or b
eff ective
ĠCo h
Ġtaut ological
Ġun ambigu
ĠZ e
ĠL ange
the y
es pace
un itary
Ġ)| ,
B er
Ġhomogen ization
Ġno ises
vi a
Ġthor ough
Ġsub lattice
Ġser ial
lev Ã©
Ġbid ders
Ġcofibr ant
Ġfactor ial
cur ves
H Ã¶lder
Ð ²
Ġampl ification
Ġamong st
el ines
ec e
Ġqu ant
ĠR N
Ġwant ed
I A
in z
du ction
ĠK B
Ġshuff le
Ġtwist or
" :
z ard
ĠT W
Ġfruit ful
Ġsy nd
Ġsc an
Ġske in
Ġabsor bed
Ġsuper solution
Ġexc itation
ĠC re
ĠH J
Ġpredict able
Ġstret ch
Ġf er
Ġt b
Ġf ol
ur ally
coordin ates
A no
ĠâĢ² (
t ation
ĠUn less
condition ed
deriv ative
ĠðĿľ ĥ
ticular ly
Ġsubs ur
ti y
Ġsur ve
W ith
Ġn eck
âĪ ¶
ĠKer r
Ġunder go
Ã ¸
sc rib
ro oted
ct eur
ri ll
Ġ[? ]).
Ġsuper con
p f
Ġs il
ĠâĢ¢ ).
UL ATION
uck er
assum ing
ĠFib onacci
cent ral
Ġdeploy ed
Ġi Î·
Ġp ul
rop olis
Ġreser voir
Ġint ra
ĠB IC
Ġ| ).
hard ness
simplic ial
Ġcontr active
ĠD N
New ton
ĠF uk
Ġwor lds
Ġiter ating
ĠRel ations
Ġar ticles
Ano sov
ellip tic
tic a
uniform ly
C V
Ġex changes
ĠMat lab
ĠK ey
fi elds
line arities
pair s
ĠR Îĵ
Ġt k
Ġrem ember
cl ique
logarithm ic
ĠLEM MA
ĠMa jor
eed back
ĠN F
Ġpn q
Ġo l
ag ation
Ġaffir mative
Ġinterf ere
Ġanalytic ity
LE DG
ĠRec ur
Ġman age
Ġ] ÃĹ
typ es
Ġval ence
Ġre defin
ĠFr ame
Ġn Î±
Ġdifferenti ally
ĠSch o
Ġin valid
ĠD istance
Ġstabil ize
sur face
ĠF ull
tj es
Ġd N
h igh
Ġinvol utive
ure r
NOW LEDG
ĠC ram
ĠAr n
in ct
sp ectral
Ġent ropic
ĠStep s
ĠE igen
ĠExp onential
M B
ĠËĨ T
Ġh k
Ġfold ing
ak a
Ġdecom posing
Ġun p
Ġrem ote
S i
ĠI E
fin al
ry lov
Ġ( âĪŀ,
Ġimmersion s
Ġtrans f
ĠPr im
ast ruct
Ġharves ting
Ġprote in
ĠKh ovanov
ĠSing le
ĠPe zzo
Ġ- >
Ġá¹ Ļ
ad di
ĠAd v
ang les
H L
ĠR en
Ġdepart ure
si veness
ĠG ron
ĠHig her
ĠL U
ĠÏĥ n
ĠPri or
Ġ, âĢ¢âĢ¢âĢ¢
el tjes
ĠðĿĲ ·
Ġm ig
Ġnon increasing
Ġoptim izer
Ġtr apez
Ġen g
Ġsp aced
ru ption
w a
on i
Ġph iloso
Ġconnected ness
)ÃĹ (
)) -
â Ł
d P
ĠV ector
UN D
Ġconfin ed
Ġrenew al
Ġáº Ĩ
Ġt ie
T able
l g
ĠB x
ij k
D el
Ġ/ âĪ¥
Ġ) âĢ¢
ĠW u
ĠMat ching
Ġres ampling
) âĮĭ
represent ations
Ġcorresponding ly
ĠBru hat
Ġmorphism e
ĠW al
AC T
Ġâĸ· âĹģ
Ġtranscend ental
st ochastic
iv ita
Ġ199 5
ĠM y
Ġhist ories
Ġc k
pertur b
Ġb s
Ġp arents
Ġsy st
Ġvic inity
ĠK R
ĠThe sis
ĠI X
sec ond
Ġm c
ĠP an
Ġqualit atively
Ġstr ain
ĠWe ll
H opf
Ġpoly mer
G K
A v
rough t
d ou
log ram
Ġdisturb ances
Ġmin utes
ĠS epar
all ing
Sim ons
Ġmain ten
Ġ( âĮĬ
ul ner
ĠACK NOWLEDG
ĠK a
Ġhe ights
ĠâŁ¨ [
Ġa j
Ġdual s
D i
ĠIntern et
ĠO S
Ġa q
Ġrecipro c
ĠðĿĽ ¿
Ġfund ament
eren tial
ĠÂ± (
ĠG a
ĠG ame
D ir
regular ity
addi tivity
Ġst d
Ġcost ly
Ġrain bow
AN T
Ġaccommod ate
Ġre phr
Ġre turning
Ġform e
ĠRepresent ation
au er
cor rect
Ġalphab ets
Ġsuff ers
Ġb j
Ġin n
Ã¼ ck
ĠCom ple
e z
Ġ0 3
ĠMAT LAB
Ġp L
f illing
univers al
h u
H K
ive red
) >
Ġdiver ge
B el
ĠâĪĤ âĪĨ
bran es
ur ability
inters ecting
Ġdegrad ation
x q
Ġat las
in variants
Ġin exact
Ġconverse ly
Ġstand ing
iti ves
Ġsket ched
R Ã©nyi
Ġgerm s
DE R
Ġconjug ated
re ment
om s
Ġpe er
Ġspher ically
Ġd am
Ġadd itivity
ĠL I
ĠH asse
norm s
Ġdro pping
Ġgu ide
Ġb x
Ġn T
ĠFin sler
i eld
Ġa ud
Ġdri ve
L Y
ĠP aper
p M
Ġp uts
Ġg er
ĠI oT
ĠOr d
ĠÃ© qu
F O
bal ance
k r
Ä ĩ
con tinuity
ĠDe ep
Ġi Î¾
b atch
g reen
Ġinflu enced
Ġ6 9
ĠInd ependent
Ġexc ited
Ġdichot omy
Ġf t
Ġdeterminant al
p S
n k
)! (
Ġb rought
Ġeigens paces
Ġhospit ality
Ġelectric al
se en
Ġre nder
P ER
Ġspecial ize
conjug ate
ul ier
ĠG elfand
Ã¡ n
ĠAdap tive
ĠâĮ ©
C ivita
Ġh ouse
Ġdoc uments
ĠÎ» j
Ġl ate
hom otopy
ĠG er
Ġtim ing
Ġexc itations
ĠF uchsian
ĠX u
Ġbos on
Ġtransfer red
ant enna
Ġp ione
Ġgroup ing
Ġexecution s
tin es
Ġmer ged
Ġcruc ially
Ġn Ïµ
Ġinterpol ating
Ġtemp ered
12 1
Ġextr acting
ĠðĿĽ ¾
ĠGron wall
S c
Ġlay ered
a tics
ĠD NA
ĠÎ² j
T hom
Ġex changing
ĠFix ed
ĠConstrain t
Ġundec idable
Ġarr ange
Ġpredic ting
Ġ} ),
le af
ategor y
Ġs ch
ĠLim it
Ġcub ical
áº ½
ĠP W
Ġwindow s
Ġultra filter
K F
b imodule
ĠSm ooth
ĠPre vious
ĠPar ameters
et ers
gr ained
ĠCas imir
Ġ(âĢ¢ ;
Ġhandle body
ed er
ĠP PP
multi plic
Ġhypered ges
mat ched
r m
ĠI mm
m aps
Ġtang ency
Ġrearr anging
K D
ĠG EN
Ġj et
Ġdefer red
ĠT u
Ġconduc tivity
ĠPrec isely
il st
Ġannihil ation
ĠC y
ĠP erm
Ġnon smooth
ĠApproxim ate
Ġw ishes
ĠMet ropolis
Ġbifurc ations
Ġq t
l abelled
ĠÎ² Î±
] \
ne ar
Ġu w
Ġv j
11 3
Ġmon th
Ġhel per
] ))
ĠV is
Ġtransp arent
Ġsur jectivity
onal d
Ġijk l
Ġcred it
Ġration ally
ĠC U
Ġtransvers ally
b ling
Ġnot ably
Ġto uc
Ġun ic
sp heres
Ġback haul
ĠÂ¬ (
. '
Ġtr ap
Ġdr astic
it ud
Ġhypot he
p d
pe titive
Ġsafe ly
ĠH ir
Ġattach ment
Ġopportun ity
Ġirreduc ibility
Ġ+âĪŀ ),
Ġinform ed
ĠPS D
Ġam or
S k
resp ective
Ġsplitting s
ĠRun ge
ĠP res
Ġab und
C omp
Ġn avig
Ġneg lected
Ġpu rif
) âĨĴ
r is
Ġi Î²
ĠV e
ad er
]) ;
Ġhexag onal
Ġpict ures
Ġlandsc ape
Ġflo ating
Ġmonit or
)) ),
par tial
Ġwhere in
Ġcorrespond ences
Ġacknow led
Ġrecommend ation
Ġconduct ance
Ġ, âĪĴ
s est
Ġsub word
tiy ah
ĠB I
aps ack
ĠC our
op s
ar n
b ase
A nd
Ġinstruction s
Ġre use
ĠTheore tical
S Y
a verage
R W
Ġperm uting
Ġpur ch
oper ative
r k
ĠIn variant
Ġqu d
Ġcoinc idence
Ġconstell ation
Â §
Ġe uclidean
G iven
G ener
Ġcircum stances
Ġe c
ĠA part
Ġillustr ating
Ġblock ed
ĠIntern ational
ĠP air
Ġin active
R IC
Ġcar act
Ġgu id
in jective
Ġpubl ication
ĠÂ «
x j
Ġb ur
ĠðĿľ ĭ
) ?
ĠM ic
Ġmm Wave
Ġsp ot
Ġsuper symmetry
Ġpush forward
Ġconsum er
Ġmotiv ating
Ġdis order
Ġauction s
Ëĩ Ëĩ
p resent
ac on
Ġobserv ational
bo oks
Ġbond s
ĠT Q
Ġconver sations
Ġe ffic
Ġsub bundle
Ġancill a
m emory
Ġbas in
ĠH orn
ĠÎ± j
c il
Ġtw in
Ġcol lecting
ĠH ome
K B
Ġaff ecting
Ġt edi
Ġcap turing
Ġtun ed
ĠRM SE
A MP
ĠS a
Ġout lier
Ġarcc os
Ġcommut ators
ĠS earch
Ġp Z
i Î»
| }
R ob
Pl anck
ĠP AC
Ġprop ri
âĪ¥ (
ĠSolution s
Ġreview ed
as p
sh if
q n
Ġcardin als
wr itten
ĠF V
ous tic
ĠMon ot
P N
at omic
e ach
t oler
Î´ n
Ġ7 3
Ġillustr ative
Ġtermin ating
] ].
f ly
ĠSh imura
Ġquatern ionic
h len
Ġpe b
EC T
Ġ+âĪŀ ).
hal f
ĠK M
âĪħ ,
ess ential
Ġfaith fully
u pper
Ġra ises
ĠContinu ing
Ġs ens
Ġf riction
Ġepist emic
Ġinter ven
ĠAW GN
b ad
È ·
Ġl t
gener alized
ĠM al
ĠMin imum
B ased
p age
Ġrefin ements
Ġstri king
Ġextin ction
ĠD iagram
hand les
Ġse lective
X i
sp an
class es
Ġopin ions
Ġrec om
ĠCONCLUSION S
Ġgrad ually
Ġ= =
h an
ĠM IN
ĠD ed
Ġelect rons
ĠOver view
ĠT utte
ins ki
Ġwave lets
Ġund es
Ġharmon ics
u ve
Ġstabil ized
l ie
are a
Ġconf ound
Ġst ab
TI ME
Ġ+ âĪĴ
Ġinf r
ĠEss entially
Ġd ir
ple ct
Ġreg ener
w ind
Ġdense ly
Ġhypered ge
ĠPain levÃ©
ad vant
Ġpropos als
Ġexh ib
ĠC x
Ġ| ]
Ġtedi ous
Ġsimul ator
Ġb q
Ġdisc ard
ĠUs ually
Ġs oci
Ġ199 4
Ġex its
Ġfa it
ĠLange vin
Ġcan cer
11 4
di am
Å Ħ
Ġadv ances
Ġd j
ĠS IC
ĠâĹ Ģ
Ġp alind
Ġpre order
diff erence
ĠD NN
ĠJ an
Ġser ious
as c
ĠCon cluding
ĠK rylov
Ġun ordered
Ġcomm ens
Ġadaptive ly
Ġl adder
Ġinc oherent
Ġinver tibility
Ġn b
ĠY am
ut ter
Ġbis ection
Ġsome how
ĠSet up
ĠâĬ ¸
Ġimp ulse
ĠOrgan ization
Ġl b
Ġdel ivered
K u
Ġinflu ences
Ġoverl aps
ĠA ction
usz tig
im a
ĠLe b
bre aking
Ġm orph
Ġv ulner
Å ¼
ĠW S
om on
ĠTh Ã©orÃ¨me
Ġpar am
aut om
sym bol
Ġ7 8
vari ables
c usp
âŁ© }
ĠDÃ© monstration
H H
t ap
ĠCent er
.... ....
Ġun supervised
D B
ĠSh ort
ĠB ianchi
ate ver
Ġpk q
ĠD ist
ĠSt age
ĠÃ ī
ĠMon ge
ĠMach ine
oupl ed
Ġpro finite
Ġsuiv ant
ĠG RA
cl osure
Ġfast est
Ġaccumul ated
Ġacknowled ges
ol ing
Ġp D
Ã© ral
Ġquantif ies
Ġinser tions
Ġsto pped
she ll
Ġx u
T E
ip ro
Ġ100 00
all ow
Ġhas hing
m ath
Ġintegr ator
str act
cover ing
Ġm d
Ġunimod al
p v
oupl ing
p df
ĠL H
Ġexplain ing
Ġ[ âĢ¢]
Ġinc enti
ĠD omin
Ġho ok
Ġparad ox
apr Ã¨s
Ġretrie ve
Ġexem pl
Ġv t
G G
, Â§
Ġtri valent
ĠDes cription
Ġvot es
inter ference
Ġsupp l
Ġbl ind
Ã© od
Ġi ÏĦ
sign ed
Ġd âĦ¦
ont se
Ġinterfer ing
Ġw n
Ġmultiple x
g t
r ling
Ġexcl usive
Ġar tif
11 5
o pp
r action
e i
in ner
ĠE W
ĠK dV
f lu
on ing
ĠK au
ðĿĽ ¼
g m
is ition
tr ace
ĠâŁ© }
col orable
ĠM etric
Ġexp ense
Ġresult ed
ĠD H
Ġinver ting
convex ity
ĠVari ous
M il
ic her
ib ly
Ġis t
Ġâĭ Ĳ
mod els
Ġinver ted
Ġorb ifolds
Ġperman ent
Ġi Î³
ill a
ĠCor ollaries
AL Y
Ġex changed
Ġrad ially
Ġfron tier
ĠÂ± âĪŀ
Ġd T
AR CH
itud inal
Ġshall ow
Ġtransl ating
Ġf f
ĠB Ã¼
LO G
ĠF W
L u
Ġtr actability
p seudo
yp ical
Ġas ympt
Ġsucc inct
ĠD FT
12 4
ha o
ĠNe ural
sem bl
L o
ĠD v
ĠExperim ent
Ġd ont
ĠQ H
y z
ord ant
Ġmag ne
Ġin cl
ĠWeight ed
Ġt d
ĠW itt
ĠÂµ n
Ġprem ise
Ġmem brane
Ġsubstit uted
ĠJ i
ba um
ĠTr ue
Ġmon omorphism
ĠContrib utions
ĠM aterial
Ġac tivities
one y
ipar tite
Ġb t
Ġm as
âī º
Ġneighbourhood s
Ġbuck et
n il
Ġpl ans
Ġs v
Ġmar tingales
Ë Ļ
Ġc es
Ŀ Ĳ
| +|
ĠSe i
Ġe g
ĠKum mer
Ġlink age
d Ïķ
i q
Ġtang les
Ġed it
ĠC ode
ĠðĿľ Į
N on
y d
s atisf
ðĿĳ §
atur ally
Ġthree fold
ĠG K
HS H
hlen beck
199 7
% )
ĠSe lection
ourn al
ontse vich
Ġcircum vent
Ġestim ations
Ġsub critical
Ġmo tif
Ġwa velength
T op
ĠW he
Ġantip odal
G u
Ġabsor ption
b ra
Ñ ı
ĠImplement ation
Ġg y
ĠPy th
id entif
inf eld
Ġfri end
Ġsym plect
Ġelectric ity
Ġ199 0
v ature
ĠF actor
ĠR IP
Ġfin i
iew icz
C art
Ġthermod ynamics
Ġre active
io phantine
Ġn Î»
ĠDifferenti ating
Ġj q
ĠA tiyah
ĠF B
11 6
ĠF ok
prising ly
Ġexplan ations
Ġcrypt ographic
u ality
R el
Ġg t
Ġtemper atures
b ered
Ġsupp ressed
11 7
Ġopen ing
ĠRef s
Ġcongru ences
Ġg ot
Ġex otic
Ġsw aps
Ġexpos ure
ĠPer haps
h d
ĠSc enari
ĠH ist
Ġa w
Ġste ering
ĠSum mar
Ġparalle logram
n x
Ġ5 12
ore g
Ġspin ors
ĠRec on
ĠGaus sians
Ġasser t
Ġreser ve
im inary
C W
Ġguarantee ing
Ġco h
ĠÎ± p
Ġreview s
Ġtransf ers
ĠSt ates
âĬ Ķ
ĠV ect
Ġ(âĢ¢ ).
itch in
ĠD t
Ġprim itives
11 8
Ġunit arily
Ġal beit
Ġmon ey
Ġreg ress
ĠSt art
o other
Ġcomp ressible
ðĿ Ĵ
Ġmis cl
Ġinstr ument
Ġ} }
Ġinter play
Ġfoli ated
ĠâĪĴâĪĴâĪĴ âĪĴâĪĴ
Ġdis advant
Ġ(âĪĴ âĪĨ
Ġpoor ly
or p
ĠG ab
Ġexhib iting
ĠFix ing
ðĿĳ Ĩ
, ...
Ġexception s
Ġf iring
im er
ĠB U
Ġcl ocks
ĠDav id
Ä į
Ġclust ered
Ġv ision
Ġ7 6
Ġrepar ametri
ins ky
Ġpl as
d S
ed a
Ġdram atically
ĠAn s
Ġscat tered
Ġr q
min or
Ġutil ization
ĠÎ» u
ĠLe vel
ĠLang lands
an ch
d istributed
ĠH n
ĠO B
Ġbo oks
ĠOr th
ĠIn spired
Ġ8 4
ĠF F
ĠForm ulation
ĠD ynamics
ĠÎ² t
ĠCondition al
ĠL t
Ġer f
ut ta
ĠA U
it ory
Ġpro hib
Ġr is
icon tinuous
Ġpur sue
Ġper ipheral
ĠDec ision
Ġprotot ype
Q L
ĠX s
Ġ? ]
Ġtrack s
Ã¼ n
Ġbr ane
ĠD V
in stance
ot es
ĠAl ors
pro ved
Ġchamber s
Ġy ellow
Ġpred efined
Ġp V
ÏĢ r
trans form
ĠC ases
Ġr v
Ġtom ography
ĠP PT
Ġadd ressing
ĠG O
Ġoff loading
Ġutil izes
step s
Ġs ine
Ġcontrib uting
Ġpseudod ifferential
Ġd ÏĪ
Ġle ct
ĠT rop
Ġprot ection
ĠCombin ed
Ġj s
Ġcumul ants
ist ry
[ âĪĨ
ĠP SPACE
id ity
Ġequ i
Ġï ĿĲ
ĠT otal
d ependence
ĠS IS
Ġnon compact
neighb our
Ġpy ram
ĠB j
Ġdiagonal izable
Ġinfr astruct
ĠChe eger
Ġbelie ved
ĠBound ary
ĠE B
ĠÏĢ n
B ER
ellow ship
Ġm ask
Ġprov ider
Î± q
ĠConstrain ts
y e
p olar
Ġn ul
Ġad missibility
ĠWhere as
Ġunobser ved
Ġv q
Ġfore cast
ĠC Y
th reshold
Ġ( âĪŀ
ĠB un
ĠÄ ¡
Ġattrib uted
Ġhe mis
Ġs f
Ġî Ī
ĠâĮ ľ
Ġfibr ant
Ġm q
Ġincom parable
Ġindic ators
Ġconstitu ent
Ġland mark
pri ori
O f
ĠProgram ming
Ġalloc ate
ĠUAV s
Ġcamer a
r ather
ĠSub ject
Ġcomp ose
Ġocc asion
Ġby pass
ĠS at
ĠL ist
ĠHence forth
m ove
ond e
t ail
ĠF ren
... +
Ġacc omp
Ġcorre cting
Ġpz q
ĠPf aff
Ġcoupl es
ivari ance
A u
ĠC Z
split ting
Ġch unk
ĠS oc
Ġsp urious
ĠF rank
ĠT F
Ġgr ants
at rix
ĠA mer
ĠAnd erson
Ġpullback s
Ġ| âĪ¥
ĠC entral
Ġ7 1
ĠLagrang ians
Ġenvironment al
f re
index ed
Ġth ous
ðĿĳ Ĳ
Ġquand le
Ġhom othe
ĠGH Z
ĠL ink
ĠCor rect
ĠP ER
Ġtele portation
Ġtr im
Ġbi ology
squ ared
Ġs hed
) *
Ġmagn itudes
Ġin formal
Ġpl a
ĠUn iqueness
Ġemphas is
Ġsear ches
Ġ|| âĪĩ
ĠSh ow
omp son
Ñģ ÑĤ
Ġconc ordance
R ep
Ġcon ce
ĠP N
pri v
Ġex ogenous
ĠX k
M D
P h
Ġdenomin ators
Ġemer ging
Ġarg uing
Ġw arm
Ġapp ar
12 2
ik h
ang ulation
ĠC NN
Ġá¸ Ĥ
[ ,
ĠH ub
is ometry
id a
ĠHo effding
ĠCL T
ĠSti rling
ĠâŁ¨ âĪĤ
ĠFi eld
Ġbisim ilar
ĠV and
Ġun balanced
ĠG erman
ĠTh ompson
Ġhighl ights
Ġenumer ated
ĠÏĨ n
ĠW ill
ĠgÃ©n Ã©ral
Ġincomp atible
Ġflat ness
Ġt rou
ch a
ou nce
Ġturb ul
Ġnon positive
ĠF U
Ġ5 000
i Î±
t ude
Å ¡
ĠId enti
Ġautocor relation
Ġpush out
Ġexact ness
Ġwhere by
Ġdec oherence
R o
Ġcomp ress
ĠAb ove
d h
Ġq j
ĠH L
Ġview ing
Ġorgan ization
ver t
Ġla x
Ġâī ½
Ġen abling
illi ams
Ġmism atch
ĠD p
Ġdiscreti zations
Ð º
C ut
Ġq c
ĠM ell
L og
al ign
ĠS ET
ĠM ich
d isk
ĠÅ ł
las ov
ĠR m
Ġquas is
Ġ7 4
Ġcharacter ised
LE S
. :
Ġp Ïĥ
Ġenvelop ing
in o
ĠD ate
Ġver tically
w t
Ġi âĦĵ
Ġinc urs
Ġreplic a
Ġcol lects
ĠÃĹ (
ĠEn gl
j n
Ġh amiltonian
ĠCon e
Ġcovari ances
Ġh und
ĠâĢ¢ ))
al ar
ĠExp anding
ĠQ S
ati bility
unc ated
s gn
ĠG h
Ġparent heses
Ġis ogeny
Ġaxiom ati
ĠLore nz
ĠE volution
ĠQ i
h yp
Ġp ad
r ally
Ġnice ly
Ġisometric ally
ĠV a
Ġpa id
} :
Ġrevis it
Ġ([ ?
b ar
ir a
Ġsubmer sion
ÏĢ e
ĠSc ott
al tern
Ġsie ve
Ġqu ark
k q
Ġthere of
e ither
Ġtri ed
ĠGH z
ĠA e
Ġcor ps
Ġconsum ed
ĠE QU
ĠSome times
âĻ ¢
Ġs ought
fron t
Ġnon linearities
Ġ> =
mat roid
ĠU ser
ĠS il
Ġresol ving
Ġrearr angement
Ġinte llig
Îµ n
ins ically
Ġguess ing
Ġcy c
il ing
Ġeman ating
E nd
controll ed
ĠD imension
Ġsche matic
ĠI FS
Ġsp t
Ġdimension less
ber ts
Ġco ker
ĠD iophantine
el astic
ĠC ha
Ġtim est
ĠP ear
Ġcoun ters
M an
j oin
Ġ) !
Ġincorpor ates
11 9
Ġtyp ed
ĠLa tin
A i
Ġenfor ced
B axter
Ġ{ âĪĨ
Ġreplic ation
ĠPro jection
Ġth re
ĠPrel iminary
Ġ: ,
ĠAN ALY
Ġstr ongest
Ġmul tinomial
Ġop ens
ĠBe ing
co efficient
Ġcombinator ially
Car lo
Ġl s
ĠH art
Ġmat ters
Ġsm oother
Ġfundament ally
ĠIm p
ĠT re
ĠÎ» k
Ġacqu isition
od ings
Ġdevi ate
ĠDe le
si zes
Ġfl ipping
Ġharves ted
Ġpull ed
n atural
Ġmag ic
Ġmolec ule
ess or
Ġexhibit ed
quoti ent
Ġexp ects
Ġclos ing
ĠD on
Ġsee ks
Ġt ill
ĠPar allel
Ġconvenient ly
ĠC AR
Ġencryp ted
Ġcall ing
res sively
d Î±
ĠR an
Ã© g
Ġpropag ating
Ġp ÏĦ
Ġoccup ation
ðĿĳ ŀ
in stead
Ġw ra
Ġdep ict
ĠStan ley
/ âĪ¥
ĠT X
Ġc avity
ĠR X
Ġexceed ing
o F
ĠQ F
D ef
ĠÏĦ i
Ġanaly sed
Ġh oc
r atio
Ġpair ings
Ġr f
b us
Ġask ing
loop s
m ixing
ĠHome o
e lementary
Ġt c
u ate
Ġtel es
Ġnum bered
qu ality
MM SE
y er
ĠS CC
Ġuseful ness
Cart an
i pl
ĠL k
Ġbos ons
E F
f eld
Ġsubs hift
Ġexec utes
ĠâĪĪ {
Ġcompr ising
Ġp Î¾
ĠElement s
off s
Ġdeterministic ally
Ġmodular ity
Ġn erve
F IN
ĠCh ain
Ġdim er
i el
ĠI L
Ġretr act
Ġsnap shot
deg eneracy
Ġbi ases
th and
Ġund e
un ed
ism s
Ã¶ n
V s
Ġrep orting
unct ured
G B
Ġcof ibration
Ġs al
Ġnormal isation
con ser
em an
ĠWhite head
g ap
Ġsubd ifferential
). (
T n
ĠP lease
Ġle gs
Ġviol ations
ĠX j
oc ab
Ġstic k
Ġbra iding
ĠCon tinuous
appl ication
Ġ( *
Ġdet ects
Ġcompe tit
Ġinherent ly
. ),
Ġen closed
til ity
ĠðĿĲ ¼
Con sider
Ġp Î¸
ĠC Ïµ
ĠC ell
ĠB it
Ġsur plus
Ñ ĭ
ĠM uch
per t
Ġsub field
Ġquad ra
Ġda ily
ĠO C
ĠBo x
Ġ(?? ),
ĠSer ies
Ġsatell ite
ĠSol ve
ĠF q
rip ke
c m
ĠL ong
ĠF an
Ġsub string
Ġrest ate
edu ce
ĠâĪĴâĪĴâĪĴ âĨĴ
re mal
ĠK ontsevich
Ġacc ounting
Ġpres cription
Ġp ed
Ġforget ting
ĠZ n
N ik
ĠMDP s
E B
ĠH is
Ġt ent
ĠE PR
Ġd Z
ĠPar ticularly
C r
ĠLem me
ĠArg uing
Ġinac cur
satur ated
ĠThom as
ĠC âĦĵ
el berg
con text
Ġlong itudinal
Ġtra verse
Ġtreat ments
l ay
Ġim per
ad ed
H I
M O
d F
Ġt ier
ĠN T
Ġres ort
O ut
á ¾±
ers en
Ġ25 0
ĠM ay
ĠâĢ¢ +
Li ouville
Ġin sufficient
Ġir respective
Ġpenal ties
ĠAnalog ous
e h
m ass
ĠD a
Ġdiff Ã©
in v
Ġbas elines
ces sive
ĠReg ion
du ct
Ġbec ame
d Ïģ
ass isted
ĠSt able
fact ual
Ġu q
Ġ7 7
Ġan t
Ġhemis p
Ġ( .)
âĪ¥ âĪ¥
Ġsubtr act
ĠE f
ĠOr nstein
Ġdead line
ĠB ase
ch arge
um or
wh ose
Ġ8 5
Ġseem ingly
Ġp Î³
C n
Ġf un
is able
res tim
ĠIntrodu ce
ith ub
Ġto w
ĠP t
Ġarcs in
te e
ĠÅ º
ĠâĪĴ +
ĠRef erences
Ġsumm able
199 5
. ]
Ġ[ {
Ġl ives
Ġdev ise
or is
Ġbecom ing
ĠB ott
ĠAl most
th m
Ġgeneral ise
M umford
Ġconc ise
Ġp I
Ġmill ion
ĠV ia
ĠI RS
Ġsched ules
ĠK im
Ġdiff usive
id ers
ĠâĭĨ ,
Ġreg ulation
tri angular
sh ort
Ġtessell ation
ĠâĮ Ł
ocab ul
s v
ĠK T
un ks
ĠMc K
B ar
c ard
Ġqu ivers
Ġmetri zable
Ġl iving
p B
ĠG RO
int u
Ġdefin iteness
yp es
Ġafter wards
Ġrob otic
ĠðĿĲ ¸
spec ially
ic a
inter pret
au ge
g reg
Ġin efficient
val ley
LE X
ex pl
s y
Ġtun nel
S z
ĠH A
OR ITH
Ġprefix es
ĠTow ards
ĠA iry
Ġf Ã¼r
du ality
Ġ18 0
Ġcompan y
Ġpuzz le
Ã ¿
ðĿĳ Ĺ
Ġenv y
Ġdiagon ally
ĠA SP
Ġha zard
pec tives
isc ent
Ġ+ |
con f
B i
Ġ} ]
ĠÈ ŀ
ĠâĪĴâĪĴ âĨĴ
Ġcontig uous
man y
d irect
Ġinter iors
ĠÏĨ i
Ġblock chain
weak ly
Ġi z
exp ression
Ġaus si
h off
Ġrec ast
T ime
Ġc it
Ġreprodu ction
Ã¡s z
) âĬĹ
Ġtimes te
Ġvor tices
princ ipal
etermin ed
ĠL N
00 5
ĠWork ing
t ask
ĠS CA
], [
Ġration ality
Ġl abor
A f
Ġcontra variant
p G
Ġcomput ers
ag ue
Ġ= âĪħ
r ink
ĠK ripke
Ġtub es
W atson
ĠM ur
R ic
ĠPass ing
os sip
ĠP ers
ĠUC B
ĠDat as
ol ored
gr avity
Ġfix point
âĮĭ .
ĠProceed ings
ĠS elf
/ âĪĨ
o ving
H O
Ġa st
ĠT an
Ġaccomp an
ĠðĿĳ ī
W E
Ġor acles
ĠC s
Ġgroup ed
uer re
Ġow ing
Ġb k
ĠSO S
Ġ|| (
ĠN aturally
)+ (
ĠÎ´ u
Ġadj usting
del ay
ĠM ET
)} )
pre c
sc aled
B I
Ġfold ed
b il
q c
Ġl as
Ġmulti graph
Ġcobordism s
Ġreal isation
(âĢ¢ |
AB IL
ĠC irc
a el
Î± x
resp on
ti s
sis t
ĠPo ints
Ġdisj unctive
ĠF ormal
Ġintegr ality
Ġmon ograph
ic an
Ġint ention
Ġsuper critical
air a
ĠAd am
ĠPl ot
V ol
ĠAd ams
Ġsub varieties
Ġl osing
Ġt A
Ġfa ults
a q
mut ation
App endix
c an
ap he
co in
Ġdiscreti ze
ĠR q
b est
Ġkinem atic
RA M
sub module
ĠCoun cil
M N
ens ored
ĠRam an
Ġlexicograph ically
ĠH itchin
ĠM aking
Ġpres heaf
Ġinform ally
ĠâĦĺ (
ĠPl an
Ġvis iting
Ġsuscep tible
Herm itian
Ġh ub
ĠStr ategy
ĠLo oking
ĠTechn ology
Ġordin als
Ġeven ly
âĬ ¢
ðĿľ Ĩ
B ay
str a
ĠALG ORITH
Ġintertwin ing
C ON
scrib ed
ĠFok ker
M IMO
Ġintr insically
Ġi Âµ
ĠK od
ĠNo ether
ĠIn verse
Ġprop ensity
Ð ´
Ġpush ing
ar que
ĠM all
ĠD U
Ġn at
B W
X t
Ġfin itary
Ġremin iscent
ari an
Ġ/ |
, .
he aves
Ġtil ting
us s
ĠRe v
SE D
Ġzer oth
ĠPo sitive
Ġ9 8
lect ron
Ġemer ge
Ġfactor isation
M W
Ġexpon entials
ĠH OM
Ġdemand ing
w al
Ġfi re
â ľ
iter ion
ĠF ar
ĠM ed
Ġalle vi
ger y
Ġs ib
Ġrep elling
Ġsub ring
Ġstrength s
ish art
is ible
ĠdÃ© du
c at
Ġdevelop s
Ġwh atever
se gment
Ã©tri que
ut ral
ati al
Ġprec oder
Ġâī ħ
il enberg
Ġflat ten
Ġapparent ly
Ġsub matrices
Ġsub interval
Ġâĭ Ķ
Ġcat Ã©gor
m t
in ver
ĠQ FT
âĪ ĸ
ĠWh ich
ards on
Ġstair case
Ġi ÏĨ
ĠCon s
et e
Â¨Â¨ Â¨
Ġcalcul ates
Ġheter oclinic
EN CE
Ġdele tions
d k
Ġvisual ization
Ġfa ulty
ĠAppro ach
Ġro ll
Ġ)) âĪ¥
ple t
Ġhor iz
Ġc ame
Ġm ot
ĠB ose
an alog
ĠD W
H o
s ymm
Ġb p
Ġa y
ĠÎ» p
sur ance
Ġdistingu ishes
n Z
Ġá¸ Ł
ĠProceed ing
ĠE Q
Ġreg ards
ĠÄ ©
Ġun perturbed
ĠArn old
et r
Ġsh ocks
] }.
Ġinv oked
ĠConc rete
Ġdec idability
b an
K utta
Ġv ocabul
ĠD etermin
Ġsem ilinear
Ġoscill ating
Supp ose
rel ations
Ġs outh
i Ã¨re
ĠÎ³ t
ĠP etri
t emporal
Ġdist ant
p in
Ġperm is
ĠC am
d em
ĠÄ µ
Î´ x
ĠÎ± m
om an
Ġvisc ous
ĠvÃ©ri f
k t
Ġperiod ically
ll a
Ġcomponent wise
ĠInitial ization
Ġmark ings
Ġrefere es
Ġpus hed
Ġdes t
uc cess
ĠMathema tica
ĠG Ã¶
Ġquas ic
P re
Ġch i
Ġgu arded
S GD
ĠK l
ĠBes ov
ĠQ T
ester ov
Ġhar m
ĠT ot
Ġamor tized
ĠExt ending
B N
c uts
Ġx e
ERI CAL
Ġi Îµ
L in
Ġmed ical
X X
â ª
199 4
Ġ( âĸ¡
Ġcent ury
duc tive
Ġspir al
ĠEnt ropy
L IM
Ġneut rin
13 4
Ġconsum ers
ĠD ensity
? ?
Ġ( ).
Ġac oustic
Ġ7 9
Ġcoerc ive
ÏĢ Ïĥ
qu er
12 6
Ġf irms
Ġquanti zer
Ġelimin ates
n u
Ġg x
ĠScenari o
Ġexpand er
differen tiable
W il
ĠG all
Ġro utes
Ġimpro per
qq qq
) <
linear ity
L em
b ig
Ġ( âī¤
Ġconn ective
ĠWe b
Ã ®
ĠV iew
exp ansive
ĠAlex and
ĠÃ©lÃ© ment
Ġint end
Ġlogarithm s
ĠBr un
uch i
Ġul timate
Ġpool ing
Ĳ £
ĠIntrodu cing
( ,
Ġparticip ate
Ġcalibr ated
f ix
Ġbo ard
cub es
L B
Ġdistinguish able
ab er
uj an
t ual
ĠCat alan
ĠP olicy
C I
Ġt ab
p en
Ġsynchron ized
ot on
11 11
Ġinves tor
cos h
w ing
ĠJ ack
sh ots
ĠA h
ĠW or
equ ation
Ġadop ting
ĠreprÃ©sent ation
ul um
Ġnon vanishing
a head
form ulas
ĠAl t
ĠSign al
Sch wartz
Ġexpon enti
Ġla zy
Ġto day
ĠV o
yn c
Ġtr ave
Ġmis s
st one
Ġann ular
Ġtourn ament
Ġm l
ĠB inary
ĠF M
Ġn f
Ġdiscrimin ator
Ġm u
ĠA H
Ã©t Ã©s
ĠCom me
Ġadvers aries
Ġn Î´
Ġpay ments
B u
ĠS yl
Ġun restricted
Ġhing e
ĠL at
ĠN atural
Ġz q
ser tion
, -
Ġg old
ĠB est
t arget
Ġent re
ĠOper ator
ĠL f
Ġtechn ically
Ġgr an
Ġaccompl ish
ĠImport antly
ĠL ittlewood
Ġsimpl ifications
Ġ199 2
bit r
Ġgal ax
Ġcomple tions
tran sition
Ġinher it
Ġprefer able
Ġsp ont
Ġem ission
Ġbary centric
ĠL if
A W
d onald
r ings
enc hel
H ar
H amiltonian
c ounting
ĠCon ference
ĠSummar izing
Zh ang
ĠR osen
Ġinequ ivalent
Ġsub intervals
ib re
divis or
ig uing
Ġpath wise
Ġphys ic
ĠN OT
Ġdesign ated
Ġdiscon n
Ġinfrastruct ure
Ġ)( âĪĴ
ĠSDE s
ds on
Ġ[ âĪ¥
ĠKra us
ĠM EC
com mun
b one
ĠF K
section s
Ġt elle
Ġposi tives
Ġmul tim
poin ted
+ âĪĨ
typ ed
Ġreli ably
ĠM ir
ĠâĪħ }
C SP
12 7
ĠEngl ish
Ġhorizon t
Ġautom ated
oles ky
Â »
Ġl ab
Ġsol itary
Ġdec on
Ãł g
Ġsu t
ĠR I
the se
Ġarbit rage
Ġtraver sed
ĠpâĦ¦ q
P ath
re cur
C N
ĠE specially
Ġsimul ates
ok er
ĠReg ression
ĠCur rent
Ġstrengthen ed
Ġproj ec
Ġdiffusion s
U hlenbeck
ĠO LS
Ġdisc ord
ĠDIS C
Ġallow able
ĠG re
ĠMell in
X n
] +
ay ashi
ĠT oda
Ġtail ored
Ġdec ade
Ġsuper algebra
Ġcon den
Ġc Ãł
ĠN ON
ĠRe fer
Ġd U
Ġwill ing
Ġcompr ised
f rag
m entioned
Ġaut oreg
T ree
Ġtarget ed
ĠG Sp
14 0
ĠD omain
ĠdÃ©fin ition
S um
Ġint ric
Ä ĥ
ak is
13 0
Ġavoid ance
ĠCr it
ÏĦ n
Ġremain ed
Ġun expected
Ġc w
ĠG N
We yl
ch ke
on y
Ġf em
ĠC MC
ĠB t
Ġsub categories
ĠDF A
ĠRem ember
Ġ13 2
Ġsmall ness
Ġflav or
ĠBerg man
b d
Ġinfinites im
o om
ĠÎ¸ j
S obolev
ĠE U
Ġcheck er
oy al
Ġs orts
Ġpul ses
s r
Po incarÃ©
Ġwh ilst
Ġ` |
Ġconvolution s
se arch
l k
ĠâĪħ ;
ĠH as
du plex
| ]
Ġsymmetri zation
Ġhere after
ĠCh olesky
i u
ore s
Ġquasicon vex
ĠU P
Ġguid ance
Ġaug menting
âĪĨ ,
Ġm en
Ġ= <
are r
AT ED
Ġinvent ory
Ġcon ting
Ġimp ed
J S
Ġwire tap
ĠCN F
ind ices
ĠStatis tical
Ġdistill ation
Ġ( âĪª
res on
Ġc umber
Ġbr ute
ĠâĮĭ ,
ĠR os
âĪŀ (
ĠCh ina
Ġto ute
Ġcofibr ations
ar ts
ĠÎ¸ k
Ġbe auti
ip ed
Ġconn ex
Ġconcept ually
Ġcryst als
Ã© ma
Ġded uction
et oris
ĠÅ ¤
Ġpost pon
ÅĦ ski
ĠC HSH
ĠL V
Ġtra pping
dx dy
Ġparametri ze
Ġreciproc ity
IN T
ĠFOR M
um ental
em bedding
Ġimpos sibility
N ext
ÏĢ Î»
M V
Ġre ordering
Ġfac ilities
)âŁ© .
Ġtechn ologies
)] (
Ġl ambda
Ġfollow er
Ġparab ol
âĨĴ âĪĴâĪŀ
c p
ont ry
Ġ[ âŁ¨
Ġprinc ip
Ġi Ïĥ
Ġinterest s
ey er
ĠG ar
Ġinstant on
r r
Ġsp ite
inz burg
Ġrare ly
ĠR ou
vi i
Ġhom ogenous
Ġcommit ment
W ang
ĠðĿľ Ļ
Ġx m
12 9
Ġto pos
Ġk x
ĠSim ulations
H R
ĠSt rict
] âŁ©
ĠrÃ©sult at
S ha
Ä ĵ
Ã¼ck er
Ġpref ers
) Ì¸
G ro
r int
itt aker
Ġcumber some
ĠPhys ics
Ã¯ ve
d ynamics
ĠSt ra
Ġhead s
Ġcaus ing
ĠANALY SIS
ĠN ull
ĠB FS
p ack
Ġexclud es
Ġband its
ĠÃ Ĳ
Ġ9 7
ĠËĨR d
ĠB ous
Ġsuffic iency
Ġdecl are
Ġtouch ing
ĠNewton ian
ah l
Ġconcaten ated
Ġpull ing
Ġvisual ize
u el
Ġemer ges
ĠB our
Ġs g
in ks
ĠRequ ire
Ġsubsur face
dl Ãłg
ter ra
Ġannot ated
Ġmim ic
ontry agin
Ġ( <
Ġeigen state
le in
Ġj âĦĵ
ĠW ood
ĠStatis tics
ti ti
om er
Ġmak er
ĠF er
ĠG ross
Ġem b
ĠEm bedding
Ġsem if
ĠB p
Ġscho ol
Ġ( -
regular ized
Mark ov
ĠSe lect
Ġwhe el
Ġmat urity
Ġhoriz ons
ĠM is
Ġt ac
Ġ ~
Ġj r
ĠL oss
ĠRec e
Ġsurger ies
} }.
Ġenc odings
ĠâĪĴ âĪ¥
Ġlay out
ĠÈ ¦
d iagram
ĠâĹ »
ĠN ear
Ġf ake
Î³ n
ti les
ĠÎ± k
ĠK ato
Ġpers pectives
o es
fact ors
ĠðĿľ ĸ
ĠEquival ence
Ġ0 10
Ġle ts
Ġcommunic ating
b ach
ĠW ick
Î± i
Ġa head
Ġs el
Ġal arm
M e
T V
H D
ĠA y
ĠQu asi
5 00
Ġin surance
ĠM ass
B on
ĠC OR
Ġtreat s
S VD
ĠâĬ ı
ĠAb s
ir cles
ĠM el
âĨ ĺ
Ġemer gence
Ġlamin ations
Ġextr insic
Ġcont amination
ag ing
d ess
un i
ĠAd j
Ġps q
Ġshadow ing
Ġenumer ating
Ġris ks
ĠW itten
ĠSU s
ĠT esting
Ġ) âĬĹ
Ġinst ants
SI TION
Ġpiv otal
Ġlead ers
ĠRepe at
ti an
ĠÃĹ [
ent ric
Ġ199 3
ĠâĦĵ m
Ġcollabor ation
Ġsynd rome
ĠK N
ĠU V
ĠD FS
âĮ ª
Ġsu ble
ĠâĬ Ī
Ġpos es
Ġb are
k p
Ġguar ds
Ġadvantage ous
Ġ8 3
gener al
d otted
Ġun matched
Ġfunction ality
Ġinten sities
j a
n ame
div ision
ĠNUM ERICAL
F D
ĠT ur
pred ict
Ġquadra tically
c z
p us
Ã Ŀ
ĠÄĮ ech
pro ve
ĠBu ilding
B U
Ġd end
j m
ĠSt ack
F M
p attern
Ġdet erior
c ircle
Ġcounter factual
un ch
Ġcompens ate
ĠKod aira
g le
spect rum
Ġwr t
a hedral
u q
Ġsquare free
Ã¨ bre
Ġreplic as
Ġnom bre
Ġch unks
hi bit
ĠFrame work
ff man
Ġtag ged
Ġdestro y
ĠZ ero
Ġinterpre ting
Ġinstr uments
Ġvocabul ary
Ġ8 2
ĠSeg al
Ġperm uted
Ġspl ines
Ġsingleton s
L ine
p unctured
Ġdemonstr ation
AN CE
ĠSei berg
bin ary
Ġdri ver
H a
r x
Ġconf erence
ĠSp aces
K er
ĠR ig
Ġá¸ ŀ
M ulti
Ġintr iguing
ĠÎ» q
ĠÄ Ĭ
Ġarri ved
is ance
ĠÎ¾ i
linear ly
Ġstrengthen ing
RE E
p w
Ġst ory
ĠMac donald
angu age
Ġcon form
Ġx a
and el
Ġub iqu
B n
ĠShap ley
erm onde
tr ig
Ġidentif ier
ash ing
Ġdegener ates
Ġquasicon formal
Ġshar per
ĠST R
Ġrev ision
Ġquadric s
group e
x z
O A
Ġin structive
sub group
rip ts
Ġelliptic ity
sh aring
ĠâĨ £
Ġg f
ĠL ov
Ġde graded
ini tial
K T
Ġ(?? ).
Ġb ump
Ġembed d
Ġguess es
Ġdrastic ally
, :
15 0
Ġconcrete ly
Ġmet ast
Ġfunctorial ity
is ant
Ġloc ate
ĠTr aining
polyt ope
Ġpent agon
Ġdisappear s
Ġhed ging
) \{
spec ification
ĠpX q
us ual
ĠEqu ality
Î Ķ
g ithub
Ġh at
od ule
ĠDes cent
)( (
ĠB h
st yle
Ġrot ate
W S
ĠRob in
Ġh ot
Ġ(âĢ¢ ))
V al
en h
Ġl oses
ĠStud y
Ġtr aced
Z F
ĠF am
oll aire
ĠA UC
âĮī ,
ir ation
ĠâĪĨ [
ĠCom plete
Ġdef ender
Ne umann
Ġobe ying
Ġinnov ation
Ġb urst
Ġaxiom atic
as oro
Ġbo ils
P en
p g
ĠS MC
ĠSem an
emper ature
Î² n
l ated
Ġá¹ ¡
conver gent
Ġ8 8
ĠR f
ĠD g
us c
MA P
Nik od
d H
Ġe e
Î» q
Ġd it
Ġpur ity
Ġsteep est
re ction
ĠL ST
ĠF FT
iv an
Ġsome where
Ġu x
il attice
ang ian
Ġcrypt ography
Ġscat tere
G W
Ġfin ance
Ġpermit ted
ĠðĿľ Ģ
proper ty
ĠÎ± q
Ġá¹ ł
Ġc j
ob jective
Ġprom ise
ĠÎ² x
ĠPRO PO
Ġorigin ating
ĠZh ou
en ger
ĠAd a
ĠGEN ER
Ġphr ase
Ġw k
ĠâĪŀ ],
Ġ10 2
ĠâĪĴâĪĴâĪĴ âĪĴâĪĴâĪĴâĪĴ
f ar
le ading
ĠcÃł dlÃłg
Ġt g
ĠÎ» r
Ġauthentic ation
Ġanti chain
Ġc q
comple teness
ĠðĿĲ º
Ġbur den
Ġhorizont ally
Ġp Î²
ĠB art
Ġbi en
struct ed
ĠClust ering
Ġmathema tic
Ġgover n
et t
og le
Ġq k
) {
Ġw s
Ġk d
ĠPer iod
Ġt au
and ering
ĠK az
in y
Ġnovel ty
Ġincon sistency
p son
ĠN r
Ġp Ïģ
mid dle
Ġassess ment
Ġjud g
f a
ĠT ab
ĠH R
M LE
ic o
Ġvalid ated
Ġun iv
ĠFollow s
orient ation
Ġtr acing
Ġg n
ðĿĳ Ļ
ĠEqu ilibrium
ĠA Q
Ġbar riers
ĠDr infeld
eg ree
Ġap ex
Ġn P
Ġin stit
ĠBound ing
G rad
z t
Ġhalf space
Ġargument ation
E uclidean
H N
ĠSem i
ĠC k
Ġconver ged
Ġconn ectives
OR S
ĠH an
C ov
ĠTr ace
Ġenhance ment
r ule
+âĪŀ )
ipar ametric
ĠSti eltjes
re ach
ing ular
ĠCommun ication
Ġsub f
Ġcom on
ĠCalc ulate
l ique
Ġequid istant
ĠG I
Ġo ve
Ġtri partite
Ġrece ption
ĠCho i
polynomial s
Ġrepeat s
vi ve
ood y
Ġhomotop ies
Ġex ha
ĠRet urning
d b
u y
Ġat titude
Sim ilar
C a
Ġvi able
Ġhistogram s
Ġco boundary
Ġconj unctive
tr acting
Ġbary center
re ctang
ĠOf ten
Ġcertific ates
Ġclos eness
odrom ic
Ġrele ased
Ġas cent
W i
Ġshe ets
Ġcompactif ications
ĠR p
ĠB and
Ġkn apsack
ĠProf essor
ĠWe instein
sequ ent
ĠÐ ¿
Ġy our
Ġneg lect
ĠCF L
comput able
Ġdec ryp
L ocal
Ġp U
r ality
Ġout ermost
13 5
Ġin ev
Ġl l
Ã¶ f
ll is
ĠÎ´ q
r anging
ĠB ottom
ser tation
ĠpA q
tin ess
pro gram
Ġpi q
ĠKau ffman
ic i
Ġsubc ases
Ġbo osting
Ġdec ou
Ġbeauti ful
ow itz
Ġread ability
Ġt ion
ĠÂ± ,
Ġtransposition s
colour ing
ĠC u
x p
Ġfound ations
ĠCo q
m ixed
Ġ8 9
d Î³
Ġpursu it
worth y
( âĪħ
Ġresp ecting
Ġc df
Ġk a
Ġmitig ate
ĠB EC
ĠPer tur
ul ing
Ġjam ming
here l
Ġl atest
ĠR ange
Ġnu isance
dist ortion
Ġob ten
Ġsym plec
1 000
Ġd Îĵ
ĠD ie
ensor ing
ĠÏģ Ïĥ
r an
ĠAl together
Ġem it
Ġfiber wise
Ġche ap
Ġcoc om
re ath
Ġf j
ĠH arr
ĠInd uctive
Ġpoin ters
Ġun ivalent
m ic
Ġfactor ized
L F
199 3
Ã©od ory
ang ulations
14 3
Ġcoll ocation
oo oo
ĠD raw
Ġpy q
Ġ| ),
Ġ9 4
We il
ĠPro duct
ĠS j
re fer
Ġm oll
ĠS un
Ġ9 2
b alls
am ps
ĠHu ang
13 6
Ġhyper parameter
Ġacqu ire
Ġtouc hes
j ectively
Ġ19 80
ĠA us
theore tical
h art
t q
)âŁ© ,
Ġportion s
ĠN n
ri v
ĠPl anck
cr it
IZ ATION
Ġevolution s
anc herel
Ġch ap
âĪŀ }
ĠGal ton
t p
ire gular
sign ment
D N
Ġex tern
, âĪĤ
AL S
ĠC ertain
ĠMathema tically
ĠÎ´ v
ath Ã©odory
Ġdesc ript
Ġsur pr
D v
Ġra ise
ĠF u
ĠD Y
Ġextrap olation
Ġz u
ut o
ĠG IT
ĠÎ» s
ST R
ialgebra ic
is que
p olicy
ĠT SP
cl id
Ġbub bles
T C
Ġsaving s
ĠÏģ i
Ġsubtr action
Ġpostpon ed
at ten
(âĢ¢ ))
ek ind
Ë ĺ
ï¸ Ĥ
arc s
Ġoptim istic
" ),
l iest
w hel
ar tingale
ĠC m
Ġ] âŁ©
Ġreconstruction s
w ide
es sel
ect rum
Ġad vection
Ġsuper vis
ĠT B
pl ace
ĠQ A
cent ration
ĠVer y
ĠRE L
Ġfron ts
ĠKir ch
ĠÎ³ x
Ġmulti level
Ġaim ed
ĠMin imal
acy clic
Ġpseudoc ode
ĠNo ise
Ġfulf illing
Ġcod omain
Ġtraver sing
ĠLag uerre
b ri
ĠF eller
ĠOF DM
Ġres cale
ĠTran sition
Ġx v
ĠS ize
Ġe cc
ce iver
Ġsy zy
integr ation
Ġ> >
mod ulo
Ġ8 6
ĠK O
Ġsl icing
F EM
f s
ĠM ul
j et
ĠT E
respon se
Ġcoun it
Ġcontinu ing
ag n
ale y
Ġk Î±
ĠN I
ang lement
13 1
A m
ĠNon linear
Ġre jects
Ġx p
Ġ) âŁ¨
Ġinver t
cap acity
Ġg g
z h
Ġorth ant
l m
Ġstandard ized
Ġdec k
Ġemphas ized
or a
ĠT am
ĠIn ference
ĠâĪ ī
ag ed
the orem
ed imensional
Ġz t
Ġrectif iable
con trol
p C
Ġpres s
le m
com petitive
Ġspik es
ĠB ou
il er
Î´ q
ĠA MP
Ġ199 1
ĠPen rose
ĠMS O
Ġomit ting
ĠAssoci ated
Ġreal ised
Ġintegr ators
ne gl
ond s
Ġh our
Ġun fortunately
Ġs igm
P CA
con v
ðĿĳ ĵ
Ġbid ding
( Â±
ĠR ear
k ins
Ïī t
ĠP Q
Ġan isot
ĠR ules
Ġref r
ĠâĪĤ )
Ġnew s
Ġparallel ism
ĠG ames
Ġpre t
) âĪ§
14 2
âĪĪ[ âĪĴ
Ġenfor ces
ĠSing ular
ĠD Q
Ġcoll ar
Ġcon ormal
Ġ< <
Ġpr uned
ĠB och
t an
it ous
ĠB ow
Ġle veraging
Ġun ification
e vent
Ġâĭ ĸ
Ġequ ilateral
Ġdistrib ute
R M
toler ant
Ġ- -
Ġr hom
ĠPfaff ian
Ġag o
ĠT L
ent y
onal dson
Ġcons ult
ĠHar n
Ġtow ers
Ġcumul ant
ac ements
Ġassocia ting
ĠS ier
âĮĭ )
Ġhor osp
Ġforec asting
Ġamalgam ation
Ġimp acts
Ġexper ien
g ons
ĠK G
Ġpartic ulier
condition al
ess age
Ġsubdivision s
M i
Ġop tics
ĠðĿľ Ĥ
Ġmono pole
Ġtun e
Ġpre mis
Ġstring ent
ĠCon sistency
Ġenfor cing
Ġpost p
comp onents
Ġcoerc ivity
Ġadj oin
fo il
Ñ ĩ
Ġsem ist
gener ating
Ġholonom ic
Ġ0 01
Ġover whel
hol onomic
ĠTop ological
ĠN at
TI ES
Ġdraw ings
Ġpar king
Ġk illed
Ġp E
âĸ ·
op ic
sche mes
Ġautoreg ressive
Ġâī¤ )
Ġdis reg
Ġport ra
re ci
ĠSt one
Ġsumm ed
Ġis olation
13 3
Ġinterpol ant
[ .
ĠG U
act al
Ġlogarithm ically
Ġasser ted
k j
Ġstruct urally
ĠMa urer
A I
ĠL er
tri angle
ĠVir asoro
ĠQ CD
a veraged
oth Ã¨
Ġdiff ering
ĠCorresponding ly
} ÃĹ
Ġh g
ĠEv idently
tr uth
D H
Ġu j
Ġcl in
Ġtriple ts
n Î±
Ġinstanti ation
ĠFuk aya
ĠH Y
] âĪĴ
Ġsee king
anc ies
i H
Ġpublic ly
ĠNi elsen
S G
Ġp Ïī
Ġper ce
Ġá¹ ĺ
ception al
arm ed
o e
p j
am oto
Ġinstr umental
Ġreplic ations
co operative
e tic
Ġinc ome
ĠAb el
Ġun avoid
Ġacknow ledg
on a
ĠB orn
Î³ t
ĠCom mon
ch ild
Ġr icher
ĠH E
Ġrelax ing
Ġg aussian
ĠS SP
Ġsemid irect
ic he
Ġhierarch ies
Ġsnap shots
F R
Ġw w
ĠâĪĤ /âĪĤ
Ġnumber ing
ne utral
Ġ9 1
Ġcomposition al
ĠR and
ĠT ar
Ġderiv able
ĠR t
ĠB aire
ĠÃ ¬
st ack
ĠÃĹ {
Ġsymmetric ally
Ġformal ization
ival ence
ĠPl Ã¼cker
all ed
amp ed
Ġstiff ness
Ġt ick
ĠSub case
ĠP as
k x
ab c
Ġxy z
ĠVand ermonde
ABIL ITY
ĠT ak
Ġse x
aut onomous
Ġtrust ed
ĠPage Rank
Ġtransduc er
Ġr igh
Ġ), (
K R
p R
st s
Ġdiscreti sation
comput ed
ĠâĢ¢ ]
aus s
ocus ing
Ġspect rally
14 4
p rice
00000000 00000000
F E
H ER
Ġob tient
Ġ8 7
cop y
Ã©r ate
Ġ+ âĪ¥
link ed
ĠR ever
Ġes cap
Ġfluid s
Ġfill ings
# #
ern er
ĠProb abilistic
ĠB ig
Ġdefic iency
Ġi Ïµ
Ġsur vive
Ġcomp ressive
Ġquantif ying
Ġtrave lling
Ġlc m
ĠS ha
Ġcomp ressing
D es
x s
Ġcharacter ise
ĠP ontryagin
ĠW ishart
Ġdedu ces
C SI
sol vable
divis ible
ĠH ill
ell i
MR ES
Ġsubdomain s
Ġmark er
U nder
en sed
ne ll
ur d
Ġback bone
Ġlo ading
Ġeconom ics
Ġmig ration
M oody
ren cy
ĠAcknowledg ment
âĮī .
Ġsusp ect
Ġ(âĪħ )
ĠAmer ican
Ġind ication
Ġsoft max
Ġco ins
ĠE h
strict ly
ĠH B
Ġev al
Ġ6 00
Ġcap s
âĮ Ŀ
Sm ale
Ġin ward
ers h
Ġback tracking
Ġrecomm ended
Ġp W
crib ed
u u
Ġ0 11
ĠH MM
Ġthink ing
Equ ation
p ur
Ġdisc ipl
Ġacqu ired
am y
ĠZ i
ĠFil ter
Ġdisper sive
ĠEvent ually
Ġg ossip
ri val
Ġren aming
ĠÎ± s
âĩĴ (
rec ting
Ġgener ations
Ġpend ant
ĠðĿĳ Ħ
ĠCon structing
ðĿĳ Ķ
C ont
Ġsc atter
at us
ĠL K
Ġtrig gered
el er
Ġfund ing
ĠCN OT
Ġ10 24
Ġinterpret able
Ġmotiv ations
Ġpostp one
v on
ĠI G
ane ously
Ġexplo sion
ist ration
re r
ĠH O
Ġ\ (
ĠRH om
B an
(âĢ¢ ).
ĠAo I
ĠACKNOWLEDG M
ĠC ounting
ant ed
Ġr app
Ġá¹ ĸ
loc ation
ĠD ol
ĠTop ology
ĠM ack
ĠQu ery
ĠC ross
ðĿĳ ¤
Ġmagne tization
Ġm f
Ġhom omorphic
en ko
Ġenlar ged
Ġm it
ĠR U
ĠN et
C hen
D av
sigh t
Ðµ Ð½
Ġt ip
le p
ĠHarn ack
ĠH N
oc ated
Ġtag s
Ġt is
13 7
ext end
ĠâĪ ģ
Ġne u
Ġz j
Ġcor ruption
is ers
ĠM UL
Ġcr ude
ĠËļ ,
LIM IN
Ġm x
Ġprecondition ed
S VM
ĠÎ± r
ĠBe yond
Ġbeam s
ĠBur gers
Ġcommit tee
ĠÎ» a
Ġfund ed
ĠR isk
ĠHy brid
Ġbehaviour s
P M
Ġpoly log
ĠD m
âĭ Ħ
ĠÎ±Î² Î³
Ġconcaten ating
ĠCon vention
ĠEvalu ating
ĠE i
Ġm el
Ġax ial
Ġs ized
ĠK ing
so ver
Ġdec oders
ell ar
Ġindirect ly
ĠG AP
ĠV aR
ĠP op
Ġsurve ys
con sistency
g roupoid
Ġh j
th in
Ġar b
ap se
ĠÎ» e
w alk
Ġdegr Ã©
Ġr b
ĠOP TIM
Ġopportun ities
ĠRaman ujan
ðĿĳ ı
ĠPRE LIMIN
ĠF inal
ĠX Î²
Ġ9 3
Ġsen sible
ĠSim on
ĠConcrete ly
Ġnon locality
ĠKo op
ĠEff ect
T ype
re tization
ĠC v
Ġcl open
Ġver if
Ġaff ord
un t
Ġinfinitesim ally
ĠHe uristic
ĠPl ancherel
ul ators
ĠM umford
ĠÎ· n
Ġmay be
ĠC op
Ġpalind rom
hom otopic
en cing
ĠT rees
Ġexpres sible
+ âĢ¢âĢ¢âĢ¢+
Ġaccess ed
Ġsemicon tinuity
Ġcertain ty
ĠDed ekind
Ġre j
Ġcrystall ine
Å Ļ
Ġworth while
n ets
negl igible
F W
Ġnorm als
Ġent r
Ġdev ised
Nikod ym
Ġpack ings
Ġe u
ĠPro vided
ĠPro ject
ĠAcc ur
Ġ[ ,
Ġp ec
Ġe in
ĠGo ing
Ġcommand s
ĠF ore
Ġco final
ĠD ividing
ĠK t
h old
ĠG ol
ati tude
ĠJ ava
complex es
do or
Ġrend ers
d A
Ġs ight
el son
Ġtrac eless
ĠSur prisingly
as awa
ĠM u
let ter
ĠM t
asting s
X s
ob jects
Ġzig zag
cor relation
Ġcomput ability
Ġgrate fully
off el
isc ern
ĠâĹ ĩ
y es
hol der
Ġhy po
Ġfor k
Ġal together
sif ication
top ological
ante lli
ĠValu es
Ġsymmetri zed
Ġinter changing
ĠâĮ ª
Ġsin ks
Ġintric ate
ĠE fficient
ind eed
Ġirre ver
ĠZ Z
ĠðĿ Ķ
Ġreduc ibility
ĠâĪł (
ÑĢ Ð°
od imensional
ĠLe v
Ġm th
Ġge o
v s
Ġinter connection
Ġfl ipped
ĠâŁ ¦
pl er
Ġsem iparametric
ĠD EC
com bin
ĠTh reshold
pp ers
Ġadj oints
con s
Ġpor ous
P G
ĠV n
B ern
Ġc aches
Ġear liest
ĠProcess es
Ġï Ģ
S a
ĠN ecess
arch imedean
pro t
Ġgood ness
: |
Ġshr inks
ĠGroup s
ĠÎ» y
imin ation
ĠS ymmetry
row th
ĠH x
Ġrecip e
ĠProcess ing
ĠB all
Ġsubs ampling
b ell
res ol
Ġreal izability
S eg
associ ative
) âĪª
p F
Ġab cd
sol iton
Ġinterle aving
ot a
Ġpar tie
Ġcalcul i
)! !
Ġtransl ational
ĠTQ FT
ĠÎ³ Î´
âī¤ |
Ġexpand s
Ġb ialgebra
( .)
of unctor
co homology
Ġwitness ed
rÃ© duc
sk ii
Ġaccumul ate
Ġmanip ulate
Li u
Ġproportion s
ĠÎ¾ n
Ã© z
Ġrob ber
ĠNot ably
Ġto us
Ġl r
i Î¾
Ġâİ Ŀ
od able
Ġrisk y
ĠWhe ther
Ġz n
au der
A X
Ġa side
ra ting
ann ed
Ġsix th
Ġb atches
n h
ðĿľ ĥ
Ġcon ics
Ġen rich
Ġplant ed
Ġr g
ĠM iller
ep s
Ġint ensive
Ġâİ Ľ
Ġâİ ł
ARI ES
Ġnatur ality
Ġperm et
Bel trami
Ġ) ])
ĠSM T
D ec
it ching
et h
Ġ(âĪħ ,
ut able
ĠExp ression
ĠM arc
Ġbus iness
sub algebra
ĠM AR
ĠÎ» v
Ġp he
EN SION
F I
ÏĢ Z
Ġj p
ĠIn ters
us ually
Ġsem ialgebraic
AN S
Ã©ri e
Ġt ied
âĪĴ ,
ĠRe ad
orov ich
ent ry
Ġfonction s
ĠExtension s
ĠÎ½ n
Ġ12 5
Ġâİ ŀ
Ġactiv ations
tors or
pe ak
conn ectivity
ĠD onaldson
Ġintuition istic
Ġmir r
p ay
ĠApp end
Ġlong itude
ors es
Ġbig gest
identi ty
ĠÃ ¤
Ġconflic ts
Ġw p
ĠB s
e fficiency
Ġâ ĺ
iven ess
ĠG enerate
U p
Ġpres um
O V
Ġsub network
on ally
ĠÎ» f
Ġâ Ĳ£
Ġinflu ential
ĠAP s
Ġquar ter
ab in
MP C
b q
ater als
ER S
zz i
ect ation
Ġfact ored
) "
Ġhop s
Ġanomal ies
T Y
ĠKoop man
Ġl p
Ġsp end
Ġuse less
Ġcentr ally
ram ed
[ {
Ġi T
Ġ( ||
ĠN A
Ġ)) /
Ġw reath
Ġdest abil
Ġk Q
Ġ14 4
Ġoption al
q t
ĠâĦĵ i
Ġp Q
Ġr l
os ons
ðĿĳ ģ
ĠCom position
Ġ> ,
ĠðĿľ Ķ
M n
ĠC Î»
ĠCo ordin
Ġsett led
L y
AG E
Ġneighbour ing
) ]).
Ġim balance
valu ation
Ġcompr ise
ĠprÃ©c Ã©d
Ġw q
um ps
Ġconcentr ations
th ick
Ġf ocal
ser ver
Ġch ase
Ġcomm od
Ġdecl ared
ti ght
Ġpropag ated
ĠPar is
ĠK p
Ġrank ings
ĠdÃ©fin it
Ġimpr actical
or gan
ĠðĿĳ Į
Ġst uck
Ġemer ged
ĠP s
ma king
ĠPro ving
con st
Ġremark ably
f an
Ġh m
ĠX T
ĠâĪŀ }.
h ig
ac tivity
ĠC odes
Ġpropag ators
Ġsub additive
Ġcoar sen
y x
ĠEx cept
Ġc z
ĠLO S
ĠF IN
ĠÄ ĭ
uc ing
Ġ(âĪ §
ĠP al
ĠEs timating
ĠO l
med ian
for cing
D r
Ġte acher
Ġh s
a ved
ĠP at
Ġvari Ã©tÃ©
Ġc ensoring
Ġd ies
ĠI LP
Ġunambigu ous
16 0
Ġ# Â»
Ġsket ching
a ires
Ġun if
ĠCho ice
ĠÎ² k
ĠC q
ul is
lo ok
ad o
Ġcont amin
Ġmulti sets
bed ded
B ound
ĠâĪĤ -
)( |
ĠN esterov
P V
ish i
d X
Ġb il
ĠPot ts
ĠâĬĤ âĬĤ
Ġprot ect
ĠUS A
Ġexcur sions
Ġind ust
Ġf p
ĠðĿľ ĳ
ĠEl se
c ount
ĠH t
ĠâĪĩ ,
ha vi
onom y
Ġcl as
ĠRes Net
et ter
Ġun related
Ġextr actor
Ġapp reci
Ġpoly omin
Ġconcentr ates
ĠA q
Ġgroup es
199 2
ĠC ÏĦ
Ġencl osing
Ġb imodules
R s
Ġur n
Ä «
ĠT ech
T O
ach ie
AB C
id ences
ĠÏī i
sub set
Ġse q
Î² t
ĠBa um
Mark ovian
en z
Ġinf erences
Ñ Į
ĠG MM
Ġanalog s
S N
ĠR j
ĠâĬ¥ .
Ġneg ativity
k ar
Ġâī ¾
ĠW E
ĠN odes
ĠBoch ner
Ġdes ire
cusp idal
Ġcollective ly
R och
ĠQu adratic
Ġ{ âĪħ
Ġrelabel ing
Ġpr ism
ĠOr b
w i
ors que
ĠGP U
ĠA ux
Ġxx x
ðĿĲ ´
Ġw ires
dec om
Ġcompl ications
R am
Ġs x
ĠÏĢ t
Ġcancel s
ĠN ET
)âĪĴ (
B rown
aff ected
K W
ad ition
Ġpenal ization
Ġ(âĭĨ )
ĠQ x
ĠÏĥ ÏĦ
uk ai
ĠAD M
ĠF t
o ph
c ausal
ĠÂµ t
ull er
ide g
IT E
neighb ors
c x
Ġt it
Ġformul ating
u pp
ĠM G
Ġparticip ating
Ġp ÏĢ
ĠâĮ ŀ
ĠChe valley
Ġcollap sed
ĠZh u
ĠEm b
spl ine
ac tically
ĠN is
ĠâĪ¥ âŁ¨
ĠÎ² q
ia o
Ġmicro local
ĠMat rices
Ġaim ing
Ġtra it
D O
B a
os copic
F ER
H W
t otal
Ġf s
Ġmark ers
ĠW ORK
Ġex plic
ĠH W
Ġup wards
W ol
ĠN c
l ast
d raw
ĠD ar
ma g
13 8
g ate
Ġinterpol ate
) âĪ¼
ĠH ierarch
arr ay
Ġcompactif ied
diff e
Ġsubc arrier
ĠCour ant
ĠF ellowship
AC ES
Ġdrop out
H ig
at ched
Ġz ones
alit Ã©
Ġrigh thand
ĠX Z
Ġinjection s
ĠL ines
Ġsuper gravity
l ander
Ġepis ode
ĠPriv acy
ĠBÃ¼ chi
ĠF a
Ġbuilding s
v iron
Ġmultiplex ing
Ġ] /(
par sity
Ġdiagonal ization
ĠALGORITH M
ĠB q
ĠM ayer
Ġcoales cent
Ġdisag reement
h oc
ĠÎ´ p
Ġreve aling
he tic
25 6
ðĿĳ ĥ
Ġtre foil
Ġrepul sive
Ġi on
ĠpG q
ĠP ap
ĠÃ Ħ
Ġmodul ated
Ġd ates
Ġmod alities
Ġnon constant
Ġb f
ĠC os
Ġattain able
h as
Ġdr ug
Ġances tors
Ġhydro dynamic
( âĪŀ
ac ians
ĠI B
ĠðĿĳ Ĭ
Ġweak ened
typ ical
ĠR BM
Ġrefin es
Ġoccup y
ĠA NR
y q
ĠâĢ ¦
Ġmon adic
ĠMotiv ation
Ġrad ar
Ġtr ail
Ġcor pus
Ġ[ âĢ¢,
Ġpict ured
ĠG ap
Ġsuccess ors
ĠPar se
Ġ] :
Ġáºĭ i
ĠFerm at
Ġhemisp here
ĠLov Ã¡sz
Ġpar sing
Ġsubdiv ided
14 5
ĠGr ay
Ġ< ,
(âĪĴ âĪĨ)
ĠÎ» m
Ã© om
Ġa ctor
Ġw j
Ġblock length
) âī¥
ĠN s
tw ist
ðĿľ ı
T M
Ġnon standard
pop ulation
ðĿĳ ħ
Ġpe ers
Ġna Ã¯ve
Ġconden sed
Ġreg ulator
ĠDec om
Ġb m
ĠM ixed
ĠAg ent
Ġmo tives
ĠAs sertion
âĩ Ĳ
ĠW L
ĠW ard
Ġpo ll
back ward
Ġhypothe tical
Ġcaus ally
ĠCar not
l ich
Ġevent ual
Ġg s
ain t
Ġk T
ĠdÃ©du it
Ð ·
Ġmeas urability
Ġhere in
D ING
\ (
ur t
sh op
Ġinversion s
Ġpermut es
ĠDou ble
Ġre volution
Ġir r
ĠâĮĭ .
Ġsemim artingale
ĠL v
Ġro ut
ĠT om
Ġper f
Ġmajor ization
ĠClust er
or te
ĠJ oint
Ġunp ublished
ĠR at
ĠJ n
Ġforward ing
Ġop tima
Ġsl ab
av ailable
ĠSc hema
Ġf k
Ġcon vection
Ġover fitting
sh ape
ĠÎ± u
ves ter
ly a
H C
Ġbi om
Ġloss y
Ġ+ ...+
Ġob lig
Ġcop roducts
hd an
Ġarg u
ĠpR q
ĠR OC
Ġoptim izations
Ġquas ilinear
Ġpec uli
ĠFU NC
âĪ¥ =
Ġgraph ic
ifferen t
ĠG G
Lapl acian
| âĪ¥
es h
Ġpart ner
Ġpropo sing
ĠF EM
ĠDav is
Ġconflu ent
ph oton
ex ts
ĠPath s
tr uncated
: :
E d
p olation
z on
Ġn v
ĠN one
Ġreview ers
F G
Ġor ange
Ġdivis ibility
Ġn ÏĦ
Ġsc ene
Ġrever sibility
eas ibility
ĠAfter wards
ĠR ud
Ġpl anner
Ġfon cteur
Ġunavoid able
Ġoptim izes
13 9
ĠC ond
Ġthous ands
Ġ. ),
ĠComp act
ac tiv
Ġsl ide
ĠP ark
ĠV R
elling er
Ġb icon
Ġb ordism
ĠN Ã©
Ġv a
Ġrating s
Ġlabel ings
ĠObser ving
Ġfacilit ates
ĠâĦ Ŀ
T HE
Ïµ n
ĠSim pl
or andom
ĠLoc ally
astic ity
C antelli
P n
rig id
ĠDeg ree
ĠE e
ĠE dition
Ġacceler ate
m ach
ĠN umer
Ġloss less
Ġcomplement arity
Ġwalk er
rel ativistic
separ ation
Ġhexag ons
G raph
Ġcon forming
ass en
qu ist
Ġnavig ation
S uch
Ġir rÃ©duc
ÃĹ [
ys on
prop agation
r im
ĠÎ± Î±
Ġra ising
ĠSplit ting
ĠM aster
ĠRear ranging
ĠUn it
ie f
ĠCr iterion
con tinu
ĠE lectric
Ġmon og
ĠOr ig
Ġstack ing
Ġsub exponential
Ġabbrevi ation
N L
a ided
ited imensional
pn q
ew ner
Ġqu in
Ġambigu ous
Ġconstru ctor
ĠAlexand rov
Ġ)) }
Ġtri p
Ġerr one
Ġpost ulate
pri or
Ġsket ches
Ġprog ressively
Ġfav our
Ġannihil ated
Ġbus es
ĠâĦĵ n
Ġquatern ions
Ġth r
le man
Ġresidu ally
Ġf m
Ġx c
Ġ10 8
Ġpyram id
en y
ĠS BM
Ġproportion ality
BS s
ĠT m
ĠWe ib
ĠâŁ¨ âĢ¢
lin ks
Ġundes irable
Ġcontrib uted
Ġrecon structing
Ġmod est
Ġdi pole
se min
hen ko
ĠPRELIMIN ARIES
ĠN W
ĠH V
ĠK ost
Ġacc ounted
isc rete
ĠR EM
Ã© non
Ġdil at
ĠSz eg
C Y
ar se
Ġaffin ity
u ary
ĠV AR
Ġtermin ated
ĠR y
ĠCal der
g x
Ġlis se
Ġubiqu itous
T ER
ver tical
cor recting
Ġbid irectional
G en
or ial
om es
Ġannot ation
Ġannot ations
Ġgre ed
Ġdegener ations
Ġl isting
Ġbus y
Ġdis sertation
ĠMajor ana
Ġsk y
ef el
Ġfib red
R K
k ÏĢ
ĠÏī t
ĠRegular ity
Ġquadril aterals
Ġz x
ĠBin omial
Ġn esting
ĠM ont
ĠN R
ige on
B m
ar ante
ĠRo berts
Ã© di
Ġdes ingular
Ġtrend s
Ġ+ âĢ¢
Ġoccup ancy
Ġfactor ing
MC MC
ĠFunction al
ne arest
enc hed
Ġsetup s
ĠBas is
ĠHJ B
ĠcatÃ©gor ie
ĠP CP
Ġultr ap
us es
Ġhor ob
Ġper verse
Ġgl ance
Ste in
Ġweak ening
a uth
âī »
ij n
ĠF ul
Ġgl u
R u
W al
ĠO U
ant orovich
ĠWh ittaker
ĠUnivers al
Ġcl asse
Ġz w
Ġrotation ally
Ġbreak down
or ok
ĠL W
Ġcros sover
d ÏĨ
Ġaccess es
ĠHaw kes
} âĪĪ
ick ing
TI AL
i as
Ġparamet rix
osp ectral
Ġtw of
Ġrest art
H s
Ġn Î³
ĠP X
Ġinter acts
Ġs inc
ĠâĮ Ŀ
ĠO z
ĠCalc ulus
Ġoverwhel ming
ac cur
Ġper c
Ġrest ated
conjug acy
Ġmon op
Ġl f
ĠâĻ ¡
are y
ĠV as
Ġg apped
partition s
(âĪĴ (
Ġthor oughly
ĠC d
ĠDet ection
Ġration als
Ġhard ly
E V
ir ani
Ġdisadvant age
Ġn Îµ
Ġdef ective
p L
odes ics
follow ing
ĠC AS
pt a
lat tices
Ġb ending
/ âŁ¨
int rodu
ro d
row s
Ġbroadc asting
ven umber
ĠIntegr al
ĠA chie
sc aling
Ġblow s
ĠP ML
ib les
ecti ous
Ġger be
ĠF alse
Ġrul ing
shif ted
ĠAPP RO
at om
Ġinvestig ates
) âĩĴ(
âĦ µ
Ġwitness ing
ex ample
bound s
ĠK el
Ġmulti user
L n
ĠâĪŀ );
ĠBS DE
Ġreprodu ces
j ump
le g
ĠW ol
orses ho
t emperature
ĠRe view
sp herical
Ġp es
Ġreprodu ced
read th
Ġorigin ates
âĬĨ [
GH z
Ġretain ed
oun tain
Ġabstr actions
Ġfall ing
ĠChrist offel
Ġfollow ers
ĠX e
ext ended
ĠÃ© gal
Ġk ÏĢ
ĠÎĵ n
s afe
Ġgraph on
X u
ĠIm plicit
Ġ... .
ĠCom m
Ġbuck ets
s ystems
ĠG ir
load ed
altern ating
Ġignore s
si mon
âĭ Ĭ
ĠÏĢ r
ĠP eter
Ġnetwork ed
ĠExt ended
Ġisotop ies
et o
ti ques
Ġ0 12
ĠA nt
ri e
Ġ( '
dou ble
Ġgrad ings
ĠT y
ĠM AB
Ġwidth s
Ġcomplex ification
tr ation
Ġsand w
id en
199 1
ic ol
ich artz
Ġcop e
Ġinsight ful
ĠB Y
ĠCom b
Ġ` ,
ik ov
Ġdefinite ly
br uch
Ġf ed
Ġk u
Ġpropag ates
ĠS FT
ĠComp are
K o
ĠRemark ably
ura ev
ĠC X
Ġdisc arding
au gh
Ġaddition s
F n
cent ered
ĠBl as
P e
et z
Ġbroad ly
Ġretrie ved
Ġcomprom ise
ĠE I
Ġnormal izer
Ġcat aly
Ġinterchange ably
N umerical
b ipartite
Ġt z
ĠN m
ĠCon st
ĠÃ °
Ã¡ r
dess us
i entist
AN G
arch y
Ġcy ber
Ġs war
ĠParse val
et ary
ad ays
K Ã¤hler
p N
Ġexploit ation
str ategy
Ġquery ing
UC T
ĠCram Ã©r
Ġr w
ĠÂµ i
cl usive
Ġmargin ally
k al
Ã© bri
Ġeas iest
Ġ19 70
Ġer ased
Ġcrow ds
Ġun w
str y
typ ically
isomorphism s
Ġx T
Ġinter cept
Ġsuper singular
Ġn N
Ġin scribed
ĠH ellinger
B ott
Ġgrad e
Ġont ology
ĠV lasov
)) âĪĴ
Ġplat forms
ĠMich ael
i encies
z q
Ġcardinal ities
ĠEx pl
ĠS ke
pro j
il t
Ġanisot ropy
u w
im it
ĠðĿĳ Ī
Ġ. ).
Ġper taining
oun ter
C B
ĠFor ward
ĠAb stract
approxim ately
ĠÄ Ĺ
Theorem s
Ġa insi
Ġin hom
Ġjud gment
Ġt er
ĠCh anging
ĠLo op
ze bruch
ĠA CC
Ġ| +|
ordin ary
Ġc ached
Ġc art
K N
Ġdrawback s
b t
ĠMar g
priv ate
Ġqu ote
Ġhalf spaces
Ġundergo es
ĠP ure
ĠD IST
âĢ ĸ
ĠBro ad
Ġâĸ ¼
Ġremov able
Wh ile
Ġp âĦĵ
ĠB Z
ĠPer f
Ġt els
Ġs le
in fin
f ast
Ġprob ing
ĠRestric ting
hand ed
ĠSP AR
ĠRe ach
Ġresil ience
Ġy n
Ġbisimilar ity
ĠÎ³ j
Ġprob es
Ġproj ectively
ĠE ilenberg
ĠÎ´ g
Ġlength y
Ġrev ised
b ard
âŁ© ).
ĠAz um
Ġcoordin ated
par ity
ĠSy low
Ġrepar ameter
Ġk N
ĠW n
In ter
Ġtempl ates
ĠH p
end all
Ġvan illa
Ġ) âī¤
Ġlocal isation
ĠÎ¼ i
ĠL x
ðĿĲ µ
Ġn Ïĥ
ĠF enchel
S he
Ġdam age
ĠGo ogle
Ġf urn
ar riers
Ġfl ight
ĠÎ´ m
Ġtight ly
ĠSti efel
Ġrenew able
Ġp orts
ole c
Ġf ly
ĠP attern
air s
p et
Î» I
15 2
vers arial
RO M
orp he
T D
ĠR k
LO S
Ġtra verses
Ġsub structure
Ġthree folds
Ġlog ically
Ġt iny
mean ing
Ġb ip
ĠFlo quet
Ġmiscl assification
Ġa k
Ġ16 0
Ġgen ome
Ġprecondition ing
Ġcompens ated
W L
Ġp ump
ĠD x
Ġflat s
Ġm ort
ĠS ame
ĠIdenti ty
ĠEX AMP
Ġbag s
ĠÎ± Î»
Ġcorrel ators
i ÏĦ
Ġaccur acies
IM E
Ġindetermin ates
Ġass ures
Ġ19 89
Ġperturb ing
rad ius
k el
Ġun affected
Ġconflic ting
ac cess
ak ian
âĮĭ +
R ed
S ing
ĠF v
Ġev idently
ĠF ace
qu ery
ĠSp ring
Ġeq s
ðĿĲ ·
ĠIdentif ying
Ġhull s
trans mission
14 7
Ġi A
ĠW ave
ok es
Ġex amination
de le
ba tim
Ġass ure
ctor al
Ġq m
comm uting
on ce
Ġspec ially
ĠInequ alities
un iqueness
E W
Ġisomorphism e
Ġfri ends
Ġcoordin ator
ĠInd uction
ĠS am
}, {
ĠMap le
l und
cur rence
Ġtwof old
ĠI O
Î» y
ĠPO MDP
ĠÏī n
Ġdoub led
ĠMUL TI
Ġv ague
ĠR ow
Ġcomp li
ĠâĪŀ ].
ines e
Ġhelp ed
sl ot
est abl
Ġhor oc
Ġquasis ymmetric
emp or
ĠâĪ¥âĪĩ (
ĠOrth ogonal
ĠR ubin
ĠNo vi
Ġfore ver
Ġpurif ication
Ġr and
Ġ+âĪŀ [
ĠM aps
Ġconver ting
ĠUn ion
re duc
Ġv iz
h orn
mon oid
Ġnon uniform
ĠHere after
ĠMa ximal
Ġcollabor ative
eg in
rel ax
j amin
Ġtensor ing
Ġel ic
mut ative
nd ant
Lapl ace
t A
Ġ= âĪĴ
k Ã¤hler
Ġo c
Ġsut ured
Ġ10 5
Ġbroadc asts
Ġon going
ĠÏĥ t
M AC
Ġi Î½
ĠC z
gm und
ĠP IR
ĠÎ· i
ier i
Ġuncondition ally
st o
ĠIn finite
Ġ12 1
Ġpromis ed
k ii
z os
ĠSupp ort
she et
vers a
Î± s
Ġphiloso phy
Ġwh p
Ġshort cut
Ġmulti valued
ĠDeriv ation
Ġv k
Ġver batim
Ġwa venumber
00 01
Ġgeneric ity
ĠZF C
Ġsett le
Ġpl ur
sh own
Ġm v
sing le
Ġlas er
w icz
fr actional
Ġhomogen ized
Ġphe not
Ġidentif iers
Ġpend ulum
A mp
Ġmargin s
Ġ2 34
Ġg at
Ġexper iences
t aking
Ġrec ol
m ata
Ġgl ass
ivid ual
j ust
als h
ER IM
Ġc oth
âĪĴ âĨĴ
ĠIw asawa
bin s
Ġd Î¦
Ġmis specification
Ġb ordered
ĠS EC
(âĪĴ ,
] \{
ĠX A
com b
ĠC SS
Ġrem edy
ĠCon nes
orph ic
199 0
Ġretain s
Ġargu ably
/ [
ĠReg ret
} (
ĠStr ichartz
Ġcondens ation
w he
ĠLapl acians
Ġjump ing
Ġdiscrimin ative
no tice
on n
ĠÏģ u
ĠSu c
Ġconstant ly
O B
ĠT au
ĠCon way
Ġhom ologous
Ġb iqu
ĠN ag
Ġmod ality
re versal
P i
Ġc aten
Ġse u
Ġbran es
Ġexperien ced
ct eurs
Ġequ ivariance
Ġbehavior al
Ġyield ed
c ob
ound ness
im an
Ġnon crossing
Ġsol ar
ĠVari able
horizon tal
ĠLer ay
ĠL ength
Ġpresent able
Ġrefin ing
ĠS EM
ĠH Z
ĠH of
Ġ)) ).
Ġthe me
Ġf ans
Ġl ic
Ġenc aps
Ġtes ter
Ġellip tical
ĠC UR
ĠG abor
Ġfe el
âĢ¢âĢ¢âĢ¢ <
b ly
on vex
Ġd âĦĵ
ĠT j
ikh onov
] },
Ġmainten ance
ĠdÃ©fin ie
Ġdec odes
Ġsc iences
Ġc g
Ġrobust ly
( .
R ao
Ġincenti ves
c ence
ĠD Ïķ
ĠHyper bolic
acc ording
Ġman ually
Ġ12 4
Ġcar s
c ross
ĠO MP
Ġany where
ĠâĪĨ /
Ġforec asts
m q
Ġsub modules
ĠBo hr
Lie b
Ġb ideg
ĠY on
Ġ(âĪĨ (
Assum e
ctor y
Ġisol ate
R n
ĠE t
ĠO L
ĠMechan ism
ĠI SP
ÏĢ Î±
v ative
ro te
ĠSc aling
S DP
Ġres ist
Ġintegr ands
Ġreparametri zation
ĠMack ey
re ds
ĠL DA
Ġatten uation
ĠHu ber
Ġle f
Ġst ocks
Î² H
Ġcont ention
tr ack
Ġá¸ £
Ġwarp ed
ĠD IF
ĠÎ± Âµ
Ġaffine ly
ĠRecon struction
Ġbe aring
ĠE hr
ĠG m
con figuration
Sec ond
Ġs ac
Ġinter connected
ĠRob inson
Ġsymmetric al
Ġabbrevi ated
Ġrecom bin
Ġpr on
channel s
c ertain
Ġ( .,
tr al
ĠD eterministic
tin ation
ĠJ ames
Ġsec ant
Ġlater al
Ġf al
ĠW a
ĠâĮĪ (
Ġultr ametric
str and
14 6
fl ip
Ġparticip ant
ĠB k
ĠP p
Ġsquee zing
ðĿľ İ
ĠLT E
Ġenlar ge
| ))
ĠRE G
Ġ20 20
ĠM AN
Ġte ams
Ġparagraph s
ĠFren ch
Ġ)) ;
alg Ã¨bre
Ġnecess it
ĠGF F
i ber
d Î²
re me
Ġm os
ĠF ac
ob ayashi
ategor ies
ĠE Z
Ġover flow
contr actible
ĠP ubl
pro vided
ĠL g
ðĿľ ĭ
Ġprolong ation
Ġequ icontinuous
Ġq x
ĠK C
tin ct
Ġcha que
q r
Ġhol omorphically
Ġantip ode
sc alar
âĹ »
14 1
Ġ)| )
ĠC Î±
Ġprob able
D iff
ad y
domin ated
INE AR
ĠÂ ©
Ġappro ached
ĠGÃ¶ del
Ð ¿
ĠU R
Ġsubs um
categor ical
ĠB etween
Ġcont en
ĠIter ating
reg ret
ĠR Q
A H
Ġd anger
B x
L DP
ĠR ound
over ing
Ġper cept
Ġow ner
Ġj h
Ġmove ments
Ġw v
Ġnon etheless
Ġsubclass es
ĠOper ators
ĠKaz hdan
Ġvisual ized
le ge
ĠL q
Ġsee ing
Ġmakes pan
ĠÎ´ A
inter acting
K ac
ĠÎ± e
ans on
ĠAltern ative
ĠM PS
Ġcompens ation
h ome
ĠB rou
ma nder
S q
(âĢ¢ ;
Ġround ed
sc iss
ecom position
Ġunsatisf iable
T wo
ĠR AND
olog ie
ĠÎ´ i
ex ist
Ġexem ple
Ġgat hered
Ġ] ],
Ġenc oders
ĠâĪ¥. âĪ¥
ĠCheck ing
Ġindu stry
monot onic
ĠC es
ĠSqu are
ans en
Ġeffic acy
P F
Ġn L
ven ting
Ġperm ute
Ġconjug ating
ĠPyth on
ĠS ource
paramet ri
ĠNovi kov
s orted
v ision
Ġinf lection
Ġunit arity
ĠUn i
E m
m k
erm ine
ĠRem ove
ĠER M
ĠV M
ation ary
ĠâĦĵ k
row ing
ĠMor i
ĠRel ax
it em
Ġany way
Ġextre mes
Ġsurpr ise
om eter
gl as
meas ured
Ġgrammar s
multiplic ative
z el
Ġx f
Ġp ays
Ġb on
ĠTyp ical
ĠF ra
Ġclassif ies
trans lation
T i
ĠCar athÃ©odory
ĠBer ry
Ġpossess ing
ĠPred iction
ĠSc hed
Ġpione ering
ĠH and
fil ters
c ases
Ġs b
om plex
Pen rose
Ġbl ur
Ġplas ma
Ġinf ectious
Î» i
Ġcoarse ly
ĠBlas chke
ĠBe havi
uk i
Ġd ess
ĠW olf
Ġco existence
am m
Ġrec ording
ting er
ĠO ff
ĠPro posed
q i
Ġprac tition
Ġarch imedean
ĠEXP ERIM
Ġ( âĮĪ
ĠC oding
Ġtri diagonal
ĠMa pping
F l
is or
ĠAccur acy
AR T
bre ak
ĠExp ansion
ĠP k
ĠP in
Ġ8 00
ĠPOVM s
ĠPertur b
Ġâĺ ħ
Ġpremis es
G l
I B
ĠS PT
ĠÎ» Î±
ill ar
Ġ+âĪŀ ]
multi ple
Ġecc entric
ĠD h
ĠÏģ t
IF O
ĠIde ally
ag ger
Ġsuiv ante
ĠB Ã©z
fi ber
W itt
ĠQ W
minim ization
Ġo mn
ĠD K
Ã¶ s
ĠVari ance
pA q
le b
Ġpar ti
ĠIter ation
Ġi Î´
ĠB urn
ĠËĨ Q
ĠDe velop
Ġdamp ed
b orn
ĠL anc
sem istable
B re
ĠCon stant
Ġparameter ize
S H
zer os
Ġ( âĸ³
Ġ Ì
Ġr ace
ĠQ ED
ĠG p
Ġtr is
Ġfac ial
Ġsurv ives
Ġredefin e
ĠQ Q
Ġdown stream
Ġfin ishing
âĪĴ âĪĨ
ĠâŁ© (
Ġphysic ists
Ġskew ness
Ġcoalition s
v ations
Ġsub additivity
ole m
Ġcommunic ated
Ġeras ures
ĠCh inese
( ||
ro ph
ĠP seudo
Ġdiff use
xt ure
rel iable
ĠGe V
Ġretain ing
ĠD X
Ġpreced es
ĠW at
as iewicz
uch s
Ġinters ected
ĠâĪ¥ âĥĹ
ĠÎ· t
re fin
abell ing
Ġdri vers
Ġoccup ies
Ġwe ek
ph a
Ġb v
Ġprov iders
Ġextre ma
ĠExt end
Ġy t
Ġcon vey
)) +
ĠMM D
real istic
under st
ĠB aker
ĠM ob
ob s
Ġru in
ĠArch imedean
Ġentail ment
Ġseu lement
b etween
Ġdevi ates
Ġpack ages
Ġth Ã©or
Ġk G
col lection
D V
Ġun oriented
Ġdiv id
ĠS in
Ġequ ator
Ġsub case
Ġinf erior
ĠR IS
Ġsubmodular ity
ĠCon jug
Ġprior ities
Ġsu st
Ġc ity
or ig
Ġv o
Ġinterven tions
ĠD PP
e very
ĠSequ ential
âĸ ł
ĠO M
Ġma is
Tr ans
ĠIter ative
ĠF G
Ġanaly sing
ĠEx isting
ĠDe v
Ġparticip ation
Ġembedd able
Ġk c
ĠMo ving
Ġsn r
ĠHarr is
deg rees
Ġgu ided
Ġclear ing
Ġspann er
Ġparametri zing
ific ant
dem and
er godic
Ġenti er
Ġtimest amp
Ġâ Ŀ
ita ev
Ġcl im
ĠCl osed
m r
ap sed
FOR M
ĠC CA
Ġopp onent
Ġexplore s
Ġstack ed
Ġdiction aries
ĠGro ver
er ves
ĠW all
ĠLo S
fin ition
Ġexp ansive
Ġt err
ĠUn til
ter fly
Ã¨ res
Ġpull s
ĠDu ality
Ġalg Ã©bri
C ur
ĠðĿľ ī
ĠDo ing
ĠVari ational
ðĿľ ĩ
ar rival
ess entially
Ġtang ents
Ġadmit ted
ĠÃª tre
Ġnon negativity
Ġmer it
ĠËĨ S
cur vature
ĠdÃ© mon
Ġancill ary
ĠT its
ĠU i
ĠÎ» z
ak h
ICA TION
Ser re
Ġt al
14 8
Ġcompan ies
Ġin ert
ĠG V
ĠÐ ²
ĠâŁ¨ |
K E
ĠÎ´ Ïķ
Ġcomplement ed
bitr ary
ĠÃ ĺ
Ġpres heaves
Ġsac rif
A z
Ġorthog onally
Ġquantit atively
Ġmov ie
ĠS r
ĠI g
SE S
lu ing
ĠScho ol
nd on
Ġcoar ser
ĠDAG s
Ġp Îĵ
Ġhyper kÃ¤hler
Ġc her
our se
ĠSec urity
ps q
ĠVer ification
o eb
Ġqu enched
14 9
cy cl
Ġ[ .
Ġr at
ĠÎ³ p
ĠBM O
i ant
vari ation
Ġep i
character istic
Ġresil ient
ĠII D
supp ort
ept ember
Ġdict ated
Ġorigin ated
Ġdri f
Ġquas im
ĠT ikhonov
ow ered
ĠF lat
ĠR atio
Ġinverse ly
([ âĪĴ
is ce
ces sibility
ex ceptional
Ġintegr ity
Ġ[âĪĴ âĪŀ,
ĠSBS s
Ġn g
Ġcop ulas
Ġrecon figuration
Ġadop ts
Ġparametr ised
it man
Ġ[? ])
Ġmis ses
pl ot
ĠÂµ q
ĠCON T
ou ds
ĠÃ ¼
Ġsub jective
ĠLie b
Ġdiver ging
ĠL ab
im plicit
Ġz oom
ire n
ĠNe ighb
lf ors
tin i
ĠWh y
neighbour hood
Ġoccasion ally
l le
ĠC ass
Ġ19 87
Ab elian
ĠKre in
Ġneutrin o
or ic
Ġgeneral ises
statis tics
in form
F ix
N ash
g ated
ĠStud ent
ĠN il
ard o
15 5
Ġt L
it ably
oper ation
ĠRun ning
Ġ{ âĪĤ
Ġnumer ic
Ġparametri zations
Ġsevere ly
minim izing
Ġinter mit
ĠÏĪ n
Ġabsor b
Ġunknot ted
R a
Ġhomotop ically
ĠSyl vester
Ġsigm oid
ĠAv ailable
inver tible
L ind
ĠÂ¨Â¨Â¨ ,
Ġprojec tiv
ĠN M
Ġstabil iser
ĠNumber s
ĠIntegr ation
con formal
am ents
Ġ12 34
dx dt
Ġb ive
Ġf olds
ĠSp f
Ġ? ],
ĠTyp es
Ġpre uve
Ġdeep ly
Ind eed
d ig
Ġun structured
Ġch ir
ĠÎ´ k
enc er
Ġco algebras
Ġconver ts
AT A
Ġalgebroid s
pl ots
ĠÎ² s
âŁ §
ĠM oser
Ġbeha ved
mo tion
ĠMIS O
ĠEx ec
Ġw x
(âĪĴ )
Ġbl ank
Ġear th
Com bin
st art
ĠÎĽ n
Ġtend ency
Ġadjust ments
ĠB ad
ĠI NR
Ġcl ub
th ur
Ġpl um
par abolic
Ġbig on
Ġcipher text
Ġdimin ishing
trig gered
Ġ Ñģ
ĠâŁ¨ {
ĠCorrect ness
t m
} },
ĠT ermin
re ier
Ġun equal
Ġeq n
Or der
Ġclin ical
orok hod
R i
ĠL j
ĠÎ´ E
Ġsti p
Ġhol ographic
Ġallevi ate
ĠStra ight
Ġdispl acements
ĠCombin atorial
Ġsuble vel
C hand
R x
po si
00 2
ĠÅ ĺ
O O
ĠT CP
ord re
ĠStr ing
Ġo ri
Ġalph a
ĠWr ons
| âĪĴ|
ĠP ur
Ġdiagram matic
f all
T e
if ts
pX q
Ġfrequ entist
Ġconstit utive
Ġcont acts
Ġnil pot
Ġtrunc ate
Ġskew ed
ĠPrinc ipal
âĢ¢âĢ¢âĢ¢ ÃĹ
K a
qu ad
Ġval ency
sur gery
ER M
y y
(âĪħ )
ĠWeib ull
Ġsepar ators
Ġâĥ Ĵ
Ġimp ul
align ed
Ġlog it
ĠCl ark
u fact
ĠM p
Ġco adjoint
Ġmontre r
| âĪĤ
ĠY i
Ġ| âĢ¢|
ĠAnd rew
Ġaffin oid
Ġdonn Ã©e
f igure
p acking
Ġâī¤ ,
K h
Ġenumer ative
âī Ī
19 89
let t
Ġprem ium
Ġâľ Ĺ
ĠS as
Ġinv ocation
)[ [
e ig
ym an
E nt
ĠL uc
ĠâĨĴ +âĪŀ
ĠÏĢ x
Ġreplac ements
Ġquer ied
ĠR BF
US SION
Ġquin tic
H F
Ġperm e
NO MA
Ġc Îµ
Ġfac ed
lic z
Ġdil ations
ĠEd ges
Ġattemp ting
ĠR ing
ĠÎ³ Î±
Ġbring ing
Ġm R
Ġpseud orandom
ĠÎ¸ Î¸
ĠC TL
ĠB v
ĠYon eda
is ive
Ġmod ifies
ĠP rice
Ġpar simon
Ġcl utter
)| (
L s
Ġdestin ations
ĠDISC USSION
Ġimped ance
titi ous
Ġperc enti
sec ure
ĠM id
Ġ= {
Ġconc re
ĠExp ected
Ġb acter
ĠB X
ĠSeg re
ou ter
Ġhal ts
ĠStrict ly
j q
Ġp igeon
sur faces
ÏĢ m
w an
Ġduplic ate
fre eness
âĪ ļ
Ġecon omy
Ġinn ermost
L Q
u a
Ġsl it
ĠÎ¼ n
ĠAppend ices
ob tained
ĠPROPO SITION
Ġdel ivers
mat ch
Ġw at
Ġbreak through
Ġdesign er
ĠEn umer
kl ore
Ġi Îº
ĠChar lie
Ġ2 10
ĠBel trami
Ġgather ing
Ġre act
Ġpoly logarithmic
we ights
âŁ© (
Ġbas ics
18 0
Ġaggreg ator
otz kin
L D
Ġc ater
ĠG MRES
Ġsc r
15 6
ĠFi elds
Op timal
ĠT urning
as m
ĠÄ ļ
j ee
im mer
ĠÎ³ k
Ġparab ola
ðĿĲ ¿
u istic
Ġmathematic ians
j j
, âĭĨ
u il
Ġi H
ĠN D
Ġsuper potential
Ġspont aneous
Ġdis similarity
u its
u tivity
Ã© ment
F C
Ġun usual
uc id
R V
ĠâĪĨ ).
ĠVol terra
A cc
ĠKirch hoff
Ġpes sim
g reedy
Ġn Âµ
Ġprote ins
Ġre semble
ĠK E
ĠF eedback
ĠSo ient
Ïģ Ïĥ
ĠL Z
Ġprem ier
Ġb anks
Ġby product
Ġat m
Ġcl ick
aut omorphism
an ishi
Ġ` }
Le ft
trans l
predict able
Ġh oney
Ġequation al
sum m
ðĿĲ ¾
ĠJ ournal
ĠA k
Ġ19 88
pi ece
U B
ĠU T
Ġsc anning
lif e
Ġdon ne
I E
t ang
15 7
re v
Ġp et
ĠI MP
Ġindust rial
b on
ver ages
ĠH z
Ġinter changed
Ġtrad es
ĠPa ul
Ġpv q
Ġdecon volution
Ġn ÏĢ
ore sc
te en
Ġann ounce
Ġpr in
Ġconf used
Ġcred ible
ĠBen jamin
v ir
Ġb ich
ic titious
co variance
ap es
Bo ost
Ġg m
ĠX B
Ġá¹ ª
Ġrecommend ations
" ;
W asserstein
yn er
uri ties
Ġconstitu ents
ĠL CA
Ġreal m
Ġsuper set
ĠVer tices
label ing
Ġencompass es
i Ïķ
Ġk ink
Ġevol ved
Ġpeb ble
ĠPro c
)) ))
Ġdown wards
inter pre
ois in
Ġcover t
Ġcritic ality
en ne
Ġal ive
con sum
b res
Ġ, âĪŀ
Ġx w
ĠH op
Ġfl aw
Ġdivisor ial
ĠGeometric ally
check ing
Ġv p
ion al
Ġannihil ator
Ġconcur rence
AL L
ĠCol or
Ġlect ure
Ġind iscern
MA TION
fr actal
ĠR s
ĠPhys ical
Ġprodu it
Ġ(? ).
Ġs ou
Ġa cl
Ġlocal izing
Ġmist ake
viron ment
Ġturbul ence
Ġactu ator
Ġch rom
Ġ] âĪĴ
C al
ĠD j
Ġun normalized
Ġweak est
ĠNot ons
Ġattemp ted
Ġprodu c
Ġblow n
Ġcorre ctor
Ġmic ros
L inear
ĠM os
Ġsuppl ied
im port
Ġpu q
Ġe j
ĠE g
ĠSk orokhod
ĠK Z
ĠV B
ĠOb j
Ġv x
Ġhum ans
Ġstr ange
Ġmulti grid
ĠâŁ¨ ,
ĠDec oding
Ġintegr ates
Ġspati o
ĠN u
Ã© gr
Ġinf ra
ĠW illiams
Ġbeam form
Ġsn ake
Ġhund reds
ĠK m
b x
Ġx Î±
ole t
ĠP ush
Ġtimeste p
Ġa kin
ĠK endall
ĠEx plo
Ġn an
ĠK v
v ac
ĠN orth
Ġgen der
ĠL ar
Ġinj ected
Ġlo x
EN O
Ġ( ))
ĠâĪ§ ,
Ġrecogn izing
pass ing
ĠW KB
r isk
lo om
Ġstri ke
Ġt X
ĠBer ger
Ġloose ly
ĠI SS
Ġsepar atrix
ĠAc cess
F q
d c
ĠS v
Âµ t
ex plicit
I Q
ĠD ÏĨ
Ġ? .
ĠAf fine
Ġg Ã©om
c ryst
d Î¶
ĠL TI
Ġpro c
Ġcount ries
Ġp Îµ
ĠN B
necess arily
D is
ext remal
Ġv ox
Ġgener a
ĠAux iliary
ĠC ount
âŁ¨ âĪĩ
Ġsumm ations
as ure
bl ad
ĠP MF
ĠCon tinuity
est on
w inger
âĪ¥ âī¤
Ġincrement ally
C i
ĠÎ³ Î²
Ġse lector
Ġm or
Ġ< -
un ital
our cing
Ġag n
Ġcode books
Ġfor wards
co algebra
x iv
Ġz k
Pro per
function al
AC H
Ġencoun ters
hl mann
ĠKe eping
Assum ption
ograph ical
problem s
N I
Ġhal ting
Po ly
ĠPear son
Ġmirr ors
Ġgreed ily
j Ïī
Ġw ir
Ġimplement able
Âµ n
ĠH I
Ġimp rec
haus en
B as
Ġfr ustr
tic ip
ĠK atz
Ġse lling
ĠHa hn
uri e
Sol omon
B ro
Î» s
ĠRe writing
Ġgen ot
R ad
extension s
Ġfragment ation
ĠEv ans
p seud
Ġt Î±
Ġn Ïģ
K i
ĠF air
Ġcl oning
n ice
Ġform ule
ðĿĲ ¶
Ġcl aw
Ġspread s
ĠT ucker
RA S
Ġho pping
Ġtempor arily
ĠCH A
ĠB ass
ĠMO D
id ential
Ġinaccur ate
P a
Ġp ending
Ġb readth
Î» r
ĠÅ Ł
T T
ĠC anonical
ĠRe ference
ĠÎ± Î´
Ġprior iti
ĠÏĥ j
Ġresol ves
ĠL ead
exp on
ĠdÃ©fin i
Ġh h
ĠR oot
ĠW erner
ĠâĪ¨ ,
ow ing
ĠSh i
nil potent
put e
âŁ¨ âŁ¨
ia vin
Ġpip eline
ĠW P
R educe
p H
Ġd Î´
âŁ© ]
Ġeig end
V e
ĠP Ã³
ĠEu clid
Ġn y
Ġg j
ĠMC G
ĠSeman tics
p Y
w is
Ġh v
Ġemit ted
R ight
ĠMonot onicity
ch osen
ĠAppl ied
D y
R B
Ġma j
Vi etoris
Ġw rote
ĠÎ» c
Ġconstrain s
Ġregular izing
, âĪ¥
ĠH r
umb el
oc ity
Ġbott le
F ree
Ġj u
Ġod ds
v w
ĠD k
ĠO D
Ġ(* )
Ġlack s
Ġportfoli os
ĠJS J
xxxx xxxx
Ġm il
pos al
orb ifold
v n
ac te
con forming
ĠâĪ¥âĪĨ âĪ¥
Ġcompl ication
ĠSch auder
Ġmis specified
L ip
ĠMa z
ol ov
Ġeng end
A c
Ġabs urd
ard i
ĠTr adition
S ome
ir ming
Ġbi jectively
L W
ĠR od
erm ann
z ig
Ġon edimensional
im p
ĠM ad
Ġ(âĪĴ (
Ġparametri zes
Ġ) âĪª
Ġsubc arriers
Ġver t
ÏĢ y
de ath
f ramed
Ä ħ
ĠRep rint
re si
re ason
Ġideal ized
poin ting
O MP
Ġst re
Ġpref actor
ĠCol umn
D n
Ġtrunc ating
Ġqud it
ĠR NA
ĠLo ewner
ĠRepl ace
ĠC CS
ĠPer forming
C ondition
ĠA w
d L
ĠAll ocation
So it
Ġanne aling
Ġcustom ary
al ong
ĠF arey
Ġcertif ied
A SS
ĠR ational
ĠM oment
F e
ĠAns atz
om ents
Ġprof its
ĠTrans formation
comput ation
H astings
Ġa ds
ĠW right
Ġsin us
Ġab sciss
Ġ12 2
figur ations
conn ections
Ġcoarsen ing
establ ished
Amp Ã¨re
ĠÃ ĸ
âĻ Ń
Z Z
w n
Ġd Ïµ
ĠN p
yp ic
ĠC Ïģ
ret urn
fr action
rever sible
' d
measure ment
-------- --------
Ġend ofunctor
Ġdef ense
recur sive
ĠT emporal
Ġas sembl
ĠB oy
ext thm
A g
z ers
ĠM ut
ĠÂµ s
Ġsc ientist
prim ary
el ic
ĠOptim ality
Ġcompos able
Ġdiagn osis
0 10
ĠâĦĵ j
Ġe ast
' ve
Ġnote worthy
Ã¤ ck
Ġa R
Ġve in
Ġz on
ĠâĪĴ {
15 3
Ġpe eling
Ġvide os
< |
16 7
Ġ)( (
ri ff
ips es
Ġoverl ay
Ġrearr ange
ðĿĽ ¾
Ġindetermin ate
er a
respond ence
h olds
Ġgi ant
K e
al ty
ĠL attice
N a
ðĿĳ Ģ
ĠPar ts
ĠÏĢ k
enc oder
ĠâĮī .
15 9
Q A
Ġmon ads
Ġbi holomorphic
Ġf c
Ġpro vers
Ġsu perim
com mon
D K
d G
oc c
Ġlin Ã©
ĠVol ume
T W
Ġ+ âĪĨ
B ou
ĠÎ² p
Ġreg istration
19 87
y gmund
ĠCo efficient
p roducts
ĠRem oving
Ġlight like
Ġm us
ĠR og
ie v
ÏĢ q
Ġdec oration
ĠÎ£ ÏĦ
ĠSequ ence
Ġorgan ised
Ġinsp iration
ĠRestric ted
ĠW ir
ĠJ ap
Ġes pace
Ġend ogenous
Ġcar ds
ĠÏĥ Ïĥ
Ġrot or
Ġtempor ary
Ġsy s
Ġgeodes ically
Ġk v
ĠC ycle
15 4
Ġcasc ades
ĠLQ G
ĠÎº n
Ġsepar ations
Ġmanag ed
Ġtrigger ing
ĠM ove
Ġ] ].
Ġj Ïī
Ġman ufact
Ġinac cessible
met hod
âĪ ĭ
bas ic
Ġq a
(âĪĨ ,
Ġelabor ated
f ork
ĠS AR
ĠC AP
ĠQu ad
Ġbin ning
Ġhappen ed
ĠA j
ub lic
ĠâĻ ¦
ĠD w
Ġrel ied
ĠE Y
Ġwell known
Ġscal ings
ĠBS C
Ġk ÏĦ
Ġst ere
| âĨĴâĪŀ
ac cept
ĠvÃ©rif ie
ĠÂµ m
ĠðĿľ ĵ
Ġances tral
ore lli
Ġass isted
Ġbold face
Ġconduc ting
ann e
L V
Ġd Îµ
Ġh D
ĠP ort
Ġstret ching
Ġprogression s
L usztig
Ġwh om
Ġintegr ations
Ġx r
rop ri
ĠDE FIN
Ġsell ers
s x
ĠQ t
Ġvulner able
ĠWrons k
em i
Ġheuristic ally
ĠNÃ© ron
Ġst ub
ro l
ĠA IC
ĠRandom ized
Ġsymplect omorphism
prec ision
ĠU B
ĠOr acle
ðĿľ Į
ĠS eptember
ĠÏĨ j
Ġcoll ide
Ġsharp ness
ĠKr ull
ĠGENER AL
P ol
ĠT ao
Ġex cessive
Ġses qu
dd en
ĠâĮī ,
ĠKle ene
Ġanaly zes
Sch oles
ad equ
Ġpred etermined
Ġunc oded
g ro
Ġe mail
ĠL CS
Ġr hs
Ġcommit ted
Ġh c
Ġprov ision
Similar ly
Ġnon abelian
ĠChr is
N t
Ġreplic ated
ĠInter pret
ĠRem arque
att ach
âĬ Ļ
ĠPer fect
Ġep idem
ĠGe om
factor ial
ĠÃ©lÃ© ments
ĠâĪŀ },
em er
Ġrecursion s
id irectional
ĠLanc zos
ĠD ynamical
or um
ĠC IR
reson ant
Ġpre compact
iter ation
Ġadop tion
Ġ/ âĪĨ
ĠID s
ĠQ N
Ġdi ameters
Ġcontext uality
ĠG rid
Ġed uc
ER C
Ġpseud ol
ĠÅ »
Ġweb site
Ġfin ie
Ġalgorithm ically
app ro
Ġal tered
ĠEr godic
Ġfre eness
Ġinterl acing
n n
Ġsuperior ity
J P
g ame
he m
ĠX p
Ġcur se
Ã© l
Ġcompar ative
Ġ, .
ĠDel ay
Ban ach
Ġerrone ous
Chand ra
ject ory
ell es
Ġwave front
Ġ(? )
Ġsubsche mes
Ġpurch ase
W T
Ġv oid
Ġcontr ap
ĠFORM ULATION
Ġg am
Ġsubdiv ide
S at
f usc
Ġuniform ization
ĠCap uto
ĠM LP
Ġbideg ree
ĠL ect
sol ved
is ite
ay ama
Ġh d
ĠO UT
Ġ{ +âĪŀ
Ġhal t
oper ad
ĠStack elberg
Ġw u
ĠG UE
ard less
Ġinstanti ated
Ġd raft
âŁ© ),
typ ing
ose ly
v ents
Ġin sensitive
ĠLy ndon
rot ation
Ġmoder ately
e volution
orsesho e
w est
b ic
ĠMR C
ĠEnc oding
Ġover twisted
ĠSupp lement
rever sing
Ġb ou
Ã¡ th
decom posable
Y ang
sign aling
statis tic
Ġabund ance
anes e
Ġpost er
Ã©g alitÃ©
Ïģ u
sp eed
Ġcochain s
ĠH off
Ġstret ched
ĠSl ater
f air
ĠL s
Ġbe ar
D AG
Ġin essential
ĠG au
Ġcl one
Ġide ally
Ġconsum ing
Ġshap ed
ul atory
ĠW ire
Ġtors or
tr ained
Ġcompetit ors
act ually
ĠSt ar
sim il
ĠDo ob
ĠBi as
S ti
Ġpack ed
Ġdro ite
ĠdiffÃ© ren
Ġre verses
ĠR DF
ĠE con
Ġlearn ers
ti sm
Ġc ash
Ġk g
ĠÎµ i
Ġcor r
ĠS ER
Ġ19 86
Ġadap ts
bal ancing
R ich
ro of
Ġsupervis or
Ġpencil s
ĠC ritical
Ġtetra hedral
Ġknot ted
Ġá¹ Ģ
co h
ĠDat alog
ĠâĪħ ).
Ch ap
Ġportra it
ĠP j
Ġ: -
Ġdownload ed
perturb ative
Ġal t
ĠCh ange
Ġconcent ric
Ġun specified
ĠCap acity
Ġde vel
con struction
Ġrational e
ĠAll en
L and
} ))
ĠT a
Al so
ĠO k
AL U
ĠTerm s
S INR
ĠC b
Ġind ifferent
Ġtemp ting
Thom as
Ġ... )
box es
Ġconcur rency
Dir ac
ĠD MC
Ġ" .
Ġ|âĪĨ |
Ġwor ry
Ġto l
Ġsuper flu
ĠLe ast
cor related
ec i
? ,
ĠP m
Ġprohib itive
Ġfeed forward
Ġreview ing
Col or
j an
ðĿĽ ½
un stable
yn olds
v q
ĠB rill
edu ced
Th at
ï £
is olated
Ġsub family
ĠâĪ© {
ĠHub bard
L ittlewood
Ġu ri
Ġ(( (
Ex istence
mach ine
ab a
Ġ19 2
Ġarithme tical
ap tic
un less
ĠO rient
I CAL
R AN
ĠTrans fer
iter ia
Ġtimes cale
Ġcontamin ated
C NF
Ġenvelop es
co variant
ĠBrou wer
Ġen orm
ĠSu ll
Ġb ill
ab ol
Ġprepar ations
Ġsp o
Ġperce ived
B ell
ur ch
15 1
ĠExt r
i Î²
C ES
AR D
EM ENT
ĠT ask
ĠG x
Ġsub jected
pro ving
Ġsil ent
Ġqud its
q x
ĠS g
pos et
ant es
ĠAdv anced
t v
ĠÎ± I
ĠY ou
Ġper ception
15 8
Ġg a
ĠW alsh
Ġun ifying
Ġunc overed
net h
Ġd ip
ne xt
ĠâĪħ }.
ĠImm edi
ud ed
Ġwave function
Ġ{ +,
ra f
Ġconsecutive ly
Ġparent hesis
Ġsuper cuspidal
ĠModel ing
c v
Ġy j
Ġpost ulates
estim ation
ĠS us
ĠE st
Ġunobser vable
p ol
war a
tin er
Ġrephr ased
underst ood
ĠP ad
ĠX q
og onality
ĠRec overy
c odes
l ings
ĠK F
ĠDet ailed
ĠCA SE
ĠprÃ©cÃ©d ent
ĠCl ique
Ġadap tivity
L ev
ĠThere by
Ġ, |
os on
coefficient s
ĠY ao
Ġcont ag
ĠâŁ¨ âĪĨ
Ob ser
ĠÇ į
W ER
âĢ¢ }
ĠCh an
ĠF ed
oper ators
color ings
Ġun marked
plic ial
ĠHir zebruch
S F
Ġ" (
ĠCharacter ization
Å ¾
ĠL TS
ĠðĿľ Ī
ĠDatas et
Ġself ish
ĠK x
ub ic
Ġaver sion
Ġf ut
ĠS po
ĠN MF
Ġel ucid
Ġf used
ĠK U
ĠU r
ĠÎĵ i
Ġisol ating
Ġfer romagnetic
Ġd C
P eters
ĠM emory
y cl
Ġs ales
Ġdetect able
ĠUn if
ĠDÃ© finition
ĠMall iavin
f alse
Ġc ro
Ġcl ouds
ÏĢ ik
ex c
ĠÎµ t
Ġsubordin ator
ĠB z
Ġextrem um
ĠÏĨ t
ĠAr m
Ġconject ural
pl ed
othÃ¨ se
ĠÂµ Î±
ĠÎ² m
it H
Ġeigen basis
Q AM
ĠR EC
os cill
process ed
ĠFried man
ht ml
Ġanticip ated
ĠE PS
ec ed
ĠIn variance
Ġpar se
uff le
Ġdead lock
n j
ĠCon nected
ĠNe g
Con vergence
Ġin timately
Ġneg lecting
ĠB rid
Ġmultic ur
ĠY es
lu ence
ĠG umbel
ĠO A
Ġlower ing
ĠSV RG
Ġpursu ed
G n
p read
ĠCon ley
up date
differen tially
Ġt umor
Ġtravel s
ĠR CA
Ġsingle t
S ect
Ġ10 3
Ġappar atus
Ġtrivial ity
p P
Ġdu plication
Ġparallel s
lex ive
Ġo m
en o
G a
sem ann
Ġsubordin ate
L ee
c ou
ĠCol lecting
ĠC oker
Ġaggreg ates
ĠJ u
Ġï¿½ ï¿½ï¿½
Ġá¸ ĥ
UL AR
Spec ifically
P AR
ĠS ud
ad em
Ġdis ent
Ġconver gences
Ġtropical ization
Ġab ort
W A
Ġqu oted
Ġsummar ise
Ġpp q
K lein
ĠâĪĴ .
am an
ĠJ L
ĠÏĪ i
ĠSt re
Ġcosm ic
ĠQC oh
Ġste er
D er
en ability
ĠRAND OM
ĠQ KD
ĠÂµ x
B ut
t aken
D iv
ate gies
ĠAl b
Ġdomin o
Ġcommod ity
S ever
c ar
Ġh x
Ġlocal ize
Ġ(| âĪĩ
ili ation
Ġd ose
ĠC ai
Ġartif acts
' ).
( ),
Ġpin ning
Ġequid istribution
Ġneck l
ĠSil ver
Ġis other
maxim um
Ġro d
L N
Ġout degree
Ġval eurs
ĠH et
n Î´
âĪ© {
Ġin vari
Ġv c
Ġst ric
ĠÐ ¸
Ġregress ors
E uler
Ġn H
Ġtil ted
f eedback
Â± âĪŀ
ĠMI LP
Ġgenuine ly
ĠA ctive
ĠR ao
mod ified
ĠSU SY
Mo ore
ĠNET W
Ġe ine
ĠR SS
ðĿľ ī
x u
ĠI i
ĠF al
ĠD Î¦
ĠFr actional
contr action
ĠT I
ĠPo inc
Ġissu ed
Ġpr une
ati le
Ġtext book
Ġcri tically
ĠC f
sel ian
Ġlook up
ĠCor relation
Bay esian
r q
Ġc N
Ġgr ain
Ġpent ag
Ġp ÏĨ
Î¾ q
sc ore
Ġdecre ment
Ġdel im
Ġopportun istic
0 25
Ġb z
Ġâĸ¡ (
16 8
Ġch ron
N ot
ou rag
ÏĢ s
P art
h onest
ĠQ D
Ġfound ational
ĠCP S
Ġirrever sible
R Y
Ġinf low
Ġspe ech
ĠHor izon
d at
Ġreser ved
Ġ) {
Ġass istance
Ġnon classical
Ġoffer ing
Ġsupersc ripts
c ounter
ĠN ik
ĠGrassmann ians
ĠSpring er
Ġá¸¢ s
Ġalloc ating
Ġd rag
Ġeff et
" -
y t
Ġac yl
Ġcontain er
Ġh f
pos itory
Â¨ ,
Ġinfer ring
ske w
inform ative
O pt
Ġu pt
Ġde em
Ġc ite
ĠW in
ĠÅ ½
Ġn z
Ġch ip
ĠÏĥ x
ĠâĦĵ âĦĵ
Ġprogram me
Ġpessim istic
w eg
em atic
ĠLind blad
ĠM CS
ĠHar ish
Ġmetast able
k T
ĠVa art
Ġun realistic
19 2
ĠBas ically
U PS
Ġp itch
ĠQ E
Ġwave form
n T
Ġdist orted
Ġadditive ly
Ġsubstr ings
D et
o z
Ġmer ges
ti veness
ĠB at
vi ation
Ġinterp olated
sequ ential
Ġpers ists
ĠT RS
qu ement
reach able
P ic
)/ âĪĤ
ĠREL ATED
analy sis
ĠKe pler
3 00
L ist
Ġmet ers
16 6
Ġbi hol
ĠSc al
ĠBru ijn
ĠM IP
ad i
Ġinst abilities
reg ions
] ])
È ĭ
Ġd ial
ant om
Ġcomm erc
wh ite
Ġshar ply
ĠH s
ĠPrinci ples
O LOG
k k
Ġpath ological
Wh itney
Ġco oling
Ġincorrect ly
Ġp un
C ha
Ġdiff raction
col oured
Ġind epend
Ġred ex
Ã¶r mander
it en
is y
Ġx g
Ġco NP
ub ov
K dV
[ âŁ¨
p Î±
Ġm b
Ġconstru ctors
Ġ12 6
ĠStein berg
ĠAtt ack
s ampled
Ġs Î±
)( âĪĤ
ĠGener ation
Ġcom ulti
tif ication
r c
ĠM BS
pro ject
Ġg q
Ġun available
ĠElectric al
domin ant
ĠGraph ical
Ġprecondition ers
T or
s j
ĠÂµ p
Ġenc ourag
The y
Ġp Î·
ĠO s
ĠJ eff
Ġfactor izes
represent ed
S ta
ĠT orelli
ĠS ymm
Ġj e
Ġgraph ically
Ġselection s
ĠLM I
Ġde ph
Ġsh o
Ġagn ostic
ig er
Ġun twisted
Î² x
Ġirre ps
Ġrecon c
Ġcr ash
F K
ĠâĪĴ (âĪĴ
Ġu a
Ġ10 4
IST A
ow icz
Ġweak ness
B Z
Ġáº į
Ġbl ood
inters ections
Ġinnov ations
F ried
Ġdual izing
Ġfac ing
Ġb w
ĠL as
Ġz f
vol ving
Ġparametr isation
c oding
v ille
ĠÎ³ q
ĠL usztig
ĠPro v
Ġw ar
Ġshap ing
We ight
( âĮĬ
Ġq f
Ġback log
ĠTrans mission
Ġinter medi
Ġheter os
d N
ĠS X
Ġtw e
Ġac cessibility
19 88
Ġsof ic
Ġpron ounced
al ian
Ġr ack
ĠO h
Ġdep olar
Ġultra filters
Ġinf l
Ġdri ves
A ug
Ġ/ âŁ¨
Ġ19 85
Ġposter iors
( Â¬
ĠRepresent ations
Ġâĸ¡ ,
SP S
ĠBour gain
Ġf ictitious
ĠAl on
ĠL ikelihood
S y
ĠEX T
Ġfu el
Ġconcre teness
Ġd Îº
Ġl ump
Ġx P
um an
19 86
âª ¯
âĮ Ł
spect ra
flow s
i Î³
ĠYam abe
Ġsub formula
Ġh ints
ÏĢ j
pos ability
Ġasp herical
solution s
Ġjam mer
Ġpermis sible
is o
Ġequ ilib
Ïµ q
Ġâĥ ¦
ĠCon volution
ĠR oth
Ġsuper martingale
ili pp
Ġattain ing
Ġconcurrent ly
H ow
d ÏĢ
l on
Ġt am
Ġpart ners
Ġgrant ed
Ġsu dden
Ġdilat ation
H ol
Ġpos it
iren berg
Ġk b
Ġmin ib
tes ting
| -
ĠN or
dimension s
K q
Ġ( âī¥
Ġs its
Ġartif act
m c
Ġcirc ulation
ĠPl ots
quanti le
m g
Ġl anding
deriv ation
C oh
Ġcomp ete
Ġtradition ally
Ġbilli ards
u sivity
ĠD ET
Ġper tin
ĠPer form
Ġcrow d
gr and
Ġer g
Ġ24 0
Ġoct ahedron
mod es
Ġconf irming
ott ky
Ġinten sively
ĠÎ´ F
ise ux
ĠDet ermine
fil tered
Ġr h
Ġpseudoc onvex
Ġatm osp
Ġm N
Î³ x
tr aining
rob or
clust ers
ut z
ĠCar leman
Ġcompil er
ĠV ec
Ġparameter izations
Ġlo zen
G o
ĠL LL
ĠI CA
Ġbe gan
Ġad mission
Ġun ify
ĠCons ensus
ĠE SS
Ġpush down
ĠBR ST
ĠX I
ĠOr licz
es timate
ĠO dd
Bon net
Ġ1 18
Ġb rick
Ġn w
ĠH eston
ĠÎ´ f
Ġ} -
ĠÎ½ i
Ġdis ordered
Ġâİ ©
ĠPÃ³ lya
t ake
Ġc Î»
Ġâİ §
Ġâİ ¨
ĠAg greg
Ġsynthe size
ĠS her
SE T
Ġg k
Ġconfound ing
Ġb urn
Ġ{ }
âĢ °
Ġsynthe sized
f ibration
Ġc amp
Ġsec h
Ġown ers
ĠD NF
Ġmo tive
Ġund ers
Ġcater p
h ab
M as
Ġsurv iving
V n
ret t
Ġmes ure
ĠC ob
per s
ĠKlein ian
Ġmat ric
Ġuns afe
Ġplum bing
)] |
St ate
ĠInc reasing
ĠZ q
ind ependence
Ġclar ified
Ġw edges
Ġsub semigroup
âĨ Ķ
ĠL LR
ĠEm ploy
Ġh in
ĠS AG
Ġ} (
Ġsuff it
ĠCon text
SI M
ĠHaw king
ĠDEFIN I
ĠNot es
Ġsurround ed
âĪ ĵ
ĠL CP
Ġsquee zed
p b
l ot
Ġ| <
ĠRe in
Ġt exts
te in
ĠV t
ĠO wing
! .
D ou
Ġab and
ĠAn ti
Ġtre m
Ġpubl ications
M ain
ĠB Q
]ÃĹ [
Ġrender ing
ĠUn ique
ĠSc ientific
Ġantic anonical
Ġmultiplic atively
Ġnull space
Ġcertif y
S B
ul in
Ġup coming
Ġlexicograph ical
Ġmotif s
in ation
it o
ĠI W
mar ginal
Ġquadru ples
Ġs ans
ĠImage Net
Ġlook ed
Ġmainten ant
Ġlox odromic
Ġpredecess ors
Ġo uts
ĠÎ³ s
ĠAr r
Ġexpres siveness
M ap
Ġc Î±
Ġpa q
ĠConn ection
Ġv r
Ġï ģ
Ġattack ers
bran ch
Ġ(Â± )
Ġell ipses
ple teness
ĠQ MA
16 5
ĠAh lfors
Ġinterpret ability
Ġmanifest ly
prim itive
ĠR oy
Ġcomplex e
estim ator
ĠMag n
ang ements
Ġtack led
Ġ| >
ĠâĪĨ ),
Ġav ons
spl ines
ĠÎ£ n
Ġsparsif ication
F orm
Î¸ n
Ġalloc ates
if e
Ġï¿½ ï¿½
ĠBu semann
au gment
Ġswar m
ĠÎ± a
ĠPan el
J ones
Ġdec odable
Ġassess ing
se lected
Ġqu el
Ġr Î±
Ġsuper linear
ĠVari ables
ĠN g
Ġne at
we ighting
mo ves
Ġcon ve
Ġweak en
ĠJacob ians
Ġfol klore
Ġâ §
Ġ1 13
Ġb en
c ies
ĠD im
ĠY ES
Ġc ÏĦ
ÃĹ {
fil tration
l ag
Ġsol en
sub sets
Ġdecou ple
Ġredu ct
Ġ20 1
Ġreplic ates
rad ed
Mor se
ĠSIM ULATION
ĠSchema tic
. âĢ¢
ĠD an
th ose
Ġsk ipped
ĠÃ©t ant
ĠÃ ĵ
Ġgr aphe
Ġmis sed
Ġsib ling
O G
Ġau f
Ġpeb bles
E ach
V ari
ĠG inzburg
Ġthere after
ĠrÃ©sult ats
Ġst encil
ting s
an onym
ĠMc C
Ġmim ics
Ġw andering
Ġl ands
17 0
Ġweb s
ĠAus lander
ĠSull ivan
ĠÅ Ľ
Ġvac c
Ġentr ance
ĠS oci
DE S
s uccess
th ree
ĠâĪŀ, âĪŀ
ĠÐ ¾
Ġlack ing
ĠS DR
ĠE lementary
ĠâŁ ²
ĠE ll
Ġcop s
Ġdegrad es
Ġ19 84
s d
ar as
ĠK ol
Î± j
import ant
arge ting
Ġin sist
ĠS and
Ġpm q
N ets
Ġs Set
ĠR c
Ġtil t
Ġequivariant ly
AT ES
br and
ĠNy strÃ¶m
Ġl ane
Ġan c
Ġ] +
Ġdes tr
Ġn Î²
ĠZ hao
comple ment
Ġr ac
per mutation
bel ow
V S
Ġob fusc
ĠJ e
Ġouter planar
ĠMA IN
ĠSp atial
ĠContrib ution
ĠR ED
Ġg all
ÑĤ Ð¾
Ġkn ock
Ġannihil ates
Ġant eced
Ġu c
ĠG et
otop e
(âĪĴ âĪŀ,
ĠET H
Ġdesc rip
Ġtri v
Ġcoinc iding
c overed
el ve
h ifts
ĠD ijk
Ġvir us
ric ks
Î² q
f easible
Ġm Î±
ĠD yson
Ġass ort
App roxim
16 3
theore tically
Ġnon trivially
en abled
Ġou vert
ĠNe gative
rec tif
ĠM eyer
el man
oul os
romag ne
Ġs Ã©
Ġbuff ers
Ġdefic it
Ġencoura ge
ĠEar th
ĠR NN
ĠÎ´ s
ail ure
ĠK not
ĠÄ ĸ
Ġtradeoff s
Ġaccompan ied
p ush
s low
Ġfam ille
ĠOP E
oro hod
i Î·
ov a
ĠÎ± v
ĠLe h
Ġ( :,
au zy
Ġrevis ited
Ġdram atic
Ġm g
ĠT im
Ġn âĦĵ
IM ENSION
cor rection
E l
Î± p
Ġ(+ ,
Ġsr c
' ),
F isher
ĠSub mitted
ĠRich ardson
ĠB rief
ich t
Ġdis s
Î³ q
uc ial
ĠFr ance
ĠVer ma
Ġellipsoid s
ĠVis ual
T ri
Ġ0 4
Ġepis odes
Ġground ed
ĠNe ither
ĠSub tracting
Ġpref erential
B in
min imum
Ġrej ecting
er ies
Ġtit le
ĠS ig
Ġfore ach
Ġsynchron izing
d ire
arithm etic
Ġdo or
ĠER C
Ġsubstr ate
Ġdou bles
99 9
Ġste pping
t angle
Ġun reliable
ĠÎ³ r
ĠGener ating
ĠBl ue
c of
Ġs z
til ting
Ġcenter ing
ĠW R
ĠU til
ĠÎ¸ T
Ġbis ector
ure wicz
17 6
Ġ13 5
Ġphr ases
Ġcomprom ised
Ġmist akes
Ġcooper ate
Î± Î³
Ġmy opic
ĠCalder Ã³n
Q s
| âĪĨ
ĠÎ± c
intu itive
ĠB loom
em pl
Ġwra pped
; (
Ġ2 22
ĠSh ar
Ġnondeg eneracy
ĠQ ue
Ġdec imal
ĠÎ± d
Ġimp ression
rich s
some times
Ġpus hes
Pro blem
ĠD irected
A e
ĠWe iss
ath an
Str ong
Ġsesqu ilinear
th aul
H EM
ĠT arget
ĠÎ» Ïģ
Ġprom ote
? "
ĠForm ulas
Ġbudget s
F p
ĠâĪĪ (
ĠKur anishi
el es
ĠSP D
Ġur ban
Ġdiagonal ized
he avy
en b
Ġa rose
Ġv ital
ĠâĢ¢ }
Ġproper ness
des cribed
Ġsubcomplex es
in berg
Ġl d
ĠB ry
ĠIn ves
Ġpre venting
ĠFer re
Ġl orsque
ĠP K
ĠÎ³ u
Ġ13 4
Ġt ro
ĠR abin
Ġz e
ĠInter ference
Gal ois
r p
ĠC j
ĠK AM
ĠÂ´ |
PS K
M U
tiv ated
Ġvar s
Ġlibr aries
l p
Ġfix ation
Ġregular isation
n ick
ĠS x
Ġhom ologically
ĠGeneral ization
ĠInter val
Ġkine tics
t L
S j
ĠC LE
Ġw orm
Ġbefore hand
Ġholonom ies
Ġcle arer
o tion
Ġpeculi ar
Ġh r
Ġcon tient
Ġz y
Ġillustr ations
Ġmort ality
Ġdisp atch
E H
v v
ĠM K
Ġsc ript
Ġtis sue
ĠSP DE
ĠPO D
ĠB Ã¶
ĠRece iver
Ġb ord
ĠA ustr
Ġexpl or
bi as
ibr ations
y en
ĠÎ» g
ĠG od
symm etri
ther n
kov ich
t ot
Ġpred ator
des tination
Ġk Î´
sign ature
Ġtransport ed
Ġnaive ly
Ġ] ))
K r
ĠMod ified
Ġwalk ing
Ġh ide
Ġq z
Ġcor ank
ĠÎ´ r
Ġcontr asts
ĠContr ary
Max well
Ġtax a
d les
k ed
ĠÇ ¦
ĠreprÃ©sent ations
ĠU ne
ĠInte ger
] âĪĪ
Ġ+ .
Ġdisjoint ness
Ġhost s
ĠthÃ©or ie
Ġn C
E A
O DE
Ġf ills
at tr
ĠH OL
Ġcomplex ified
comple tion
Ġbandwidth s
Ġi âĦı
Ġless er
Ġd I
Ġgover ns
j s
Ġcor robor
Ġ19 82
ET RIC
ĠLO CAL
ĠPos sible
âĭħ ,
Ġo t
Ġw ides
Ġbad ly
n Ïµ
ĠSch ottky
Ġb im
und amental
illi am
ma jor
ĠÎ£ t
ĠdÃ© monstration
ograph s
No tice
Ġgalax ies
ĠT er
ĠS oft
im uth
Ġgold en
ĠA RE
Ġ[ âĢ¢
ĠE fficiency
ĠG PS
ĠF H
s ent
ĠD NNs
Ïĥ n
Ġconstell ations
P W
Ġsub harmonic
ĠÃ© g
ĠC ausal
ĠðĿľ ħ
ĠSe q
d epend
Ġa pert
Ġl iveness
Ġsampl ers
ĠConstrain ed
ĠSL O
Ġload ed
Ġr ang
Ġtrans finite
Ġpm f
Ġ). (
defin ition
functor s
ĠX P
Ġsugges tion
ĠOper ations
Ġvector ial
ĠD ur
ĠSim ons
ĠInd ependence
Con jecture
constrain t
H am
Ġindu it
pz q
Ġinter changes
Ġcaract Ã©r
d Z
Ġre e
ĠF rob
Ġpoly mers
ĠM itt
Ġsecond ly
ob e
Ġdescrip tive
( âĸ¡
Ġconsum e
ĠDistribution s
Ġpertin ent
m ain
ĠF N
se q
Ġpur ple
ĠM r
ĠAPP L
Dir ichlet
ĠB ab
iag onal
! ,
D g
Ġi w
C her
and le
Ġparallel ization
ĠðĿĲ ½
ĠNew man
Ar ch
Ġc ave
Ġm other
Ġque uing
he im
l am
Ġrepul sion
Ġb g
ĠZ t
Ġden s
sil on
k et
or f
ĠM s
ĠRes id
um ar
ĠL abor
ĠINT ER
ĠâĢ¢ |
clust ering
Ġ. ]
ĠV CG
Ġz I
ab Ã³
ocol im
ĠC amp
ĠB DD
am enable
ĠG ree
Ġâĩ ĳ
i pp
} {
ĠâĪĨ ;
ĠÅ Į
ĠImp act
Ġnon holonomic
)] ]
ĠMulti plic
Ġc sc
16 2
Sch ur
Ðµ ÑĤ
Ġparad ig
Ġc Î´
Ġh ab
ĠM ari
ĠV P
I AL
Ġp Î£
Ġconf idential
Ġassess ed
Ġconflu ence
ĠK amp
ĠÏģ e
Ġthin ning
ĠvÃ©ri fi
D W
n ÏĦ
Ġp th
Ġis n
ĠT N
Ġun limited
Ġdiamond s
ĠEhr hart
ĠÎ² Î»
Ġwides pread
ic ed
ĠAs sign
ĠÄ ł
ib li
hom ologous
ĠB w
)) [
trans formation
Ġsubg ame
Ġadjoin ing
âĨ Ĺ
Ġformalism s
Wol fe
om mer
ount ably
Ġaccess ing
ĠVal id
Ġcoales cence
Ġteles cop
Ġequ itable
Ġhealth y
Ġc ake
al i
ĠD q
16 4
spec ies
ĠSel berg
ĠK aw
Ġfin est
ĠUn certain
A q
b p
ĠB uch
polyt opes
n els
Ġdis semin
ĠI K
ĠV ARI
be fore
ĠSturm ian
w s
Ġcommerc ial
Ġgr af
We ak
ĠInters ection
ĠS atisf
Ġp Î´
Ġregular izers
ĠËĨ M
ĠGe v
Ġf id
ad emic
Ġbo ol
Ġinsp ecting
Ð½ Ð¾
Ġple ase
ĠT uraev
Ġcons Ã©qu
Ġsub paths
âĨĴ Â±âĪŀ
ĠSU B
adj usted
qu ette
Ġsubg aussian
ĠSoc ial
iv able
Ġmerid ians
L ear
Ġpre y
Ġconstrain ing
ĠGener ic
b or
v t
Ġi tiner
re ll
]] (
Ġstim ulating
Sk etch
Ġclos es
O ther
ĠC un
ĠD ER
Ġpr int
/ {
ffic e
ech t
d M
at ment
17 5
ĠRe ynolds
sign al
e ight
ĠK obayashi
Ġmonth s
ĠP on
R andom
Ġpr Ã©
represent able
Ġstay ing
ĠC yl
ĠHar monic
H ard
ĠÎ± z
ĠÎ² u
Ġpseud ometric
Q p
V C
id om
Ġdeform ing
ĠH Ã¶rmander
Ïģ t
ĠA ma
Ġr ns
Ġsp ends
Ġrest ore
que ue
ĠMarg ulis
p ant
Ġres h
ĠÂµ r
Ġpol i
eff ler
Ġb ug
sh irani
ĠSk orohod
Ġreal isations
Ġdepth s
conver ted
ĠSel mer
Ġn D
le mma
Ġretr acts
associ ated
ĠExplo iting
re levant
ad dle
Ġinte gro
tain s
Ġsw apped
Ġ! (
Ġ|âĪĩ (
Ġexha ust
Ġcancell ations
Ġjunction s
ĠR efin
Ġinc oherence
N AM
es pecially
Ġ{ âĥĹ
ĠComp onent
Ġa ward
Ġx R
Ġtw elve
Ġk illing
ir ings
Ġhyperbol oid
ĠWor ld
Ġre ds
ĠS age
Ġcomulti plication
ĠÎ¾ t
des cent
tic ulation
Ġsp ring
ĠIt o
Ġpj q
Ġh b
ĠÎ¾ j
local ized
ĠCertain ly
T aylor
i Ïĥ
he t
ib shirani
Ġsumm aries
Ġh iding
Ġco simplicial
ĠCur ves
LEM ENT
ĠD own
Ġfa isce
Ġneg ated
Ġove restim
Ġ. =
ĠÏĨ k
ress ure
ĠG q
Ġpr Ã©sent
ðĿĽ ¿
F re
ans ki
o on
ĠPro ve
16 9
ĠâĢł )
ĠSt at
Ġâĸ³ (
Ġbackground s
mar gin
Ġrecombin ation
roph ic
b id
Ġ( âĬ¥
si que
ĠM CP
ĠG NS
ĠVir tual
sub space
ĠPeriod ic
ĠAr ithme
ĠFe ature
b ps
Ġin hibit
ĠD un
ĠPro x
Ġum bil
C ap
ĠF ox
ven ues
ĠH Ã©non
ĠÎ» Ïĥ
Ġshort en
s ink
ÏĢ G
ÏĢ f
Ġlemm ata
ðĿĲ ¼
ĠÎ² r
Ġmod Ã¨
Ġhal ves
Ġintellig ence
ĠK ap
Ġt T
otic ing
ĠirrÃ©duc tible
vers als
deriv atives
ĠPot ential
ĠH m
ĠL AR
un ion
Ġâĭ ĥ
inc om
Ġlot ter
Ġlabor atory
hig her
ĠÎ» T
ĠdB m
ĠComple teness
B en
ĠSNR s
ĠËĩËĩ Ëĩ
ĠACKNOWLEDGM ENTS
ĠWire less
c ov
Ġextr acts
element s
Ġpip e
ard en
Ġactive ly
ĠUp d
Hig gs
P B
Ġ( âĩĴ
ĠÃ ·
Ġ19 83
Ġtrad ed
u z
ĠAltern ating
ĠpC q
ĠW ik
Ġexplic ite
Ġpret ty
cl iques
Ġanaly st
Ġâĩ ¤
ĠL en
Ġperm ission
Ã©r n
Ġambigu ities
ĠTw itter
i ously
Ġa A
ĠH AR
Ġappend ices
Ġqu orum
L G
p D
gr ade
mo ving
] !
ir nov
Ġprinci pled
âĪĪ{ âĪĴ
Ġsubd iagram
B orel
ĠY M
Ġtw odimensional
ust er
ĠSk olem
R D
ĠQ G
Land au
Ġh int
dec oding
Ġro lling
Ġpri vi
ĠRo bert
Ġab normal
crossing s
adequ ate
sign ificant
âĪĴ âĮĬ
ĠÎ± y
Ġvis ually
Ġfract als
B al
| )|
ĠG y
ĠSp a
UL L
re ase
ĠB d
ĠâŁ© ]
ĠGAN s
ent er
Ġconjunction s
ĠPlan ar
C Q
ĠB egin
sim ply
i os
ĠH U
ĠPet ersen
Ġtrapez oidal
A U
t ag
Ġ10 6
ĠStruct ures
Ġunic ast
Ġpalindrom ic
Ġpresum ably
V P
ĠD ani
vi ii
ĠBr att
Ġcat ast
f ac
Ġa ch
Ġwe ather
ung en
Qu antum
Ġn E
ĠCC F
ĠPriv ate
ri ques
âĪ¥ âĪŀ
Ġreplic ate
ĠCent re
ĠT Y
le ast
ak r
ĠCV aR
Ġfron thaul
ull en
mon a
(âĪĨ (
Ġsupercon duc
ĠGev rey
Ġ14 0
Ġsemist andard
23 1
Ġb ot
ĠBit coin
Ġy s
Ã©rate ur
ĠB m
her mitian
Ġlikelihood s
S al
ĠC Î·
ĠG over
ĠSu fficient
Ġacqu ires
Ġb ilateral
ĠâĪĥ (
ĠPu iseux
u ated
Ġbut terfly
Ġ19 60
supp orted
Ġiniti ate
p Âµ
as ive
Ġan archy
ĠCalc ulating
Ġflatten ing
Ġre w
id is
Ġq e
ĠK D
ĠÏģ x
Ġmem ories
Ġhim self
Ġpractition ers
I PT
Ġc elle
ĠJ K
TION AL
Ġsummar ised
ĠVe ech
c ope
of ten
Ġ13 0
ĠBr an
Ġcle ver
ĠD ES
Ġun a
Ġspecial izes
Ġprotot ypical
Ġg H
ĠP ID
Ġstem ming
17 7
F low
L asso
Ġu f
Ġsub mit
Ġhe n
Ġattack ed
p arent
Ġro of
Ġ|+ âŁ©
ĠL an
)âĪ¥ .
Ġposition al
C Z
ĠC er
ĠK antorovich
ĠA LL
ĠLS H
ĠSched uling
Ġa ve
st ell
all en
Ġbic ategory
Ġseminorm s
Ġencourag ement
G i
Ġunc ountably
parameter ized
multi plication
Ġprincip ally
Ġbe ars
F H
J ohn
ĠLe vin
ĠBO UND
Ġfinger print
Ġregener ation
m ember
Ġ. }.
ĠP x
ĠM it
res timate
Ġsubs heaf
Ġmean ings
Ġnotice able
ĠEstim ator
ĠStraight forward
Î² Î³
Ġcol d
order s
Ġexc iting
ĠHel ly
........ ........
B ir
00 3
f ib
Ġd K
ĠL m
ĠErd Ã¶s
ĠÎ³ m
ĠVari ation
J i
ĠÎ´ h
ĠâĪĤ ,
Î´ u
D U
em e
ĠOb tain
at rices
ĠÎ» h
be ing
Ġdistinguish ability
lock ing
controll able
r ated
ĠÎ» E
Ġrot ates
ĠE lliptic
Ġpreced ence
ĠSIS O
Ġfin itedimensional
v u
ti k
ĠZ G
AN N
Ġperme ability
omorph y
Ġconsum es
Ġ3 21
Ġpseud oin
ĠKamp en
( .,
aton ovich
w ald
Ġpil ots
ĠD ob
Î» j
ĠAC M
ĠJan uary
ĠM andel
ivers ity
py q
Ġopen ed
Ġfal sif
Ġscr atch
Ġr T
Ġwell defined
ith ful
ĠâĬ¤ ,
P U
Ġg c
Ġ| /|
are v
ick el
Ġaxis ymmetric
Ġexplan atory
Z ygmund
ĠðĿĳ Ĥ
Ġprofit able
il ber
art hest
Ġ( >
Ġc ensored
ĠCover age
Ġs plic
Ġcaract Ã¨re
Ġo k
ear ing
Ġinterpol ates
Ġnucle us
Ġorigin ate
ĠWronsk ian
ri end
Ġsuffix es
ĠAr t
ĠÎµ k
Ġsad dles
L effler
for ced
Ġcre pant
ĠMinim ization
Ġenorm ous
ment ation
ĠâĪĤ âĪĤ
Cl aim
Ġliquid ity
Ġindefinite ly
a ign
| {
Ġin sure
ĠM arch
ĠY t
Ġ[ âĥĹ
Y u
ĠâĪŀ [
Cl ass
Ġad min
Ġapart ment
ĠDou glas
TI N
Ġpost ed
Ġmid points
attach ary
ti ori
ere r
ĠÎ³ e
dec ay
Ġlifting s
ĠCurrent ly
Ġun expl
Ġbive ctor
Ġun tr
cy linder
Ġpropri Ã©tÃ©
Ġunde restim
g auge
s ers
Con f
se g
with in
Ġcommens urable
X P
Ġsubd ividing
FL Y
IG HT
iss ner
ĠSynt hetic
iff erence
ĠQ q
Ġpas sivity
direction al
Ġou ght
pp ler
Ġass ist
Ġgu iding
iver gence
ĠM otzkin
Ġpoly morphism
ĠComb ine
J K
Ġt Î»
Ġaz imuth
ĠOPTIM AL
he imer
17 4
Ġd Ïĩ
ĠâĬĹ ,
ðĿĳ ī
circ uit
D MA
ĠK H
Ġrep ro
Ġsubs ample
Ġtransduc ers
Ġped est
g aussian
n b
ĠA insi
Ġtri ad
hen g
Ġlandmark s
Ġre q
ex change
ĠAr thur
ĠâĢ¢, âĢ¢
Ġp Î½
Ã¤ t
Ġsub representation
Ġaltern ation
ĠMitt ag
Ġi S
it ated
ĠA Z
ĠSch atten
Ġsem ilattice
lo yd
Ġcrypt os
I ES
ĠY n
bran ching
Ġadverti sing
G V
re pe
um m
ĠK on
ĠPT AS
Ġindistinguish ability
Ġverif iable
ĠâĦĵ p
ĠSt ream
l ies
Ġtrain s
Ġtrad er
Ġw id
post erior
Ġtre llis
Ã´ le
( ).
Ġv m
ĠÎ¸ x
ĠKP Z
st ro
ĠÎ± Ïģ
struc tible
Ġdegr ade
P ear
Ġinv isible
ĠExact ly
ĠK Ã¼n
Ġle verages
Ġent ered
Ġcore set
conser vative
m echan
Ġh q
in ed
Ġpre requ
les on
Ġsubtr acted
Ġe ye
if i
ĠÎ´ S
ĠUnder standing
Ġcircular ly
ĠPoinc are
Ġfor tiori
ĠÎ± L
Ġadv isor
riff ith
BF GS
Ġgene alog
O US
a ro
ri k
Ġ} :
Ġcommut ant
ĠH g
ĠJ oh
19 85
Ġâ «
Ġl q
Ġq v
16 1
Ġfail ing
e lectron
ĠF IFO
Ġ3 60
Ġphr ased
R m
ĠH ong
Ġsoc le
P RE
ĠLST M
J R
Ġ2 13
Ġas ynchron
ĠAxiom s
ĠTu key
Ġl h
Ġwas te
Ch o
char ging
Ġsyzy gy
ĠM ov
ĠËĨ r
As ymptotic
Ġn Ã©
ac un
ĠK om
ones e
Âµ s
ĠDiff usion
ĠA K
Ġ3 000
ĠIdentif y
sto pping
C ost
ĠW yner
Ġdesc ents
ĠSh ape
ĠTD MA
Ġsuscep tibility
Ġgran ularity
C t
Ġc ul
am ong
act us
ĠQ L
th read
Ġman ager
approxim ated
Ġpolyn Ã´
at tered
ĠÎ´ e
ild e
Car tier
resol ved
Ġl ing
Ġsupp ression
eb ted
Ġchap ters
ip f
ĠrÃ© g
| âŁ¨
Ġis ospectral
as ks
ĠCommun ications
ĠW est
(âĪĴ âĪĨ
Ġ) '
fl ux
ĠMc M
Ġw c
ĠK s
abs olute
Ġco isotropic
ren ormal
Ġwave gu
Ġneg atives
dis per
Ġla gr
sl ice
x m
ĠCan ada
differen t
t urn
Ġmonog amy
ĠÎ² e
con gru
ĠD irection
Ġ" ,
ub es
icon tinuity
Ġ{âĪŀ }.
Ġhed ge
ĠQ B
Ġbre ather
rot ter
Ġp Ïķ
Ġu d
ĠL ayer
ĠAl gebras
ĠH MC
Ġreg ulatory
ym plectic
rel ay
ĠIdentif ication
Ġd ust
Ġind ebted
B t
w ill
Ġb end
ĠN oticing
ĠB low
ĠÎ³ P
Ġtechnical ities
le gal
Ġh orseshoe
ĠG on
ĠÎ± P
Ġscattere rs
ĠPO LY
appl ied
Ġescap ing
p V
Ġt l
Ġn est
ĠW ar
ĠH q
ĠÎ» P
Ġag re
Ġref lective
| â©½
Ġi ÏĪ
ĠâĪ¼ ,
Ġapproxim ants
Ġte aching
Ġsu n
Ġsol d
Ġ|| .
Ġdegener acies
Ġd well
Ġse as
Ġdur ations
ANT UM
ĠA ld
ĠA DE
Ġla id
ĠInv oking
i Î½
Ġis os
ĠB ord
h ot
Ġcor rid
ĠALG EB
== ==
P et
z n
re nd
ĠCh i
Ġmut ant
ush in
ĠDetermin ing
Ġr N
ĠÎ³ I
ĠKnow ing
[ âĪĤ
f n
Ġtrans posed
bound ing
uk ov
Ġun labelled
ĠÎ³ Ïĥ
Ġapproxim able
Ġáº İ
ĠM IT
ĠÏĢ Î±
Ġ)} )
cont act
H J
ĠD ig
pp q
Ġal i
ĠWh ittle
Ġdeclar ing
d ÏĪ
Ġequ ating
Ġad met
Ġ)( âĪĤ
Ġá¸ Ĭ
ur ance
ĠG ordon
Ġpath way
ry s
ĠR educed
c q
i ance
ĠSE P
Ġbic l
ĠEnt anglement
S K
Ġband ed
US UM
Ġsub typing
Ġmon omorphisms
ĠSim ultane
Ġ< :
Ġexchange ability
Ġdescript or
Ġas semble
Ġ10 9
) #
ĠF uj
Ġinform ations
Ġs ided
is p
Ġfunction ally
abel le
x a
te le
Ġsyst Ã¨me
ĠN FA
Ġnow adays
OR M
ĠRV s
Ġin separable
In f
Ġorigin s
Ġplanar ity
ĠEn gel
Ġfl ops
ĠCP TP
MR I
Ġtrapez oid
ĠREM AR
ĠBratt eli
Ġin p
ar iness
Ġ0 5
ĠX N
Ġhol im
Ġbl oss
of tware
Ġminim isation
D en
c och
ĠÃ ģ
Ġmet abol
Ġprescrib e
B ra
P Z
ĠV S
sid ered
ĠRe ason
identi fi
ĠF eder
ĠC ole
ĠSupp osons
Ġcub ics
ĠCharacter istic
Ġgovern ment
Ġdis posal
Ġregular ize
ĠCass on
ĠEmploy ing
ste pping
p acket
ĠÎ³ Î³
ĠLem mata
ĠNa ive
c ove
Ġmis leading
Ġele vation
Ġa h
Ġo lder
ĠCon j
Ġproportion ally
Ġcosm ology
Ġunambigu ously
Ġassoci ations
ait o
com odule
ĠAd versarial
su ited
ï¸ ĥ
Ġrephr ase
ĠT anner
Ġbig raded
ĠC ast
isc id
ĠTechn ically
o or
ĠÏĢ j
Ġseman tically
local ization
ĠRobust ness
Ġminim ising
af ety
ER A
W s
Ġtri e
Ġoutper formed
Ġv oisin
Ġ* -
Ġdiscrete ly
Ġ{âĪŀ },
t ou
x e
Ġi ce
Ġsh ot
isc her
ĠAnaly tic
Ġmedi ator
Ġgau ged
Ġmill ions
Ġis land
ĠW H
Ġkl t
ĠMo tion
D Ïķ
Ġcancell ed
ĠSoci ety
Ġel igible
Ġcance led
aul ty
Ġprobabilistic ally
Ġin app
ĠAg ents
aracter istic
Ġpin ned
Ġnon symmetric
Ġmot or
ĠCon ject
ĠSO LU
br acket
ðĿĲ ¹
d ynamical
Ġw ise
Ġu plo
Î» z
Ġwarp ing
z in
ĠF LO
ĠGal ile
Ġdis location
Î¸ t
ĠClaim s
Ġschema tically
ec ks
Ġcl o
ĠðĿĳ ľ
ĠBer kovich
N D
ĠðĿĳ į
Ġexpand ers
ĠS ink
ĠF ROM
ĠO cc
)) âŁ©
ĠJ T
Ġinvest ors
Ġacknowledg ed
, âĬ¥
ĠFour th
ĠL X
ĠO E
Ġnon stationary
Ġeccentric ity
Ġt H
oc ations
Ġtrans cript
ĠCH AN
ĠS ant
ĠÎ´ y
Ġel le
val ence
ĠSt abil
TI CAL
ĠCondition ed
ĠPolynomial s
Ġpad ding
a round
âĮ ľ
Ġeavesdro ppers
Ġdonn Ã©
ĠG ale
Ġtrunc ations
Ġtrem end
Ġo s
Ð¾Ð ²
Î± m
Ġconnex e
pay off
ĠW ord
Arch imedean
b imodules
ĠB ond
ĠNo isy
Ġregression s
Un iform
rectif iable
X IM
ĠG in
Ġad ic
idel ines
Ġshuff ling
oc ate
ang ling
eig ens
Ġapp ending
IZ ED
ĠM AS
Ġrou tines
ĠBow en
o Ã¹
ĠC ette
Ġdecryp tion
l ift
ĠQ I
Ġspecial izing
Ġmultic lass
Ġdeph asing
Ġequ iv
ĠÎ´ Ïģ
Lagr angian
Ġcentroid s
Ġimp utation
Ġ, âĥĹ
Ġfactor ize
Ġmultipl ies
Ġ( \
if iers
ĠËĺ ,
ĠGrad uate
ĠP ry
ĠdÃ© pend
ĠâĮĭ +
ĠSepar ation
ĠWill more
ĠP ay
Ġinterfere rs
ke eping
Ġintrodu ctory
K ir
ĠP AT
Ġast ro
V ARI
ord ell
ens es
il a
Ġsub optimality
ĠJ P
equival ences
ĠD ÏĪ
ĠQ j
und y
Ġrecur rences
sufficient ly
ĠY e
ĠRe es
ram m
similar ly
block ing
ĠF o
Ġac ute
quas icon
ĠC Âµ
ĠB ach
Ġsear ched
Ġrec ap
Ġpoly matroid
Ġdro plet
Ġcondens ate
) âĪĪ[
Ġantic om
Ġa irc
ĠT p
ĠD s
ĠÏĢ s
ĠY ork
Ġener ge
L I
P oint
ill es
ĠMechan ics
ĠErr ors
Ġpercenti le
u um
ĠâĮĭ )
Ġmed ial
ĠKnow ledge
Ġinfra red
ĠEPS RC
Ġrest s
G reedy
ðĿĳ Į
Ġâĩ Ħ
ti linear
ati veness
Ġtrans it
Ġgeneral isations
Ġf v
Ġn I
she af
Ġm Ã©trique
ĠK eller
Ġorbit als
ĠMS R
ĠF requency
ex clusion
Ġwr it
Ġdeem ed
Â ¯
Ġph antom
Ġgl ues
expon entially
e j
Ġpro to
Ġclosed ness
ins ker
ĠÃĥ i
conc avity
Y i
Ġc able
19 84
Ġshadow s
cl ength
Ġbas ins
Ġnull ity
0 11
k u
Ġchecker board
ÃĿ ÃĿ
Ġr im
Ġover ly
Ġtor al
ĠSU M
Ġses sions
coll ision
he ll
Ġsubs hifts
ĠMulti plication
Ġaxiomati zation
ĠA Y
ĠB MS
ĠDiff erence
A y
ĠO x
Ġcount ry
Ġt Ïĥ
Ġt argeting
ie u
Ġcent res
ĠËĨ D
ĠDo ppler
Ġpigeon hole
ac ency
Ġal titude
ĠCon tro
ĠE li
Ġun seen
Ġnon expansive
ĠAutom ata
Ġp J
Ġ) âŁ©.
Ġrobotic s
im ent
! !
Ġpay ing
Ġqu art
Ġimp air
por ting
ÑĢ Ðµ
b ank
f ile
Ġd ud
ĠP ere
ĠÎ´ a
Ġro gue
Ġspecial izations
Ġaltern ately
extend ible
ĠA O
Ġabelian ization
station arity
ĠRecur sive
ĠÎ´ H
Ġmaxim in
G reen
f erm
ĠS tern
ce an
ðĿĲ ¸
Ġincenti v
G q
m x
Ġ2 31
Ã¨ ve
Ġborrow ed
H ad
Ġan tif
ĠâĪħ ),
ĠStud ies
Ġposition ed
Ġw z
ĠR RT
od ules
em ple
che v
arent ly
p ile
Ġd ually
Ġmethod ologies
pu q
interpret ation
Peters son
d T
Ġd ash
Ġref eren
Ġt B
ĠT emper
Ġbe ad
ĠW t
Ġ- ,
olev o
w ick
Ġex iting
Ġaband on
Ġb ang
Ġl ip
ĠK y
ĠJ oin
perturb ation
N irenberg
ĠÎ² c
ĠMeas ures
Ã£ o
Gener al
ul timate
ĠR g
Ġappro x
ĠCom pres
ĠTur Ã¡n
' re
ĠÎ½ t
Ġirre p
ĠMap Reduce
ĠStruct ural
Ġvolt ages
ĠMin istry
re ceiver
iv isible
us kal
Ġch amp
N n
t angent
Ġf ood
Ġ1 16
ĠS Z
ĠX m
Ġun rooted
ĠCor ollaire
Ġcompetit or
F IG
H or
s till
Ġst al
ĠÎ¸ q
ĠAB A
Ġlearn able
j p
F ourier
ĠB ri
ĠÏĥ q
v ous
Ġ1 14
âĮĭ âĪĴ
ĠSequ ences
M inkowski
ĠÎ¸ m
Ġbase points
ĠËĺ .
ĠMinim izing
ĠÎ» B
Ġlie u
ðĿľ Ļ
ĠHOM FLY
L egend
s oft
Ġw omen
ynchron ization
GH Z
ody ne
âĮī )
Ġ)+ (
deriv ed
ĠB ere
ĠPl ay
sin h
ĠÎ³ v
Ġnetwork ing
Ġinteresting ly
pk q
Ġpl ato
Ġcho is
clud ed
Ġback sc
ĠMa ass
ĠTri angle
Ġh ind
ĠA SE
ĠÏģ k
Rich ardson
Ġh ocolim
ĠM g
Ġdes erves
ĠT ight
ĠM Ã¼ller
ðĿĲ »
T its
Ġcol le
ject ories
Ġchem istry
ĠF BS
ĠÎ± Ïĥ
Ġpropri Ã©tÃ©s
Ġconting ency
Ġn Î¸
Ġtool box
ĠÅ© n
ĠEff ective
ĠT t
ĠG ARCH
Ġelement wise
Ġencoura ging
s ame
4 00
Ġman ual
FT s
ĠS f
Ġcof iber
= {
ĠH k
sig ne
ĠpÎ» q
N ord
T ucker
ation ally
ĠX V
Ġâī¤ |
17 8
Ġf arthest
Ġpr one
D ÏĨ
ĠÎ± f
ĠY au
Ġcuts et
ĠPost erior
t ative
Ã «
A dd
ĠPS NR
St ud
Ġ8 02
Ġpen et
Ġdise ases
Ġsymplec tically
ĠCom posing
threshold ing
b odies
Ġwe ld
ĠHierarch ical
( âĪ§
n an
Ġhosp ital
Ġhing es
ĠJi ang
C ox
ĠÎ» w
Ġsub structures
Ġgr atitude
Ġpl ants
ĠHe y
finite ly
Ġabbrevi ations
ĠAma zon
ĠT OP
Ġan im
ĠCh ang
lec tivity
Ġtransfer ring
Ġbicon nected
Ġi cos
ed ia
Ġ3 12
ĠâŁ¨âĢ¢ âŁ©
R N
ÑĢ Ð¸
pot entially
Brown ian
ĠP oll
Ġx N
monot onicity
ĠArithme tic
K ey
d ot
Î± k
Ġcompli ance
in ally
Ġm Ã©
Ġm âĦĵ
ĠH G
ĠQ o
ĠH ull
Ġdifferenti ated
ĠSym plectic
ĠMP I
ĠSen sitivity
Ġam oeb
Ed ge
I O
[ âĢ¢]
ĠC g
ĠSim ply
OR T
c ircles
Ġun used
ĠII A
inter action
Ġprog ressive
W illiams
b rot
d R
Ġ)] (
ĠO ct
Ġgr asp
Ġstep sizes
cho ice
Ġsal ient
ĠPas cal
ri el
rou x
ĠJ o
ĠPS frag
ĠFace book
R IP
Ġc ela
L ur
f ocus
Ġm and
bounded ness
Ġmov ies
g ler
ĠÎ´ Îµ
ĠÂ´ ,
ĠMST s
Ġintellig ent
Man in
Ġsub words
Ġfil m
ĠTrans mit
semb ling
Ġelectro static
Ġhund red
âĪĴ {
Ġutil isant
Ġsucces sion
ĠContr action
Ġcour be
aly tic
ĠSP A
ĠÅ· i
Ġple th
Ġapert ure
G re
Ġc ow
compact ness
c oupling
ich i
Ġout standing
Ġconsid Ã©r
ĠIs abelle
Ġmanip ulating
Ġanch ors
Ġto s
all is
Ġbr ight
Ġbu ying
ĠGeneral izing
dis sip
Ġc T
or ous
ĠD ually
ĠIS O
ĠDIST RI
Ġc urious
Ġinstant aneously
ref lection
reason able
ĠAr ticle
IC E
asymptotic ally
Ġbe ads
ĠR auzy
ĠM ON
il inson
ĠO ffice
Î± r
Ġres orting
str ings
Ġadequ ately
ĠHal f
pG q
Ġ/ *
ĠQuestion s
Ġco fin
Ïĥ q
18 7
in stant
ĠÎ¼ k
ĠK A
ĠÎ´ L
hel ah
pS q
)âĨĴ (
Ġco he
ĠSym bol
Ġguess ed
Ġthre at
ĠA ward
ĠW ind
Ã© li
Ġsqu aring
Ġ1 15
im m
Ġman iÃ¨re
Ġanne aled
Ġ| âī¥
ĠX r
ĠRel ativity
ĠKÃ¼n neth
k ÏĦ
Ġi B
Ġind egree
Ġclassif ications
Î» p
par ticles
inc hed
D oF
ale v
ĠMid dle
B IC
Ġsequ ents
ĠBer ge
interpre ted
n Îµ
orphism s
bra id
} /
un known
Ġcanon ique
SI R
Ġrepe titive
Ġhel ic
Ġ( âĩĲ
st on
ĠDele tion
Y T
pl acement
ĠSp ectrum
Ġanch ored
ĠGRO UPS
ent hal
Al though
Ġqual ification
Ġillumin ation
H el
ĠK q
Ġeigend ecomposition
Ġe a
Ġche aper
Ġcoll ateral
ĠMa hler
Ġpu isque
ĠOP F
Ġprepar ing
ĠSYSTEM S
Ġinev itable
p rodu
Ġd Î¼
us sen
diffe omorphism
ĠCon formal
ĠBO UN
Ġstand point
is ch
ĠâĨĴ ,
gn er
Ġdisag ree
Ġsupplement ed
Ġturbul ent
Ġrec ru
19 82
ĠEx pres
Ġemphas ise
Ġj a
Ġj ac
Ġparameter izing
Ġb ind
ĠD ri
Ġconst ante
ĠPRO PER
n is
ad ically
ĠÎ» d
ex plo
ĠDG A
ĠSer ver
Ġsoci ety
Ġtoler ate
ĠÎ¾ q
Ġdet our
Ã§ on
Ġsupp oser
âĪĩ (
mod al
Ġsit ting
ĠDM T
Ġcomp artment
Ġlocal ement
ĠSm ale
OR D
cover s
i ation
m d
Ġâ ĳ
Ġd ÎĽ
23 4
ĠMat Ã©rn
ĠMeasure ment
ĠGerman y
ĠÐ ½
ĠNormal ized
D a
ĠE lectron
ĠHom otopy
imod ular
Ġdistortion s
yp roof
Ġunder line
m u
y b
imod al
light ly
Ġstim ulus
k owski
We i
Ġjk l
sen se
ĠCram er
ĠâĪĴ }
Ġlear nt
Ã¨ ne
ob ally
ten ing
Ġinv iscid
Ġhoney comb
Ġt and
ĠI gn
ab et
el ons
fore st
Ġband limited
Ġdegener ated
quoti ents
ĠM ou
ĠO sc
ĠProp agation
Ġl th
Ġaggreg ating
illi ard
re sil
Ġ, ...
Ġ{ âĢ¢,
Ġbootstr apping
l t
ge ometry
ĠInte rest
Ġcommunic ates
Ġst alk
Ġ19 78
l an
| ;
Ġco action
Ġsubs umes
sp anner
ĠPol ar
ĠRefer ring
in clusion
Ïģ n
Ġ1 17
ro gram
ĠR r
au ber
ĠCon figuration
Ġsuper modular
Ġimm une
Ġr amp
ĠÃ ´
Ġsemic ircle
ĠB eck
ĠIn ver
Ġinstant ons
Ġps y
n g
Ġpolyomin o
in volution
od ec
ma pping
Ġfl ood
roid s
d j
ces sion
Ġlocal e
Ġgu idelines
Ġhighl ighting
ĠH urst
ĠÎ± N
ĠÎ» A
Ġrenormal izable
ĠRH P
st arting
ĠCur ve
Ġrare f
Ġairc raft
T u
av is
Ġsom me
Ã©qu ation
st en
ĠOb s
Ġdis integration
Ġsub term
Ġcorrel ator
ĠÂ±âĪŀ .
Ñ ħ
ec tif
ĠSS C
G ra
L Z
Ġv h
ĠSte en
ĠMonot one
Ġc ad
ĠT ang
ĠS SS
M er
ĠÎ´ Î»
ill ance
ĠâŁ¨ âŁ©
ac i
ĠW Z
ĠÎ³ g
ĠÏĢ p
Ġcr ack
ĠAm b
ham el
Ġle pt
Ġtw enty
Ġrep ly
ĠSe idel
Ġhyperbol a
Ġ/ [
Ġscientist s
Ġdie lectric
[...]
