[PAD]
[UNK]
[CLS]
[SEP]
[MASK]
!
"
#
$
%
&
'
(
)
*
+
,
-
.
/
0
1
2
3
4
5
6
7
8
9
:
;
<
=
>
?
@
[
\
]
^
_
`
a
b
c
d
e
f
g
h
i
j
k
l
m
n
o
p
q
r
s
t
u
v
w
x
y
z
{
|
}
~
¡
¢
¤
§
¨
©
«
¬
®
¯
±
´
µ
¶
¸
»
¾
¿
×
ß
ð
ø
þ
ı
ł
ȷ
ˆ
ˇ
˘
˙
˚
˜
˝
α
β
γ
δ
ε
ζ
η
θ
ι
κ
λ
μ
ν
ξ
π
ρ
σ
τ
υ
φ
χ
ψ
ω
ϑ
ϕ
ϱ
ϵ
а
б
в
г
д
е
ж
з
и
к
л
м
н
о
р
с
т
у
ф
х
ц
ч
ы
ь
ю
я
‖
†
‡
•
…
‰
′
‹
⃝
ℏ
ℑ
ℓ
№
℘
ℜ
™
ℵ
←
↑
→
↓
↔
↕
↠
↭
↶
↾
⇂
⇐
⇒
⇓
⇔
⇕
⇛
⇝
∀
∂
∃
∅
∆
∇
∈
∋
∏
∑
−
∓
∖
√
∝
∞
∣
∥
∧
∨
∩
∪
∵
∶
∼
≀
≃
≈
≊
≍
≜
≡
≤
≥
≪
≫
≲
≳
≺
≻
≼
≽
≾
≿
⊂
⊃
⊆
⊇
⊊
⊋
⊎
⊏
⊐
⊑
⊒
⊓
⊔
⊕
⊖
⊗
⊘
⊙
⊛
⊟
⊠
⊢
⊣
⊤
⊥
⊨
⊩
⊲
⊳
⊴
⊵
⊺
⋀
⋁
⋃
⋄
⋅
⋆
⋉
⋊
⋍
⋗
⋯
⌈
⌉
⌊
⌋
⌜
⌝
⌟
⌢
⎧
⎨
⎩
⎪
␣
①
②
③
■
□
△
▶
▷
▸
◀
◁
○
◻
♡
♢
♣
♭
♯
✓
✩
✶
❑
⟦
⟧
⟨
⟩
⧹
⨿
⩽
⩾
⪇
⪯
⪰
⫋
〈
〉
𝐴
𝐵
𝐶
𝐷
𝐸
𝐹
𝐻
𝐼
𝐽
𝐾
𝐿
𝑁
𝑂
𝑃
𝑄
𝑅
𝑆
𝑇
𝑉
𝑋
𝑎
𝑏
𝑐
𝑑
𝑒
𝑓
𝑖
𝑗
𝑘
𝑙
𝑚
𝑛
𝑝
𝑞
𝑟
𝑠
𝑡
𝑢
𝑣
𝑤
𝑥
𝑦
𝑧
𝒞
𝛼
𝛽
𝛾
𝛿
𝜀
𝜂
𝜄
𝜅
𝜆
𝜇
𝜌
𝜎
𝜑
𝜔
𝜖
𭟋
##o
##a
##d
##s
##q
##∥
##4
##i
##p
##t
##k
##u
##r
##e
##f
##n
##h
##8
##3
##5
##l
##c
##v
##z
##x
##λ
##6
##1
##w
##∩
##b
##g
##y
##≤
##π
##m
##2
##9
##j
##←
##0
##−
##7
##µ
##ℓ
##´
##ψ
##∈
##ϵ
##σ
##β
##δ
##⊗
##𝑟
##∼
##×
##∃
##⊥
##μ
##α
##ϱ
##ˆ
##𝑖
##ε
##𝜖
##φ
##τ
##→
##ω
##γ
##θ
##κ
##∆
##∀
##𝑃
##∧
##⊆
##⩽
##≥
##⊂
##η
##𝛽
##𝜎
##ø
##𝑗
##𝑠
##ν
##∪
##и
##ц
##ξ
##е
##г
##у
##л
##я
##р
##н
##а
##ρ
##𝑉
##∂
##□
##ϑ
##∞
##ß
##△
##⊢
##𝛼
##↓
##ϕ
##∅
##𝑒
##¬
##√
##м
##о
##ж
##⇒
##∨
##χ
##¨
##𝐵
##⊕
##∇
##𝐶
##⋊
##с
##т
##±
##к
##д
##˙
##⊟
##𝑥
##⋅
##˚
##™
##𝑡
##⩾
##𝑘
##𝑎
##ζ
##˜
##ˇ
##▷
##ф
##⌝
##𝐼
##∋
##𝐻
##ȷ
##𝑛
##𝑙
##ı
##↾
##в
##⇔
##˝
##↑
##◁
##𝑢
##①
##ч
##𝜑
##𝜅
##⋆
##⊤
##𝑣
##∑
##з
##ы
##х
##↔
##𝐽
##■
##⪰
##ю
##ь
##ℜ
##↠
##⊖
##⇂
##®
##𝑇
##♯
##𝑦
##≡
##б
##ł
##¯
##⊙
##♢
##𝑏
##𝑚
##𝒞
##𝑐
##𝑧
##𝜂
##▶
##ℏ
##𝑋
##𝑤
th
the
##er
##on
##ti
##or
##in
##es
##nd
of
##at
in
##en
##al
##tion
##it
##ed
##ro
##ar
and
is
##an
##re
##le
##om
##is
##ing
to
##et
for
that
we
##ly
pro
##ch
##st
##ec
##ll
##ith
##ow
con
##as
##ce
##ve
on
##ut
##em
##ation
##ic
##ent
##im
##ra
an
su
be
com
##ou
##ot
wh
as
##si
##ab
al
comp
with
by
st
##ol
##um
##se
de
##ver
##ul
ex
##ity
re
this
##am
po
##ur
##ct
it
##ig
if
##pp
##ction
are
##ri
##qu
##ph
prob
##tin
##ir
##il
##th
##tic
ma
##lem
##te
can
##ts
##od
##ting
set
not
ver
alg
##raph
theor
then
let
all
cl
##og
##iz
at
##ain
##un
##ound
##ithm
##rom
res
ha
##oll
##fin
from
##ial
##ate
par
there
##iv
or
##orithm
algorithm
##pl
sh
se
##ge
whi
##ess
problem
##ach
##ect
##ere
app
##ant
graph
##id
such
##ollow
follow
##el
qu
defin
##of
theorem
##ter
un
##if
le
poly
dis
which
bound
have
##ma
comple
##ari
##ence
const
ch
##per
##us
proof
log
ne
##ati
##ure
##able
each
##igh
lem
comput
us
##ree
##ore
tim
ed
##res
##tain
##der
##omial
##ber
sub
any
lemma
##ru
sp
##unction
##ition
##and
20
one
where
##nomial
function
time
polynomial
has
##all
##erm
##oc
##put
ob
##act
##ost
##ine
##ies
mat
##ges
pa
ar
ind
ad
##ard
##ally
im
vari
##ad
##abil
##ase
##ill
show
num
##pe
##ay
tw
##tive
##ution
##orm
number
giv
##ations
##ome
##ary
##os
##ection
complex
two
sin
our
cor
##very
##ability
will
form
sim
##sion
resul
every
##sf
sy
some
##xim
fin
no
##ose
##ac
##ther
equ
since
ass
en
##ond
complexity
co
only
##ents
##ight
following
val
##ance
case
fir
##ize
ab
sol
first
most
ac
##tex
##ast
##ple
##so
##ass
##rib
##ric
appro
given
also
##atisf
##fic
exis
out
deg
##−1
other
##ated
##int
so
satisf
sam
do
##andom
exp
vertex
col
input
##ener
vertic
10
##po
##ite
mod
##pt
inst
##les
int
−1
min
vertices
random
dist
inter
##fer
##ak
gener
pr
size
##ps
##edu
den
##ue
##ds
follows
over
##ise
class
##ower
##ud
pl
19
assum
inde
##sider
consider
##sition
str
non
##ath
##est
dec
probability
cla
##tim
wor
##oth
section
##ust
more
##ix
##ates
definition
##ble
##ace
rel
pre
thus
rec
op
contain
##ors
edge
these
ev
constru
when
now
##pend
redu
denot
##enti
201
##its
line
det
##ong
fact
use
tr
##ous
##now
approxim
##ables
least
##dition
note
see
##ang
obtain
nod
##du
using
than
hard
me
degree
path
imp
##eth
quant
##ers
its
##ular
##ffic
##ced
##etw
##ness
variables
lower
edges
##rou
di
quantum
##our
rem
problems
sym
##ces
graphs
distrib
##cu
##ment
abo
exists
des
##sp
##iqu
##ality
200
##vi
##amet
computation
##ld
##ical
prov
parti
same
sm
##gn
##cl
know
sc
hol
##ied
prove
##ized
order
bo
ste
inte
solution
proper
##ermin
instance
but
supp
id
##position
define
und
cont
##ints
max
dif
paramet
##pond
11
##gh
##fore
result
##ffici
cir
##ning
corres
correspond
##eng
##ks
##ort
mul
algorithms
##rix
integ
model
linear
##ould
##ram
how
##ings
##ty
fix
##sis
##ser
distribution
resp
ro
##rect
constant
subs
##een
##age
betw
between
hence
##par
fig
##ication
defined
##ding
results
##resent
##ength
circu
matrix
##ties
##ected
small
##ten
tree
conn
lar
##use
denote
formul
impl
optim
##ion
inf
##ective
general
bas
##ign
constra
np
multi
functions
assume
differ
output
##ique
condition
##ently
##ization
bounds
lab
state
above
##ish
##ative
sets
12
##ves
claim
length
call
value
reduction
under
color
##sign
man
obser
elem
rep
independ
##istic
pos
##ew
assign
##ag
dim
##ap
per
pair
syst
does
vect
both
##oun
##ide
exam
complete
##cess
hy
need
into
bounded
##ating
sch
spec
##ether
new
weight
disc
label
##ice
##ans
system
ty
bl
parameter
exact
variable
figure
theory
maxim
possi
cho
requ
therefore
appl
implies
##wise
even
tak
bec
tri
anal
##bit
node
##ke
quer
##ever
sec
tra
##cle
##ving
##vers
match
##ier
##graph
proposition
vi
##ilar
inc
##uting
rest
af
##ear
similar
##iel
prog
comm
ran
##ved
##orph
go
te
##ator
finite
unif
known
##ole
minim
mach
equiv
step
must
partition
contains
used
##ism
partic
holds
##ack
##ive
may
uniform
am
##tical
##ension
suppose
point
valu
work
##ruct
desc
##clud
sign
oper
equival
approximation
##etric
comb
##get
13
determin
sequ
dimension
program
##ted
er
run
was
ph
##ame
second
up
reg
subset
##ject
sum
construction
##ption
struct
fur
their
corresponding
fixed
example
large
##ying
particular
em
they
computing
independent
##ual
ag
##rodu
eas
arg
pages
construct
##als
##ail
jo
##ie
14
##ceed
contra
##sitive
indu
##ero
bel
##ither
exist
otherwise
paper
term
get
##ip
introdu
##eb
way
however
well
circuit
cy
lear
16
possible
say
##ential
##ily
##plic
199
here
combin
space
##ark
##ee
remain
##ough
##tal
produ
loc
et
add
end
boole
connected
boolean
##urn
##omorph
##ause
star
##ases
many
mon
ij
##ss
bi
15
##ures
optimal
consis
coun
cle
exactly
real
grou
either
##chn
sci
different
prot
because
positive
ent
integer
math
restric
would
##ern
2n
##out
##equ
whether
##ft
subgraph
analy
rank
apply
main
represent
techn
formula
##ry
coroll
err
nodes
meas
total
##ens
high
##ples
upp
inequ
depend
vector
##idth
##xt
##arch
##val
perf
tran
computational
##ormation
##ocol
proceed
upper
##cc
cover
protocol
corollary
##ist
property
##over
##ord
sing
round
version
satisfies
##vel
##old
describ
hom
direct
ga
find
##ian
17
cer
##vious
bin
symm
li
while
values
called
wr
algeb
##not
dom
inv
##ision
obtained
simple
next
sat
allow
points
##fficient
##ational
hardness
zero
norm
mo
constraints
##osed
stud
hyper
play
##op
##one
##adget
gadget
##ov
tru
##cept
commun
##ell
uni
requir
##de
gu
machine
ii
sequence
argum
pp
assignment
computer
been
strong
fam
polynomials
nat
##ful
appear
##nal
respective
##iti
arbit
arbitr
##ata
error
##eck
part
matching
sem
char
elements
give
algebra
specif
whose
cod
lang
compon
18
##ments
three
acc
##are
true
gives
disj
fl
recall
hand
compute
conject
verif
##ighb
##ural
maximum
clear
learning
##estion
equivalent
question
neighb
root
cut
langu
lat
present
##ances
right
acm
based
##omorphism
factor
without
bloc
##ement
observe
single
stand
cannot
row
unique
constraint
aut
##ities
left
##uring
##edi
perm
respectively
stat
meth
process
finally
assumption
method
element
he
##esting
dep
plan
after
##line
spar
type
sur
properties
information
sa
query
neg
##ences
them
structure
lea
##ible
expon
cases
##ral
si
decom
charact
##pr
separ
##ically
moreover
br
measure
eq
univers
symmetric
##cy
identi
##dic
##tend
communication
ser
inequality
##ub
##tiv
21
satisfying
##nf
contradic
ret
##ner
extend
classical
##ff
initi
ide
##atic
classes
binary
terms
proceedings
character
##ately
addition
shown
csp
shows
typ
simul
previous
standard
ora
states
##lement
##ines
prim
deterministic
approach
product
science
dele
repl
cost
setting
circuits
conjecture
test
##ward
mathem
##plit
check
##ming
fe
arbitrary
impro
inputs
cycle
der
##oci
bit
indeed
##dd
equal
##iter
respect
##ull
distance
##vial
analysis
##way
easy
depth
##ork
##fficiently
##rough
bits
n−1
##oint
equation
##ib
index
string
decision
##parti
##jective
##tice
family
correct
##00
game
##ck
discus
enc
disjoint
instances
##clude
lo
group
clause
refer
##tern
##man
hal
colum
##ature
column
coloring
argument
split
perform
free
##urr
##finite
adj
##ire
power
tens
job
1−
##ications
##ress
##bol
est
oracle
natural
yiel
prec
through
return
##cs
list
##lish
last
found
ann
##space
2k
proced
further
queries
special
observ
back
sl
distin
jour
short
decomposition
##ateg
gap
##ages
relation
##anti
block
##rees
##sium
biparti
ca
data
##jection
##ants
incre
local
##lection
##olog
sympo
22
transf
##rid
running
journal
vol
##rices
eval
similarly
mem
open
##lf
##medi
being
es
tu
vectors
symposium
weak
write
##verse
23
trivial
ext
chan
fiel
about
##ton
clique
##ecess
conf
permut
24
again
##ernel
##entially
distinct
kernel
##vex
unit
bu
take
computed
cop
##inger
approximate
partial
before
furth
convex
choice
dimensional
##ided
very
##ermore
furthermore
sti
means
initial
##resh
##ha
sen
##ger
##ussi
##width
##sequ
make
##ady
algebraic
procedure
##uses
##sive
below
##pty
statement
##sw
adjac
26
##row
remark
coe
proved
act
termin
win
##ick
associ
satisfi
discre
##ok
strateg
could
mak
encod
liter
parameterized
search
times
##bits
bipartite
indic
rob
conc
exten
paths
pairs
fra
those
##itive
numbers
i∈
##tific
##ablish
el
close
##ides
expl
##other
just
25
orig
minimum
occ
triang
##ordin
symbol
hyp
another
closed
via
origin
planar
##ich
randomized
combinator
systems
sd
coordin
thresh
counting
solutions
regular
hypoth
adm
top
##end
##lect
trans
##etic
##ording
##inc
prop
matrices
pres
##osen
##ey
##ames
conditions
uniformly
ham
##uish
##tinguish
within
notion
according
satisfied
good
establish
computable
necess
##ually
##ead
##ways
iter
still
always
##vice
27
##xiv
gre
##alle
language
ach
due
clauses
choose
negative
name
arxiv
weighted
##ply
related
contradiction
lim
hypothes
answ
scal
quanti
schem
precise
foc
suc
threshold
require
gl
##ries
clearly
##na
##ics
##ention
i−1
remains
level
like
198
ge
##aces
efficient
ln
turing
##ax
notation
gaussi
exponential
table
probabil
paralle
##ild
formulas
induced
##ys
##tivity
##uch
super
words
tract
##av
sample
dy
##ule
##gin
interval
certain
component
satisfy
##iques
div
distinguish
achie
def
##ility
inters
mean
remo
pse
import
domain
##−2
##rection
##less
pseud
siam
extension
netw
##ression
##ile
qubits
100
##ute
detail
steps
outputs
32
required
long
evalu
sparse
uses
enough
##anch
study
tensor
31
mark
hold
chosen
parameters
av
##oss
aver
##son
##ators
turn
##onst
programming
annual
estim
spr
empty
less
##imin
ens
28
described
strings
##uted
position
##igur
normal
tog
instead
##led
together
##ory
gate
conv
immedi
minimal
##ason
repe
width
what
##for
##01
odd
##most
la
wit
##aran
doi
hypothesis
games
##sat
##raw
optimization
branch
mar
advice
denoted
restriction
ess
k−1
springer
done
infinite
hier
representation
neighbor
alice
treewidth
discrete
##onal
distributions
reason
applications
##ters
sever
emb
strategy
player
basis
belong
homomorphism
ref
##arily
universal
29
conclude
machines
union
##ights
##lin
accept
finding
feas
bob
##ference
permutation
##ready
valid
197
deriv
already
##ects
several
##ctive
map
corresponds
existence
associated
qubit
relations
direction
yields
hierarch
projection
proofs
showed
mess
altern
##teness
entries
parallel
##rict
au
were
yes
applying
low
average
ax
iee
works
consists
configur
ieee
explic
adjacent
view
autom
weights
explicit
simply
gaussian
cnf
##ume
analog
##ym
models
containing
witness
##eous
guaran
strict
##ograph
operations
guarante
ra
answer
reductions
observation
cent
reach
important
squ
testing
##ired
−2
cell
draw
start
discuss
basic
requires
30
relax
induction
should
span
restricted
geom
multipl
appears
original
combinatorial
##cep
implement
##ind
embed
side
##pping
##bly
post
simpl
##ology
##ency
incid
smaller
eig
contained
support
jobs
##to
equations
loss
colour
certific
solve
denotes
applied
cre
sw
##action
online
completeness
phase
easily
field
lead
pri
includ
interp
eigen
describe
code
identif
interesting
consequ
sampl
design
volume
gates
imply
components
mathematic
fail
mer
rule
spect
2d
opt
##cp
##fficients
remaining
coefficients
best
introduction
invari
##gest
much
makes
∥x
diag
half
##ron
##vant
eff
rational
once
##ised
sufficiently
takes
01
tas
##ood
notice
equality
signature
cs
introduce
directed
expected
##ob
##nam
##izing
##omes
fal
integers
cal
##ilton
vot
##ruction
princ
pat
sdp
bet
techniques
proving
precisely
rows
namely
four
samples
##sk
##ia
solving
maj
resear
research
33
subsets
multiplication
##izes
fraction
stre
noise
among
##qp
select
provide
read
idea
2009
labeled
constructed
##til
compar
fast
iff
modif
considered
lin
labels
operation
invol
having
robust
hamilton
##usion
append
taking
place
hierarchy
ap
resulting
tractable
suffic
dynam
parity
larger
34
full
fp
##cul
contrib
##ik
##und
contin
exec
monot
suffices
2010
begin
minor
##rier
##atis
computes
2014
scheme
access
replac
##cles
mathematics
mention
probabilistic
recur
phys
distributed
integral
##ai
##know
far
##do
##ract
allows
2012
consist
##uth
##ult
curr
##sity
cons
##asing
##etical
##11
studied
##ze
prom
formal
abs
introduced
transform
tight
##09
conj
##ules
technical
self
##au
along
2m
bar
groups
##off
repres
maximal
useful
descri
leaf
contex
##con
occur
##ets
algorithmic
domin
move
additional
trees
theorems
##12
stra
perfect
languages
false
better
dt
asym
expect
rati
##lu
solved
wal
##etermin
satisfiable
##iding
simplic
stoc
corre
later
leaves
types
interest
##ape
flow
intersection
key
35
fo
ir
##ash
goal
efficiently
thir
accep
definitions
du
fpt
tile
success
few
##ues
##cing
##etry
conference
item
##fine
desired
##ather
replace
appendix
improve
assuming
sched
ima
##tan
36
showing
##clusion
hypergraph
logic
word
starting
##ratic
monomial
pred
event
##cting
##ably
depends
deletion
almost
intern
preser
description
x∈
##adratic
vc
##vable
express
##10
##chan
##assi
pi
rounds
immediately
til
subm
rect
##sh
##arl
assignments
verifier
incident
proc
2015
hamiltonian
##rop
mom
##tes
##ermine
fram
determine
tar
statis
##tt
##sible
att
2008
calcul
context
##side
backdo
memory
multiplic
37
relative
ratio
##onn
chain
essentially
ill
clos
application
directly
configuration
fac
##arithm
semi
##gment
smallest
extended
difference
might
pick
rather
lemm
feasible
send
entry
##atical
##08
##own
##time
limit
arithm
2013
needed
columns
cand
##ecting
constants
##fication
adding
identity
near
sense
arity
branching
38
##fe
resol
formally
mathematical
sent
##ific
generated
straight
##idd
objective
examples
interpre
42
though
schedul
candid
var
##02
except
pop
child
tem
##ety
expression
third
##itting
able
affine
series
##ements
generality
##view
admits
copies
coordinates
great
independently
prime
##rac
theoretical
##orphism
gadgets
##hn
##eni
uv
##cible
##point
necessary
−i
##anced
##ured
decre
encoding
scaling
final
signific
framew
fr
international
rece
##omorphic
##we
bal
upd
kl
rectang
fou
##17
##umer
collection
##ustr
discussion
certificate
sk
##mar
##tically
unless
influ
member
pot
multiple
fourier
base
diffic
colored
operator
##fa
##hood
##alities
down
##ott
action
want
##ount
reduce
##tit
##forward
dynamic
##04
##irect
conver
##phab
equivalence
technique
hor
##ogen
iden
##velop
neighbors
39
n−
##05
##ross
alphab
##pto
trace
common
details
pin
prel
2016
codes
message
dual
eigenval
##eterministic
pub
##iting
solvable
structures
coll
seen
bre
gold
tes
##03
##ann
##ource
programs
inequalities
##linear
sufficient
contro
x∼
often
arc
runs
correl
rad
beha
develop
black
significant
change
##07
made
whenever
lemmas
prelimin
boundary
nonz
returns
network
illustr
backdoor
hel
2011
##ridge
task
gra
##13
enumer
arguments
tuple
triangle
focs
nonzero
dem
put
viol
monotone
##self
mapping
##aries
polynomially
embedding
stream
straightforward
cos
rules
##lying
major
grid
stronger
quantif
mentioned
framework
quadratic
intu
measurement
consistent
##ift
becomes
specifically
##vp
##grou
##ler
parts
##clic
regis
writ
coordinate
arithmetic
cr
core
sit
##uous
##orks
logarithm
modul
foundations
shar
players
##app
isomorphism
reduced
truth
partitions
count
latter
presented
##16
2017
nond
subspace
strictly
recursive
asympto
car
##15
##be
learn
current
##ising
orth
htt
##sitivity
analogous
mix
itself
classi
org
seem
##ices
guess
##irected
variant
equals
iii
obvious
underst
combining
##18
verify
shortest
predic
cap
fre
##osing
improved
##lic
##bound
syn
assem
gr
##set
2007
undirected
sequences
##ush
box
cycles
##onstruction
43
pv
##enting
allowed
connection
focus
target
alphabet
generalized
canon
indices
promise
##osition
stated
slight
actually
j∈
##ca
methods
bag
lines
regard
transition
pattern
satisfiability
spe
2006
invariant
ber
grow
vis
theoretic
various
proves
belongs
##ne
completes
##berg
unc
underlying
automata
pt
##otom
arcs
colors
provided
specific
university
decide
earl
expectation
##pri
##wh
press
auth
pseudo
hitting
##log
lect
pur
##ons
complement
happ
2i
card
##atures
bad
pol
valued
##vari
networks
2c
48
appropri
randomness
tool
stor
range
simplif
##14
outc
ones
pref
necessarily
isomorphic
##pped
holant
subsection
processing
else
inner
##itch
##print
checking
##bert
2004
integr
applies
represented
canonical
tre
na
recent
har
##cial
##ev
##bility
realiz
mich
##amb
expan
decod
##oses
earlier
prac
sound
##ental
numer
tiles
walk
greater
46
expand
largest
##pa
written
lay
##ered
##ilib
computations
edit
2005
ensure
conveni
spectral
red
##nel
include
party
geometric
45
protocols
homogen
enti
##ef
sensitivity
symbols
break
toward
rele
##perim
colorable
blocks
transformation
cn
##xp
equilib
drawn
maps
equilibri
3d
princi
j−1
##me
##∈s
##lex
neighborhood
situ
provides
literals
##ope
##gments
relaxation
cf
during
stable
matchings
capt
square
prior
csps
image
expansion
sug
until
glob
switch
##06
##entr
sink
added
lattice
sampling
diagonal
44
bott
del
never
create
receiv
bro
including
dx
om
rate
subt
forms
##ibility
consequence
contribution
too
stage
2001
cour
notes
advers
mechan
depending
statements
off
semide
##ader
##tics
literal
lecture
fund
∈e
thin
quas
surjective
squar
pure
density
generalization
##idden
rig
positions
interpret
alth
##ogn
pack
clean
explain
##known
##taneous
concept
composition
fields
estimate
although
2π
pass
pspace
linearly
##itz
approximating
counter
ben
nor
##chotom
conditional
assigned
ps
##spaces
consisting
##pc
adv
labeling
4n
satisfaction
increasing
understand
ful
occurr
replacing
ori
##ank
determined
specified
simultaneous
recently
factors
motiv
selected
represents
##appro
unknown
rounding
characteristic
nondeterministic
source
##ior
##ams
characterization
copy
statistical
influence
cru
##och
##iom
unary
aff
axiom
##ship
scheduling
##io
isol
achieve
had
degrees
needs
∥x∥
metric
##oid
##ius
vers
reconstruction
recogn
possibly
avail
leads
slightly
semidefinite
orient
bz
gro
address
balanced
help
3n
a2
d−1
who
leg
argue
cc
jun
##ao
##tur
##vc
prover
reader
dense
ideal
accepts
potential
majority
cross
increase
cardin
fa
lt
incom
49
push
ask
considering
worst
belie
##ug
role
epr
ip
##uk
##ling
conclud
buil
identify
##bounded
prefix
##approxim
van
−n
−c
##up
iss
polyg
look
##li
signatures
arbitrarily
primitive
identical
available
dav
##face
conclusion
she
bottom
fundam
cri
gp
##tig
subd
exponentially
tensors
his
lp
suit
##ulation
unbounded
equivalently
##cker
anc
polyto
subsequ
famil
homogeneous
##chotomy
polytope
cur
sph
##anted
transl
53
##zz
##78
##turb
subgrou
build
discussed
40
##eti
##uster
channel
control
letters
uns
advant
moves
throughout
register
fol
correctness
membership
−→
questions
guarantee
effective
situation
hull
2018
comparis
assembly
crucial
##tn
##ren
converse
agent
purp
sv
thesis
strength
pairwise
continuous
dag
##cri
planted
inform
report
perturb
loop
tuples
extre
explor
iteration
link
occurs
rew
connect
rich
surve
##ropy
cardinality
kh
xy
##pan
##jects
##edule
schedule
taken
appropriate
bod
##sel
degener
locally
explicitly
irr
behavi
logarithmic
david
critical
##ael
##pro
choices
principle
##ms
##part
turns
alternating
difficult
dig
pe
v∈
ordering
subgraphs
separation
typing
##ledge
##ski
absol
update
polym
willi
##naps
absolute
cd
cry
sos
w1
##red
defining
usa
entropy
gaps
64
aar
##ectivity
none
versions
lies
2003
radius
towards
subdiv
2t
ssat
##zation
##tif
experim
ball
mc
##ased
coh
##poly
a1
subst
deciding
amount
safe
polymorphism
bor
−k
inverse
internal
assumed
detection
john
assumptions
previously
knaps
##97
2002
inductive
capac
quasi
advantage
54
eth
pet
##ious
join
strongly
##ological
tape
inapproxim
##round
proposed
intuitive
entire
knapsack
rough
##iable
##wpp
quite
choosing
bis
lie
trade
repeated
47
50
jum
rna
±1
##rum
##hl
operators
contrast
messages
geometry
interested
dan
actual
execution
orthog
d−
pu
##exp
compati
knowledge
fli
said
coefficient
nice
yet
sections
##eep
elimin
modulo
##izations
adap
dichotomy
weaker
remove
evaluation
bd
fan
going
1999
roots
decomp
submat
closure
mechanism
dou
opp
−t
##chron
additive
faster
piec
irredu
52
ic
pc
w0
inves
obst
conditioned
unitary
classification
packing
inapproximability
2a
rev
shall
acy
preced
reduces
1997
sentence
soundness
investig
##riting
finish
##asser
dr
kar
inside
##asz
##emp
196
blue
analyze
robber
michael
camb
ko
##utes
que
admit
tableau
immediate
moments
candidate
asymptotic
equilibrium
##romatic
##points
combination
55
n1
cambridge
york
##hi
##ste
##ict
preprint
repeat
restrictions
relevant
polygon
around
ring
ordered
derive
probabilities
inser
yield
established
gvc
##tions
review
##tency
replaced
ram
##hed
##by
##etch
substit
observed
independence
3i
util
##ta
##erg
##edy
concentr
hamming
expressed
why
consistency
measures
alternative
eigenvalues
rigid
41
bic
higher
simplicial
fundamental
literature
sketch
hu
mn
sig
##dp
remainder
delete
concludes
crypt
capacity
tv
##zed
measurements
simulation
kernelization
dn
peb
forb
defines
formulation
determinant
contraction
acyclic
lis
mis
soc
##ani
generate
completely
2ℓ
arra
outside
amb
fails
http
ce
soci
##eto
giving
##cube
removing
ensures
moment
synchron
realizable
rot
t−1
##45
##utive
##bou
##ins
ing
##ock
approximately
central
children
shared
fully
orthogonal
##isation
sup
compact
solves
1998
performed
acceptance
beginning
dp
##cut
##vity
##umm
refin
manip
indexed
##mediate
terminal
irreducible
bra
items
gen
##odular
bounding
##max
##ameter
ways
ideas
trivially
tractability
viewed
course
roughly
eu
##por
onto
extra
martin
cells
lov
connecting
making
sugges
mos
sq
intermediate
##ested
content
raz
attach
##neg
families
##cript
society
2r
ow
xi
##ient
##ises
arri
adjacency
dedu
gram
sort
unf
acknow
lengths
unsatisf
i1
m−1
s1
##ane
impos
sparsi
representing
ancill
fill
keep
lif
##war
##ulty
chr
endpoint
neighbour
contradicts
splitting
her
##az
##99
competi
overall
voters
horn
survey
submatrix
bern
sak
tom
generic
##ude
initially
performance
global
aaron
00
cub
##tle
deal
whereas
summar
estimation
consequently
subgroup
##ded
randomly
##anged
derived
simplicity
monomials
bri
tail
∀i
ada
intract
simpler
accepting
improvement
candidates
preliminaries
seems
comparison
care
dumm
kn
tc
wl
−ω
##vals
editing
generally
overview
1007
56
##iers
forest
atom
##times
reducible
##ipal
produces
correctly
squares
extreme
zh
infin
spaces
##ography
##onnected
layer
lu
andre
force
dev
cluster
plac
dummy
##98
2000
endpoints
tucker
schemes
guarantees
sends
frequ
suitable
dar
##ops
##urally
easier
nearly
omit
compatible
competitive
lasser
##ortion
##ecutive
produce
universe
server
simulate
consecutive
lasserre
1≤
2q
57
fil
iv
pers
zer
##rs
##×n
##omin
smo
sparsity
iterations
marked
principal
xj
⊗n
outer
constructions
implementation
##like
acknowled
##∈n
##idual
variants
sometimes
claimed
additionally
succeed
meaning
aaronson
hc
∥y
##ura
##fs
##eness
generating
triangles
nested
ready
unlike
variance
bias
colouring
physical
rectangle
correlated
outcome
len
##aton
seed
pay
configurations
intuitively
smooth
ker
##ited
white
area
neither
achieved
markov
##ographic
preliminary
demonst
mixed
##stein
comes
magn
chen
summ
infinitely
adaptive
##iant
##orov
covers
nonneg
112
sciences
75
big
face
thank
permutations
developed
authors
adversary
3sat
##reg
##read
joint
says
height
2b
3k
reject
chall
levels
merlin
involved
2−
ng
wide
##19
##tine
polylog
become
increases
removed
adapt
rt
ul
wise
abst
triple
naturally
topological
defa
significantly
criter
behavior
bb
cg
p−1
valiant
recover
constructing
symmetry
powerful
avoid
q−1
##ined
plus
##anging
multiset
plane
shortcut
58
99
x1
##go
##atch
anti
nois
prepar
restrict
head
halting
changes
normalized
##sky
##oting
##orandom
##oda
##idable
paul
variety
maintain
dependence
relaxations
speak
02
jac
sgn
vw
##ware
insp
segment
notions
##bqp
exter
overl
finitely
determining
1995
rooted
quantity
pseudorandom
aux
diagram
¬x
≥0
##sum
##ring
##tible
diameter
labell
partitioned
covering
gave
propag
supported
eigenvalue
##boux
darboux
68
hil
pm
ℓ−1
##oy
##ongest
reals
ith
ijk
weakly
think
obstruction
veto
multilinear
monom
center
kr
##lag
subject
##gnos
singular
encode
grammar
bc
inclusion
shif
energ
obviously
2p
a∈
don
kind
⇐⇒
##gs
##itary
##ili
ary
combined
tempor
fut
##bo
##95
##ley
##ivari
##eld
somewh
representations
halfspaces
simultaneously
future
bqp
##93
##olor
##plif
shape
page
proven
conjunction
happens
tools
noisy
donn
n0
wi
proj
asp
##izon
computers
connectivity
calls
1994
primes
priv
multiplicative
regarding
editors
lovasz
03
67
∃x
∥p
##ford
papers
ppa
projections
2g
agnos
##nds
stabil
cliques
divis
detailed
tasks
sphere
suff
##unctive
##pser
hypered
sipser
extends
requirement
postse
demonstr
usual
##ewise
gets
winning
sampled
tests
convenience
understanding
impossible
##kh
##jan
##olution
seth
nont
manif
upon
structural
induces
entang
surface
strategies
interpretation
external
dq
pcp
wol
##ras
##her
##onic
inver
##osite
distinguished
horizon
williams
concentration
brief
nonnegative
default
mor
uc
##orting
mapped
artic
infor
guaranteed
merge
polic
broad
cw
election
finger
p1
##rivial
enfor
intervals
dimensions
extensions
implemented
energy
nontrivial
sizes
soda
##astic
##eless
covari
##ighted
implic
deleted
effect
capture
conversely
lwe
tric
σπ
##ave
##ham
sher
former
coinc
existing
starts
issue
62
lit
##mp
edcp
indiv
randomised
goes
cyclic
separator
typical
slice
essential
integrality
digraph
puzz
array
04
yao
reverse
share
eds
##erman
flat
against
modified
practical
daniel
temporal
somewhat
2s
mut
sized
stoch
verlag
##active
triples
amplif
simplex
processes
##mann
author
believe
jus
##oti
flip
longer
repeti
interpol
enumeration
rm
tion
∥w
##−k
progress
errors
hyperbol
winner
augment
includes
multiplicity
legal
63
bridge
kol
ss
san
##unc
##unately
eventually
https
forbidden
gm
mp
##he
##com
##iner
hash
minors
partitioning
signed
depic
failure
dominating
placed
kal
pps
sided
##94
generators
verification
##sively
closely
iterative
answers
margin
certificates
tester
receives
vanish
tradeoff
ji
lwpp
##37
##bm
runtime
nature
greedy
##conv
vcsp
switching
article
implicit
2j
aa
nw
rs
variation
##ossi
generalize
powers
quantifier
##paq
purpose
e1
lm
##ah
##ging
##orts
##ests
##isan
##idence
lex
decompositions
achieves
lapl
fool
berlin
own
pd
rp
sb
∥a
##ka
project
reve
smp
etc
explo
abstract
gal
t1
subexp
asser
cops
try
obtaining
possibility
propositional
i∈s
scale
axioms
e0
##yan
##empty
usually
artific
vertical
2019
subsam
concern
automaton
physics
relatively
strengthen
zeros
artificial
aim
away
ku
##ae
##−i
##ali
##ami
twice
nonempty
approaches
compared
involves
outcomes
informa
stochastic
bul
qma
##lo
prof
stack
atten
facts
sums
covered
kernels
08
ls
les
nq
##sch
##ki
##bdd
forced
##atives
finds
1991
leading
duplic
perturbation
06
herm
hidden
ray
sides
##td
##ep
##bre
thom
injective
toler
letter
interaction
relies
optimum
1996
accepted
calculation
##variate
versus
##going
4k
cp
did
lift
performs
refere
derivation
violating
deduce
hilbert
hyperbolic
2ϵ
fro
vs
##aps
##92
conp
bey
selection
che
##ocks
multivariate
1993
bijection
acts
proportion
reasonable
decoding
attention
3sum
66
hon
medi
pour
whole
resolution
psd
51
oct
##enk
shift
##idel
pathwidth
computationally
evaluate
homomorphisms
identified
actions
illustration
subtree
bs
##ned
##hing
##hip
##90
##σπ
##onential
##igrou
modular
containment
##fully
reasoning
limited
scheduled
##ivariate
policy
covariance
65
60
quoti
formed
world
subsh
amer
handle
uniquely
elementary
products
deleting
terminates
terminals
spectrum
modification
convenient
sze
ud
##ns
##np
intell
matched
codew
typically
observations
intersect
incidence
invariance
nae
practice
isolated
##pancy
peter
donnell
000
nash
##loc
stability
##pps
approximated
trail
phd
surpr
bicl
individual
interpolation
laplac
bid
elect
jan
##enari
##ime
##igible
lee
chord
active
multiply
matches
semigrou
intuition
synchronization
dat
provers
##ows
scenari
applic
1992
division
1979
hypergraphs
streaming
orientation
2δ
mj
wcc
##bling
come
alloc
shad
chec
others
reducing
fixing
implication
manner
divide
correlation
opposite
unsatisfiable
subexponential
beyond
1l
gh
y∈
δn
##uhl
compare
events
differential
contract
ends
preserves
growth
jump
darbouxian
n−2
vp
−α
##96
neural
interior
1145
minimization
encoded
witnesses
preserving
statistics
incoming
exploration
σπσπ
wish
##af
##→∞
##arity
alt
logical
noting
decidable
region
location
discrepancy
convention
derivative
vote
bags
numerical
manipul
unfort
auxili
labelled
postselection
little
ds
gossi
∀x
##stad
##rand
setup
1990
locc
temper
mixt
degenerate
honest
laplacian
auxiliary
0m
##br
infer
tot
##urs
theories
##ung
chern
transitive
hyperpl
##haps
predicate
unfortunately
gossip
jon
sof
##omology
clg
##pling
##tered
perhaps
combine
structured
allowing
combinatorics
analogue
spanning
currently
decreasing
wolf
lexic
mr
nd
ren
##sim
##king
##ember
##ilocks
complexes
195
claims
tell
agree
load
##weighted
identically
controll
rewr
body
karp
1≤i
horizontal
intellig
978
c1
ho
p∥
wat
ϵn
##ale
chromatic
correspondence
referred
triangulation
discussions
goldilocks
organ
rewriting
surprising
alex
ml
xor
annot
##ogorov
shor
outgoing
learner
lik
leave
aug
included
difficulty
building
checks
2ε
77
bp
##tch
##rd
composed
exceed
shop
##ider
symmet
##opes
separating
loops
modify
richard
kolm
chernoff
dc
met
u∈
year
hastad
##ondition
interactive
valuations
existential
produced
binomial
appearing
disjunction
verified
indicator
reaches
votes
##selves
ancillary
referee
temperature
kolmogorov
85
i2
mi
rbm
##aten
forward
cone
asks
letting
followed
completion
accu
relational
approximates
empl
lips
separable
conjug
precedence
intelligence
72
hope
ju
s⊆
##lep
ord
cook
robert
improving
indicate
fragments
border
sake
clustering
speaking
ll
r−1
##ining
forget
##racy
##olds
##uler
##ilities
##inear
coin
realization
communic
simulated
transaction
gaussians
directions
pinning
subsequent
lists
cou
qc
wig
youn
##iod
##ken
##87
unweighted
corr
board
chooses
presentation
reference
recursively
accuracy
oc
∈s
−x
##tas
stri
##theless
para
definable
obdd
objects
opn
##ources
sequential
negation
transitions
nevertheless
private
cft
e∈
euler
je
nfa
trop
∃r
##tm
##ued
##vent
edition
##akis
mult
agents
costs
glue
colours
classif
07
nar
beh
store
##aried
##derson
functional
103
1016
reco
partially
minimize
frf
asymptotically
motivated
cohomology
wigderson
young
tropical
98
s2
tsp
war
##kl
##vect
##abel
unity
generates
dependent
perman
concre
refut
identifying
irre
helpful
curve
v∈v
johnson
augmented
05
longest
rk
sal
##ium
##zing
##tile
##orti
##chitz
notations
thereby
maximization
agg
settings
##polynomial
transactions
fold
nc
ti
wa
wt
∥v
##bl
##enc
chap
generator
book
##fficiency
ground
establishes
simplify
khot
intractable
medium
lipschitz
001
fine
ny
pal
##tz
##rang
##han
sure
exce
nothing
complexities
approximations
phases
heur
exponent
importance
pseudod
rectangular
collo
09
ign
jer
midd
##uer
rely
user
ads
relati
properly
multim
fixpoint
seman
account
drawing
submodular
public
stored
crossing
sparsif
briefly
flatten
##hib
##cm
parent
boundaried
##acy
doing
construc
commut
hypercube
1−δ
decrease
decreases
registers
happen
informally
flips
social
criterion
depicted
quotient
chordal
behind
heuristic
middle
fell
αn
##zy
ins
##changed
##amard
noted
chun
adams
optimality
emp
certif
specify
contradicting
indicates
walks
intersections
received
folding
ical
rigidity
aspects
amplification
thomas
76
dnf
lg
nisan
ri
ter
##bles
alon
poin
univariate
arch
##acs
approval
circ
working
oracles
disjointness
##cont
hadamard
utility
challen
lmes
84
dk
−3
##hr
##ords
##eds
ang
arrow
##timate
schwar
describes
211
requirements
relationship
asymm
fewer
analogously
cdag
dnnf
refinement
repetition
97
c∈
tor
tal
w∈
##topes
##ica
segments
polyhed
polytopes
splitter
terminology
estimates
derivatives
involving
elimination
euro
permanent
bss
c2
dict
nm
tut
##co
##v2
##ige
chp
##adim
conditioning
determines
introducing
backgrou
law
implying
makespan
##where
simplified
isolating
las
−m
##×m
##umul
##uri
spin
pac
acting
performing
concaten
##change
expressions
rectangles
rotation
inspired
propagation
sherali
soft
pseudodeterministic
colloqu
icalp
background
voting
##dt
##sing
##redi
##ged
##23
inference
stages
##thing
orbit
colorings
traces
##deg
singleton
separately
1−ε
precision
evaluating
spanned
thought
patterns
occurrences
tomography
multimorphism
dm
dna
null
svp
wang
##fan
##86
##75
##unct
outline
module
##cup
orders
assigns
##haus
domains
eigenvect
duality
treat
globally
explained
gpu
pebble
p∥q
ell
ric
##pn
##eties
##vin
##yst
##ora
##itude
units
subrou
##ander
abund
##ensus
characterize
conflic
termination
reasons
executed
n−k
oriented
agnostic
controlled
years
colloquium
p2
vice
−r
##gence
exclud
twin
partization
travers
endof
extract
continue
quantifiers
uncondition
ingredi
persp
narrow
2w
73
86
cvp
vaz
ww
##form
##low
complic
##que
##ilinear
##ainis
pap
##osable
solver
evidence
cai
establishing
conjunctive
occurrence
##process
huge
entanglement
##lepip
il
pw
##hole
##hop
##la
##alized
##stuhl
##irani
##tering
leib
obl
implem
equivari
coding
##pras
parallelepip
recursion
grant
##ereditary
dagstuhl
##hibit
refutation
96
γk
∥u
∥µ
subcube
relu
evolution
remar
combinations
market
spectra
consensus
illustrated
versa
purposes
connector
investigate
christ
frequency
suffice
abundant
vazirani
74
95
dot
hereditary
pb
wra
##uing
##ligible
##79
concep
devi
##ade
decides
implications
amorti
dependency
transp
plays
conjectured
leftmost
extending
monotonic
receive
storage
spher
jumps
substituting
complicated
concepts
78
got
ka
µν
##lia
succ
chy
subspaces
##ands
##plete
expres
roab
marx
created
barrier
sinkless
built
ambainis
sorted
shifted
relativ
2x
2α
92
ccc
five
six
sorting
writing
##fp
##ffer
##gine
##ensive
##itation
##stra
attain
definite
changing
etr
algebras
conjectures
postbqp
folio
polymorphisms
repeatedly
electron
59
bond
cograph
jk
sn
−4
##back
##arial
anch
excess
subp
subcl
circle
1−ϵ
yielding
chains
grows
adversarial
junta
ltf
succeeds
magnitude
kalai
asymmetric
amortized
chytn
61
da
dj
fpras
hell
k−
tick
##bilities
compression
##ried
clock
unchanged
object
differences
blind
automorphism
increment
1988
halfspace
mossel
chris
puzzle
marginal
reveal
ak
ov
pq
ur
##table
##kov
##ina
exhibit
##phas
##actic
thanks
contr
uniformity
signal
emphas
proceeds
negligible
fragment
green
execute
successor
3dst
contributions
motivation
pieces
repeatable
cube
atomic
implicitly
scenario
gur
pen
pca
yi
σx
−∞
##ses
##feld
bell
rege
lett
approx
##ounts
simulates
concer
workshop
ragh
placement
preserved
illustrate
connections
harder
rewrite
efficiency
fed
iq
pn
p∈
##head
##−−
thread
##itri
##irth
##iler
subc
scope
possibilities
regression
realized
representative
observable
symbolic
contributes
transformations
visibility
curves
acknowledg
rbmg
concerning
4c
cast
rub
y1
##niz
##ga
##ering
projective
##rab
##ouv
##sigh
rejects
leon
arora
tradition
separate
checked
equalities
##csps
price
linial
robustly
affect
##zzo
subsampling
mixture
chapter
##ystem
regev
az
dw
mw
net
n∈n
rf
x2
##km
##min
ising
shat
matter
places
constructive
trunc
minimizing
brute
likely
hierarchies
fourth
calculate
collaps
cng
north
##iodic
aggreg
87
bes
categ
fall
kra
lip
med
ns
t2
∥q
##sest
##cend
##amin
##andra
varieties
101
approximability
steiner
parametric
##serv
formulations
studies
served
presc
evaluates
designed
updates
grig
looking
finishes
leibniz
electronic
ai
mal
mass
rou
sg
tern
−p
##oph
##ira
##enty
une
abel
recurr
110
propositions
particularly
highest
associate
divided
sentences
regardless
integrals
fingerprint
subshift
hyperplane
concrete
82
aw
bur
host
##nl
##yn
thr
insigh
recon
assigning
maximize
moving
cuts
stretch
limitations
expander
sparsification
overlap
likewise
exception
bm
neck
rr
worm
−d
∥m
⊗2
##qq
##uel
##ml
##tima
stab
##ctions
##add
generalizes
##aglia
analyzing
universality
procedures
topology
transdu
ensem
linked
∥y∥
unlikely
monomer
∥w∥
tutte
cat
doc
nl
piv
tally
xn
##oks
##tr
##tree
##lower
##tik
##rad
rej
sefe
qui
##mand
stefan
linearity
highly
derandom
observables
interpreted
substanti
raman
widely
datab
applicable
lexicograph
subroutine
equivariant
neckl
94
cst
ep
lof
light
qpoly
sunf
clif
##illian
##pted
eras
agrees
liouv
i∈i
reached
voter
##titute
issues
william
jacob
demonstrate
broadc
enforce
##local
recovery
ellip
##agliazzo
sunflower
liouvillian
ave
d1
mas
u1
y∥
##issible
##ican
##ires
twenty
enh
##assen
preprocess
impagliazzo
##spec
highl
rightmost
splittable
1983
templ
translation
effectively
experimental
##emptive
triconnected
american
1≤i≤
occup
lipics
4b
81
cds
ecc
m−
rl
¬z
graphical
imb
prefer
constructs
saf
backb
initialized
avo
correcting
equilibria
passing
grohe
substring
cubic
pseudorandomness
hyperedge
∥a∥
employ
spherical
ba
bors
ryan
son
##hs
##hu
##83
##jee
##ros
##lecting
reed
##ially
preim
roy
setsat
hytn
secur
separators
closest
facets
publish
inductively
eucl
tells
docum
cumul
dft
faces
hist
l−1
lcc
##ls
##91
##omput
##lli
parad
parag
##ivious
sublinear
correction
firstly
classically
preemptive
observing
secure
summing
##uller
returned
iterated
limits
potentially
x∼n
putting
quantified
filled
monomers
perspective
grigor
broadcast
security
4d
bq
bf
dic
rca
##lie
##modular
thm
##tian
##order
inrow
inher
##umar
unamb
cham
106
counts
measured
studying
appeared
references
1−κ
admissible
distinguishing
invariants
promised
deletions
calculus
uncolor
june
substitution
adapted
obstructions
bidder
sparsifier
constructible
##adimitri
papadimitri
contrary
borsuk
paragraph
papadimitriou
2λ
2β
fif
iw
i0
mk
old
tay
´1
##46
##82
##itted
fort
poi
##quadratic
arises
strassen
implied
manus
##idean
incor
restated
regime
montan
separated
transfer
1986
feasibility
embedd
x∼µ
2i−1
breaking
fair
experiment
suggests
intractability
concerned
semigroup
oblivious
remarks
wrap
necklace
euclidean
dg
ec
ox
zig
##nik
##84
##lor
##bled
##yer
##imal
across
##psp
nonun
desp
deleg
fei
feed
propose
scalar
lncs
transformed
appropriately
delay
recognition
double
infinity
justific
taylor
manuscript
3x
83
aj
k−2
q∥
ta
td
##uity
##nov
##ening
##ital
cong
##iguous
##thur
resist
quick
computability
arthur
minpps
providing
##ksh
comments
locations
leaving
refers
halt
embedded
predicates
realizability
balls
summary
shadow
july
commutative
europe
www
traditional
despite
69
90
ci
ear
f1
jq
n×n
r1
zag
−δ
⊗k
##sa
##xam
thick
##erc
##eter
exhib
novel
travel
valuation
endomorphism
describing
recalling
cauch
encodes
1982
reading
apx
countere
squared
tableaux
cryptography
omitted
hyperedges
ternary
pivot
cauchy
4r
b2
cas
dz
hem
ssp
xu
xia
##ita
static
##sep
unin
arise
1000
parties
scan
111
ranges
protected
1989
supertile
1978
robustness
images
tiling
grover
subsequently
manipulation
morse
ricc
servedio
counterexam
3m
awpp
dans
espec
gi
ou
ve
∥f
∥π
##cibility
##match
##76
##isj
spread
pad
equi
scss
113
tex
presence
quantities
evaluated
goldberg
violated
speed
experiments
mpcs
alexander
symmetri
software
wormhole
chamber
especially
apart
b1
gg
home
mve
n2
px
port
tel
yu
−e
##ny
exit
quad
hyb
deterministically
feature
demand
informal
tradeoffs
hermite
fellows
eccc
bg
names
sage
vnp
##ker
##rin
##wami
##oring
iso
##omen
##uswami
generation
particip
heidel
primal
1985
dyck
centr
contribute
resolving
expanders
mcg
manifold
##rangement
acknowledgements
besides
2e
2l
lot
mole
pram
pict
qr
wall
x3
∀j
##ndra
##atov
align
device
##quer
resource
##iform
edtd
hypercont
semin
sparsest
blocking
preserve
resolve
enumerate
guessing
advances
decomposable
zhang
ulam
manifolds
url
grigorie
unambiguous
european
93
fash
girth
tq
t∈
ug
ℓ∈
##42
##cd
##ven
##sibility
##urning
score
maxconv
connects
formulated
restricting
transm
hypotheses
consequences
picking
understood
synt
naive
asked
mechanisms
suggested
arrive
shortcuts
mutual
biclique
surprisingly
3dstcon
median
ensemble
fashion
df
lond
muller
ron
tang
ui
##43
##kq
##cal
##bi
##orem
exchange
exhaus
subquadratic
nobdd
distances
partite
discard
track
ampc
accom
identification
improves
originally
marc
complementary
entirely
piecewise
genus
keeping
lifting
acknowledgments
payoff
summation
##avendra
coincide
unconditional
subpath
guruswami
abelian
diction
justification
hybrid
80
din
ever
lfp
py
prices
σy
−a
∼d
##apping
##cz
##imension
sud
##ids
##erson
steph
schae
amounts
cycl
2n−2
gapp
themselves
halts
##entioned
cellular
barak
balance
recognizing
2afa
carefully
iteratively
raghavendra
clifford
schaefer
ger
mil
r2
site
≤2
##sets
##tw
##fap
##30
alors
deb
rees
##tices
resources
##uss
overhead
provable
##enging
##ountain
##ansen
ranking
indicated
involve
boxes
ptfs
##lexive
doubling
andrew
challenging
pauli
pdf
tolerant
jerrum
empir
challenge
subclass
preprocessing
nonuniform
exhaustive
bj
ban
bab
bru
carl
kin
mq
qsep
rise
s00
s∈s
xa
yann
zu
##itimate
##no
##53
##c1
##anes
##lev
##ett
conserv
defer
reconst
1137
schl
discover
guided
##itialized
characterized
simulating
gapm
terminate
combinatorica
1987
divides
centered
reachability
sampler
paturi
##ikol
downey
legitimate
dqc1
frog
codeword
multiplying
schwarz
laser
concatenation
ellipso
enhanced
dictionary
1v2
2γ
bh
gq
hw
rand
vir
−v
##su
##kin
##ativity
202
acad
deconstruction
trying
minimality
phil
2nfa
invok
norms
factorization
triangul
succes
1976
alternate
truthful
qcma
backbone
uninitialized
isoperim
heidelberg
london
3c
ck
fer
uh
−ϵ
∥b
##pot
##88
##bh
##74
##tives
##enomen
compil
##geb
chi
logics
modules
overc
consideration
deck
reducibility
text
phenomen
technology
heav
tested
slow
estima
buhr
wind
goods
1984
selects
resolved
convert
publ
informatik
monotonicity
preimage
riccati
estimating
buhrman
8n
cm
dv
gs
ld
##avi
##efin
##mer
##jectivity
##ored
##art
##raction
prem
record
modeled
##parable
differs
aforem
played
##itivity
##partite
bipartition
caus
buffer
accordingly
dyer
cnfs
dup
conclusions
decompose
brand
lifted
criteria
fooling
bulatov
trails
wccav
ordin
conflict
p∈p
bv
bud
kle
md
ration
rus
west
∥h
##dn
##bs
##≥0
offer
##izer
##akakis
worth
relate
128
loksh
merged
fractional
improvements
##tanov
closer
believed
bisection
pcsp
summarize
wij
proportional
contracted
emphasize
##jeev
texts
yannakakis
aforementioned
lokshtanov
dl
east
led
qq
ske
ts
t0
vv
x∥
##air
##ians
##gan
##ara
##omp
##thes
##tsp
ability
105
bases
##apes
examine
newly
discr
amplit
##ussian
##ender
superset
distinguishes
##arithmic
sending
popular
convergence
n−r
breaks
captures
juntas
subdivided
coher
careful
##book
frob
codewords
jones
##encies
dotted
collapses
2f
kan
national
rol
wire
∥z
⊗3
##ky
##ek
##81
##θ∥
##cher
cones
##emans
##oted
stop
shann
completing
usage
decided
opts
supposed
schon
goemans
superpolynomial
achieving
dominion
converted
sharp
priori
subdivision
gvc2
alternatively
neighbours
neighbourhood
bigger
fingerpr
mutually
lexicographically
template
shannon
5n
71
aware
gb
gain
m×m
pit
pas
vu
×n
δ−1
−γ
∥β
##di
##dv
##tative
##kal
##levant
##chain
##imation
##abul
##urer
clust
activ
south
102
symp
differenti
maximizes
measuring
famous
charge
ideals
annals
buck
sdtd
##eyer
quantitative
reads
flows
fptas
replacement
collision
decodable
bodla
flipping
cryptographic
devices
pmtn
##khin
allocation
irrelevant
reconf
database
conservative
bodlaender
1s
301
dest
feld
kro
voc
##sour
##ij
##bor
##erior
##rous
##ulate
cha
##ormal
simon
expensive
relating
knows
multic
multigraph
truly
saura
characterizations
extensively
superadd
319
belonging
automatic
##ska
algorithmica
predecess
backdoors
testers
editor
subgroups
summarized
prepare
coincides
gmc
duplicator
organization
strip
chunk
kinds
overcome
vocabul
saurabh
m2
ppl
qip
som
tables
##opt
##ancial
stacs
##rie
##through
##aine
changed
adds
financial
equally
modern
classic
considers
##athan
impression
##cub
mansour
incurs
induce
explore
glues
gradu
orthon
synthes
speedu
numeral
interpretations
determinantal
justif
ppsz
galil
annotation
folded
ingredient
ramanu
history
oxford
quickly
ellipsoid
79
mit
morphism
n→∞
∼s
##ris
##89
##cer
##yi
##erve
##ange
##aspa
##rij
coal
decimation
modeling
outputting
121
request
requests
wrt
stands
processor
characters
symmetrically
certainly
##iley
evaluations
##lined
##indrom
transforms
dominated
multiplications
collap
breakthrough
4nat
attached
vanishing
wccdv
schloss
isoperimetric
##efined
2z
70
mic
nu
nam
pg
v1
vcsps
##ober
##85
##64
##ba
##77
##oni
##inct
##ret
##rel
##isp
##istinguish
##imiting
##rating
art
variate
corru
plug
manag
parameterised
streak
comparing
2cnf
suggest
agnostically
tallynl
williamson
document
empirical
budget
##rijver
dre
hall
j1
km
live
mill
pil
s∈
s−1
venk
z∈
##bur
##gedy
##22
##´1
##ini
##leg
##ster
##olding
really
mad
##ivans
neq
past
obtains
##cuff
provably
maximally
operational
secondly
secondary
handcuff
features
##onald
alternation
fastest
x∈x
resolves
klivans
influences
correlations
behaves
treated
comparisons
crucially
piece
queue
insertions
biconnected
listed
october
szegedy
watrous
flattenings
institute
succinct
revealed
early
hemaspa
grigoriev
discrimin
ramanujan
hemaspaandra
0≤
ah
cz
gar
lands
mpc
pan
rv
wiley
zw
−b
−ε
##tds
##len
##bq
##73
##esh
isom
forces
##rik
cores
undec
##kson
basics
constrained
schrijver
counted
##ryption
initialize
010
researchers
vcg
attem
##enius
modulus
predicative
2πi
extrem
preceding
devoted
counterexample
##gebra
vocabulary
1q
1−1
3t
hi
j2
jansen
kos
ye
yang
zentr
−π
##oke
##mon
##−j
##the
shu
selecting
appar
chai
##ardi
##osh
intr
relabel
basically
systematic
blow
agitation
argued
requiring
specifies
adjo
1975
colourings
##ashed
picked
modulator
learned
freed
ptas
stores
passes
faulty
digraphs
exploit
deviation
truncated
categor
3xor
babai
academ
collapse
zentrum
chaitin
6n
cv
cmax
gare
hole
kill
qfap
spl
vl
w−1
−h
##yl
defic
##ppss
seat
edu
##alline
arising
imm
abbre
soon
randomization
denomin
strongest
diver
knowing
matchg
positively
algebraically
specification
specifying
simulations
superposition
removal
posterior
members
growing
visited
benef
lenstra
polylogarithmic
krat
puzzles
szeider
exceeds
semantics
implements
prescrib
substantially
feedback
reconfigur
garey
abbrevi
1u
400
91
bpp
bub
hg
mari
m×n
won
wil
−o
−q
−j
##41
##bf
##orn
##enz
##chev
##oura
stating
##urm
##ril
cance
subcub
indistinguish
denoting
193
smug
##gner
1109
##park
infected
multiples
ending
accur
serve
planarity
topic
##lected
scaled
1977
simplices
commonly
violates
layers
delimiting
subtle
famili
behaviour
atoms
a∈a
divisible
trick
sanjeev
cheap
coupl
sales
montanari
attempt
coc
ni
rc
vassi
xml
yx
˚q
##oper
##eg
##66
##25
##∼n
##∼π
##ones
##iteness
##ote
##sif
compr
chow
chance
##ighter
anything
##iest
##abilities
##ays
##acks
enables
trs
steurer
undefined
generalizations
dimin
schur
introduces
analyzed
mainly
invoke
communications
cutting
##ubot
characterizing
branches
reachable
begins
carry
ptf
happy
expanding
principles
occurring
pushes
50i
ngap
invertible
assertion
palindrom
eigenvectors
endofpot
roabp
shattered
jacobian
q∥p
equipped
seminal
krokhin
fron
hub
kann
lack
lcp
ol
tm
u2
xz
¬i
##oying
##kar
##bner
##mark
##atz
##ites
##icz
##oul
##abor
##oli
##ode
reset
enter
engine
exposition
prf
subscript
##ipcz
connectedness
analytic
lattices
i∈u
geor
divise
repeating
creating
attemp
grad
suitably
perturbations
investigated
gvc1
pebbles
grammars
e∈e
cumulants
congru
exhibits
ordinary
fingerprints
pilipcz
diminish
pilipczuk
88
89
dd
fomin
h∈
him
ix
ks
kumar
mv
mm
mere
rn
ros
russian
tan
νa
∂x
∥θ∥
##sen
##rt
##wer
##−3
tout
##che
##owski
notational
residual
109
impact
intend
fixes
periodic
handled
negated
swap
fred
converges
learnability
storing
treed
recognized
bdy
dealing
inversion
santh
vanishes
spectrahed
rlwe
incorrect
2n−2i
##ikolas
ay
cause
dashed
eric
flex
vary
xv
ψu
⩽p
##dos
##sur
##free
##lav
##bp
##iness
##inski
##isson
##sted
##ectives
##sell
rejection
##amond
resid
unn
matth
outlined
minconv
descend
differently
maximizing
ranks
minimizes
amir
started
coverage
presents
1980
1970
dominates
nearest
behave
visit
decoded
grobner
incomparable
opposed
insert
ceq
##ominated
##epth
semigroups
totally
angle
clockwise
avoided
fortnow
bubble
treedepth
1t
2nd
apsp
bx
cx
kp
k2
lose
ms
qw
rks
ronald
sds
tighter
xl
yz
αβ
∃y
∈p
##ping
##flow
##ners
##itations
##roy
forests
weis
sturm
mostly
pras
decdn
##entialline
impose
supports
formulate
blmp
erdos
locality
moved
guide
##prq
separability
foundation
distinction
initialization
turned
convolution
neighboring
1972
answering
simplest
creates
multiplicities
writes
joining
drr
bernou
infinitary
filter
divisor
entangled
bicluster
manipulators
ignore
parallelepipeds
cstn
picture
##imensional
sudan
phenomenon
russell
orthonormal
named
shuff
decdnnf
1j
2y
bat
bank
cach
dcp
gk
g1
mdp
ru
xp
##ois
##44
##eal
##ney
##hash
##eman
##raced
complem
rear
##igning
sel
##els
quality
lev
spine
##ande
ourselves
prg
detect
useless
##ething
designing
holographic
rober
newton
blum
agre
backward
increased
extent
sensitive
searching
intersects
movement
dtd
submark
fran
theoretically
surveys
obstac
insertion
ancilla
maintains
divisors
reveals
##random
wagner
c∈c
christian
threads
derandomization
embeddings
chambers
##levska
coherent
something
graduate
vassilevska
endofpotentialline
3a
bk
fountain
kk
lc
oded
pric
um
wai
∈r
−ℓ
##aire
##tor
##hard
##borov
things
##onym
##onikolas
##rov
##sey
deep
rever
completed
subw
##adic
forming
everything
##pton
##akonikolas
diakonikolas
remember
subsystem
machiner
pointed
contracting
##valid
hyperar
factoring
permuting
eqs
retain
primary
convexity
association
averag
lazy
1973
modifications
formalize
domination
demaine
streams
##otomic
neighborhoods
captured
priority
fulf
translate
degeneracy
cohen
refined
razborov
arrives
##urable
vetoes
profit
leslie
terraced
feder
quadru
alignment
tangent
##baum
reconfiguration
prasad
bernoulli
machinery
3ℓ
eg
fi
fg
fuer
funct
gri
gcd
kay
wcm
xx
αi
∀u
##opl
##ias
##eff
##viv
##zsa
##72
##tief
fore
##ractive
##amp
pose
orbits
##play
##idability
variations
abuse
solvers
104
generalised
123
125
labelings
training
monoch
cleve
hompaq
playing
guard
ppj
ppad
verifying
heavi
sav
serves
servers
feige
distinguisher
pseudol
readily
dynamically
dynamics
constit
calculations
frank
development
coset
guesses
simplifies
partya
hulls
##box
eigenvector
parallelepiped
goto
leontief
bidders
cyclotomic
frobenius
speedup
prescribed
monochromatic
1st
3q
fk
hp
j≤
k∈
lcs
xf
xc
xw
ziv
−z
∥ax
##gen
##ya
##mith
##anna
##leton
coming
depart
##iguity
sept
subf
envel
prun
scho
bring
slab
successful
updated
cospark
3dm
ltfs
flipped
eliminate
decomposed
arrays
overlapping
tions
nwt
tolerance
hyperbolicity
mlr
excluding
window
feldman
##gebraic
salesman
waiting
##onymous
envelope
8d
bilinear
e2
g∈
hans
iqp
ple
pic
roth
stic
xσ
##aj
##ux
##uary
##rank
##fcs
##hage
##orous
##ndant
##itect
tour
anonymous
poinc
##ppers
probably
client
##ialgebraic
univ
##ifts
disag
adi
enters
coppers
worse
detecting
##vich
posed
parameterization
tries
signs
scienti
##ordan
hypersur
semilinear
semialgebraic
replies
blocked
extactic
explan
avec
implementations
skew
gray
grand
violate
situations
subsequence
dags
sigact
ambiguity
extremely
##complete
strengthened
profile
january
annotated
conjugation
chunks
architect
routine
##nikov
predecessor
venkates
poincare
coppersmith
brow
eight
func
g∼n
ke
mu
pk
pℓ
plex
rab
s∪
sect
sources
−y
##80
##bas
##encing
##stov
##emann
bend
##uman
shapes
appeal
coerc
mind
relus
preference
figures
disconnected
particles
production
bijective
153
wrong
coded
planting
argumentation
regularity
supers
ensuring
reaching
merging
facet
##feiler
learnable
broken
purely
fundament
channels
pcps
2−ϵ
diagrams
mergeable
sherstov
aaai
subshifts
semantic
transpose
penal
fifth
schonhage
synthesis
management
kannan
weisfeiler
fulfill
heavily
004
2−1
6ℓ
dh
ff
fb
fried
gt
hen
rg
rod
wires
##ean
##ci
cond
##ouse
##thand
clar
unl
uniqu
unmatch
adic
adam
everywhere
plot
##timately
respon
doesn
jozsa
encoun
slot
wins
concave
##oseness
1981
sword
interestingly
betti
continues
arithmetical
decreased
rigorous
affected
explored
d−i
missing
fools
august
∥v∥
flattening
pointer
circum
anchors
##gaard
insight
erasability
imbal
fairly
delegation
centrally
gapmld
skeleton
merely
bζ
bay
d2
d0
ded
d−2
fit
gn
gut
nubot
r∈
sens
wj
you
γn
−s
−5
∪t
⩽d
##land
##vm
##vability
##menting
##27
##infeld
##ano
exper
sett
clarity
parse
##plish
unt
levin
users
spir
ours
entering
acces
degre
considerations
idle
##typing
observer
incurr
saying
bien
restrictive
methodology
defend
normalization
axis
rah
013
carried
learns
ptp
##while
polarity
layered
builds
richer
projected
strengthening
expressible
uncolored
symmetrization
accomplish
jose
kq
lth
march
portion
qs
qp
rham
vish
##ji
##j≤
##ert
init
forty
##enth
comment
revers
algo
parsim
chak
##berger
obey
assets
cooper
abp
instanti
interrow
scott
holes
holding
115
generalizing
##ield
ample
sequentially
monoid
realize
guo
negatively
reform
focused
ptbe
metrics
mission
unfolding
bernstein
zhou
andrei
elections
duplicate
hook
aggregate
paradig
compilation
heavy
undecidable
zivny
parsimon
0s
dam
lying
m∈
mik
nt
nk
nish
pra
rh
w3
wes
wants
α∈
π∈s
χi
##cent
##wr
##eton
##stell
rein
##aming
poisson
##urality
areas
closeness
haar
sep
subway
subtyping
matro
arrangement
adopt
##ades
##arychev
eng
stress
nonman
diamond
maxsat
114
tends
##atory
getting
##ipul
corollaries
measurable
terminating
makarychev
triangular
relaxed
princeton
links
formalism
imagine
descriptions
enumerable
mechanics
ancest
folkl
degeneration
revis
shifts
concerns
meta
classify
dkk
implementing
roabps
bonds
recurrence
insights
extremal
shuffle
pℓq
uniqueness
unmatched
nonmanipul
ct
das
dss
drop
econ
kem
nic
nand
pz
tun
von
vcp
v∈s
∂f
∥ρ
##aw
##faces
##35
##56
##20
##71
##∈e
##tis
##ena
##aly
##stare
##utsch
sus
sun
alone
compl
stan
##umes
deutsch
##vertex
exls
##ograd
shp
qual
lew
polynomialtime
##erme
abc
exptime
interface
plurality
seek
undominated
maxstare
fixp
pairing
secret
afft
producing
endow
stars
biased
##rymand
proceeding
##ovic
processors
surjectivity
saw
serving
##wards
freely
adjust
2k−1
winograd
witt
auc
centers
##etermined
helps
grained
sharing
regarded
visits
delta
translated
shallow
synchronous
supre
filtr
asserts
##enko
symmetries
dictator
quiver
cdss
padding
dinur
stephen
discovered
bucket
plugging
adjoining
denominator
matchgate
indistinguishable
accurate
engineering
congruence
residue
parsimonious
folklore
econom
maxstarexp
4m
6k
a∪
avi
b∈
bon
bir
cam
db
ease
jth
kine
lad
mim
mir
rsat
s0
tt
tn
t−
vardi
wdt
∂p
𝑏𝑏
##oher
##48
##ni
##zk
##×r
injection
##reich
toff
composing
##ogether
##eli
twins
coins
activity
minded
diff
hencefor
similarity
emerg
##ensatz
homomorphic
leftpart
negations
returning
encryption
scales
intersecting
removes
executes
formalized
expectations
schedules
klau
numerous
receiving
concluding
bdc
investigation
concentrated
arrival
022
exploiting
bulle
hoeff
heuristics
polyhedron
dictators
occupies
hypercontrac
gerrymand
triangulations
coupled
agreement
guarded
plexity
##stellensatz
dssat
toffoli
henceforth
hoeffding
gf
gw
hour
kw
kob
my
nied
ncp
os
pier
rithm
rare
sge
sand
tet
±2
α1
σ∈
∀n
−f
−β
⩽k
##dds
##pg
##cape
##erv
##ats
##ene
##enstein
web
revel
refine
canad
therein
##making
covc
colt
assumes
nonlinear
##ustri
relates
parametri
circul
generalisation
poss
queried
matchmaking
minimized
lipton
183
identities
contradict
indexing
slack
iterate
dividing
reflexive
lowest
postulate
coloured
falsif
attack
enumerating
carries
##eredline
doubly
saket
placing
seeds
jackson
##after
altogether
circular
w∈v
traversal
resistance
klein
amplitude
superadditive
miller
zwick
familiar
attempts
diminisher
kayal
september
explanation
penalty
accessible
chakrab
klauck
3ϵ
3rd
bks
bold
cnot
dlog
fresh
gall
german
h−
hit
hee
hop
jc
kss
l1
mist
qap
wo
wk
ετ
∀y
∈m
∥c
##ox
##agn
##new
##var
##zer
##1q
##orth
##ison
##ette
##aby
deals
lets
cls
haj
unable
subhash
corps
corner
env
soit
soph
##ake
prevent
scrab
boaz
##ewicz
maximized
unified
##ructure
143
monadic
liu
flum
handbook
separates
1−q
causes
confir
##avor
estimator
reflection
auctions
contexts
42nd
alphabets
goldreich
belief
ipec
−n−1
khanna
compatibility
##hips
unsatisfied
andreas
labelling
kuhn
lexicographic
shorter
talk
ingredients
##formul
traveling
casc
##query
syntactic
successive
corrupted
##burger
kratsch
roberts
submarket
venkatesan
brown
incurred
shpil
afftm
kinetic
hypercontractivity
heegaard
scrabble
1b
2µ
cof
dal
human
jr
jens
koth
lll
mg
ming
nr
nv
nre
pend
r3
sld
ubqp
wd
ws
≤d
##gis
thor
thing
##alan
##cht
exclude
pod
##ppings
##iron
mappings
##odes
sevent
unus
boundaries
chose
spo
paq
modal
plat
decades
redundant
trk
meet
##parts
parameterizations
##clear
tech
johan
1−b
##ologies
distinctness
unitaries
bund
presburger
relationships
vars
subtrees
translates
40th
642
compactness
impossibility
allocations
dsn
rewritings
communicate
challenges
##igeon
christoph
published
##omputable
paradox
inherent
reconstru
3cnf
##related
intended
department
clarif
circulant
sldpc
bn
cks
citations
dfa
g−
gross
hs
heter
kane
kita
pom
p−2
ql
q∈
qϵ
tσ
wu
¬f
−θ
##tp
##tse
##eting
##55
##cet
##63
##yd
##mc
##70
##≥1
##onov
##tibility
##ala
##reasing
##lective
##omb
wel
##chi
compress
byp
##unk
reserve
shal
unres
unpro
display
##periodic
enable
firm
sole
optimize
maximality
workflow
processed
212
looks
concurr
markets
avg
rao
011
stockm
##ashi
successfully
x∈s
tilings
##ogeneous
crisp
logarithmically
##18b
berry
counterparts
advance
fault
digits
eliminated
personal
jacm
bcrt
aspect
demonstrated
subsample
scenarios
hyperplanes
##alek
augmenting
waring
pointing
schwartz
treatment
excluded
anchor
safra
randlocal
∥z∥
gradient
rearr
obstacle
reversible
response
vcpnew
revelation
shpilka
kitaev
stockmeyer
4p
4ϵ
410
ama
bgs
dra
ei
erik
fbdd
god
hong
hear
htsp
pigeon
rush
uk
wood
¬v
≥x
⊗m
##cular
##gor
##met
##mid
##−ε
##atable
##ened
##itative
conges
##vey
sto
reich
seym
unp
chud
numbered
10d
preem
desira
maxpps
infmax
bla
progression
133
realizing
2nlin
liber
community
semic
separations
improper
261
transcript
achievable
1974
modifying
expressing
grate
naor
expanded
counterpart
addressed
incomp
d−j
ramsey
bbh
sbp
organized
ajt
walls
wonder
qualitative
##ermeier
niedermeier
##gisser
seymour
chudnov
3b
bore
dro
dog
fat
gol
hide
jordan
ki
k1
lasz
rul
rates
rosen
rhs
s3
tag
uj
βn
∈𝐼
##da
##day
##ei
##czy
##mn
##ja
##enb
##enberg
##star
ash
debre
##ulated
##urch
##ques
notably
##plan
arcc
equity
equational
##plex
minus
print
##udes
imposed
scc
respects
122
129
colorful
##keley
particle
money
156
liabilities
##ecker
clearing
status
sauer
initiated
derect
26th
i∈t
i∈n
31st
laur
multiplied
designated
executing
ratios
pih
frca
straightforwardly
berkeley
polar
walker
sugg
gpus
quasirandom
cryptos
frequently
1≤j≤
donc
conjunctions
repetitions
regions
mixtures
shorthand
endofmet
∥µ∥
burgisser
taut
molecular
marcin
debt
carlo
activation
cvpp
bayes
spirit
filtration
a∪b
gerrymandering
jcss
sophistic
kothari
spoiler
desirable
arccos
endofmeteredline
1a
bus
d×
fu
gil
hits
htw
kt
k∆
kpt
kron
mt
mot
nes
roc
zi
⊕all
⊗t
##pre
##rased
##hy
##67
##bard
##erial
##orcet
invalid
##edings
##antine
##ists
token
condu
##abatic
stp
dehn
posi
##rich
##ogle
##izable
algorithmically
shr
shrin
church
logspace
subpro
##ructive
205
##actory
arr
abbou
##pta
##angular
scoring
idemp
##party
##ions
##ignou
multisets
paired
sche
incur
incoher
restate
145
monte
monograph
##sson
restricts
formulae
homology
173
177
189
verifiers
##edia
surviv
219
retrie
characterisation
feel
splitters
specialized
weakening
sdps
greg
achromatic
meanwhile
latin
acceptable
analogy
creignou
calif
##ausible
perfectly
x∈u
expresses
frameworks
converge
x∼p
illustrates
sites
incomplete
bodies
peut
subdivstar
substructure
koz
huang
ceedings
attachment
luc
payment
maintaining
##oloring
stabilizer
ucm
galois
y∈y
renaming
qcsp
certify
riemann
rejected
royal
scanning
banks
coalition
splits
divergence
environ
congestion
chudnovsky
borell
derectangular
kronecker
abboud
idempot
derectangularising
002
dks
hir
jain
james
kf
katon
k−i
ly
nsf
rd
ross
tul
tav
wpp
¬p
→∞
∃c
∃z
∥t
≤ℓ
##aro
##pts
##xy
##gec
##ato
innov
##ana
##isted
beame
stables
theoret
##romagn
lemke
noam
prints
decidability
reli
evol
stein
multitas
trilinear
restat
139
phyl
149
168
bins
rightpart
serv
serge
additions
##partition
remarkable
indicating
eligible
iterating
##ginia
answered
designs
fpc
monoton
thirty
assemble
gran
visual
harrow
entier
bottlen
∈e2
explains
asking
bisim
adaptation
ultimately
##atches
applicability
jeff
polyhedral
cographs
rejecting
highlight
virginia
rationals
impressions
0≤i
complements
schoen
adiabatic
rahul
wesley
kempe
dbms
seventh
debreu
cryptosystem
katona
stablest
phylogen
2sat
3ε
a−1
aperiodic
band
bps
dri
dpc
hm
ik
kon
k→∞
lcm
mck
pj
pull
r4
ry
sons
seds
tl
y∼
yam
ℓn
−−−
##sed
##uably
##rings
##hp
##54
##lds
##61
##w18
##gers
##∈b
##itten
ispn
toss
##ecreasing
##oud
whp
##abbard
##iran
cantor
chari
##rusted
##rick
worlds
recip
meets
##clu
scabbard
news
##verses
tend
teeth
pointwise
workspace
171
disjunctive
flor
verifiable
##ubmodular
slope
esa
confusion
discreti
extensive
elabor
##avons
reflect
accesses
##tesian
tarjan
calculated
limitation
4230
x∼d
graham
cartesian
focusing
trev
michal
exploring
d−d
cele
refines
summarizes
avoids
krus
##olored
depicts
jeavons
##rangements
christos
expressive
apparently
palindrome
hypersurface
untrusted
ancestor
tetra
laszlo
sophisticated
restatement
monotonically
ispnew
boll
d∈s
eis
fme
hd
hoch
iat
kth
kear
lag
mism
n×m
p4
pf
p3
qn
rq
rings
rap
tα
tcs
x−1
zpp
ϵ∆
∂t
∈c
≥s
##hman
##lle
##cers
##zh
##wal
##wich
##ertain
touch
wei
##emi
ange
stay
stops
mac
pareto
shm
##acher
##idis
lever
##perform
subformul
material
cobound
cochain
detlocal
meyer
contents
distributional
npcomplete
colorability
newman
google
137
summand
addison
technically
motion
##arek
planning
service
1−2
frac
presenting
quantification
##onstra
validity
continuing
##auf
barto
dominant
collections
mixing
uncertain
realizations
compositions
advanced
inserted
##brated
renyi
communicating
##abelian
conflicting
category
transducers
hwx
discrimination
intrig
benefit
diviseur
spectrahedral
cache
averaging
quadruple
functor
foreach
superscript
paradigm
possess
germany
kss13
pendant
bgs17
semicomputable
grateful
rocco
conduct
charikar
celebrated
kruskal
fmei
2∥
3p
4th
bch
cource
dil
g△
jos
krom
ling
lost
nay
rud
turning
vict
xq
ys
zur
±i
µp
ρσ
∀t
∥d
∼µ
##49
##tra
##ko
##nb
##lak
##vised
##wood
##bn
##mod
inp
##ission
dell
rend
ito
##riv
##tines
respond
ordp
unclear
##perberg
209
##osting
solid
outperform
10th
minppss
##aki
##uda
considerably
decl
claw
supporting
119
multiparty
querying
arguably
cygan
185
handling
permitted
exponents
216
245
transvers
supermodular
importantly
brevity
nondecreasing
assembled
j∈s
cards
faith
##cripts
mcrs
safely
meaningful
hcg
propagate
kuperberg
cpnb
mjn
mrk
classified
arrows
recurrent
homeomorphism
hypercontractive
philos
invoking
brandao
gbw
clusters
clustered
basicsdp
freedom
immerman
##ornia
subcubic
georg
flexible
grids
scientific
experi
nonmanipulators
rearranging
shrunk
california
trevisan
intriguing
courcelle
2⋅
a∥
a3
aussi
c3
cra
cay
eigh
hat
jap
kx
kam
marek
por
sor
t∥
tard
γm
ψl
𝑎𝑎
##aac
##ked
##ups
##eas
##za
##worth
##blem
##att
##edges
##ston
##strom
dee
##ury
mag
parities
##ivas
sham
##ification
computably
spalek
padd
##ardt
outdeg
plc
192
december
boosting
118
117
##orted
roch
optimally
commuting
amen
agraw
starexp
mont
ijc
154
151
wright
replaces
mathemati
1−p
1−α
267
topics
289
viewing
302
absence
357
closing
n−d
x∼q
cosets
trends
capturing
addressing
##etization
peer
540
koiran
utilities
sketched
smoothed
preparation
heads
ssd
informatics
##load
employing
surely
polyhedra
fedor
aw18b
highlighted
avoiding
reconstruct
premise
automatically
deficit
picks
imbalance
sensor
heterogeneous
pomdp
ajtai
coboundary
g△f
agrawal
2ρ
3y
3α
4ℓ
date
ema
fon
fern
fidel
hr
hø
jin
kur
lr
mbr
nil
ntime
pud
pip
psw
qm
sr
srin
tγ
ties
ub
v2
vsp
w−k
z1
¨¨
¬s
−u
⊕a
##aus
##san
##flexive
##lam
##csp
##x∥
##≤k
##−4
##onom
##enced
##any
##ete
prohib
##asg
##siani
##urious
##rif
##ille
clip
##oga
##elin
neur
subin
spurious
##ermost
notic
abb
##akov
plausible
meka
imposes
##ortation
betweenness
127
schul
gop
minimax
operates
135
##roduct
##ieves
biology
surger
negativity
##prime
brk
213
##000
referring
2k−2
shortly
23rd
249
260
thresholds
admitting
27th
unions
raises
patras
consum
transforming
dtds
imagin
x∈σ
##13a
enumerated
cred
logarithms
elsewhere
numerals
46th
offline
affir
addressability
submatrices
enforces
bsmp
recovers
irreflexive
fellow
dm15
##feldt
subcase
sonc
##hua
ugc
optsol
streaks
categories
franc
subword
hyperarc
maxsatasg
revisited
##ustrial
##odesic
laurent
monographs
##romagnetic
recipro
ijcai
høyer
srinivas
¨¨¨
512
bw
bach
dun
epo
eleg
fab
feb
gπ
gott
h−1
jp
kop
kkl
m1
noga
rac
tp
tum
tier
vbl
x5
×s
≤n
##o05
##qal
##tof
##eps
##nan
##hill
##w08
##bes
##eric
##onc
isaac
##omon
##ingly
forcing
##stat
##stone
conquer
##utz
##imura
bends
positivity
##tel
##ogram
leash
spiel
arrangements
industrial
imper
solomon
meeting
remote
contour
infeas
multipartite
posses
beck
viable
##iez
entail
analyses
gau
gauss
18th
verifies
226
243
259
sdm
sdtds
hypothetical
distinguishability
1002
287
1971
witnessing
raised
draws
merger
331
keys
calculating
376
uv∈e
influential
difficul
blackbox
cars
capital
preflow
integration
##paid
homogenous
bench
##uki
reported
perturbed
turnstile
dana
pebbling
ambient
lovett
attaching
deduced
frequent
∥p∥
tional
udisj
ghs
incremental
rubinfeld
falls
substantial
##omputation
uncolorability
centrality
roles
isometry
fronti
∥ax∥
architecture
endowment
robertson
dalma
jensen
solely
hirsch
tulsiani
kearns
##onstrained
fidelity
epoch
spielman
4t
cel
ey
file
han
kee
lics
mfcs
nf
n×
pcsps
qi
rack
sj
tf
vad
wlog
yqp
ze
¬y
β∥
εσ
ℓ−2
−w
∼p
⊗q
##oys
##down
##iak
##ptive
##hol
##lp
##v1
##vation
##mum
##∼µ
##εq
##antin
##rep
##stand
concl
composite
##seen
##ulates
exclu
reorder
##amo
##ilit
setups
##olland
##finiteness
parsing
shi
##arities
##ighting
edtds
obdds
solov
coloura
plog
19b
noneth
reliable
12th
reply
reports
134
largely
##ieu
163
located
bij
158
150
mathe
187
save
##ublin
ideally
##cky
1−o
1−t
1−ρ
24th
winnow
transcend
273
##allet
estimated
viewpoint
303
spanner
implementable
identifies
2dfa
effects
hamiltonians
farhi
preservation
greatest
puts
guessed
unconstrained
2csp
subsections
decoder
crosses
polygons
bisubmodular
ings
braid
life
infinites
maintained
kindler
conjugate
conjugacy
warm
##vinsky
unconditionally
attained
prescient
m−r
virt
publications
∥β∥
landsberg
yeh
comprising
sturmian
supremum
ladner
bulletin
liberties
idempotent
granular
bottleneck
rapid
nayak
transversal
##edgeseps
elegant
difficulties
dalmau
nonetheless
1ℓ
2v
2∆
4a
411
5ϵ
ale
bap
bip
bsh
bivariate
ballet
dang
fen
fis
gv
hed
hph
ia
i3
l2
ldt
nik
p0
pcs
rid
sap
v0
vand
αx
γa
ρϵ
∈i
##aff
##ugh
##nis
##hal
##hit
##3sum
##los
##lob
##ctible
##yp
##mond
##26
##∼p
thieves
##enidis
##anam
##let
forth
becher
##sities
##size
compre
##olved
##uma
reb
##ified
polya
##mative
abf
##fications
collect
minrank
pls
indeg
##establish
reduct
hardware
impvm
die
deshp
generalise
manuel
period
boundedness
schol
disco
upward
furer
146
cylin
monic
invoc
##eller
180
##ublish
primarily
decisions
corrected
loose
esseen
acta
encodings
256
270
convin
293
deriving
effort
012
330
continuity
descriptive
dtm
attacks
influencing
goldw
developing
freeman
j∈z
visible
michel
release
diagonalization
court
affecting
49th
bdag
revised
finished
ramamo
genre
kerenidis
##regular
prepared
stabilisation
marginals
##kiewicz
littlewood
rewritten
disjunctions
certifying
cdags
sixth
shattering
routing
incorpor
ec3
##pspace
endomorphisms
landscape
h∈f
fredman
santhanam
matthew
selman
condorcet
dedic
parametrized
cascade
bypass
concurrent
reichardt
kozik
uncertainty
victor
pudlak
gottlob
possession
solovay
bijunctive
granularity
deshpande
2τ
4ε
5k
bcc
bde
cu
cϵ
city
eh
g2
kim
kung
lind
mild
msim
nn
nin
qπ
riv
sf
siv
srs
t⌝
ton
tro
tur
uri
wider
xr
ya
yw
y2
zp
−µ
∥g
∥ψ
≤k
⊕i
⊗d
##pf
##hes
##how
##50
##jay
thrif
##rey
took
##icality
##imed
##otop
albe
reestablish
##rilo
##thon
settle
resem
parrilo
orange
sebas
disapp
chines
spenc
207
numbering
sinks
solvability
decay
##ously
quantumly
116
integrating
roj
team
130
existentially
##ebeck
15th
analyse
highway
satur
standing
sax
typings
231
winfree
searches
i∈v
schematic
##ava
1006
326
315
310
essenti
299
witnessed
335
constitute
facilit
lemmata
interpreting
converting
radial
orthant
uncut
courbe
recognize
translating
gapsvp
50th
adapting
##hedron
lifts
saks
frequencies
hcost
magniez
bbc
recovered
recovering
shifting
gmms
pdqp
##break
ghosh
totality
couple
jean
archimed
multimorphisms
∥u∥
kahn
preferences
hytns
##saw
publication
academic
abbreviate
unnecess
pricing
slots
nishimura
confirm
##tsev
business
subproblem
reliably
schoenebeck
bandwidth
faithful
philosoph
gopalan
affirmative
dm15a
francis
compreh
##ublished
goldwasser
srsr
thrifty
albeit
chinese
spencer
2h
ae
bos
dor
dfs
fs
gj
iγ
igor
kou
lx
lan
men
nqp
ok
sab
sil
vital
xθ
x⊂
´j
µ0
λ∈
σβ
∃t
∈u
∥e
≤t
##dimensional
##40
##iability
##px
##field
##nc
##hler
##lund
##vance
##−r
thur
##tilinear
##ores
##atrix
inverses
##ense
##alg
##itt
##itra
##ecomp
##assign
##emin
##otyp
aside
##urd
##ilds
##ival
##gel
##achy
unb
disall
dispro
childs
##ruary
20th
arn
arprq
somehow
cov
vertically
107
instrum
interact
options
evid
remind
circles
##sist
##ishi
126
blank
restart
constructor
140
169
167
hereafter
remained
rounded
invent
gupta
brun
##001
233
263
265
elchan
254
hierachy
29th
views
certification
##obas
amongst
accessed
367
lemme
significance
conversion
39th
x∼g
developments
held
crent
seemingly
harm
numerator
relevance
expansions
44th
passed
crossings
unsu
subdividing
fanin
1964
555
41st
pebbled
infini
persist
2−ε
##coming
hermann
interactions
likeli
u∈v
certifies
pointers
##hauser
sn−1
chytns
bm∈b
erasure
employed
lccs
corrections
##imaledgeseps
##caling
deferred
ahar
rvw18
##bqc
blowup
##oulos
incorrectly
kkt
disagree
s∪t
fundamentals
joseph
rithms
canada
clarify
compressed
d×d
bollobas
amenable
imaginary
srinivasan
february
ramamohan
archimedean
elchanan
likelihood
2η
3r
300
ari
dms
fic
h1
htm
i∪
jay
j−i
kz
kow
kauf
oz
ptime
qbf
rb
rom
rrs
sse
sous
sbqp
ttsp
vemp
wast
zo
zha
ℓ−k
∂g
∈x
##uent
##eopl
##31
##case
##62
##−a
##era
##tiste
##ories
##orious
##instein
##entive
##arti
##arra
##ancing
##char
antic
itcs
##igman
##ppy
##odin
unav
leman
edp
spik
paid
##illar
coprime
##ricting
instant
interchange
densities
recoloring
maxbits
maxcut
maxppss
11th
respecting
routes
120
reprodu
##agin
##aged
incentive
commute
joh
##outy
gavinsky
disjunct
planes
universally
localization
superlinear
reasonably
295
automated
ravi
relaxing
sweep
34th
tightness
##12a
successors
hypergraphical
vcost
isomorphisms
nondeg
##even
partyb
psublin
motivates
affects
peq
substrings
borodin
utilize
cryptology
forbid
summarizing
magnetization
antichain
rays
quotients
contracts
wahl
extracted
automorphisms
greenhill
leonard
collapsing
montanaro
resistant
participate
##biased
subpaths
brucker
##anese
successively
∥b∥
amplitudes
destroy
multicolored
coales
intrins
freedman
santha
pruning
parseval
bundle
shalev
unpublished
environment
bisimilar
imperf
##represent
reordering
baptiste
bshouty
##ecomposable
html
vempala
nondegener
3δ
4l
8k
bak
brid
fri
fru
f00
gab
hos
jak
kd
ken
king
karl
lub
mts
niel
nau
od
rin
ras
s→
sie
tb
tam
trib
teng
tao
uw
ull
λr
πp
πx
∪s
⊕g
⊗a
⌜s
⌜f
##oir
##ran
##nvp
##col
##vcp
##vitz
##69
##bed
##gut
##29
##oral
##enberger
##itful
##roll
isbn
tower
proxy
ont
compose
exem
replic
##pher
master
quan
definability
unbiased
polytime
indecomposable
adver
##illi
twist
ence
rectilinear
##angle
remin
boost
maxis
mulm
route
124
schw
schmid
ams
amit
131
141
147
errs
174
170
gutin
semid
186
saha
215
characterizes
gapnvp
tura
winners
associative
277
pseudoc
32nd
288
raj
discussing
305
implementability
eigenst
samplable
researcher
april
contributed
promin
barn
walter
targ
n−s
puter
viola
prediction
j∈t
j∈u
uncor
simplifying
quasivari
bene
−cn
absolutely
cdh
gapsnc
quasipolynomial
1965
substitute
suggestions
a∈d
##hamilton
cpu
jonathan
concreteness
excell
parenthes
##contraction
angles
mwvcp
concretely
transducer
cstns
occupy
fortunately
exhibiting
discarding
gapmdp
caused
academy
defici
subcubes
pseudoline
g∈g
sticker
appealing
coercive
matroids
grossone
pigeonhole
##planar
tosses
elaborate
hochbaum
eighth
vadhan
transcendence
infinitesimal
discovery
disappear
imperfect
2v2
4j
412
500
878
austr
bim
cδ
c−1
cram
cited
ef
fft
js
j0
jig
lts
liv
land
lsh
m−k
n3
nathan
pul
pbe
tac
trou
tvp
v∥
φg
∂c
∃i
∈a
−−
##aim
##dist
##kind
##rim
##efficient
##cke
##cib
##const
##yu
##ynam
##2csp
##−ϵ
##≥r
##tivi
inn
inb
##alog
##real
##ister
tooth
##etril
projects
##changing
suffer
##oup
##ouk
##oux
stati
delic
reph
reuse
##riers
##plog
sha
sees
selective
##termin
subhamilton
spans
obj
##actdeg
nop
##ricted
19th
nonloc
trss
approximable
providence
##parameter
larg
12q
peres
disconn
incon
equivalences
erc
washing
144
162
160
combines
155
realizes
mathieu
upperbound
17th
##ova
guy
charles
accumul
surj
21st
primality
##ckerman
grouping
1−loc
gap2csp
permuted
actdeg
greed
##uley
##ilevitz
323
sprank
analogues
307
eigenspace
selector
342
##cules
conjunct
barriers
375
population
−iγ
potts
violation
capable
##ushilevitz
lectures
simplification
decode
461
omb
offs
conceptually
benn
orthogon
eliminating
1969
huber
contractions
mosca
ancillaries
splittings
tomographic
jointly
2−λ
abstraction
inspection
inclusions
projecting
postselected
shaded
ndw
checksat
rbmgs
llr
tspag
##abeled
lawler
attains
∥q∥
stretchability
databases
preferred
transmitted
##bipartite
zuckerman
heaviest
collisions
madhu
battle
constitutes
bienst
w3i
english
brownian
thorough
heart
incompres
nesetril
multitasking
visualization
ninth
unnecessary
comprehensive
unavoid
mulmuley
turaev
pseudocode
austrin
bimatrix
jigsaw
tvpi
statist
nonlocality
washington
1−locc
003
4x
402
403
award
bost
d∈
fst
fas
f11
gru
gsim
hoc
i−
i−2
ivp
ja
kel
kest
konst
kushilevitz
lq
lv
nan
pδ
qt
qj
qvp
sz
s−
uhl
vtree
wan
wik
xs
yσ
ηn
μn
σ∼p
∀v
∈n
−λ
##oints
##aa
##dps
##i−1
##p1
##rase
##har
##3d
##zinski
##x3
##wan
##gu
##gum
##yle
##tique
##iss
tovey
##sten
##vem
beig
alan
exclusion
##amar
poor
##ppe
##riangle
##ilo
notorious
clow
rescaling
##ivity
orlin
shpar
probleme
unbreak
chem
nexp
subrepresent
paging
arbor
##ads
novem
soient
satisfactory
##positive
191
##ustom
meant
lowerbound
divers
dioph
boyd
suppress
##ghan
integra
labor
reporting
##ewski
dimacs
train
operating
161
homotop
moitra
##ecki
theme
symmetrical
##cking
halves
announ
winter
robin
275
324
325
329
averages
285
28th
branchings
292
efforts
patch
344
353
35th
frame
closures
greatly
france
practically
45th
conceptual
occurred
nondeterministically
pushed
pushdown
svm
capacities
reviewers
rotations
luca
devise
files
krz
demonstrates
enforcing
amplify
aims
dsm
extractors
relativized
maltsev
exceptions
lexicographical
documents
´1q
t∈t
hwv
ferromagnetic
offers
pitassi
superadditivity
madh
matthias
coercivity
unused
bbh18
gregory
innovations
lingu
tardos
shamir
mbrtp
patrascu
dedicated
persistent
aharonov
nondegenerate
fruitful
##ynamic
##tivities
inbag
delicate
largemin
greedily
bienstock
kesten
shparlin
diversity
3w
b∥
bull
cq
cros
dir
d14
eb
grom
io
iθ
kom
mid
nad
pα
psp
puting
rat
rns
s∼
sar
tack
u∈n
vor
xt
θi
∂a
∂d
∃v
−l
∥r
∩v
##olem
##tricted
##3sat
##zi
##zul
##bd
##bin
##gg
##gm
##jamin
##atability
##enue
##eded
##aris
anderson
andris
##isz
##istered
##islav
##chel
##owitz
bear
##otriangle
whit
stair
stays
##ola
reid
reaction
##ilat
cloud
shah
seven
unrelated
lehman
disk
chand
cheb
chandra
neeman
computa
spac
206
indetermin
valph
##sover
outtree
108
##aka
detected
dichotom
diaby
orderings
boot
contemp
optimized
calling
dimer
##apkq
traverse
vijay
13th
arguing
148
166
locked
152
dependencies
transitivity
##overed
singly
176
mob
##opoulos
##elling
188
cutoff
##tiveness
typicality
##orklund
correctable
annoying
slices
221
stigum
252
25th
geodesic
ensured
286
normalizing
30th
postp
348
continu
##conn
x∈r
statistically
attrib
illust
skolem
radon
quantify
crc
countable
learners
434
visiting
harmon
benjamin
increasingly
digital
##skii
aar10
lieb
ko17
inserting
dpll
zerotriangle
outerplanar
singularity
bqp01
privacy
policies
bulk
cheat
0000
shadows
conventional
manipulator
ordina
ignoring
constructibility
dnfs
torsion
dawar
blindness
##kovic
azuma
sgc
transduction
massively
publishing
inherently
participates
molecules
subclasses
bjorklund
koszul
palindromes
diviseurs
ddh
varying
fulfills
friedgut
unlabeled
rhπ
mistake
reconstructible
ruled
shrink
cayley
neurons
infeasible
fischer
sebastian
kowal
ullman
semidynamic
subhamiltonian
bennett
orthogonality
konstantin
beigel
november
shparlinski
crossover
gromov
6th
8th
900
ctm
custom
dσ
durr
favor
gas
ids
ipr
jj
kc
kas
kri
kun
lors
lap
lund
nb
nα
nph
r−
rib
s∋
till
vast
vide
wim
¬l
αk
α2
α−
σpre
ωn
ϵ1
∃n
∩u
≤1
##sds
##s11
##iro
##ios
##p2
##pol
##pca
##uy
##usi
##fels
##ho
##hil
##lands
##vo
##mel
##2≤
##eri
##atcs
##etni
weighting
##lling
##icious
##imum
whe
station
style
exc
exerc
poll
ity
##irsky
##find
paris
shilo
problematic
unreg
leak
cheng
logically
edgec
##bers
subadd
anywhere
spins
203
has86
obs
indirect
##adhy
##ormalized
enab
##asson
approve
10k
mode
nontermin
opm
syml
scr
suppos
basu
##istics
trichotomy
traced
vii
operah
138
165
16th
##overing
##iann
libr
zeroes
##op1q
182
exponenti
serre
checkable
bitwise
decisional
grouped
1−i
223
239
247
269
257
##ended
necessity
iterates
279
focuses
sparsepca
317
marking
281
marting
parallelogram
−2n
merges
falisz
337
readability
dynamical
continued
dominate
##eterminism
356
36th
internet
vcd
facility
423
427
balancing
skip
downset
deli
courbes
∈e0
packed
characteristics
recognizable
sheaf
bodirsky
v∈r
1966
1961
remainders
consecutively
filters
payments
demonstrating
antifer
singularized
exploited
karpinski
communicated
coupling
ignored
nullstellensatz
templates
yuval
transmission
triangulated
textbook
optsage
destructive
multigraphs
m2sds
apparent
hgp
front
frederic
sturmfels
rodney
wjp
settling
qszk
osc
∥c∥
platform
preemption
rossman
##rivast
japanese
reciprocal
hedetni
bridges
nielsen
schmidt
nexptime
diophantine
dichotomies
ctmc
unregistered
operahouse
faliszewski
hedetniemi
0y
1c
1ω
3s
4δ
517
6m
aks
bt
came
cities
crow
eatcs
fq
fn
f2
g4
gent
holland
jul
kv
kash
kkm
oserv
pmax
q1
sde
srivast
uf
voll
v∼π
wro
x0
yq
yv
αy
α−1
β1
β2
β∈
πu
∀z
∃u
∆x
♯p
##sha
##47
##ror
##rit
##ex
##fix
##cia
##vs
##vind
##bod
##gam
##28
##×w
iserv
proxim
annal
susp
stn
deux
reward
itamar
##quis
##teenth
##odal
thereof
shen
shay
seidel
##idually
##elle
##elson
quar
lege
leung
nev
neer
neil
##ressive
spend
##ando
matters
noeven
encl
ency
expects
−10
##akami
prgs
plain
rectif
optima
seeing
partisan
##clop
bool
##orty
constantly
optimizing
infimum
multis
##ago
discord
##icek
correspondingly
contrapositive
##omorphically
157
gao
##itian
##itives
eqn
universit
##tivstellensatz
210
extendible
primitives
mathematis
indexes
##005
1−γ
anna
slower
bucke
concise
258
271
##nae
322
313
311
##force
297
parallelization
308
mathematicians
diagon
334
333
339
probabilistically
354
irregular
388
klaus
orthology
freq
entities
##∈sn
explaining
psne
493
advantages
subdivide
joins
d−k
1968
1962
1967
listing
rotated
moshe
zheng
outerface
2−β
stabilises
##khoff
enforced
individually
##comput
sbps
exploits
lsm
hermelin
hermitian
pinnings
eulerian
classifying
w∈w
traverses
transportation
subclaim
k−ℓ
##roslav
embeddable
dgj
pivots
discarded
skep
justify
##theore
vlad
benefits
george
descendants
hyperarcs
j≤n
prune
please
encounter
accomplished
vishkin
reformulation
falsifies
chakraborty
unrestricted
displayed
godel
blais
positivstellensatz
arranged
yamakami
reflects
mismatches
dilworth
surgery
entails
keeps
fenner
scholar
courtade
essentiality
disallow
##sistent
harmonic
wasted
spiked
friend
excellent
homotopy
bootstra
kowalik
nphard
shiloach
##adhyay
encyclop
encyclopedia
1i
401
406
5d
agh
bil
cα
cuda
dates
eopl
eeded
fel
fsp
ht
iz
i−j
juk
ky
m×
mcc
m−2
mbqc
nies
nerve
pτ
rog
t3
ten
uq
ups
va
vin
yj
zs
¨actdeg
µ−1
ε1
←t
∥𝛼
∼a
≤r
⩽4
⩽n
##oi
##ople
##ipe
##tected
##tcs
##cian
##zes
##win
##w09
##wani
##bis
##mi
##jicek
##tious
##orf
##orak
##esc
##ndre
ints
inefficient
##edge
##iser
##isable
welf
##stcon
beals
beau
asyn
alter
stem
##verman
exchanging
##ama
##amily
posium
pobdd
##ppel
##phia
clone
algorithmics
##ida
##idia
##elphia
diss
chu
##orepaq
timkov
##bery
varies
##adelphia
format
coar
activities
relied
prev
trig
seeks
stewar
contact
integrand
afm
valuable
determinants
programme
summa
argmin
16n
159
perfmatch
semime
semilat
heap
surjection
##ibel
##0000
adjunction
220
22nd
weakness
232
230
237
241
senior
262
coef
253
251
distinguishable
282
306
mergers
csg
##sker
labelset
347
##11b
dominance
358
369
370
421
wanted
pinsker
x∼l
enumerates
quadratically
sharper
berth
complementarity
harry
conveniently
geometrically
440
broom
subtra
mechanical
axiomati
addresses
##aoa
readers
496
explores
people
danie
investigating
1960
##hedral
tails
prepares
overlaps
##oyd
suffix
authorized
2j−1
rpost
assertions
duplicates
51st
datalog
kaibel
relativisation
krajicek
1≤i≤n
xiao
philadelphia
invoked
dvorak
##arajan
##kalakis
justified
biclustering
encountered
richerby
reversed
matroid
daskalakis
birkhoff
emerging
kleinberg
chakrabarti
hopc
nvidia
christopher
unprotected
bayesian
jeffrey
deeper
outdegree
tfnp
##standing
dangling
cylinder
philosophical
##assignment
sweeping
wahlstrom
intrinsic
prominent
deficiency
unavoidable
subrepresentation
madhur
largeminimaledgeseps
harmonics
s∋i
##2≤1
stationary
exercise
srivastava
neeraj
vladut
welfare
asynchron
timkovsky
stewart
semimeas
semilattice
3h
405
415
798
a∂
ara
brou
batch
buss
ces
cact
dτ
ft
fh
fm
fitz
gd
gor
iken
kab
mun
nj
ports
q2
rπ
rar
ris
sly
troy
uct
vy
vbp
wies
wsp
zomb
´2
×v
αq
γc
γx
θx
λx
πv
σ3
τi
ℓ≥0
∀s
∈f
−g
≤s
##aiti
##dam
##determined
##sman
##qc
##tally
##tac
##k94
##rling
##ele
##fountain
##34
##x2
##wp
##w15
##bent
##gra
##yq
##med
##more
##mend
##meyer
##←r
##−v
##´op1q
##∆h
##onoid
##tieth
##inde
##roft
##anim
##etries
forg
##chri
##ima
##raham
ank
sufficiency
##abro
compu
company
stu
##ollet
dead
mah
maha
##lemma
##odecki
shap
shops
unst
unpaid
chlam
edward
edmond
##ayashi
approvals
existe
dolev
district
prr
190
nonp
nonconst
##athed
prein
##ametric
smith
subsumes
connectives
poset
schap
trials
minima
phrased
agit
locators
addr
realistic
homomorphically
179
bind
trusted
partly
specifications
flo
flavor
handles
latency
heil
brings
approaching
backtra
caro
225
volumes
235
236
stirling
transposition
grey
schema
longfountain
312
280
positional
lau
291
derivations
hierarchical
parallelism
mathematicae
calude
332
comparable
appending
349
contributing
recurse
##uthgam
promising
##offman
maximalbis
replacements
361
x∈z
submonoid
383
385
424
temp
updating
downward
horodecki
399
pinyan
radix
nondeterminism
asymptotics
##18a
438
439
uncovered
48th
harsha
467
redist
cfp
broader
subtract
adversaries
squaring
rigollet
##pcorepaq
motivate
recognizes
legs
ccf
prefixes
subsequences
pcpps
karger
forbes
s1c
##wartz
adaptively
nonnegativity
ultimate
defaul
cgm
antip
paulus
donne
horizontally
kolaiti
jonsson
ndisj
metabelian
mihal
instit
angular
dnnfs
perspectives
oblig
subcases
acknowledgement
mwisp
truncation
aggregates
krauthgam
10000
counterexamples
yuan
syntax
dfts
stephan
exhaustively
##noi
##nooy
##super
invokes
dvir
ldcs
rationnel
−γm
justifies
succinctly
maria
flexibility
⩽p−1
pricable
umans
subwords
fgr
bringmann
ffk94
circumvent
vishnoi
stanislav
h−max
##czyk
##czyn
motwani
incoherence
surviving
phylogeny
padded
fellowship
gaubert
rapidly
invocations
unbal
rinnooy
innermost
staircase
oscill
kkmo
summands
hopcroft
cactus
fitzsim
##chrift
mahajan
chlamtac
kolaitis
krauthgamer
008
1r
3g
4y
501
515
7n
8r
bdd
c0
cette
cplex
d3
fw
fib
gill
g−1
hus
ib
jud
kj
lance
l∈n
lyn
lhs
mation
ment
m−i
pis
pere
rum
race
sant
sati
sso
satis
snp
tth
tame
uθ
u−j
u3d
wp
x←
x△
zj
zone
zane
ˆn
˚to
αr
α∼
→v
∪x
≥1
⊕b
##dy
##den
##test
##rish
##here
##33
##cio
##vk
##vil
##65
##−m
##ery
##tisp
##tiful
##ination
##nder
##ndon
##edo
##aram
##arwal
##anian
##iscent
##ingold
##etti
conting
convers
##astically
##icity
##icago
suss
##ouch
##otten
whate
##ums
##seps
reingold
##amment
##ctional
##iration
##tica
##izers
shwartz
unanim
lems
syl
assess
##onde
##plec
##pleteness
##ficial
samuel
expspace
instruction
intree
minion
interference
prs
considerable
decryption
recipe
option
trim
##ours
symb
##cule
scar
books
undef
1110
road
larsen
infix
##ishay
blas
traject
afp
commutes
##orphic
amster
argmax
142
additivity
##chnik
##rypt
transi
175
hyperfor
##ello
accounts
flag
characterise
primitivity
##irectional
precondition
capp
227
264
255
occas
##ysz
superior
defect
314
normalised
essence
−2m
swapping
csl
csgs
calabro
compares
involution
343
340
##ikert
consistently
bart
dtt
365
379
389
38th
##17c
converg
n−i
n−m
##037
radem
##apped
carving
43rd
complementation
459
switches
##itzer
##ochvil
axiomatic
##ckerberg
linking
##ms08
digit
peikert
joined
executions
nicely
decomposes
527
##ockwise
braverman
suggesting
tailored
zhu
andrea
filtering
preparing
pmin
inversive
broadbent
##activeps
authority
mpgs
referees
allocated
conventions
1959
859
striking
territ
laws
singletons
traversed
traversing
gotsman
hellman
akian
yij
bellman
rlwr
sont
##imalseps
seminar
blockingvertex
tqbf
accommod
bruce
zuckerberg
ledoux
differentials
miccian
garg
systematically
kratochvil
canceled
olive
##prqs
gkks
kkms08
umesh
quadruples
architectures
fundamentally
rigorously
gutmann
miklos
tunnel
##pgq
##chtman
podol
reconstructing
woods
tautological
shmuel
indegree
convince
uriel
jayram
kzj
reproduce
johann
coalescing
jakub
reminiscent
rephrased
fsttcs
contempor
lorsque
library
multisorted
beautiful
berthet
forgotten
backtracking
mihalis
unbalanced
fitzsimons
##rishnan
susskind
whatever
undefended
blockingvertexassignment
micciancio
006
3lin
408
407
413
800
999
ats
birth
c4
cec
cpo
citation
coffman
dω
dies
day
dub
dtime
fits
fitting
fior
fnp
gy
gon
iα
jes
k⋅
kir
knot
loses
lamin
mes
mel
moses
nine
nikol
oε
pπ
pab
pel
rain
rag
ranging
rgs
ruhl
s4
s×
song
sss
tg
tin
tit
tsf
tie
v3
vid
vac
vstat
yell
zsat
z∈s
×k
αj
βz
γb
λc
λ1
ρ←r
σ∥
σi
ℓi
∂r
∆n
∈t
−0
∥s
∥σ
⊕sat
⊗w
⊗ℓ
##tman
##kp
##function
##hkov
##32
##cil
##cale
##va
##with
##gard
##mner
##201
##jk
##→0
##⊆s
throw
##erp
##ona
##tiles
##inf
##esi
##enas
##itable
##rose
isra
isotyp
##isations
##chen
##ece
##llo
conce
##asman
##velling
beat
##otr
sta
##umann
##ultimate
relying
povm
##urang
##ppana
##iring
##ils
##plvs
shel
shost
sheng
seq
seif
##achar
quest
definiteness
disequ
chung
china
chicago
##pervised
logsuper
204
##ermonde
simons
abps
abraham
##rical
dokl
minids
##pson
deng
decade
op1q
##itsky
approximant
##vier
##clockwise
sccs
holenstein
boppana
contamin
maxml
1111
##type
subscripts
optimisation
##ione
npc
multidimensional
observers
##agonal
examined
travelling
viro
pointquery
132
sumtest
easiness
ranked
gaplvs
1704
binding
wron
moo05
##optim
codimension
184
sik
brass
extendibility
deletes
lastly
224
229
234
248
246
kernelizations
i∈p
presum
272
limiting
glued
##ysh
superpoly
284
laz
294
296
centre
−2γ
drawings
spanners
colourful
eigenspaces
338
341
formalization
absor
absent
tightly
##12b
359
foot
364
x∈f
piotr
memoryless
373
##iddam
395
bremner
gravity
assembles
j∈v
earliest
poli
##14b
treating
hartm
harris
layout
omc
omitting
semidefiniteness
cleanup
counterclockwise
afford
orientations
polygonal
translations
53rd
irrational
v∈b
borrow
petals
fanout
tvd
moshkov
56th
person
031
broadly
cw90
simplexes
pdt
informatica
profits
lsl
media
handlebod
datas
y∈r
ndl
##block
certified
torus
tutor
subroutines
excludes
attainment
incremented
akad
penultimate
1≤i≤ℓ
publishers
delegated
1000r
homeomorphic
participating
molecule
aligned
python
zuiddam
2020
deconstructions
phenomena
slowly
causality
mdps
n−r−1
frobby
activator
buckets
micros
z∈z
garcia
vladim
mario
unnormalized
descendant
rothe
bijectively
guterman
defends
lthc
obeys
monoids
heavyhit
diamondfan
nicol
stanford
lewenstein
camer
sandwich
preempted
zippel
incoherent
rdm
florent
subformulas
hwx17
joshua
declar
sorte
fernando
vandermonde
loosely
evident
unsupervised
kaufman
nauk
quasivariety
incompressible
boston
unbreakable
integrable
tackle
continuum
wimmer
wheel
pollack
martingale
gentle
suspect
mathematische
brouwer
ikenmeyer
unanimity
##plectic
amsterdam
gkks13a
diestel
fiorini
k⋅d
laminar
pablo
tsfasman
isotypic
shostak
logsupermodular
hartmut
heavyhitters
2κ
3e
3z
4w
409
5th
9th
a×
bill
brough
bimin
baran
btree
cb
css
dann
e4
fagin
gc
gha
hod
iid
ips
i∼π
jian
kre
kraw
kah
lou
lpp
los
luk
mitz
nom
psi
qd
qz
s∩
ses
sank
tj
tapes
tenth
vit
vill
vcup
wy
xg
xε
y∈s
¬a
¬d
¬r
γi
ϕh
ℓm
∀a
∃q
−ν
≺f
𝑥𝑥
##oad
##aves
##dar
##seness
##pm
##pth
##karan
##uc
##uve
##upp
##utivity
##rc
##fred
##hoff
##v11
##v13
##bpp
##bole
##yt
##macher
##jean
##γn
##ρj
thal
thapp
##tie
##inting
##enmacher
##ald
##arishi
isop
##rec
##omplete
##chromatic
##stance
##stances
##string
contig
##icular
##imae
antim
beating
##otti
whence
##olour
extin
##tharishi
##ticape
maint
matics
notre
vertig
cli
parsed
shed
shub
seid
theoreme
unneg
##using
neu
anymore
spati
hasse
pavel
artif
##osq
corn
corank
everyone
equid
assoc
##ribution
approves
sobole
dob
minsky
##akes
recom
imposing
##ersh
dihedral
##vive
supply
fixpoints
routed
##parability
optimistic
manurang
assignation
examining
blr
chois
afs
comme
136
1305
determinism
agpr
14th
herein
entr
analytical
corollaire
singh
172
libor
zeroing
normally
##ovs
uniblock
appearance
autonom
planner
surfaces
survive
218
1−r
blockwise
associates
superf
100k
327
316
normalize
298
−2t
drawback
discusses
postbpp
physically
farness
irit
363
360
eventual
##she
380
387
−ih
3975
x∼s
sitnikov
predicted
2c−1
463
edited
curticape
behaviors
v∈x
subdivider
subdivtree
472
47th
eliminates
decomposing
precedent
robbers
55th
repeats
biconn
cech
synchronized
gene
knill
luks
bigtw
nguy
propagated
hille
morgan
morimae
rsr
thompson
manipulate
manipulative
rename
alexand
exceeding
767
concatenating
deviate
∥m∥
caterp
enhance
backbones
spreading
transmit
syntac
cyclically
brandt
rolf
dominions
predecessors
corruption
−πx
##enzie
cancell
i∈u1
periodicity
complementing
−ℓτ
retains
savings
pseudolines
constituent
stick
grandjean
hensel
lewis
bonami
diffusion
podc
stopped
progressions
golov
schechtman
lucas
mckenzie
shmoys
leverage
subformula
µpm
kamath
##oncentr
benchmark
frontier
exclusively
saptharishi
reestablishing
saxena
fictious
i∪j
anticoncentr
interchangeably
baker
objectives
inconsistent
chemical
krzysz
s∼ρj
legendre
intsage
redistricting
antipodal
paulusma
##czynski
husfeldt
contingency
occasion
contemporary
shelah
seifert
vladimir
brought
danny
mitzenmacher
thapper
extinction
mainten
vertigan
unnegated
sobolev
manurangsi
curticapean
nguyen
caterpillar
krzysztof
2−2
3nae
4i
4g
610
8a
9n
a0
aus
dur
ele
eter
gath
gip
gomes
hn
hing
hides
hiding
hmp
i≥r
jurd
kθ
nati
nvp
n≥1
ore
p×
pds
pfa
pione
qpn
rut
ratch
r×r
sac
v←
vard
wx
wired
yp
y0
yuster
yury
z2
¬φ
±n
´µ
×2
νb
π∈
ϵ∥
ℓk
∂u
∂h
∃w
−τ
⊗σ
△f
⩽2
##pec
##path
##ui
##eu
##ez
##fc
##fm
##hall
##lif
##crs
##zkiewicz
##bach
##bage
##gon
##ℓs
##onen
ini
##ench
##itonov
##aritonov
##ante
##isible
toy
weyl
##eme
##emer
##imited
##raib
beads
asse
alm
alle
stns
##ularities
exchanged
##iry
##thend
##teen
##odisj
vert
hadd
shraib
##achary
graphpaq
##elberg
##tery
##ifications
lef
subal
spre
spite
##andl
matouse
pays
##ayi
##ayoff
sincl
sys
fini
noquery
##acci
assisted
cofinite
approved
collective
##akumar
##akrishnan
overdetermined
##udayoff
nons
nonabelian
nowhere
detn
approximators
meh
##ership
diverse
sms
scores
supplement
##ghayi
multin
linearization
##ramm
multiag
12n
schn
schramm
parameterize
maximisation
goel
goals
telep
operate
sequel
dimensionality
phili
furst
ago
easiest
belovs
papert
##ipedia
cyan
164
##ought
1509
findbits
moore
moham
semist
flav
uniqueforward
permits
heat
afterwards
217
costly
##ibly
##hauer
268
topolog
274
supertiles
321
320
318
marks
−2d
−2π
identifiable
patrick
##iaghayi
33rd
fractions
comparability
345
minority
mentioning
consume
##auer
##luous
355
350
368
vcop
attract
377
429
frances
397
goldstone
##13b
putation
countably
classifications
capability
capabilities
j∈i
purs
purple
elsevier
integrity
466
457
released
motivating
grothend
ipy
530
sven
kharitonov
degenerations
v∈n
##9753
548
adaptivity
526
acyc
precedes
drinfeld
concentrate
miss
dpv11
arrivals
darwich
bcd
bcw
amplified
rmg
gmm
projector
informative
stackelberg
bsg
richardson
metametric
submodularity
sparsifiers
archive
pbt
relativised
approxfind
raghu
aggregation
malicious
ensembles
jacobi
enforceable
enforcement
preimages
cumulant
congress
thickening
grigorieff
ℓ∈l
ronitt
pyram
banach
s0045
s009753
windows
premier
recorded
mdcrs
kanj
schoning
pascal
garbage
kos08
denominators
matchgates
cancel
familiarity
coco
convolution3sum
caching
franco
subsystems
functors
r∈σ
settled
lthcs
economics
hajiaghayi
retrieval
sergey
0≤i≤k
cryptosystems
discretization
eisenb
declare
prohibition
noticing
consumption
dunne
hirschfeldt
cela
nfas
colourable
yehudayoff
turan
facilitate
thurley
advertis
eigenstate
cramer
wikipedia
laboratory
announced
mobius
aar10b
edgecount
vollmer
diagonals
##theoretic
bootstrapping
∥𝛼∥
subtracting
lynch
x△y
rademacher
yellow
brassard
moshkovitz
tutorial
thaler
contiguous
superfluous
anticoncentration
jurdzinski
assez
##odisjoints
shraibman
matousek
sinclair
multiagent
uniqueforwardeopl
darwiche
metametriccontraction
approxfindfp
s00975397
007
2ν
3γ
4α
416
414
5g
509
595
605
a4
a∨
ain
aram
aka
bum
bog
bcp
bvp
cj
ctt
cogn
dλ
dut
dds
dark
e3
epp
frie
hl
hin
hab
hur
hsu
ibm
jl
jor
k≤
kℓ
kor
koll
kari
kost
kral
kull
late
lcl
lens
mz
nso
nether
pµ
ples
qaoa
rx
rw
rkh
sle
sid
snf
sasson
sought
tant
t×n
t−k
vr
vig
wq
wg
wals
wern
xb
xm
yn
yos
z−1
zaris
¨p2
´εq
ðn
αc
α−2
δx
ρn
∀p
∂ω
∇g
∇φ
∪a
∪d
∪b
≤3
⊕set
⋆⋆
##din
##dim
##iou
##ieck
##tty
##kis
##kqq
##rying
##fl
##lan
##core
##zantine
##god
##yk
##−n
##∈σ
##erias
##oned
##oning
##onacci
##enn
isvalid
##anab
##anov
##aneous
##isc
##isomorphic
toct
##chten
##eced
##imes
anton
##abo
alse
byzantine
stably
##sef
##separable
##vertices
##ulier
##amy
mais
##romise
haus
##pler
sho
shell
##achim
unmark
unshe
chit
chee
neumann
subcy
anyway
##rupted
##andro
##andard
has01
pav
##adh
##pez
##ayan
willard
nout
##acon
##ricts
soh
so∃
1017
intact
intention
−14
−100
mining
distant
districts
prenti
prry
overwh
194
nonisomorphic
decor
pretty
recomputation
opin
edgeless
##pendicular
meg
dirac
symplectic
undetermined
maxlen
max3sat
resulted
generalises
##vester
manage
perpendicular
schutz
tripartite
commer
minimisation
combi
determination
sequencing
ergod
regimes
fixedparameter
joel
joachim
1411
locator
council
##chner
singer
moins
##elled
##depth
181
autark
sparseness
serial
encoura
slo
222
eli
##ucht
328
marker
283
normalisation
raph
309
postulates
swapped
mathematica
failing
mertz
effec
015
paterson
barvin
strand
351
384
##feucht
convergec
behaved
graded
demmel
moduli
carsten
carbery
canonically
purification
482
468
454
##efi
448
443
449
omp
2πc
motivations
cardinal
pushing
ipq
issac
shepher
##renfeucht
explorable
##proof
peano
crypto
545
pettie
470
d−ℓ
bdg
524
karwan
1963
koi
utilizing
rotate
moser
acknowledge
zhen
575
smoothing
magnus
hilb
multiplicatively
stabilization
demonstration
covariant
reversely
rmdp
##comm
minorspgq
kaltof
jiang
sbq
kucer
662
654
wishes
honestly
##tchouk
lloyd
forgetting
classifier
tiw
insu
concatenated
expressi
subproduct
hella
exhibited
penn
x21
x22
kraus
stretched
stretching
elliptic
giac
equipartition
qrq
x31
debts
philip
optsonc
quantitatively
feldmann
micro
queueing
aho
isometries
vlsi
abbreviated
indistinguishability
accurately
hubs
attempting
ks09
∈pm
bkp
##rovic
averaged
xfo
hypersurfaces
defended
w3c
diffie
pieri
mistakes
unresolved
4ϵn
stopping
incompati
qualitatively
ruling
ashish
survives
feelable
lyndon
16805
y∼d
macro
hwx15
mathematik
subinjection
noticed
credit
frontiers
colourability
ehrenfeucht
rivest
sivakumar
∥g∥
resembles
saturated
subproblems
dorit
##pxq
zhao
ontology
barnaby
j∈u2
linguistics
kaski
video
rossmanith
kashefi
universitat
chuang
aravind
##index
edmonds
##pcorepaqq
fibonacci
u3dstcon
sylvester
scarce
tunneling
atserias
birthday
ceci
israel
cameron
krawtchouk
nombre
wylie
equidist
autonomous
gathen
multinomial
semistandard
grothendieck
##odisjointsets
bvpv
frieze
netherlands
zariski
prentice
overwhel
schutzenberger
mertzios
barvinok
convergecast
shepherd
kaltofen
kucera
009
005
1⩽
4e
511
516
600
608
613
778
797
8β
ast
aided
a−2
b3
b0
ble
bonn
bons
cation
corm
cous
ez
fish
fuch
fav
g3
gord
hk
h2
hrom
hint
heb
hung
iν
ili
jm
kev
lh
lps
losing
lrs
mial
mamin
nx
nal
og
p−
qα
qρ
qic
qfa
r5
rϵ
sx
sans
sfcs
tx
tent
tiers
ua
uu
vj
w∥
w×w
xo
xk
xe
x−
x7
xing
yan
yishay
µ∥
δm
κn
πw
ψα
ϕ⊆
ϵρ
ℓ−i
∀k
∀w
∂b
∈l
∈v
−∂
∩d
∪c
⊖t
##ahedron
##dor
##dom
##ien
##iere
##uine
##ucker
##eity
##n93
##hat
##las
##cond
##veness
##zon
##zym
##x4
##gas
##24
##21
##∈c
##ßer
thil
##tia
inct
injectivity
##enbl
##itty
##itax
##eder
##roising
andoni
tow
toute
##etts
##llen
##cel
##imodular
anand
##oto
asc
##sil
##ulti
##ulay
rellen
##igraph
##ppard
cloning
##plication
shocks
shoup
##essor
##achi
##achus
##iders
disti
disappro
disreg
##mad
##used
eden
##bern
suboptim
spent
##alling
ars
ark
##ado
##ada
simil
enj
enzym
cobipartite
10λ
mink
interac
##aked
prin
densest
pla
preorder
records
##anger
mend
impure
scram
bohn
undo
linearized
##igne
labpc
##ounted
figure1
requested
secant
gover
unification
signif
1307
seconds
upn
eman
emits
agitations
termed
16k
mono
bio
1512
clever
representatives
##valued
##istribution
##iano
invisible
student
1802
accord
factorizations
methode
surjects
negating
serious
halper
halted
1−c
precomputation
anne
228
meme
escape
244
buch
remarked
i∈a
thresholding
topologies
##etics
scalable
gla
certainty
estimations
estimators
refs
reflected
290
creation
makeset
##ikos
barthe
irst
internat
submitted
37th
ill79
interprets
skl
n−n
##0502
x∼e
illustrations
country
carrying
predict
freival
gren
##sett
435
437
##nev
integrate
navel
##pair
cfm
axiomatis
isolate
sheppard
534
kho
kho05
cryst
543
doubled
52nd
signomial
brack
braiding
genes
genuine
extrapol
ow07
unsatisfactory
filling
⊗n×n
2−c
bbl
recoverable
##books
0304
inverted
lmn93
ownership
nqal
##kii
electoral
jumping
watson
eulerchar
refutations
##blies
##encil
pseudodeterministically
anchored
akk
##−−−−
leonid
massachus
routines
sgd
##trans
epactiveps
epitax
highlights
1≤i≤k
cumulative
##ordered
fifo
##isjoint
symmetrized
t∈c
s00037
chih
causing
coherence
subdivisions
gbd
multicolour
speedups
nucle
undecidability
couplings
⩽p−2
obstacles
k∈z
subfunction
kept
s∪s
unlimited
plots
imbalanced
kobler
pierre
bks15
mingji
nv17
thorup
g−x
welsh
drama
hearn
retrieve
coalitional
tav13
tavenas
driven
mismatch
conducted
crazy
magic
fonction
nilpot
schulman
exclusive
virtue
##ught
forthcoming
bruno
luby
exemple
uncorrelated
beneficial
chebysh
ordinaire
subadditive
exponentiation
mergesort
antiferroising
bucketing
cgm11
kkmo07
rumor
accommodate
tiny
vacuous
contamination
antimorphic
p×p
ratchet
philippe
attracted
s00453
ainsi
eppstein
rkhs
walsh
unmarked
cheeger
sohoni
ergodic
raphael
zhenghan
insufficient
bonsma
gordon
ilias
kevin
mamino
tentative
ϕ⊆σ
thilikos
inctot
##enblust
disregard
bohnenblust
freivalds
massachusetts
epitaxial
chebyshev
1d
1vk
2σ
2ξ
4z
5b
5m
505
6a
6ε
615
a∩
aid
bun
bary
bang
bock
bfs
c5
c−
cis
csi
cpt
cev
dϱ
dθ
dps
dmax
fj
fmp
gx
gib
hpp
jel
kant
kak
kha
kamin
keller
lor
mur
nut
nram
nick
nich
oh
oss
oplog
pst
pach
rpoly
sσ
uber
vd
v4
vt
vz
vx
vision
x4
x𝑇
yosh
zij
±ε
αu
γ1
δ∆
λ⊢
ν−1
ϕ∈
∀c
∂y
∈π
∨¬
⊗i
##ait
##dag
##sin
##kt
##kers
##kerson
##uct
##usive
##fac
##59
##v16
##buch
##gue
##−c
##×ℓ
##≥2
thier
theta
##erves
##tiel
##ino
##inter
##atti
##enhauer
##ales
##armid
isup
##level
todd
today
##etri
ford
##chow
##str
##stab
conitzer
##asnikov
##rative
anup
albert
altered
compile
bytes
stb
stone
##olic
deline
reif
##ample
itai
##iger
##rikh
maca
##odym
notable
allen
clk
clut
##unner
reserv
hay
haven
shot
shrikh
quel
##terly
unsign
polyno
chg
edels
subpolynomial
subga
208
wherein
functionality
functionals
indication
adabo
variances
##adi
##illa
twists
numberings
formation
sylow
nov
val79
abd
solita
##ribe
expense
vertexes
moder
modest
minl
interl
generically
prere
prfs
##owers
decou
worry
preuve
##ersen
dieter
##ourcing
distributive
smol
intel
1101
resultant
formulating
multit
multipoint
differing
poses
##aging
pertain
schne
##anson
parameterizing
unifying
particulier
##ructured
descent
emman
constructors
etoi
biological
technologies
findings
178
satura
##ella
##deberg
partner
flms
presentations
surpl
siu
##prf
bras
depths
1−σ
caught
conflu
242
buy
buchi
266
elusive
##ichi
##naugh
##entional
supervised
##avan
32n
##anching
##015
refl
##linn
bobkov
−2α
embeds
postbs
losses
crete
016
0101
##skian
336
subsetsum
lindeberg
appended
346
barred
domino
strands
352
durand
366
x∈d
x∈v
tarsi
tarski
378
386
420
decrement
391
n−3
assemblies
j∈j
specht
bert
bernd
pseudopolynomial
##variant
simplifications
naza
expansive
entity
bro18
counterfe
fulkerson
metrical
fait
concluded
##approximation
suited
536
531
strengths
strengthens
2tc
mcdi
mcnaugh
borel
471
##hladh
##expand
finishing
419
dpkq
raz99
arrived
fills
cubes
knuth
lucky
2qlinn
acknowledgment
##regor
2bm
inspecting
exterior
somewhere
673
dqbf
cheating
janos
##brunner
##branching
infers
loading
775
miha
wait
relativity
commutation
−3i
asymmetry
christandl
relativization
excesses
heller
krause
nsε
rrq
cliff
erasures
massive
occupied
iwpec
resistances
telle
bgwp
mcgregor
pictures
sudakov
s0022
##supp
∥bz
compiled
ldc
causal
wireless
halld
kmn
##bqal
congruent
⩽p−3
retaining
fkr
school
pleth
disagrees
circumstances
cooperative
instantiation
instantiations
reformulated
prahladh
suspend
suscep
adjusted
parsimoniously
birk
t−s
kw13
slackness
attacker
dlogtime
shaltiel
draft
dropping
lucier
evolves
angew
ys10
zurich
itoe
outperforms
hatami
beckner
winnowable
mengel
λ∈λ
##rolled
replicated
living
kelner
pδq
szemer
arboresc
whitney
indeterminate
##connected
exciting
has86a
wrote
annalen
eededf
jukna
prevents
asynchronous
risk
nonconstant
institut
transient
convergent
podolskii
johannes
vidick
∥s∥
shengyu
disequality
wronskian
presumably
lazily
political
sankowski
hmpw08
vardy
π∈π
mohammad
advertisers
nsobdd
vigoda
yossef
koi12
incompatible
overwhelming
##dorff
suboptimal
nilpotent
barycent
cptp
hpp18
kantor
macaulay
reservoir
shrikhande
unsigned
edelsbrunner
subgaussian
adaboost
solitaire
schneider
emmanuel
saturating
flms13
nazarov
mcdiarmid
mcnaughton
szemeredi
2𝑃
2ec
2eb
417
478
502
596
6j
9ϵ
bent
bpe
bour
bans
batches
c∆
cro
cul
csat
cze
dα
dγ
dad
ebits
g∥
g⌝
gorithm
gkm
g∆h
hb
hϵ
hob
hansen
higman
i∩
iµ
jb
kε
kup
kaz
k∈n
k≤k
l3
lb
lpr
lacks
m4
mb
mrs
nator
nnf
nets
nests
neder
oles
ott
pou
pants
qy
q×
qect
qep
q´1
rim
sach
sag
sft
s∈n
tad
ume
u∈s
vmn
wong
wag
wapp
wsim
wmc
x→
x41
yo
y←
za
zx
¬u
¬e
¬b
µc
αm
βm
ββ
γ∈
δδ
πn
σv
ψi
ωpn
ϵk
←tt
∂s
∆s
−9
−σ
∥λ
∥α
∨x
≡0
≤w
⊆s
⊕c
##awpp
##dec
##qma
##promise
##kut
##kill
##kins
##uj
##few
##fank
##nstein
##hong
##lb
##lof
##cin
##cks
##z11
##zky
##100
##w02
##bow
##based
##gang
##gio
##mo
##200
##−t
##´ε
##×2
##∃s
thore
theis
##ori
##ester
##ndan
intimately
##entic
##rod
##arenko
##anets
##anyi
##reps
##omo
##omain
##omsets
##isse
tok
tous
toby
weh
weg
##chc
##chin
confer
##asi
##asm
##utte
##imi
##raha
suite
##siek
ali
stru
steng
##ols
##umbers
##ula
exits
reality
pole
pokut
##igure
##ircu
magen
##leman
cann
##oding
clones
##iza
hairy
param
thereafter
ornstein
shin
shma
shai
shaf
shachar
seg
graphics
##idirectional
##ofer
unre
unqp
unconv
unreal
unordered
unidirectional
##ario
chsh
chaz
##pers
loglog
##rest
spi
spie
spira
##ineaire
paw
##ardo
variational
##ormality
nob
cofiniteness
abg
##ricate
samer
10c
1011
##dsourcing
overmar
##uding
containments
##orsson
trdeg
seeking
hardest
dijk
smale
boils
stefank
##ghi
##ghe
##enger
##ortun
##sert
room
constrain
1209
lengthnl
posons
##agrand
perim
percept
maximizer
trial
signalling
erased
phard
upa
combina
bib
hompg
algebri
invited
communities
codomain
1805
verifie
autlif
permutivity
surround
brank
identifications
214
simulatability
lopez
backurs
shortlex
weakest
copied
stip
stichten
winder
searchers
concav
250
sdpt
propos
goodman
essays
alternates
parallelized
century
−2k
−2β
basiclp
##indra
postprocess
failed
pataki
##qpn
comparative
##door
consult
##1197
transformable
bartle
##conesi
##luin
internally
pieter
piraha
faculty
425
##027
balas
kloks
394
393
n−ℓ
pinpoint
collide
collabor
##0387
coordinatewise
countfew
##161197
predicts
freund
430
j∈n
geometrical
453
455
441
subtraction
∈e1
package
unknowns
crux
crude
sheet
perturbing
petit
d−h
d−∑
opportun
pcr
shallit
550
yielded
reviews
##hedra
utilized
rotating
braken
razgon
2r−1
gramming
hert
bernhard
tomas
dealt
acknowledges
summations
biggest
2−o
rt12
triplets
bbfm
58th
vw∈e
propagating
686
681
a∈f
0314
670387
stabilise
moritz
coincidence
622
627
ssyt
aiming
professor
664
psdness
60th
bidomsets
divisions
manipulations
inferred
1951
978161197
720
communicator
foldings
angluin
talwar
nullspace
##pnqq
p2p
extractor
transpar
kapo
adversarially
k−3
revealing
approxi
subcnf
mw15
hosted
stretchable
exceptional
bmdps
derandomized
derandomizing
bqlog
substitutions
fifteen
x∼µs
vegas
lottery
x33
x32
t∈v
discards
bhatt
textbooks
##aviani
∥h∥
neighbourhoods
##diagonal
1024
differentiable
##borg
panconesi
isometric
3tc
yeo
holevo
marie
cocy
nitin
nips
##eginger
rnase
spectrahedron
gkk
submarkets
savage
subfield
scientist
##nikova
rabin
henning
gnm
qsd
reversal
m∈f
formalisms
complication
suprema
kobayashi
gallai
woeginger
reflections
unusual
improperly
dropped
##enbeck
marcinkiewicz
tetrahedron
tetrahedra
##zhak
conductance
experienced
kxor
porat
closingness
ematics
fonctions
gauge
1002r
toniann
boson
koutis
∥e∥
thurston
##ivalent
instrument
invented
arities
s→ab
n−sj
pulse
conjuncts
uhlenbeck
postpone
illustrative
enabling
supposons
crowdsourcing
quarterly
rectified
bilineaire
vinay
coarse
semimeasure
kabanets
unstructured
schapire
heiligman
conversations
hyperforest
oliveira
sssr
conceiv
nicolas
lukasz
vitanyi
spatial
recommend
entrance
bigtwodisjointsets
golovach
´µ2
prohibitions
unsheathed
opinion
d−ℓ−2
equidistant
fisher
hromkovic
scrambling
glaßer
extrapolated
bbl98
bockenhauer
surplus
reflpe
halldorsson
birkhauser
bansal
nederlof
oleszkiewicz
ottaviani
stengle
pokutta
unconventional
chazelle
spirakis
overmars
stefankovic
autlifting
stichtenoth
concavity
brakensiek
bbfm12
0α
1α
1in
2ed
4λ
5a
518
609
607
697
7th
701
793
796
8c
8δ
808
804
ahu
austri
bility
c6
cac
dst
dumer
d×n
d´1
days
eps
espace
fial
fear
ganian
hh
h∼
hot
ics
jv
jae
j−v
l∈
lax
lubot
mesh
mhall
n∈
ning
nim
nak
nspace
nelson
pain
pand
pear
pencil
pchc
qa
qtm
qex
rℓ
rong
rang
sper
sang
trom
tore
tational
tai
ut
vq
xave
yl
yy
yθ
zak
zie
zonal
¨2
¨pc
×a
×d
×g
˚h
βλ
δd
δε
σ0
ϕϵ
ℓτ
→y
−6
−η
−log
∧k
∪i
∼q
⊙π
⩽0
𝑡𝑡
##ovich
##aut
##dous
##dominated
##∥x∥
##ibert
##tge
##t14
##kan
##kel
##rk
##r10
##ely
##eqal
##nas
##hand
##hail
##homology
##hara
##39
##51
##lz
##lar
##lay
##lakis
##cr
##v15
##zel
##bar
##gar
##game
##yon
##yun
##yad
##2sat
theo
##escu
##atural
inj
inac
##ensively
##itte
##itov
##itler
##rob
##arte
island
##rett
##lebach
##omi
##oming
##ometric
##omparability
tod
##etz
##etta
weil
##lya
onward
##rait
ant
bea
as18a
##abbas
aldous
staged
##olvable
dean
extern
reexpand
##pp´
##rian
##qubit
##thusi
matical
setun
veronic
allan
haeu
pari
park
##ives
ory
seki
graphpcorepaqq
##iddo
##eling
unaff
##ifman
chang
chip
##usen
spark
##ermann
complexite
enfin
enthusi
aborts
abusing
soei
exposed
colle
collected
1010
mini
interna
indep
strange
nonlocal
nonbipartite
eva
##entials
##itschrift
lineaire
di−1
syminf
desires
##spar
provability
##cla
scribe
steven
1100
linearrangement
linearfix
rook
implique
basel
12k
manindra
observes
##ounting
examination
species
discount
blp
figure3
figure2
traffic
teitler
worked
signals
1304
ery
erlebach
emer
emit
1611
endre
counters
integer3sum
##equate
##ensch
##ensation
coverings
homph
gaj
gaifman
invitation
hyperco
##defa
charged
cutpoint
latent
hend
negatives
##press
universite
retri
initiate
characterising
characterisations
testable
##002
encomp
1−λ
anni
specially
cave
cape
weakened
cliquewidth
##happy
##sw15
coeff
associating
occuring
regularization
276
gliders
supergraph
superie
intersected
100n
1001
3146
marko
positioned
##013
##rawn
marri
embod
refute
unionreps
directional
alternately
auction
automatable
rajeev
304
multiplies
combinatorially
swaps
eigenfunction
patlb
majerc
placements
apkq
##ika
consumer
##zek
barth
thirtieth
predetermined
x∈a
x∈ψ
pipe
##tests
statistic
facing
nearby
##025
popvar
##ractical
##weak
ski
398
390
n−4
##anned
##annis
grace
demands
putational
monotonepromise
cris
seemed
j∈ji
speeds
ptq
ptms
toolbox
##14a
micha
decodability
tileset
460
homogeneity
releasing
diagonalize
offset
2πx
benabbas
helped
499
sheaves
curse
curious
controls
unsolved
guaranteeing
richness
khachi
peers
v∈d
644
641
borne
541
474
irreducib
revenue
sketching
acyclicity
ambuhl
attachments
xi∼µ
arriving
kn97
zhuk
luck
succeeded
3kq
inspect
##rington
687
energies
augmentation
##comp
jiri
laplace
assert
subsamples
661
modularity
wolfgang
1958
1952
controlling
annotations
##oldsd
##inearrangement
communicates
striding
salil
##ortier
aggressive
aggarwal
jerem
talagrand
illeg
evolutions
deviates
spheres
k−n
casts
##minimalseps
massar
recurring
burch
recontr
m−n
histor
transferred
embeddability
delayed
−δn
##matching
n2−1
transmits
milman
truthfulness
ck07
ferr
buffers
rusins
offered
dlwe
fingerprinting
differentiating
orthonormality
venkat
categorical
abbreviation
wilf
cocomparability
olver
himmc
rosser
erickson
msri
##andez
##ampen
hpy
xcϵ
tourlakis
henry
##cience
insightful
reinforce
economic
mirr
emerged
bullet
dictatorship
rarevar
σ∈i
∀n∃s
woj
bundles
weltge
concurrently
drops
sauerhoff
tautology
fuj
environments
dks17c
evolve
tetrachotomy
touching
responds
georgiou
japan
paddable
montre
30298
email
kurtz
##illeurs
credul
dunfield
zeitschrift
conclut
warmuth
virtually
nikhil
nikodym
sapir
diego
bdags
incorporate
yaroslav
saxe
francisco
instruments
rrsq
antichains
kenyon
sieving
tribes
schwentic
uncorrupted
nadia
ribb
nonterminal
weaknesses
seniority
daniely
satisif
satish
territory
peled
rag08
barany
≺fun
eternal
natind
v←u
subalgebra
teleportation
topologically
pursue
cocoon
francois
eisenbrand
bcp17
plesnik
sleator
chitnis
subcycles
megiddo
cormode
cousins
fuchs
similarities
enzyme
interacting
grenet
mismatched
kakade
kha93
kaminski
ϕ∈φ
confluent
mihai
susceptibility
perimeter
perceptron
bartlett
pieterse
bqlogtime
supremacy
epsrc
fiala
h∼h
lubotzky
mhalla
tromp
externally
setunions
veronica
haeupler
unaffected
linearfixp
hypercohomology
##default
encompass
majercik
khachiyan
irreducibles
illegal
schwentick
0x
1k
1n
1v1
2θ
2①
4q
4π
5ℓ
506
6b
602
617
702
aqc
ailleurs
bord
bare
cres
cations
caten
dres
dru
dave
e6
eρ
eld
f01
gus
gpt
g11
gabor
gstab
hun
hoff
ie
i≤
iar
ios
ike
iordan
ippy
izhak
iyad
jt
jals
janson
l0
lec
lmax
mum
mcs
mouk
nas
nem
ness
nag
p5
pun
portier
rσ
rock
rossi
s∥
s⊂
sst
s−i
s−ε
tk
tab
tied
tew
tedi
uet
utm
vk
vap
wz
wsat
x6
x42
yopt
zd
zones
¬t
¬c
´ε
×x
βγ
γ2
εx
εµ
θ∈
λy
σ∈sn
τr
τw
φ0
χj
ϕn
ϵc
→a
∀α
∃a
∃f
∈b
∈ω
∈θ
∥φ
∥by
∩s
∼u
≤vi
⩽t
##dal
##∥x
##tter
##ku
##kamp
##uke
##eod
##ezh
##echin
##fact
##n2
##nes
##hel
##36
##lies
##lied
##can
##cation
##cover
##centr
##cenz
##camp
##v3
##vits
##zl
##z17
##zkin
##witz
##burn
##gain
##gement
##y2
##ju
##jak
##jdu
##−h
##−x
##∈u
##∼v
##×b
##⊆v
##∂d
##orod
##ndorf
inev
ineg
##enber
##arth
andras
##rend
##lein
##levich
##lekamp
##isi
##isl
##isor
##isamment
tours
webs
##cho
##chenko
##chagin
##owsky
conqal
ongoing
##rain
bez
behn
asd
as98
ascend
alue
alfred
stric
##olf
depl
##verif
exiting
reine
reiter
##ament
##ppa
probes
##ila
##this
mand
cancer
notons
versity
veresh
theorie
##izz
atmost
##uni
##unpaid
reser
rescale
hahn
##ivant
##pled
sell
##term
uncont
unhappy
timoth
edits
##resp
sublevel
spt
spines
whereby
##alli
##ocovering
##acter
arne
adleman
##adth
twopair
willing
finer
finiteness
##acke
envelop
entered
cope
valpf
##izeki
##assmann
approving
outlying
samorod
10n
##poi
##popt
##ptas
intricate
mindefault
districting
generative
##udo
##uded
plications
nonover
nonsing
##atheod
oprs
evas
##ouss
impractical
resultats
##ksen
howard
##tenh
larry
optimizes
generalcontraction
1204
##ewe
##apore
became
tried
tracing
trapped
vien
##isman
amd
amin
erasing
phrase
agr
joao
1405
contrag
cybern
16a
monma
bichromatic
protection
prototyp
##ryst
singapore
##oldi
1711
1702
liability
liang
invest
motif
##opadhyay
ppr
1811
1806
fluent
verifiability
cutset
standpoint
heights
saves
characterised
typed
simulable
simulatable
derksen
bitsize
bitstring
respectful
halving
foundational
specialization
journey
increments
localized
##rida
opening
permutahedron
240
initializing
##rowski
strategic
indicators
i∈x
i∈b
closedness
sdpopt
propri
proposes
preskill
278
glab
componentwise
longstanding
sparseload
avenue
##012
marco
reflecting
##lind
##lini
feasibly
derives
automation
##ographically
raise
postbqal
swat
designer
failures
noticeably
fourn
apm
recurses
promises
formalizing
duarte
submulti
attractive
371
372
facilities
sentential
kla
potentials
potechin
downsets
collins
breadth
tesla
graaf
quantifies
crt
sharir
caratheod
##15weak
grassmann
433
436
j∈m
berlekamp
purch
2cϵ
484
486
489
integrated
##evability
##evsky
469
456
releases
priorities
deligne
quasic
isolation
lookup
538
537
40k
xyz
##proj
v∈c
54th
petr
petter
roughgard
477
d−m
##expect
ici
investigations
drastically
554
utilizes
sigm
misra
##ocking
refining
unsatisfying
heribert
bernard
565
560
devising
2b−2
3k−1
583
noiseless
inspiration
overload
##oyuki
##board
projdt
stabilized
suffisamment
##khan
manifest
inverting
620
040
interpolate
hyperbola
634
hashing
jiong
rsa
raymond
3sumconv
bicliques
−αn
ndtm
1950
controller
wat09
strips
983
##vector
paley
palette
0909
−3i−1
##degree
treats
735
remarqu
742
dots
emphasized
bellare
rubinstein
traditionally
dwcm
877
kraft
malod
sgold
wormhol
transductions
derandomize
baums
inherited
fairness
experimentally
##kshit
earned
speeding
pxq
marcus
##suit
ference
differentiate
destro
gradually
morphisms
millions
##burg
##burgh
relabels
comprise
gradel
rosamond
tanh
spectrahedra
##issons
unnatural
1970s
batti
ruv13
agreed
subfamily
g∈t
disagre
fulfilled
friedrich
roditty
dedcp
r∈t
settles
115r
nishizeki
reinhard
nonmanipulator
##alytic
bdc01
kw00
canadian
1b−r
hsgg
qϵn
byproduct
ashwin
motzkin
##hyper
positives
bisimulation
phylogenetic
konrad
possessing
experience
portions
montreal
mathematique
subinstance
surgeries
reciproc
kkl88
contours
yehuda
vandenber
rebu
reducts
invocation
trotter
∥u∥2≤1
bosonic
koucky
disprove
arnold
arnborg
instantaneous
disjuncts
destroyed
bisimilarity
hosp
exemplif
adverti
schweller
eigenstates
parenthesized
suffers
selectively
disconnect
disconnects
d∈g
qtms
uhlmann
##rasekaran
poorly
notoriously
dirk
voron
vorob
chandrasekaran
postponed
illustrating
benjamini
leaky
indirectly
enabled
deliver
hgpmp
platforms
enclose
skeptical
agh17
fhh
zombies
ankur
preinjectivity
floor
carolin
defaults
obligatory
jesper
rainbow
title
doklady
dataset
microsc
session
cornell
choisissons
syntactically
maintenant
r×r×r
jorg
kralovic
hella15weak
pennies
accordance
kho02
brackets
brascamp
hellerstein
suspended
arborescence
culmin
dadush
transparent
bhattachary
ahuja
torelli
anteced
parikshit
retrievability
annihil
capelli
bartholdi
luckily
reinforcement
crescenz
drucker
gpt13
hoffmann
iordanis
izhakian
jalsenius
moukrim
nemhauser
tedious
##ezhad
##jdurovic
inegal
behnezhad
vereshchagin
timothy
oprsal
prototypical
roughgarden
wormholes
baumslag
1b−rprf
vandenberghe
1×n
1qpn
2×2
4τ
4κ
5c
599
603
618
694
8b
8κ
817
ail
aust
b∂
bose
bpr
bmp
berman
cess
cms
cumbers
dδ
e5
e−1
eprint
fos
fpspace
gun
gather
gns
gersh
hx
heng
iπ
i∼µ
jy
jur
j≥r
kδ
kul
kap
kai
klu
kyn
kriv
lk
lane
lsw15
mx
mol
mpo
muk
mnev
nλ
nis
nest
native
nord
nesting
nav
nrs
ntm
ogn
ols
pec
pow
p−k
pfap
qg
rth
roll
racs
sight
sits
sion
scep
sorts
tits
tub
tms
t≥0
uz
u∼π
vn
vel
vizing
voir
w2
wre
w−2
wave
wiss
xos
xix
x23
x43
x−a
xapkq
yin
ype
y−1
your
yuri
zy
zα
zpe
¨y
µx
βi
βy
εq
εi
πs
σij
φt
ϵd
ϵx
ℓq
∀e
∀h
∀1
∀σ
∆p
∈h
∈ch
∈anti
−8
−7
∥2
∥𝑥
∥proj
≤i
≥t
≥2
⊕e
𝐻𝐻
##osi
##aan
##ahi
##aires
##dx
##des
##sr
##iw
##pi
##py
##prop
##kimi
##uw
##rence
##rally
##rint
##redu
##eying
##nley
##nitsky
##hom
##heti
##horn
##hakrishnan
##52
##lity
##cos
##v∥
##vall
##zin
##x5
##x6
##xchange
##60
##wig
##w04
##bud
##gul
##gler
##mus
##−p
##−η
##∈m
##βb
##δn
##∼g
##αx
##⊆e
thre
ther
##error
##onenk
##tien
##tient
ofer
inactive
##entin
##alk
##align
##itos
##itated
##rol
##roga
##arty
##rem
##rell
##ische
forever
forster
weier
prod
##chere
##stern
##ecom
##asse
##celer
##velevich
##utsis
##emund
##ico
##imp
anom
began
##otare
##otonic
aless
alist
comptes
compelling
stacke
devel
exchan
expp´
##aman
##php
##phere
probab
##ilian
mati
cl90
##ainen
resheti
hav
haviv
hayd
hakimi
orb
##geometric
suchy
##elt
quentin
##ofverif
##terms
unexp
disad
disorder
cherv
usvp
ussr
##ders
subhyper
spon
spain
spaw
spaa
timepoint
hassett
obeying
##geset
paste
artin
artur
indif
indyk
adnan
##adj
##adev
twisted
##osability
corp
finitary
noah
##acity
abu
abut
abound
solo
acceler
##rication
sovi
collecting
10m
1012
1046
instructive
intensive
intensively
interfaces
##akowski
pranab
##pss
denis
plant
1937
1930
nonmon
noncomm
decent
claude
pretend
detour
approximator
remedy
destin
scot
scans
scanned
steff
undir
1103
1107
1142
##series
respected
respons
subsur
smallness
smallish
##tens
np17
conditionally
1208
1287
underlies
repair
reprint
##ague
systolic
evenly
##key
tracks
##acking
maybe
ami
ampl
erases
phy
upcoming
emitted
##iev
1484
wellknown
16r
etant
endmark
month
monique
biere
1510
2n−1
analysing
representable
errone
covergame
singularities
homer
hompa
dompf
invention
nextl
moh
mohs
##ovsky
appearances
1807
recalled
uniqueeopl
planchere
negate
##predu
br13a
##ubgraph
1−n
sliding
bipartitions
caps
capped
volker
24k
kernelized
copying
adjacencies
terminated
searched
robps
elkin
hypere
originates
topmost
greece
hypothese
scalability
glance
supersets
achievability
##−2k
1003
tensoring
markus
2864
laid
larose
refuting
axes
workson
automating
−2a
−2δ
spectrally
2d−1
0190
physic
##11a
formalizes
barmp
##etsch
duplex
tiletype
362
x∈n
x∈c
momke
calculates
arithmeti
426
422
##043
converging
392
n−o
n−t
n−j
radhakrishnan
violations
quantifying
corepaq
carb
seeman
predictor
capon
grants
432
targets
berg
pseudoexpect
##logarithmic
pursuit
2i−2
485
480
integrates
hartman
michele
numeric
464
451
squarefree
switchable
sinkofverif
diagonalisable
447
broder
packings
bz04
grochow
495
−n−3
−csp
looked
registered
richter
davidowitz
peel
645
##tify
ballard
mcsp
##977
ethr
##iableline
473
d−e
529
##aszczyk
queues
substituted
3i−1
hujdurovic
misses
dpdt
raz92
owz11
deduction
unsatisfiability
tomoyuki
genericity
knp
563
luis
devised
574
759
ultra
triplet
bbb
584
587
x1x2
antidiagonal
0223
689
krish
wiener
676
stabilizing
stabilising
##janovic
moran
morgen
yaoyun
rmdps
##completeness
asserting
##alias
profil
ls91
##sche
tolerate
2ϵl
668
657
electrical
applica
allocate
transitively
1956
water
alexei
u∈u
u∈b
856
miasnikov
juan
s⊆e
ordre
ordyn
opnq
warning
salv
salmon
chapman
0011
ignores
844
dkm
talking
w∈a
euroc
eurostat
lawrence
spinrad
##pnq
leibler
remarque
wrapping
transposing
kaplan
2xor
attainable
daw
ticket
##kova
iq−1
subcircu
4c−2
aggregated
sgbd
rrr
##tran
##radient
1≤i≤m
prefers
histogram
bfgm
paragraphs
iw01
nonunique
pivotal
casale
vein
∥f∥
tels
demanding
participants
ugvc
ronen
##czak
stephens
andrews
empirically
bj99
bjs11
bruhat
carla
bhas
cmm
gs12a
premises
ordinal
gained
pasin
passive
differentiation
chaud
synthesising
∼sno
managed
discriminator
categorized
wil12
##enzo
subtleties
comprised
comprises
lacking
ayq
convolutional
batu
rearrangement
pseudolinearrangement
j≤k
−zn
rothemund
muroga
superscripts
skeletons
r∈r
spiral
reversing
endowed
mirror
kobdd
##enex
falsified
h−z
hajnal
cascudo
welzl
godsil
d−j−h
rdc
innovation
ℓn×r
pfetsch
2∥q
ys11b
∥d∥
rendus
hr07
kurka
ubiqu
neuron
schuld
eyal
n×k
alek
danger
cylind
matthews
sfst
facilitates
fs02
vitaly
##algorithm
interacts
kaufmann
##array
instantly
sieve
crampton
tactical
μn−1
robinson
patches
komlos
∥r∥
spaced
indeterminates
attributed
ordinaires
krivelevich
kunal
has86b
##fixed
nevisi
friends
stems
axiomatization
daniele
zombie
γxγ
shapiro
preinjective
defaulting
ssop
α∼d
trajectory
trajectories
superiority
s×t
handlebodies
ipsv
villanger
corruptions
µpmq
occasionally
hnr
hinge
allender
mehta
schnit
kullback
##iscre
pavol
commerce
effectiveness
tiwary
ezra
ascension
minkowski
linearizedbp
signifie
yoshida
##×ℓn
##strass
bertrand
plethys
gorithms
tokens
shafi
dijkstra
postprocessing
kapoutsis
cocycle
cacti
fearnley
jaeger
pearson
ziegler
xi∼µz
ferrers
vapnik
##centrality
ascending
stricter
uncontrolled
samorodnitsky
nonsingular
contragradient
caratheodory
sigmoid
disagreement
advertiser
bhattacharyya
antecedent
crescenzi
cumbersome
kluwer
kyncl
ognjanovic
olsak
wreath
##onenkis
weierstrass
##otarev
alistair
stackexchange
exchanges
reshetikhin
hayden
unexpected
disadvant
chervonenkis
soviet
steffen
responses
plancherel
barmpalias
sinkofverifiableline
ordyniak
bfgm06
0i
2u
3λ
3µ
4f
418
4−ϵ
5i
503
6g
6y
6×
616
619
717
705
715
737
8m
887
9a
901
913
a6
aℓ
a∧
ait
bou
b−1
beng
btt
dϵ
dν
dess
dern
ew
e7
fun
ferm
father
fests
gou
gys
hra
hof
hann
hillar
iℓ
icc
ization
jν
jar
jct
k3
kµ
kat
ket
karch
kub
kok
koch
k≥0
l∞
ldp
lpaq
lwr
mle
mub
mib
mcp
nh
nul
ncl
nie
ot
oli
p6
ped
ppp
pru
qal
q−2
rδ
rats
rolland
rishi
sip
s03
szk
tension
tbl
tsing
upto
ven
vau
vetta
wain
ware
x∩
x44
zem
zip
¬β
×1
×y
×m
˚yq
α→
β→
ε∈
ηi
ηε
κd
κr
λp
πm
ρ∈
ωq
ω∈
ϵδ
ℓδ
ℓab
∀q
∀b
∀g
∂z
∃σ
∆a
∇ℓ
∈γ
∥n
∥1
∩t
∪f
∪z
∪w
⊕h
##oj
##iq
##ii
##i⩽
##iver
##pal
##pour
##pret
##kas
##k12
##kumar
##kara
##uvel
##rised
##fere
##flam
##nen
##h∥
##hot
##hang
##huri
##lass
##lap
##vw
##van
##vash
##zam
##zio
##zenberg
##68
##ws
##w∥
##wick
##w01
##∩t
##bee
##backs
##gom
##gram
##y4
##yal
##yman
##y11
##≤d
##≤n
##md
##mos
##jr
##jov
##−5
##−γ
##×v
##×1
##αn
##erfc
##ortions
##ink
##inomial
##inary
##inburgh
insep
##enbo
isot
##anaka
##rets
##recting
##omis
##isenberg
##ingle
toc
forec
wein
weiz
weinstein
##lyn
##chon
##ecc
##asys
onak
##ationes
##ray
##ractions
suri
suivant
beij
##ota
asize
##sik
##abpc
alam
competing
stad
stasys
##olph
##umin
##selection
##uli
##ults
##ulating
reel
rewards
##ampling
poem
italy
##iras
maar
mast
maur
maple
maass
##tein
##tinger
verb
versh
verones
verbin
##ainov
parfa
##plac
shitov
seger
##essami
##ident
##eland
##elman
queb
##oft
unw
unequ
unger
unlu
##ifying
dissert
##matics
chasing
chatt
##perturb
##usting
logs
timing
edinburgh
spcos
obten
##ostselection
matem
adequate
##aden
##osit
corne
simd
someone
assures
enon
enlar
cox
abn
abram
abello
acron
##aste
##intz
expiration
modes
intrac
interle
interfere
prone
denser
dennis
##uele
##ueira
1949
indefinite
noncon
opti
reducib
hardcore
meier
mehl
lowered
##vian
provan
##class
holder
holger
supplied
11n
1178
11005
resultat
rozenberg
figueira
largeset
optimizer
inflection
1210
1206
##vesh
posimodular
percol
schm
schre
schno
schewe
newt
newtp
blog
appliqu
applique
takah
##kext
##kebee
commens
unify
minimises
1310
sumtests
emerson
1402
1404
1407
contravariant
bela
##eborov
16σ
locate
etape
etessami
biases
1506
realm
2n2
##ensky
##cci
homp
findfp
1782
lib
normality
univer
guidel
guilla
natarajan
semina
semiring
chart
1810
disjoints
fluct
hands
permit
permutive
heuvel
heisenberg
plants
saving
br13b
eqv
testbed
mathemat
encaps
loomis
halve
adjusting
1−µ
founded
specialize
transfers
weakcond
confidence
24d
united
stitch
##oka
robo
robson
fraisse
i∈l
elad
proposing
hammer
schemas
gln
gluing
geforce
notationally
dyadic
distinguishers
defects
interscience
1008
32k
markers
laflam
universalis
alternatives
raising
−2r
postr
postrt
optp
rationale
017
csc
lin12
linux
labelsets
##ikov
farther
##ractor
tighten
##aux
2ml
2mc
barrington
barenbo
usefulness
dominic
dtdepth
stockh
irresp
##atherine
##arland
facon
entrywise
381
resolvent
##024
thirdly
##fair
download
##047
converts
n−z
##0503
##anne
behaving
enumerator
shares
ortholog
predicting
frege
grø
promisebqp
promiseawpp
promiseqma
regards
ptm
poles
##variety
481
naz
465
expands
##mean
switched
442
deltas
omv
subtdag
courts
funding
quasige
riga
cleaner
benign
benny
advised
##iorgio
isolatable
junior
denseload
498
491
ipx
prefixed
davis
subdistribution
535
532
buildings
svd
sv19
khouss
peleg
647
2t−2k
546
549
ethan
475
d−s
puis
doug
opposing
528
521
522
icml
karlin
kopp
kohler
admitted
553
551
ramification
ramifications
3i−2
misdec
##ocked
compactly
attaches
ow09
unfold
∀i∈
knx
tc05
561
569
573
579
zeroth
##ominating
succeeding
smoothness
summed
3k−2
2−δ
ulc
abstractions
preparata
685
682
donnee
aspvall
033
stabilizes
stabilizers
wolff
##herry
invert
articles
mergeability
631
ss14
mpw15
kale
aa13
abstracts
t1c
aimed
cpnf
selections
bs96
652
surprise
checkext
ghz
y∈x
1955
wattenh
bpk
u∈γ
lipsh
conjugates
hopefully
s⊆v
coup
narayan
9802
##hrer
c∈d
toran
toric
dictated
dmitri
865
##queue
747
doty
deviating
781
sno
−4−c
subpower
ak01
akrida
signaling
yihong
azar
dwork
shatters
truncate
kra95
malhe
masson
##ync
exceptionnel
stefano
masa
1≤i≤r
bfop
inherits
1066
1061
iw97
##462
transferring
delegating
feeding
justifications
831
vega
1134
bg05
bgt14
qrr
x3c
naively
dfvw
everett
gerhard
bruck
ellipsoids
compiling
cm13
p∈pcs
worthy
worthwhile
dlabpc
tsm
##aragh
rolim
roland
sharpened
famously
cha01
stripes
breakthroughs
##relati
s∈z
z∈∂d
##´1q
##bqspace
##mont
relabeling
adjoined
kills
diverg
##enzucker
diminishers
himself
ks01
mv10
mm09
ros09
impacts
msol
forehead
savitch
hpx
picard
grandoni
venkatesh
condon
paradigms
pravesh
α∈a
##wright
revisit
complications
adjustment
bonato
t−t
sanders
σ∈σ
falsify
g−s
qln
woodall
bla09
rosenbaum
tags
fuji
shrinking
arrange
reliability
services
schoenfeld
mckp
discretize
touches
cochains
possesses
experiences
hatanaka
##worthy
montgom
reconstructed
ematical
fernau
mbrt
prohibits
schulz
consumed
consuming
fabrication
kopczynski
tpi
infeasibility
##standard
winnowability
aleks
linden
saberi
disproving
quasivarieties
parenthesis
disappears
pulses
trouve
trouver
thoroughly
kelly
nadrian
saraf
shahar
konstantinos
favorable
subadditivity
antiferromagnetic
annales
quartic
##computable
roger
trigger
semimeasures
wiesner
τi∪
stuck
shaped
nonpostselection
lau03
tempting
perez
α∼ν
##araman
trimming
gonz
melkebee
stahl
sikdar
−2γm
handlebody
sandwiched
##pmqq
seidenberg
artifact
biconnectivity
cancellations
pioneering
##emeister
flavors
pyramids
bogd
cognitive
autarky
sloane
giacomin
1⩽i⩽
mials
x−y
emanuele
halperin
epactivepsq
dramatically
gibbs
ohad
thierauf
quelques
s00224
ys10c
bourgain
poupart
wegener
cannone
unreason
spike
opportunity
hertling
scientists
sperner
##dominatedvertex
enthusiast
hendrik
caveat
jeremy
fujita
perceptrons
mcsherry
zdeborov
deploy
reserved
nonoverlap
cybernetics
quasicryst
petteri
hospit
vorobjov
ailon
austral
bmpv
fos08
nrs10
alessandro
subhypergraph
spontaneous
abutting
mohring
pseudoexpectation
hartmanis
morgenstern
bhaskara
chaudhuri
schuldenzucker
cylindrical
schnitger
festschrift
gysin
jctb
kubiak
ratschan
tblmp
tsinghua
vaughan
wainwright
α→β
β→α
⊕hitting
forecast
weizmann
beijing
alamitos
stadler
veronese
parfait
segerlind
quebec
dissertation
chattopadhyay
spcospark
corneil
acronym
reducibilities
mehlhorn
guillaume
disjointset
fluctu
weakcondorcet
laflamme
barenboim
irrespective
quasigeodesic
khoussainov
checkextractor
wattenhofer
dfvw99
montgomery
melkebeek
zdeborova
0q
1p
2≤
2ω
2erfc
4s
4σ
4γ
5π
510
513
578
597
594
678
695
703
745
787
813
898
819
837
9b
916
915
9nl
a5
a7
aro
age
aep
ahead
bst
bures
bsw
baz
cλ
cε
clement
catch
catherine
dth
dence
eug
einstein
fusion
g∩
gts
hz
ion
jx
jim
jpaq
jml
k0
k×
kγ
kut
kot
kong
ksat
kms
komp
k∼π
kampen
lf
l⇂
lace
m3
mℓ
mou
mate
mso
mical
mization
mdo
mitch
nres
nosq
oq
ove
ober
pes
pess
pigh
pfer
peng
qft
r∼
ral
righ
rsp
r−2
rpaq
rcm
rx∥
sre
sou
spp
srid
sanch
s01
tat
tic
tand
tian
t→∞
utp
v5
v∆
vul
vinc
vadim
wn
wℓ
wis
xβ
xφ
xquery
yar
yak
yossi
zal
¨c
¬∃
αs
αt
αf
βd
βk
β→0
γρ
δc
δ−k
εm
ηk
θλ
λu
λσ
ν≥0
πe
ππ
ρi
σ1
σ∈s
ψn
ωp
ω−1
ℓj
←→
∀f
∀ϵ
∃p
∃k
∆y
∥2≤1
∥∆h
∩a
∪v
∼b
≥3
⊗r
⊗v
⊗∆
𝜑𝜑
##oo
##oh
##dis
##det
##del
##sem
##sync
##493
##pting
##tu
##tram
##kk
##kow
##kop
##urowski
##rat
##rard
##eq
##eur
##ext
##eurs
##fly
##fas
##fel
##ferman
##nulty
##hic
##hus
##hold
##haran
##58
##lines
##litsky
##vis
##vas
##vest
##ville
##zn
##zable
##x∪
##xler
##w10
##bt
##ban
##bia
##bbling
##bauer
##gi
##gate
##glp
##gado
##y3
##yes
##yth
##mill
##mund
##mult
##j12
##←i
##−q
##−δ
##∈x
##σ0
##νpnqq
thu
##erton
##oness
##tish
##tization
##orient
##inois
##ese
##eslen
##atter
inqu
inpaq
inhom
##ito
##itous
##edes
ands
isl
islands
##anu
##rew
##isat
##isant
##iseness
toll
toth
toda
forum
prosp
prosk
##chos
##chuk
##sta
##ecke
##ecca
##lliv
##iths
##cends
##veia
onwards
##emers
##entric
##imo
##imon
anr
##oufin
##ouli
##otree
##otters
whorf
asano
##sibly
##aba
##abayashi
alv
alain
alber
compan
stones
##olent
##ollection
##umb
##umber
##sek
dept
##ulam
##ulations
exces
##amon
##amil
pock
##ctoral
itw
ital
##ppp
##phq
##tini
##tinar
##tiness
mahler
##tschel
notamment
alg1
algbp
allerton
clx
##unch
resampling
haz
hauss
haemers
orlitsky
algorithme
shok
##anta
graphpt
##ela
##terov
unsat
unspec
##ifer
##ifar
##ifred
polyn
havel
##maz
##mail
chev
chasm
chatter
##uschnik
logistics
##atim
##ressively
subuni
subterm
##ruff
##ructing
20n
hass
hassi
arna
armin
adw
adop
varied
##ading
##osked
corners
formule
equip
assure
enge
enrich
cohn
val84
abh
abrs
ablay
acqu
outstanding
sokal
doable
doher
colon
colin
modf
modus
modelling
−16
minmax
minhash
distortion
interdic
interests
interplay
prenex
##psq
##psum
denmark
indepsum
strr
nonseparable
claire
prelu
opens
nowakowski
##pendent
##pendant
redundan
detects
noteworthy
obtainable
mehler
remeslen
symsync
desire
descends
scand
steve
stepping
undes
maxs
maxi
maxequ
1115
##ght
subsum
basing
constraining
np17c
multiindex
claiming
undert
##agi
##agic
systole
sch08
schwe
discounted
appli
tripartition
secrets
trap
traxler
vi∈c
restar
tele
teach
minimising
1317
erk
erase
structurally
emil
emek
emulate
agp
agarwal
joe
##iezer
inducing
16ε
1602
1604
producible
addario
endvertices
monge
bi17
1504
1507
analyzes
dependences
##valph
##istry
hompf
1701
1708
1703
1777
wrench
mozes
hypergeometric
trust
##ellar
guid
guest
guages
guiding
natan
18k
18n
accounting
fluschnik
##ighbours
clearer
latest
presently
factorizes
autre
heule
depict
surrend
sa90
##ralized
siav
brs
brs11
##dict
##nerability
##ffiths
testability
checker
bitgraph
##007
##00in
performances
1−β
founda
sliv
shortened
bipartiteness
cav
evalext
membr
triviality
conform
copeland
encodable
conciseness
i∈j
eleni
eliezer
minimumunc
quantile
##riesen
leveled
gegen
lnr
##uchi
deform
1004
1005
10087
32m
avner
avrim
repebbling
##formatics
witten
marquis
treewidths
refuted
auf
lown
analogs
strictness
raf
−2c
drawbacks
postulated
swee
samplene
mathematically
merit
effet
##qpx
readable
modifier
modifiers
hamiltonicity
accessing
##112
2mn
2m−1
barrett
##conl
movements
stock
ducm
x∈k
x∈m
incidentally
##ropic
374
3754
illinois
382
428
uvar
##wein
basepoint
n−h
n−c
dualization
goldstein
goldmann
##0314
x∼a
rado
radu
radical
demers
cosine
majoration
##16a
caracter
431
purifications
2cb
2cm
2004a
tremend
##evolent
michail
458
entiers
##effer
breakpoints
446
delgado
oms
omer
funded
quasilinear
interpretable
2πs
benevolent
##anka
affili
versati
availability
orientable
grotschel
3n−m
cardinalities
faw
incompleteness
492
rolecol
sheathed
bottommost
gpw15
subdigraph
539
5302
##critical
##cription
khuller
digiti
cdf
643
aar05
aarhus
mcnulty
borg
borwein
johnstone
petal
contrasts
putinar
karel
557
n1−1
reviewing
utilise
signing
siggers
tv07
ambiti
cependant
extracting
mosq
mosc
sqdist
##anek
##warabayashi
competition
tomographically
tailed
572
zeroness
markovic
753
750
thankful
rtb
behavioral
586
99n
preparations
##956
##olorable
privately
035
032
0323
675
677
stabilize
wolfe
woltran
tricks
tricky
littman
yao79
yao85
##otie
repetitive
639
kalyan
naturel
lmpo
fooled
galactic
kutin
##loo
0810
##schy
duplicated
tolerates
didn
665
bs14
intersectant
0001
00000
bids
leeuw
ghw08
−αk
##afellar
manipulating
sofsem
mr14
renam
1953
holy
##alez
organised
u∈r
mike
722
borderline
∈sn
e∈a
e∈p
e∈t
glueing
warps
salem
##blum
##blad
##hanov
commutator
commutativity
happened
happening
763
760
lg14
terence
842
840
−3λ
−3α
##covers
cai86
##hopadhyay
equivariance
equivariants
961
∥uj
evolutionary
deviations
kautz
kawarabayashi
2αβ
921
922
929
bondarenko
snir
daicz
emphasis
emphasise
##−−−
subcollection
##ystems
x24
truncating
ternational
826
827
catal
catalytic
pivoting
##radius
highlighting
occupying
preferable
##hui
##ls17
##ompute
bfj
1065
mkr
ecole
delegate
novelty
travels
xiaotie
vehic
texas
symmetrize
portland
bgp
pictured
tangency
payoffs
din07
milan
banaszczyk
2γc
−ϵ∆
gs12b
ldps
premiers
1051
##ekind
superpolynomially
gains
nuclear
madel
−εm
hiro
education
wilde
wilson
hubie
h∈h
h∈c
egate
fiat
griffiths
##ampis
frankl
fkt
bringing
hanson
rothblum
explanations
−y∥
##basis
friedman
clarke
dedekind
−5s
experts
instantiate
instantiated
reformulate
mikhail
α∈z
π∈sn
π∈sm
reinser
sep3
stressed
diamonds
dasgu
nicer
v∈sn
economy
b∈b
lad75
mimic
gw95
rarely
tetali
−βm
posslp
contradictory
freshly
h−q
woo
wootters
hajiras
confirms
wsglp
woodruff
##gorin
k1h
nesterov
subprogram
idempotents
0020
driving
konig
mckay
y∼s
florian
hdist
angel
leveraging
dilation
joshi
mathematiques
lrv16
¨¨¨x
fabian
eyes
keevash
rackoff
##εqc
bisubmodularity
fenchel
rebecca
convinced
incorporates
bypasses
lindblad
mildly
riv16
sivp
zptime
resemble
gj79
menu
silva
rbds
hoske
jakob
karloff
odifred
##rollahi
beneath
livni
landmark
sha18
accumulating
−iγc
incompressibility
grund
s−0
##x3x4
bearing
reidemeister
chandan
chebotarev
vijayaragh
mobile
crcw
aar10a
customer
r−p
viii
bt76
julian
julia
yvz
proximity
rectifier
bucketization
dgjr10
disallowed
nphardness
kyoto
stemming
asynchronously
rarprqs
ankit
unstable
prrx
schapira
agitate
floating
heilmann
rationnels
gilles
judge
pisier
trimmed
blaser
calabro˙
territories
4086
s×s
superpolylog
datasets
biminimaledgeseps
biminimalseps
jianer
kahler
louis
s∩t
dobzinski
precedente
biconnminimalseps
cancellation
austin
elec
pfaff
rutter
collectively
sergeyev
bump
duty
¨p2pn
hausdorff
bdgj12
expressivity
scarcello
blend
bonnet
hebrard
µ∥ν
distiso
enjoys
plaisted
bioin
axiomatisability
λ⊢k
delineation
hayashi
prerequis
pertaining
barycenter
kupferman
x→y
∥λ∥
wehner
segoufin
verifiee
proposal
−2βm
67038720
conceivable
austria
meshulam
college
indepen
##enschaf
eigenfunctions
historical
ribbons
iarcs
ike12
rockafellar
bezout
##izzini
vienna
destroying
inegalite
cessing
cmsol
gershgorin
mukhopadhyay
peculi
##ecomposition
anomaly
decentralized
inventiones
peelings
knp07
profiles
ubiquitous
ipsv12a
gouveia
ketan
karchmer
oliver
verbatim
unlucky
obtenir
interlea
11005r
percolation
schnoor
hompgraph
robotics
puisque
kopparty
##ominatingset
ss14c
lipshitz
980204
divergences
fujii
τi∪τ
gonzalez
hospitality
jmlr
k×k
micali
pighizzini
pferschy
righthand
rcmc
utpst
vulnerability
vincent
yakary
inhomogeneous
tollens
proskurowski
##ouliha
haussler
shokrollahi
unspecified
chatterjee
arnaud
##oskedastic
ablayev
doherty
interdiction
remeslennikov
maxequity
siavosh
membrane
minimumuncovering
gegenbauer
sampleneighbours
375477
dasgupta
hajirasouliha
odifreddi
0j
2ca
3l
3ψ
3−ϵ
5s
514
598
519
593
590
6q
601
612
604
699
693
6γn
7a
7λ
711
718
714
8p
8ϵ
803
899
9k
9x
912
903
907
aµ
aes
aud
aub
bass
bgh
bry
bcy
bau
bms
boul
cilib
cenk
ckl
cifar
dη
dit
dus
d∈n
dbo
dung
dga
d∼µ
eec
eacs
ehr
f4
fv
fak
fss
fuk
friesen
gle
gam
gure
gour
gily
g∈s
glyn
hollow
hari
hill
hss
hpaq
h22
hurd
hersh
ih
iφ
iτ
iȷ
ihs
ilya
jn
jing
jero
jura
j−k
josh
jelin
kst
ksw
kick
katz
kaste
lset
lca
mary
mff
myst
moura
n∥
nϵ
niv
nomial
nath
o1
o2
o7
oum
pφ
pem
pich
pdp
qx
q−3
rer
rice
rspace
russi
sce
sic
sate
sad
sdd
tε
tch
tation
tsi
tain
tial
tive
tures
t´1
ux
u⊂
upl
u×v
vb
vm
v∼v
wb
w−
wads
w×1
x⊆
xie
yk
ying
yun
yong
z∥
zn
zol
zong
¬o
±3
±m
´n
´3
´apkq
´kqq
µk
µ⊢
×t
×w
αp
αv
α∈s
γ3
δa
δz
δ1
εn
ε2
θplog
λa
λf
λn
λl
λw
λ×
λmax
ν≥1
π1
σr
σ2
φi
ϱ⊢
⃝dt
ℓt
ℓ−
ℓth
ℓ∈s
ℓ−r
→ab
∀r
∂λ
∃ρ
∈λ
∈g
∈y
∈φ
∈er
−∆
−ℜ
∥𝑉
∥∇
∧x
∩c
∩z
∩g
∪y
∼r
∼n
∼l
≤o
≤l
≥n
⊆σ
⩽3
##oct
##dr
##disjoint
##drawn
##∥z
##4a
##iu
##ience
##i−2
##iros
##ipher
##pin
##pkq
##pedo
##tutte
##kes
##kus
##kai
##kash
##kler
##k15
##kuri
##uo
##uple
##rate
##eed
##east
##fir
##fts
##family
##nor
##n08
##hary
##lab
##lice
##lich
##litz
##l81
##lmaz
##ciel
##vat
##v08
##zen
##zig
##zard
##z01
##z08
##zki
##xist
##w2
##w16
##w06
##bro
##bing
##gr
##gj
##gap
##yj
##ych
##yam
##≤r
##≤x
##2or
##jols
##−z
##−β
##∈r
##∼η
##αq
##∀y
##ılmaz
thous
##erf
##ertia
##onto
##tiques
##inen
##atrick
insist
inertia
##enum
##entine
##alo
##aling
##alam
##alizing
##altm
##itly
##itably
##eding
##ed18
##roth
##robor
##ararajan
isf
##anis
##anth
##anks
##least
##lexiv
##isement
##issan
##istique
tourn
tobi
forall
weim
weitz
week
weisman
##lyi
##lyai
prohibit
##china
##strings
##ecks
##econstruction
##ecomplete
##owe
##astik
##aschev
##celi
##veich
##imistic
anthon
suz
suresh
##oui
whom
asi
assi
##sia
##sian
##siveness
##abelled
alto
alices
albers
compens
compiler
compete
compseries
story
##olan
##olis
##umdar
ree
##ctory
##igan
##ppable
##riel
##quel
##quill
##phol
##phers
proba
probe
##irings
##irnov
##ilding
##ilient
##thik
##ticality
mapredu
canny
##tsche
algor
theoreti
clark
##oglu
##izler
atl
attend
resilient
hautes
parser
parking
pardal
ors
orlic
shock
shaw
##acha
##achalam
##elstein
quand
##terlein
unse
unram
unset
unwin
unrelati
leone
levent
polyomin
disp
completions
##arias
cher
chords
chera
##usz
##uska
##berfeld
subrank
anyons
spell
spare
##andel
20k
polynomialsize
##allo
##allah
##iescent
mats
matmult
arun
india
##adiev
##asekaran
##aya
twe
twocovering
##utions
sinop
corrobor
forme
simari
simone
sim70
assadi
complexitytheoretic
coo
coja
##ighton
valence
valeri
valentine
firstorder
ack
acquis
##soever
##atisfiable
existed
outlo
outermost
dover
doob
vertexcovers
10e
10b
1045
1087
1043
1073
intense
minutes
minisat
interconn
##akoli
##uejols
overwr
plans
plenum
19a
1901
1902
1904
1906
1946
1941
noninc
##acek
recast
recap
recording
recomb
optics
##orski
lineaires
deterior
##dusek
hardw
mezard
impressive
imp2sat
dia
remapping
remplac
deserves
smirnov
holtz
boh
boy
bolyai
maxp
1173
##ghchi
matrixaltm
optimizations
generalising
##ishek
1203
##vesti
manok
manasse
repro
replying
perron
percent
pairings
scha
##anskii
maximising
takhanov
becoming
trichromatic
trained
commu
teams
minimizer
mayr
mayer
1300
1302
programm
ern
erde
erfc
phpg
furedi
theirs
emo
emulates
joan
joze
1409
1412
1406
1425
contraposition
introductory
16c
16b
16j
1667
productions
etre
etry
etude
##ssens
1508
realisable
##chna
2nw
##outs
analytically
technol
technological
##enses
uppermost
inequivalent
##valent
##istem
gapped
1706
cerda
binator
##note
normed
movable
students
hypertree
##ovari
communi
##elles
guides
semirings
charlie
1801
1804
accounted
flur
flog
handed
permet
heide
surf
neglect
leader
sib
sij
eqeq
##uba
retro
##ffari
characterises
simulator
replication
##plittable
##iba
##006
halved
columbia
1−e
1−θ
throughput
2kn
2kw
slides
slaman
shorten
opened
tukey
weaken
238
confused
permutes
beforehand
sensible
remarkably
terminally
winding
winkler
##icki
##icky
searcher
elkind
elberfeld
planartutte
##ichte
sdw18
regularized
##endum
transcripts
##inca
##incing
##incenzo
goodness
stillman
contradictions
quantization
gebert
supermar
divesh
divincenzo
meanings
1009
holden
positioning
convincing
whatsoever
##01b
lauri
marsh
k−1−η
severely
reflexiv
automatability
##ymm
raw
relaxes
geometri
swed
swastik
identifiers
samplers
designate
designers
0110
0123
noticeable
voted
##iao
modifies
api
3482
fp7
##ikh
##ikumar
##undaram
##095
technicalities
barb
bartal
bar98
barah
##conf
occurences
dominik
straint
walther
walcom
fox
##ashita
duan
wordpress
x∈ω
submit
##tesman
multiplicativity
3727
semirandom
arithmetization
##ificant
##021
tems
greats
##racies
−i−1
finalization
klart
skill
skrod
influenced
##ountable
##irectly
n−l
##056
pins
pink
pinned
blackburn
networking
helm
helsin
##16b
nondisjoint
carre
carmos
##153
predictions
gruska
connectionist
j∈p
bera
berk
ptqq
complemented
2cδ
488
trend
tre08
hart
harald
soundararajan
walking
444
brody
omits
cleaned
psych
versch
legally
legisl
densely
faire
497
ipz01
##approximate
issn
critique
subdirectly
curv
purported
informs
khadiev
degenerates
##prof
mcmc
mcppp
mcquill
cohom
boris
boros
547
peters
peterson
50n
contrasted
d−3
flippable
bdls17
doubles
irreducibility
523
520
icm
pcomplete
2a∂
drange
karthik
##hiro
reviewer
##ergren
hua
cryptan
dns
lisa
synchronisation
refinements
braun
brakers
genom
##ameter2or
suggestion
raz98
owl
lifo
##azaki
british
knv15
562
567
1≤j
577
ivan
ivany
seeding
magnetic
summer
585
589
thinking
kris
bcm
dont
temporarily
##leyn
dqn
##rasi
##herjee
morris
coinciding
stochastically
justin
legalization
635
##heory
ppss
vanished
jiaming
nw94
rs3
rs09
owns
projectors
abstractly
galanis
ls09
duplicating
0604
thomson
cpi
cheung
chekuri
669
honor
pourrait
653
655
america
laplacians
bidirected
bidirectional
actively
dividend
dslice
sofya
p∥θ∥
organize
777
forwards
employs
729
communica
e∈γ
jeandel
warren
irrever
nc00
##blings
palo
0907
jersey
semantical
constructivity
thomasse
terhal
archives
843
−3n
c∈f
c∈φ
torpedo
toronto
w∈γ
las01
concatenate
traversals
extracts
ilan
969
744
##7902
gottesman
expressibility
relativise
2xy
2αn
attaining
definitely
bonding
jk10
jkn08
snaked
−4δ
##backdoor
k−r
k−z
ovl81
penalized
pnq
p∈q
subcode
rubik
az06
##km04
aggregating
krav
nseth
sgoldsd
##ynin
reconsider
cutsets
bm18
bmdp
⊗2k
necklaces
940
cstheory
m−d
m−ℓ
safety
bf01
dickson
congres
ciphers
thickness
ggr
x34
tqft
dfg
dfas
accompan
80k
bab87
s00493
isoperimetry
ckk
brandes
klee
rationality
128n
kan92
nationalindex
pitowsky
##diameter2or
1025
∼syes
naming
s∈f
s∈sp
succinctness
discriminatory
panova
panolan
extremes
hi−1
yekhan
relabeled
adjoin
superpositions
prescribes
hgbd
1931
mvu
mm12a
msed18
levy
backwards
bkkm04
retained
federico
3ℓκ
∀u∈u
constituting
hpi
j≤d
pleasing
mufl
rabp
rabps
fbpp
condensation
unlocked
encounters
circumv
bayer
untouch
instantiating
prakash
rhra
western
niceness
tune
tuned
tuncel
##awad
stanley
b∈d
b∈z
birget
coupled−
gwp
σ∈α
hajdusek
confirming
##alancing
christophe
hs17
heteroskedastic
unprovability
tagging
tagged
printed
polarization
1≤j≤k
1≤j≤n
1≤j≤κ
d×1
gilbert
shrinks
kozen
lyon
tavakoli
∥t∥
evolving
evolved
bottlenecks
phylogenies
ryu
ryb
hd09
hd05
lagergren
lingeling
rudra
rudich
##kovich
delling
freedoms
cray
eighteenth
tardiness
magron
3αn
nilsson
srn
prohibitive
betweennesscentrality
tumor
x51
contourpa
contourpxq
epochs
eye
##holm
winnowing
warmup
m−r−1
collects
j∈z∩
disallows
dms03
ozbud
roman
zoo
anticip
intrinsically
bakry
gabriel
kdw04
lubiw
raskovic
boosted
barnum
parentheses
878001
tacitly
−−→
##parameterized
fascin
jaroslav
jaikumar
s−t
wiki
unbreakalg
arboricity
linguistic
b∥lz
ioannis
komm
pspac
whitening
reidl
gaspers
ωn−
ωn−2
weightings
excited
vcdim
bt96
crowston
wrochna
yv18
proximation
4939
##computation
skeptic
bilardi
felix
rogers
rposteqal
ftqc
nonconstructive
agitating
addrm
transpositions
pereira
hyperforests
dubrov
gyssens
kirkp
knots
sikorski
absorbs
microsoft
bills
ghaoui
ghaffari
clipping
shubhang
cornuejols
218x
syntactical
maintenance
hinges
oretical
francesca
francesco
cognition
hurt
jlx
rw05
werner
werneck
autarkies
expressiveness
giacomo
aravindan
xeq
anandkumar
enjoy
governed
crystals
vacuously
disregarding
nichterlein
⊗i1
⊗i2
decoupling
smolin
smolensky
counterfeit
bentkus
czeizler
yoav
∥α∥
struc
spieker
bibli
surrounded
recommendation
1in3
rangan
zakhary
¨2j
todinca
eryℓs
emerge
cristian
eldar
inevitably
##arthy
website
envelopes
evasive
fournier
remarquons
reciprocally
rebuilding
carolinae
microscope
bpr12
jurgen
nordstrom
sceptic
threaten
##aligned
soloveich
nonmonotonic
noncommut
scotus
np17a
ampleness
monthly
erroneous
physicists
bbbv
waterloo
subcircuit
ugvc2
cmm09
plethysm
derniere
s0304
wareh
zipr
isotropic
maaren
vershynin
unequal
matemati
indefinitely
schmitt
takahashi
commensurable
guidelines
naz03
douglas
bogdanov
unreasonably
eugene
mouawad
pessimistic
srebro
sanchez
¨cℓ
italiano
chevet
hassidim
undesired
subsumed
teaching
natanzon
slivovsky
sweeps
caracteristique
holyer
madelaine
vijayaraghavan
bioinformatics
##enschaften
peculiar
hompgraphpaq
yakaryılmaz
cilibrasi
dbo15
eecs
eacsl
gilyen
holloway
hershberger
ihsb
jeroen
juraj
jelinkova
kst92
kasteleyn
upload
zongming
λ×i
ϱ⊢md
##first
##issante
tobias
weimann
weismantel
anthony
mapreduce
pardalos
orlicz
unramified
unwinding
polyomino
cheraghchi
valeriote
acquisition
outlook
matrixaltmin
manokaran
erdelyi
jozef
supermarting
reflexivity
barahona
klartag
skrodzki
helsinki
nondisjointness
carmosino
legislative
mcquillan
brakerski
ivanyos
##diameter2or3
yekhanin
untouched
ozbudak
fascinating
kirkpatrick
shubhangi
zakharyaschev
soloveichik
0qu
078
045
093
094
1x
1´
1qu
1p1
2ϱ
2∂
2op
3ν
3−ε
3´op1q
404
5r
5x
5δ
5α
508
507
6d
6p
6µ
606
690
7w
700
712
8ε
815
889
917
aq
arac
ations
arie
arose
bπ
bτ
bol
bast
bouch
bacon
brest
cσ
ced
cem
cite
cie
cult
c∈n
c90
ctw
dρ
d⌝
ding
dant
dos
dating
dai
d07
donald
dstcon
docking
ely
eil
epe
esf
epa
echel
e∥x∥
eptas
fle
fly
fang
fug
fmax
fichte
g⊟
gan
gith
gard
gass
gps
goss
g∼g
garland
hf
hern
h00
hind
hhr
i7
iain
ipl
ipc
ichi
jd
jack
jason
jia
jenn
kg
kϵ
kum
kid
kore
kru
kad
kik
kqq
k≥1
kilian
kainen
lσ
l∼
lam
lel
lsf
lak
loth
lutz
lampis
m0
mver
mig
mus
mine
ments
mss
miti
mama
menger
mceli
nℓ
n´
nth
nication
nbp
nomb
nemi
och
osp
ogh
odi
oeding
pσ
pϕ
pati
prab
p∈sn
q−k
qiao
rous
rero
rameter
r≥0
sed
sas
stim
sier
siel
s08
soura
t4
tκ
ted
tpt
tors
tong
tone
t−2
tani
tali
tzam
uib
vo
vra
vil
vak
wc
wm
w⊥
wid
wass
wild
wett
waoa
xγ
x∆
x∧
x↔
xors
x53
x⊆s
yb
ym
yas
yash
y∼n
zr
zec
zim
zub
zuk
zorn
zachary
¬q
¬α
¬ϕ
´c
µ1
µµ
×γ
ˆr
˚ˆ
βq
βx
βδ
βθ
β∈n
γe
γz
ελ
ε0
εlog
θq
θj
θσ
θpal
λb
λj
ν1
πa
πq
πy
πφ
ρa
ρx
σε
χ2
ωk
ϱd
ϵf
ϵω
ℓd
←n
∀π
∂w
∆h
∈z
∈𝐶
−κ
−χ
−∑
∥∥
∥i
∥l
∥j
∥ϑ
∥𝑦
∩b
≤x
≤i−1
≥k
⊗λ
⊢k
▷◁
⩽i
##aper
##aware
##d06
##s17
##qi
##iopoulos
##pti
##pke
##p97
##pita
##product
##kit
##kdd
##kup
##kni
##kw01
##uv
##rant
##rist
##riter
##rasing
##rze
##r19
##eer
##eeth
##eplit
##fy
##fre
##fun
##fus
##fort
##nsat
##hon
##has
##hum
##hul
##hak
##hart
##3s
##38
##5c
##lim
##length
##lov
##cf
##cou
##csi
##ccess
##cock
##cini
##coding
##vit
##vized
##v10
##v06
##vms
##vening
##zations
##zens
##zman
##z14
##zalek
##xpl
##198
##wa
##ww
##well
##w11
##w17
##w07
##wamy
##wy11
##∩u
##∩con
##bid
##binger
##gc
##gks
##gile
##gbd
##gkan
##y83
##men
##mul
##mall
##mop
##mick
##muth
##mentioned
##907
##jit
##jev
##−g
##−way
##∈p
##×s
##×c
##∆t
##∨y
##⊕e
##𝑢∥
tht
thap
theod
theses
##tio
##oro
##orr
##inho
##atum
##atsh
##atowski
insign
inval
inseparable
##enies
##enbaum
##enotti
##enphol
##aldo
##alyi
##itry
##ede
##rost
##roda
##arten
##arsky
##arprqs
ando
andrze
ish
##anur
##repe
##reci
##remont
##lett
##omaa
##isti
##iswal
##ischen
##isample
##ingarten
tou
toh
toul
tosh
totient
toeplit
##etes
forem
forew
thate
thath
weather
weyman
proach
##cha
##ches
##chke
##chini
##charo
##ller
##llon
##llite
##owmick
conl
conic
confin
##asting
##asundaram
##cechain
onecc
##utenb
##utella
##embed
##ici
##icedo
##entaan
##entrost
##iman
##rap
anind
ansh
sund
beg
comon
command
##ouky
##sid
##abek
##ablity
als
alib
alman
altering
alagic
withdrawn
byq
sth
stark
steric
##olver
##umine
##umichi
reite
retical
reused
poo
povms
##urate
##urpr
##iglia
##igiann
##ria
##riet
##iling
mail
##odings
##odnikova
theorists
alluded
clm
##unov
rests
resort
haah
parents
parnas
oren
orest
##place
##plinary
shang
sharan
shave
##acheng
##achandra
##erek
appreci
##antoni
graphpa
##ellement
quote
quilli
quiescent
definit
##teresting
unite
univari
unrank
unimodular
unperturb
unparameterized
levi
lebes
leighton
disks
dischar
dishon
whichever
##matic
##arian
constantin
chor
chess
chatz
chrob
chkw01
neat
##atization
ush
timet
##berna
##berher
sublogarithmic
subvariety
sps
##andry
##andran
20ξ
2063
one−way
has03
has89
##putable
obda
obdr
##inek
matlab
pagh
paola
arvind
arpita
indique
indian
ado
##adap
##illo
##aye
sinha
corqp
corpor
forman
simpc
##sional
syes
finis
##aca
##acitated
equis
assist
ense
enqueue
cole
coined
cobuch
firing
firms
abe
abpc
acl
##assem
outs
degen
degrad
samir
expenses
vertexdisjoint
inputsize
10t
1093
##pov
intru
−12
minprop
interess
intervening
##aken
plumm
plucker
nonst
nonmatching
nonstandard
noncomputable
nonadap
##estad
decoher
claus
clausen
preord
recons
opδ
optical
construire
tr06
tronic
hardt
hardy
hardly
mellon
pathological
imparti
##ersdorff
dietz
directing
##ourke
desider
smyth
##closed
scopes
holomorphic
bout
boix
bop97
ste10
steele
maxsur
maxsupp
diffe
11r
1112
1104
1183
correspondance
##ramanian
roche
lars
implausible
info
generalement
generalisations
##igner
npcompleteness
np∩con
multivalued
abovementioned
12d
1201
1205
1213
1279
lengthy
undergo
colorcoding
colorbid
manu
repul
##ewei
##agon
##agan
##agons
dimen
dimit
##api
##apacitated
perso
peripher
needing
boundederror
discounts
##anski
blm
maxima
takao
takayan
becker
##kely
restating
affair
progressively
commission
ranestad
goos
goyal
goberna
minimally
stepwise
1312
1308
1306
1396
eran
runtimes
phq
phok
philli
reg09
joy
##ieb
##iech
14d
14b
1408
16κ
1605
1603
1607
1606
1683
1681
##eev
loci
etudes
monien
biom
bianch
1501
1523
realvalued
##chnology
scienced
entrop
mathover
wouldn
##ernes
2nm
technicality
##xtod
##isto
hompl
homological
homfly
gafa
gavo
gav16
17a
17b
1710
1707
domc
allowable
mochon
hypercub
##oping
##dendorf
guan
ppkq
natacha
codenotti
langerman
1812
##arez
flaw
floyd
conjecturally
singlequbit
methodological
hea
hex
healy
hegg
surfac
sau
saul
sahn
##iblechner
##ralov
sium
##prℓs
brent
eqns
serie
retract
retraction
initiates
replied
##ociation
bitstrings
##orkar
##003
lok
splitarray
adjoint
powering
1−j
1−τ
precomput
precisement
slob
caq
caval
caicedo
memories
esc
tugkan
2307
buczynski
initializes
##hav
actdist
##ickewei
##oki
concur
fract
frands
i∈o
i∈e
i∈α
elle
elias
minimumpri
originated
originating
coordination
transits
##etically
proportions
hamil
necessaire
27d
greta
hypothesized
##naja
geoff
geffer
superoper
superconst
supercond
supercritical
extensional
tensorization
##017
marg
marques
aura
auy83
lowness
automati
gaussianity
rapp
rautenb
−2g
−2ϵ
postcomputation
solvealg
mathematici
effgap
014
0100
csr
cs16
patent
beta
appendices
apc
apxtod
3473
fulla
fullprof
##iko
mentions
abs10
absurd
tightening
2mϵ
2m−2
bars
##127
fewest
predefined
##shell
framed
##onnell
faced
candes
thoughts
affinely
##hnovich
##enious
−iβb
french
##wei
balakrishnan
balcan
##marks
##tituted
##058
collude
collinear
colluding
x∼ν
enumerative
democ
sharply
asymptotique
carneg
##187
##boundaried
assembling
grh
j∈x
berger
grown
uncapacitated
purifying
poland
2cn
487
toolkit
2004b
nair
harness
harvey
harju
harumichi
numerators
452
4503
homogenization
offload
psm
fulton
ful97
helping
junger
crossed
fa95
incomputable
490
believes
##upon
gpg
gp14
##zzi
unsurpr
sv3
sv2
continuously
continuouslocal
linkages
kh94
xyg
degenerated
peaked
pepti
v∈e
v∈w
646
640
nonexist
borgs
544
542
petros
petrank
petersen
inapproximable
biskup
lieberher
50k
jumbled
d−l
##exptime
bdwy11
525
5250
pcount
obstructing
precede
preceded
karats
karhum
558
##hipov
rampras
ramified
rigidly
huacheng
mn3
mnc
sigkdd
ambiguous
rotational
ingo
ingenious
brad
bra17
moscib
ow12
deduit
deductive
ancillas
neighbouring
herself
brian
bribery
zhong
zhandry
infinitude
57th
filmus
∥yt
seeded
summers
758
755
752
adaptations
bba
bbs
588
582
992
paulis
speaks
020
jacques
inspected
688
680
thinkfun
vetoing
kras
aspremont
034
674
671
670
##khodnikova
cw10
σπσ
042
interpolating
638
633
mpm
##heor
##heim
##complex
##bmdp
2jk
lexfirst
ku−1
kuzn
##amien
bulin
stacksp
lsa
065
0603
beyersdorff
667
bsmop
658
szekely
intersectants
bidimensional
datum
2δrs
mj1
mj2
y∈c
n−2ℓ
−αs
wished
conventionally
ds13
##stadt
##ungen
sofic
renormal
1954
hoory
wat02
watanab
alexey
770
##tchyan
##tchakov
binomials
724
721
borders
llull
##task
e∈f
e∈m
classifies
warp
irreps
0504
0523
salomaa
mediumset
palfy
##tzow
0908
0904
ignasi
jerabek
sparsify
sparsifying
certifiable
841
849
847
w∈o
w∈r
pacific
dmitry
866
##lowski
ilp
962
γkn
9508
##adeh
transposed
789
##liah
relativizes
relativizations
relativizable
2α−1
59th
subclause
dahl
hellmuth
k−g
incrementally
christi
pqr
gurvits
bellantoni
rubin
y1x2
y1y2
northeast
falling
101r
prescience
unexpl
824
thrall
∥y∥≤r
##trer
##tikka
epx
lightest
eccentric
m−q
baum
bazzi
sublinearα
broadcasts
oldest
´1s
dggj
scalars
836
−δa
⊗k−1
hemachandra
uninteresting
10002
ricci
gi05
ouver
ought
11325
pxa
2l−1
prams
σy∈σ
−a∂
cycling
milind
milnor
miltzow
bjar
carlos
schlickewei
discovering
bht
bh13
bhowmick
triangulate
3coloring
ferdin
∥bx
##748
chiu
overcomes
windmill
cmi
brandstadt
bv08
kleene
rationally
offering
1052
kan90
kanade
gaining
activations
1026
cha19
chaumine
artem
plugged
kos04
academie
seats
immc
sooner
diverge
abbreviations
1935
1936
1939
subtlety
##otechnology
hubacek
89n
mm10
descending
convolutions
gkr
roberto
lcps
##hardt
revert
grilo
##viving
foregoing
k∈i
g∈u
rabani
penalties
fulfilling
dh10
##ciplinary
responsible
sensing
incurring
joselli
cooperation
damian
damgard
mikael
nisheeth
α∈c
reinelt
sep1
sep2
ancestors
kemal
nicola
##tislav
##alysis
sus14b
sunway
filtrations
econometric
mimick
##elike
emergent
myers
parametrization
parametrizing
attacked
bks99
boldface
h−g
hopkins
cornerstone
lll82
hsubgraph
hsgbd
q∈m
compressing
unproven
amazon
godinho
reichman
##eiro
ashley
1565
mota
##prefer
scheiblechner
feeling
0022
steinberg
multitaskers
drive
kontchakov
r4s
yamashita
ℓn×ℓn
−−−−−−−
−−−−−−
##clusive
discretizing
rqr
rqfap
angeles
angelini
leveraged
materials
joswig
rudolph
ordpα
claws
craig
cracking
deeply
amenability
font
fernandez
kuratowski
qmq
qmem
¨¨¨a
fabio
x52
benchmarks
celle
hanif
n×t
bottlenecked
rebentrost
incorporated
incorporating
cui
rojas
essentiellement
confirmed
philosophy
fssp
lanet
silvest
disproved
unsuccess
bm∈bt
waste
##arrays
coalesced
3δn
gabizon
raskhodnikova
rastislav
tamon
tribe
replications
reminder
rajasekaran
disappearance
8780
landau
seese
accumulated
accumulates
bostan
jaiswal
nancy
##x3y4
integrability
laborator
announce
middendorf
s∼u
##gmund
spacious
attribute
attributes
iprks
kripke
r−d
ribeiro
tillmann
vastly
α−β
ωn−1
nonterminals
scratch
supposer
aks02
enclosed
concisely
diagonally
cαβ
izvesti
i−j−k
uqst
∼a×b
dissociation
preventing
rpostbs
cylinders
gorjan
rarest
vyalyi
∈fq
mahadev
cgmr19
ibarra
x←n
x←x
x←µ
instructions
99999
nikolay
absorbed
footprint
footnote
borrowed
sandwiching
declared
declaring
kahale
clients
optimistically
blr93
alexandr
alexandre
pfaps
pioneered
schnorr
flavour
svensson
bsg03
hintikka
habib
hurwitz
k≤4
k≤ℓ
kostka
kullmann
mz10
pµpmqq
sidney
tantau
tantalizing
pavan
commercial
effectif
tiwari
astron
favors
hk13
hebrew
hungarian
ogy
yaniv
∈ln
distill
disapproves
arkhipov
mendelson
halpern
anneaux
signomials
subfunctions
dramatic
jelani
kellerer
nutshell
vzgks
∨¬z
anupam
clutter
moderately
interlac
prereq
multitutte
counterfeiter
−3i−2
∥bz∥
barycentric
macaulay2
gkm08
hoban
natorial
tadashi
y←c
unrealistic
pawel
pawlowski
abg12
algebrique
surrounding
stipulated
collaboration
9781611973
nimrod
taihul
blp16
gajarsky
gajentaan
superieur
marriott
embody
credulous
credulously
baranyai
natinda
natindb
encompasses
catenating
hunter
mumford
punnen
s⊂h
sellie
purchased
battiston
exemplified
voronoi
kapralov
krivine
xixj
##gulnaja
##rolilli
indiffer
##adjac
abuzer
physik
mohsen
1003r
eurocrypt
histograms
alekhnovich
6×6
mastrolilli
intractible
schreier
orthologs
misdecodings
malheiros
aleksand
quasicrystals
916027
s0166
xβx
##disciplinary
##kopf
##felbinger
clx09
adwords
−16δ
redundancy
maxscore
guidance
surrendered
tremendous
fawzi
moscow
kalyanasundaram
leeuwen
renamed
mkrtchyan
vehicles
pfaffian
prerequisite
bcy11b
bouland
fakcharo
fss81
goursat
glynn
ksw07
mff14
scegulnaja
sicomp
satellite
suzuki
alicesystems
##tscheid
shawn
matsliah
arunachalam
interconnection
diagnos
flurry
sdw18a
marshall
sweden
berkowitz
curvature
coupled−task
gabrielov
pspacecomplete
skepticism
noncommutative
1p1nsat
aracena
culture
eilenberg
echelon
fugacity
g⊟h
github
gassner
gosset
hernandez
ipco
jennifer
kikot
l∼poi
lsf09
mss91
mceliece
n´j
nombres
nemirov
oghlan
rameterized
sieling
sourav
tzamos
w⊥z
wasserman
wettroth
x↔y
zecchina
zubair
zukowski
˚ˆn
β∈nosq
θpalindrom
∥𝑦∥
##riteria
thapen
theodore
insignificant
andrzej
toeplitz
foremost
##cechainpartition
anindya
anshu
alibaba
reitebuch
##igiannakis
quilliot
unranked
unperturbed
lebesgue
discharging
dishonest
chatzigiannakis
chrobak
obdrzalek
simpcomp
cobuchi
minpropunpaid
plummer
nonadaptive
reconstituted
impartial
dietzfelbinger
maxsurviving
np∩conp
colorbidding
peripheral
takayanagi
affairs
phokion
bianchi
sciencedirect
entropies
mathoverflow
gavoille
heggernes
surfacing
sahni
frandsen
minimumpricechainpartition
geffert
rautenbach
fullprofile
carnegie
fa9550
unsurprising
continuouslocalopt
peptide
lieberherr
karatsuba
karhumaki
ramprasad
moscibroda
lexfirstprime
kuznets
watanabe
unexplored
silvestri
vzgks96
taihulight
fakcharoenphol
0⩽
1h
1qq
1γn
1´ε
2ab
2ck
2for
2the
2´op1q
4∥
4β
4×
4∆
5t
504
6t
6r
6c
6ϵ
614
7b
709
710
704
713
799
792
8f
814
892
890
875
9q
911
909
918
945
a8
a⊗
ace
a∈s
a46
a∈sn
a⊆e
bℓ
bȷ
bed
bath
bpspace
b⊆e
c⇂
cow
cab
cog
cun
cix
cip
cotree
dµ
dβ
dod
dations
dud
dsp
dowe
damien
ee
e8
eβ
eur
eine
ebit
eib
espaces
ehl
eexp
eker
epspace
espar
etien
eoct
etscheid
fε
fct
fof
foun
fie
frid
fqp
ferme
frick
gz
g6
gϱ
gct
gel
gary
gone
g00
gamb
gius
gacs
goring
giann
goldsd
giorgio
gheor
h0
hes
hip
hund
hpa
hanging
hoy
hopes
hij
henz
houch
ig
iε
i⊆
ice
i≥0
iacon
iannis
ihrer
jz
j−
jℓ
j⊆
jou
jag
j←i
jeffer
kit
kond
kint
kund
kbp
keven
kiss
lj
lod
lach
lac
lud
lits
lander
mτ
m⪰
mst
mse
mks
mign
masser
mura
mkm
mpss
nµ
nδ
n∆
ner
nir
nary
nos
nual
nian
nina
nerves
oa
oe
oj
o∈
oks
oio
oreg
ola
olya
p7
pase
pke
pde
pork
punct
ponom
qκ
q−i
q3sat
riz
rue
rip
rss
rav
rqp
rio
rina
rourke
sis
sut
sri
sard
sour
sitting
s→∞
sesh
srik
sedge
tnd
tst
tect
ture
tax
tau
tapp
teredline
trest
u∼
uwe
ugo
v6
vas
viz
v−1
vances
vbr
vander
wer
wides
w∈n
wcsp
wanka
x×
xin
xar
xiv
xay
x∨y
yd
yφ
yog
yard
yap
yterms
zf
zv
zb
zan
ziz
zad
zvi
zeller
zeev
¨e
¨l
¨log
¨up
¬g
±δ
´4
´γ
´kq
´wp
×u
ˆc
ˆg
˝pr
αλ
αℓ
αδ
α⊕
α˝
α´op1q
βb
β´op1q
γt
γg
γℓ
δo
δv
δb
δµ
δτ
εk
ζδ
η−γ
θa
θϵ
λt
ξh
π0
πσπ
ρv∥
σs
σn
σrepe
φw
ωf
ϵ−
ϵℓ
ϵα
←µ
↑≤
→r
→c
∀m
∀β
∂q
∂θ
∃s
∃j
∇p
∇f
∈j
∈α
−𝑠
−ρ
−ix
−ks
∥θ
∨c
∩e
∪n
≤c
⊆u
⊆e
⊆v
⊕r
⊕ep
⊕connected
⊗e
⊗f
⊗b
□c
□proof
⪯m
##otic
##oij
##aos
##dh
##dm
##dan
##div
##dian
##data
##s12
##s16
##∥π
##∥θ∥
##4r
##ih
##iß
##ipl
##iari
##i93
##pet
##pad
##pace
##pread
##kle
##kard
##k03
##kqpx
##ulement
##uitive
##ucting
##rut
##ration
##right
##rign
##rw02
##rhold
##eh
##fal
##feng
##n∆
##non
##nard
##nath
##neth
##nish
##nemann
##h≤
##hor
##hen
##hle
##hlin
##hren
##804
##lr
##long
##lik
##lio
##lvk
##lvits
##cϵ
##cpt
##colored
##ciech
##vq
##voss
##v09
##veni
##z05
##zler
##z19
##zanov
##xay
##101
##wd
##w1
##wor
##wens
##work
##w19
##w93
##winski
##wolf
##∩s
##bunov
##gq
##gt
##gve
##gadget
##gdominatedvertex
##yo
##yum
##yter
##yap
##≤s
##≤t
##mal
##mas
##2k
##2n
##204
##2fixed
##9x
##jar
##jam
##jos
##jandro
##−d
##−order
##ψ∥
##∈f
##∈y
##σs
##→b
##γmn
##∪s
##∪t
##∪x∪
##но
tha
##erk
##erre
##eras
##erant
##erie
##erick
##erious
##only
##onent
##onentially
##oris
##orters
##ornik
##inal
##inos
##insk
##inchuk
##essional
##ater
##atur
inite
inward
ineff
##enix
##enning
##enstat
##enhall
##alth
##itudes
##eda
##rot
##rosi
##rold
##rohit
##rokni
##arc
##ares
##arks
and04
isd
isman
##anav
##lef
##ommod
##isec
##isol
##iserson
##isko
##isphere
topo
toft
touj
##eta
##etter
##eters
##etoris
thatd
thatp
thatpr
weingarten
profinite
##chs
##chet
##child
##structure
##staff
##ectiveness
##lland
##asis
##aszek
##cei
##cell
##veld
##utzer
##ematic
##emax
##icing
##imaps
##rahy
##rahman
anto
sush
sulliv
bek
beings
##outing
##ourov
##otte
asch
asumm
##sized
al10
comprom
composi
composability
stt
stv
stoth
strees
stacks
##olas
##olab
##olid
##ump
##umaj
##sein
##sendorf
dey
exha
ex∼η
reweighted
rehman
##amath
##amker
pops
poort
poisample
##ctan
ita
##iga
##igrahy
##ppenger
##riam
##riad
##phase
##tino
##tinter
mating
##tech
##tsch
##tshor
##odan
##odiv
notera
ver11
##raphs
theorique
allian
##izability
atam
atenies
##unate
##untan
##romorphic
residing
hao
hau
harold
par00
partinter
##ivier
##ivisto
shl
shenk
sheds
shimon
shanskii
sepe
seps
seulement
##gebi
##eler
quin
##offer
unassign
unroll
unsett
unorient
##ify
##iffe
leh
lech
lends
league
leiserson
##mayer
chay
choff
chao
chvat
chiba
##perm
##ussendorf
neeld
##ableau
timo
timelike
subj
subvector
subtens
subrahman
##rup
##ruck
sped
spot
spective
spons
##andte
##andiari
2023
polynomiality
hassin
##allow
##oca
##ocity
objection
##actor
##actdist
matt
matule
pade
arctan
adh
adlvk
imre
imation
imum
twenti
##osr
sinh
formats
sims
finland
noether
##acrypt
equa
equate
equator
assaf
##onds
copt
coker
abort
abss
solar
sol75
acg
outn
outli
degra
##intuitive
samal
doctoral
expose
coling
10l
1097
1095
1075
1083
1071
##pole
##posi
##itely
modelled
##ptq
instruct
minpa
minfind
minunpaid
randomize
distri
interchanging
interdisciplinary
##akala
##psat
plos
plau
plenty
1905
1942
str87
decile
decrypt
deceler
prevalent
evade
detp
detlef
tr08
trinomial
approximants
##duate
imp95
imprec
diam
diacon
remov
symetri
distribu
200b
##vio
##via
##vira
smart
##classi
scat
scri
scaran
stealing
stehle
idw16
maxpa
parametrised
11ϵ
1105
##ksma
muli
roi
rohr
roette
constantdepth
subsolution
subsums
figs
definedness
##useppe
npn
multiprocess
outputted
##ishing
##ishige
12c
1216
1274
underlined
undergra
colorpxq
mann
man19
manfred
manhat
reposit
pos2sat
##ewis
##agen
dima
dimers
dimca
##apalli
perin
per04
schind
schult
sch78
sch80
schaff
newsp
discipl
##ansky
systemic
tyson
blo
parameterisation
figure4
figure5
maximin
maximise
trie
##ieri
vietoris
incenti
restoring
afosr
ranjan
goe
gout
tendant
##oley
minimised
##acki
amr
amnon
am−order
workt
worker
##ructures
1311
1346
1374
1335
1371
ers
ergeb
phism
upfal
regrou
ag11
jochen
##ief
##ieber
14q
14m
1403
1473
contraint
belmon
wellst
cyril
16∥
16m
1623
combiner
combinato
##tale
addendum
moni
monnot
monogen
biin
biaos
1511
1502
1503
1518
1594
1537
1541
groupe
##ernstein
##equivalent
analyser
analysed
##ensh
coverable
##istoffer
hompcorepaq
1705
1728
ceria
cereced
moor
mook
motions
moonen
studia
##onek
##elli
guar
guha
partners
1809
1803
threef
handy
handful
verifi
verifiant
cutvertex
factored
auto
leftover
##edikt
heintz
sparser
sait
negl
neglected
##prks
brit
brig
ser07
##ubash
rettinger
##ffner
##fferman
typable
approached
coste
fefferman
stringent
##partitions
lozin
referenced
freeform
1−x
1−g
1−η
1−ν
lasts
slc
slide
sliver
slicing
blocker
cau
incrementing
##ridis
volkov
memrist
24λ
distincts
coping
initialise
##swick
##sworth
remarking
frati
fragile
i∈β
elvira
sdds
admin
##eyr
necessit
achlio
limaye
quantize
suciu
glass
geiß
superquadratic
deformation
pseudom
pseudovari
32θ
longue
tensored
av08
avishay
turner
##onstant
##forest
##01a
##0101
##0107
laura
marvin
severe
severini
refrain
2919
29462
acceptor
hierarchically
parallels
explicitness
analogies
raussendorf
squashed
−2b
−2y
−2j
−2ρ
geometries
postes
posted
postorder
posteqal
crew
swphp
swingle
prize
eigenbasis
2d−2
∥xx
csv
patrign
betzler
fourteenth
majumdar
33k
selectors
lincei
##ikuntan
physre
consolid
##1108
formalise
formalised
absrw02
tightest
tightened
##096
##090
selfish
selfdel
barry
baroni
##consistent
occurence
straub
stratify
waluki
simplicies
foil
irreg
duke
##104
##10b
pii
pippenger
tiled
tilak
##shan
frames
##onnes
##onnel
illumin
closes
scheduler
##022
##020
popescu
tempted
uv∈f
scalingphase
franek
recei
klm
skutella
skyum
##faps
downwards
##titude
##0501
##05043
pinar
prelle
dualities
brendan
##035
##036
##linearbranching
radii
##132
streamlined
rulesets
majorities
crit
sharpsat
countries
##165
carval
##155
learnt
orthants
fre76
granted
grenz
boxed
pvq
pvcp
pvcpt
j∈b
speelman
bertse
bertini
uncomputable
arcsin
pseudoquadratic
badly
polish
poljak
##variable
##variables
48v
nave
nader
naval
hartshor
michigan
462
##nelle
diagonalized
445
brother
omri
subtableau
funds
surjectively
2πe
counterintuitive
benedikt
advancing
4nl
4n−1
orienting
characteristically
isolates
achievement
addressable
idealized
faible
faults
faisant
incomparability
worstcase
##ugg
##lington
##approximates
vancou
sheets
lp2
lpbq
unsolvable
unsplittable
sv1
khan
xytrans
pei
peqp
v∈t
cdbqc
sosa
649
−k−1
petar
petridis
476
##hlen
d−a
purohit
bd12
bdmi
fano
decomposability
doublings
oppen
−t−t
irredundant
pcpp
pcdata
revision
revolution
kara
karzanov
koh
koili
koivisto
bicriteria
huo
hui
huffner
sigops
forbids
missed
miscol
misaligned
misclassi
arragement
ambrosi
cegar
ceiling
synchronize
rota
rotar
dp2
dpkqpx
braz
##ports
mos08
2rk
2rna
2r−2
owing
xij
deduces
grams
fillings
herve
surveyed
sakuma
tomi
tomor
tomata
summarised
career
knust
knew
knop
luiz
andrej
devote
devanur
1≤h≤
2qn
nestedbackdoor
lenore
whitebox
##steiner
magnitudes
cheney
nonnegligible
754
751
##reading
2b−
merlinizing
polyloglog
ulrik
ulrich
bbd
inspects
auxilli
684
683
ithaca
kristoffer
bc02
kindly
temporary
donnes
036
0311
∃x∈x
divisibility
suffit
postselect
postselecting
##khard
entangle
cwi
nontrivially
624
629
047
0403
0423
stochas
amplifying
legalize
legalized
ssm
ss14b
sanjay
mpv
mpg
##composition
hashes
depicting
owned
rpbq
sbornik
galesi
i∈supp
subsampled
artificially
ku−q
professional
stacked
sumsets
084
0807
0837
lsbs
leszek
sideste
thomassen
tolerating
4k−1
cpus
2ϵn
cheval
cheze
663
666
##enkovic
656
60q
60ξ
formedness
##npn
jan97
leech
activepsq
datta
y∈d
y∈f
y∈h
manipulated
dsms
∀x∀y
##randa
temperley
structuredness
mr18
ndimensional
1957
telling
rewritable
intelligent
organizing
ml66
likes
773
771
bptime
metamath
854
850
857
miranda
conjugations
723
727
juels
s⊆j
∈supp
−xf
##venth
1038
981
irrep
055
##blance
lipschitzness
palm
pseudodistribution
colloq
0905
sparsified
flattened
emptiness
764
765
riener
−3d
974
c∈r
tori
torres
torics
w∈d
w∈σ
bssgs
##v2013
rotationally
elli
n−k−1
endofline
endofme
736
732
730
868
pap94
pws
965
9605043
christof
7464
957
95977
spherically
788
780
kaw
##strauss
591
−4d
−4i
−4k
hellinger
k−j
akin
gur04
gurjar
σx∈σ
raghavan
iqs17
p∈d
##heads
subcos
subconstant
mww09
873
sgkh
abelson
recurrences
821
820
aw18a
burton
burden
burkard
burkhard
##nlund
tallyconl
quivers
epf
epsil
sunflowers
preprocessor
m−s
baier
baernstein
son−1
##huai
royale
preemptively
grigorescu
bf025
inherit
uncoloring
fifteenth
iwama
dg00
##imaledge
delays
delaying
838
839
tauman
td04
ciac
−δγmn
thickened
hemisphere
1000n∆
riccardo
giov
giuseppe
vegh
symmetrizing
homep
quadric
vnpinter
##rino
lots
tqs
tqc
maxconvdet
dfst
##calar
exchangeable
subquadratically
pye
milest
military
milenkovic
nonuniformly
carlen
##532
bhh
bh31
randriam
ferromagn
##bhorkar
##gebras
chiang
cmu
cm17
branden
kle96
mdist
dlm
tscr
rolinek
##kyo
sharpening
−γn
−γmn
southern
differentiated
reconfig
destabil
krovi
##borne
cha75
multicore
multicover
multicommod
vocabularies
somnath
justifying
mittal
mitrovic
mic14
budgeted
kmr
million
##legrino
discriminated
0≤p
0≤j≤
ahk12
czumaj
panigrahy
cvx
killed
splc
eduardo
reconfigured
4000
marion
cancels
niwinski
vassilvits
endofpoten
older
olivier
##oulou
engineers
subscripted
dd07
rosati
rosgen
tanaka
⩽p−i
1980s
msbs
weiss
shuffling
rearrangements
selby
roberson
priced
fiber
fi−1
fgl
fgkp
kay12
1254
savani
3qα
fk96
j≤i
xcx
−z1
hyperbolicitywith
rothvoss
sticking
browne
keis
keith
dhk
dhmn
adamaszek
plotted
d−i−j
gutfre
r∈m
⩽d−2
⩽d−p
accessibility
rahwan
commentationes
prajak
reinter
sepul
ancestral
nicgraph
tunable
##awa
lewi
adjustments
bonamy
mirrokni
ttc
emergence
encryptions
kobourov
myhill
myriad
osborne
pierimaps
sandeep
falsifying
##formulas
mgi
wsn
3cnfsat
clarified
g−z
q∈q
q∈π
welch
unprovable
4pϵ
amazing
reichelstein
unpacking
bla12
liberty
gratefully
rosenberg
polarizations
gilmer
dehne
retrieved
lyubash
steinhardt
granville
visualized
0≤i≤
aperiodicity
hm13
##oudre
elaboration
eis95
eisert
eisenstat
lago
lagarias
rqfaps
rapinchuk
2∥m
rudolf
victory
renders
supermodularity
faithfully
sorge
soriano
rochester
hr09
psws
subinter
5125
fabri
kop1
kop2
tpca
hancock
n×d
sj08
tfd
1347
transcendental
alejandro
bip19
bipgdominatedvertex
niklas
##nisse
scholkopf
bypassing
ehud
linda
rivlin
tropp
tro12
turku
resemblance
sebastien
decaying
31594
fsgc
lanck
sabhar
arnab
instrumental
evidently
brunswick
unsuitable
ozols
zha12
##agedby
hossein
kenneth
mtscr
tamas
tributed
ontologies
prominently
barnes
a∈dx
excellence
deficiencies
efrem
trouble
suffering
sha48
inconveni
unavoidably
gruyter
suppressed
suppressing
trainable
krzakala
ioan
komusi
rattan
sarah
continuation
customary
customers
kasami
kunnemann
α−n
ϵ1∥
wheels
leaks
edgecolorable
deliber
kv94
kashyap
nevada
spends
universitatis
##theoretically
disallowing
juk12
m×e
m×ed
roglin
vaikuntan
trigonom
surjections
subtractions
1960s
3hc
ftc
gorbunov
kab01
munie
raremax
wiese
##graded
stuart
stephanie
oscillates
oscillatory
santosh
ssop1
ssop2
ˆnα
assessing
blasius
blasiak
podolsky
nikola
pellegrino
ragde
thrown
disequalities
abrahamson
wronski
nicolai
kreutzer
neuromorphic
associe
caterpillars
eleventh
rutgers
ϵ∥h∥
ϵ∥ψ∥
spreer
nonscalar
eisenbud
hab02
kolla
kollar
sidi
yngve
decorations
encouraged
encouragement
favrhold
hungar
town
towers
##igraphic
buchberger
crystal
nucleation
dps02
dps04
jelonek
murray
nicholas
pachner
vdr
λ⊢n
val79a
moderate
multitude
kmn11
angewandte
ys10a
i∩j
kazuo
lpr13b
q×q
sachs
wagstaff
zahlen
δδ2k
−σm
##2008
shinya
spieksma
67038719
gkk08
2edp
l∈gu
nimbhorkar
paint
##auto
##sparse
universitext
superieure
marriage
embodies
skipped
##computing
mirrored
wojt
wojciech
yaroslavtsev
satisifed
1k1
borda
barely
catenation
gusfield
lecerf
≤vi−ε
investment
motifs
submultiplic
grassmannian
wat09a
wat09b
battista
voronenko
annihilating
molina
powell
tube
tubes
velocity
wissenschaften
yurii
zygmund
prodiscre
expp´n
havet
spawned
subsurface
subsurfaces
endmarker
endmarkers
hyperefficient
carbonnel
krishnam
−zn−1
##iscrepancy
disadvantage
bengio
btt92
hannenhall
kochenberger
mcpσ
pppkqq
sip83
venues
ω∈w
weinberger
unwanted
enonce
abrams
nonconvex
posimodularity
appliquer
libkin
seminaire
encapsulates
postrqal
postrtbqspace
stockhusen
##0240314
grønlund
unfolded
dmitrii
lindenstrauss
stahlke
australian
bsw03
mitchell
oberwolf
r∼r
ralph
wisdom
yaron
##banach
thu09
alvarez
companion
excessively
pocket
abhishek
strrσs
scandina
undertaken
trapdoor
erkip
affiliated
versatile
borgatti
ambitious
angelopoulos
calabro˙isol
minimumuncoveringlinearbranching
bauwens
bms11
ckls16
ehrhard
gurevich
hssd
hurdle
mysterious
niven
rerouting
tchamker
tsirel
tialline
µ⊢k
tournament
asiacrypt
compensate
algorith
theoretische
atlanta
unselected
nonincreasing
recombination
boyar
##istemic
##ymmetric
##conflic
verschieb
cryptanalysis
genomics
jeandelv2013
kravchenko
ggr98
dubrovska
jlx11a
esfandiari
gpsz08
kum15
korea
prabhak
rousse
reroute
uibk
x∆u
xorsat
zornian
toulouse
thathachar
univariatization
constantinos
ushakov
adopted
corporation
enseign
decoherence
preordonnes
boixo
repulsive
dimitris
phillips
hypercubes
lokam
precomputed
slobodan
cavaliere
superconstant
superconducting
rapport
democratic
xygtrans
nonexistence
bradfield
alexeyev
9508027
dggj03
10002r
ouvertes
bht00
artemov
α∈cov
laboratories
izvestiya
astronom
indifferent
eiben
ehlich
ekert
esparza
etienne
giusti
hipµ
hundred
henzinger
houchbaum
iacono
kintali
litsyn
m⪰0
murao
oksana
oregon
pasechnik
porkolab
ponomarenko
sedgewick
taxation
vbr09
widespread
xarprq
yogev
zizj
¨lmean
¨upn
´γq
σrepeatable
##world
##2fixedvertices
##inskas
ismanagedby
toujours
##ematics
antoine
sullivan
asummability
compositio
stothers
exhaust
poorten
##odivisor
alliances
ateniese
partinterpol
shenker
sepehr
##gebiete
unassigned
unoriented
chayes
choffrut
chvatal
neeldhara
subrahmanyam
matulef
adlvkk03
twentieth
abss97
outliers
diaconis
symetrique
scarani
roetteler
undergraduate
manhattan
ergebnisse
belmonte
monogenous
biaoshuai
cereceda
mookherjee
achlioptas
patrignani
consolidator
selfdelimiting
walukiewicz
grenzgebiete
pvcptree
bertsekas
hartshorne
vancouver
bdmi11
koiliaris
miscolors
misclassification
ambrosio
dpkqpxapkq
1≤h≤ℓ
auxilliary
epsilon
vnpintermediate
multicommodity
vassilvitskii
fgkp06
hyperbolicitywith2fixedvertices
dhmn05
gutfreund
prajakta
lyubashevsky
fsgc14
sabharwal
efremenko
komusiewicz
vaikuntanathan
favrholdt
prodiscrete
hannenhalli
oberwolfach
calabro˙isolation
verschiebung
prabhakar
0∧
0th
098
0dim
1∥
1×w
1⊕e
2o
2φ
2am
2lin
2vc
3π
3τ
3000
4h
4𝑘
4①
5u
5w
5ε
5κ
5000
5∥z
6i
6e
6β
691
6000
6−ϵ
708
707
716
706
795
794
786
8q
801
805
807
895
823
891
888
910
908
902
914
997
aλ
a𝑉
ati
air
aad
ape
aps
aist
aander
bφ
b→
bing
bth
bure
bard
bac
bauer
cℓ
c∼
cly
cad
cass
cical
ccs
c11
c∈s
cbqp
c92
census
cites
crick
dent
dab
dph
dall
dpt
dram
dsw
dick
dash
dao
dublin
dampen
e∥
eω
ein
era
eiter
e11
e14
ecri
e−i
egner
echo
e∩u
f3
feng
fub
faction
f10
feli
fake
fvs
gℓ
gα
gφ
gat
gec
gow
gust
gian
gdd
g→∞
gato
gmail
hj
hδ
hϕ
hsp
hresh
hild
h−2
hlin
harl
hpc
hns
hecke
houdre
i∥
ire
itin
iron
ica
ized
i−k
i≥1
i≥2
iβb
jτ
jen
jut
joll
jie
jrs
jns
jls
j≥1
k∥
k∩
k∀
korm
kiel
kie
kip
kend
ktt
kne
kao
k−k
korts
kij
kitty
kouts
l4
lw
lse
lig
lint
lest
lator
lone
lata
lamb
l90
lighter
l⊆s
lumin
mθ
mond
mue
mits
mie
mset
mms
mqq
mnae
nθ
nec
nof
nast
nous
nical
nected
nential
n00
n∈s
nomen
nuss
n´1
nvertex
o3
ole
olie
oleg
othon
p∞
pent
psat
pia
pqp
pash
pkq
pintz
qin
qcc
qmc
q−ε
r∩
rη
rst
ries
rations
rome
rose
rast
rms
rx3
ricky
sℓ
s𝑖
s↓
sϕ
sity
sain
snow
sram
sack
sern
sork
snaps
sions
tct
tance
t−i
toni
tersen
u𝑖
uit
ucla
vg
ved
vent
vou
veb
voss
vah
voul
vatsh
w9
w∼
wγ
wen
went
wine
ward
wied
wss
w∼v
xd
xh
xiz
x11
x45
x55
x54
xαx
x𝑢∥
y3
ysis
yip
yok
yair
zt
z←
zou
zeng
zhi
zamp
zadeh
zeta
¨s
¨p
¨b
¨pr
¨pn
¨valph
¬h
±o
±a
±5
±dict
´d
´i
´5
´x
´δ
´op
´ai
´poly
´actdeg
´iq
µ2
µ≥2
¸ois
łacki
ˆsi
˘1
αg
α0
ασ
α∧
β∈b
δt
δπ
δ−j
εδ
εα
ηt
η−4
θhe
κb
κ−1
λv
λg
λm
λ→
λ𝑙
νn
ν2
ξ∂
πt
πj
ρd
ρ∥
ρz
ρ1
σj
σptq
φ1
φj
φ∈m
χ1
ψj
ωa
ωc
ωx
ωplog
ϕ1
ϕg
ϕ2
ϵs
ϵt
ϵ6
ϵm
ℓr
ℓc
ℓ1
←u
←x
→i
∂v
∃e
∃g
∃π
∆q
∆−1
∈d
∈σ
−∥
−ξ
−ϕ
−id
−ord
−fa
−vp
−80
∥∆
∥az
∩y
∩j
∪q
∪u
∪e
∪π
∼α
∼ν
∼dp
≤p
≤v
≤m
≤exp
≥i
≥p
≥l
≥ϵ
⊆d
⊆b
⊆fac
⊕1
⊕steiner
⊗4
⊗h
⊗1
⊗δ
⊗τ
⌜rk
⩽δn
⩾i
##oz
##oane
##oho
##aq
##a1
##aft
##ault
##a98
##aamil
##df
##dθ
##don
##dro
##dpp
##drix
##dings
##d−n
##sq
##sam
##sru
##say
##s05
##s07
##sample
##q∥
##∥h∥
##4c
##iram
##iady
##iich
##iecki
##pk
##pu
##pz
##pj
##pel
##pass
##pated
##p12
##p19
##pinski
##pena
##tc
##t≤
##tement
##town
##kha
##uh
##uan
##ucc
##uya
##ucci
##uhiro
##r2
##rδ
##ranch
##r11
##r09
##range
##ea
##eig
##eks
##eals
##element
##efine
##eenth
##fg
##fth
##fiques
##figure
##nth
##nun
##nost
##n≤x
##nsworth
##hra
##hov
##hagen
##8x
##383
##3001
##5x6
##lier
##lows
##cı
##cam
##ctivity
##cstein
##covic
##curate
##voc
##vard
##vish
##vag
##vkm
##vanese
##zability
##zag
##zey
##zoo
##xz
##xin
##xd06
##wt
##wn
##wat
##west
##w00
##w14
##wered
##wyn
##bb
##bg
##bul
##bir
##bel
##bted
##bpspace
##bruck
##gy
##gill
##gica
##gcd
##garis
##giorgio
##yti
##yen
##yqp
##y08
##yao
##y5x6
##mt
##my
##mm
##mers
##mans
##m−2
##mia
##muller
##mermann
##2d
##2cla
##jd
##js
##jt
##jn
##jor
##javi
##j⊆s
##joh
##0q
##−w
##702
##792
##∈i
##∈t
##∈ψ
##σ≤s
##δc
##⊗id
##∃y
##ωp
##ωx
##γ´ε
##∆f
##⩽d
##ен
##на
##ρa
##ск
##±o
##⩾1
##ıcı
thres
##erem
##erjee
##ontin
##tind
##inv
##inity
##inte
##inerman
##eser
##esse
##estimate
##aty
##atan
##atus
##atnost
ine
inad
insis
inexp
inradius
inplace
##enu
##enf
##eny
##enen
##enant
##ensitive
##enues
##enhagen
##algo
##itter
##itoun
##itman
##itmo
##roem
##roxim
##roding
##arz
##arath
##arczyk
andy
anders
isn
isit
iscon
ismail
##anol
##recht
##lete
##levinsky
##lehren
##omela
##iso
to92
tokyo
##etect
##etakis
##etrie
fortieth
thatcher
wee
weig
weyer
wealth
pros
protein
##ching
##check
##chetti
##stain
##stroem
##ecase
##lles
##owicz
##owiecki
conve
consp
converses
consid
conexptime
##aswamy
##cea
##vetic
ono
##uts
##uty
##utdin
##ema
##ematical
##icke
##entropy
##imov
##imorphism
##rastructure
ans
anim
anura
anka
anjos
sures
suomela
sustain
bee
beitra
##otrov
##siere
##siello
##sipated
compo
compos
compressive
compensation
byjk
sts
stam
stall
stern
stub
staff
##olm
##olar
##oling
##umi
##umps
##sea
##sekar
deh
death
deja
##ulu
react
recher
reusing
reyk
rekha
##amas
##amous
##amov
##amura
##amili
##ammia
##igi
##igibly
##iglitz
##igenbaum
##pper
##rids
##rived
##rijan
##qual
##quet
##quanti
##tina
##tinct
##ilt
##ilong
##tha
##thest
mao
maz
maks
maurer
##teg
canvas
##odimensional
##tings
verdict
alge
alg3
alg2
clare
clumps
##izons
atleast
atıcı
##unier
##ungs
##uniform
##unikh
##rometry
resume
resili
resists
ressay
haas
hage
parab
##ivray
orna
##plib
shach
shmon
shanks
shvish
seinos
seoane
seiich
##geting
appc
apple
appeals
##antle
graphically
graphdominatedvertex
graphdiameter2or3
##elis
##eline
quint
quart
quoted
quitte
definitive
##ofold
##ofstra
unans
unrolled
unembed
##ife
##iff
leo
lei
ley
leur
leip
leup
leitmo
disper
dissipated
havepr
##arii
##arik
chj
chom
chine
chard
chind
chia
cheri
##person
##ussel
logt
logp1
timed
timings
timization
edi
edc
edmund
##tainment
##berto
suborder
subramanian
spies
spee
spmul
##andler
2097
2074
oneway
functioning
##ocal
##occhini
matus
matsu
matula
paun
paying
paqq
arenas
arlington
adet
adher
imc
##adays
##adarajan
##abilitation
numvar
##ayer
tween
tww2
twofold
##ormick
##oski
cork
resulte
everyday
finance
finkel
##oseph
equating
equities
enric
cob
co11
coawpp
cooley
valable
valeur
abr
abl
abdu
abord
ab09
abbe
abilities
abk15
sold
solv
solit
aca
ac19
##texte
##sov
##ribella
approche
outlines
sohe
sopena
satisfac
samworth
sampath
dozens
10q
1023
1042
1089
1041
10153
10jd
intl
−19
−17
minzer
intercept
intermedi
interrelated
interrupted
interconnected
interesse
prq
prspace
sizep
overf
overcoming
##iseux
classics
##udied
1900
1909
1910
1925
1948
nonfinite
nonco
nonregular
nonrec
nonequivalent
decimal
worah
##othea
relator
relabelled
recy
recre
recolor
recompute
opf
opus
nowadays
##ongkai
facteurs
trn
tral
##ouses
approxima
##angale
mey
mega
meena
meiser
meeks
meunier
pathways
imprim
##ethe
lowering
edgeset
dilemma
dip19
##ourse
remed
##cessible
distributing
distributivity
deserve
##spro
200e
##ameters
##ldb
sm73
smotrov
##cled
##clique
##clature
scul
holm
hol07
holzman
stead
steiglitz
butcovic
supposing
supporters
11β
1116
1181
##ghz
##ghmi
circled
corresp
corresponded
modeltheoretic
lineartime
rohit
rooij
subsch
subsume
subsolver
connective
infection
infrastructure
infamous
##ignia
constrains
np⊆
multigraded
labs
labean
1200
1211
1202
1207
1290
1283
1246
1282
calligraphic
underdetermined
manive
manvel
mancin
##aga
##agation
dimitri
dimopoulos
##apally
##apest
perc
perce
pertin
perpet
perdrix
examines
schost
schild
schaf
schroding
bl92
figure6
figure7
choix
cho61
requis
triad
##keting
tradu
trading
inco
afa
##eared
commit
commence
##veda
teich
minimiser
partitionings
amel
amos
amini
amano
13b
1301
1309
1303
determinacy
programing
er1
erre
upadhyay
regan
regul
regina
emery
##alski
14a
14c
1400
1493
##ceedings
contraints
contractive
contractible
beltram
termes
##ebrand
cynth
1609
1608
1695
16nl
1666
##arkers
producer
locus
locating
add2
ended
endvertex
manyone
mon12
monika
montrer
bible
biamon
1517
1505
1527
1556
1554
realise
protti
entan
2n−
rankλ
representer
##rys
erratum
uppman
inequal
##valpr
##orded
hompp
gaw
gav08
1712
1713
1781
1780
1756
binds
liam
doming
dompgq
##isioned
##opic
##opoulou
guill
guib
pp08
partage
semble
codim
langlo
langston
18b
1815
1878
true1
flu
fln
flops
fls07
flammia
flocchini
verifient
rightpz
##omorphisms
factorize
factorized
factorisation
autres
methodes
methodologies
heath
heaps
informationtheoretically
saved
saff
saund
saug
themes
brw08
eqspace
##tended
ser03
sergio
##ubal
##ubset
retention
characteriza
simula
simulators
simultan
standards
primer
productt
replay
mathema
feyn
feigenbaum
##dden
equaling
n−19
encore
loi
loow
loera
referencing
hale
halava
powerset
1−d
1−s
1−4
1−v
1−ω
2km
2k−4
speciality
specializations
backprop
slofstra
shortcom
##antium
cao
caution
caida
##ologically
symposia
2275
volk
memor
opencl
esper
weakens
2300
trivialize
permute
permutability
bui
bukh
copenhagen
furthest
convexification
initializations
win61
discret
##oknot
makam
makowsky
literatures
bipartite3d
robp
concat
fraignia
i∈c
i∈var
els
elena
elwyn
2500
2513
2566
occam
origins
coordinated
admet
topol
##endecomposition
transit
hamid
hamelin
hampath
notional
goodrich
quantiles
schemata
gls
glover
gl19
glimp
##nai
lny
superv
superko
superclass
##avati
pseudoknot
32r
3219
longman
tensorls
3114
aviv
avenues
springs
lesser
ensuing
normale
normalizes
##014
##011
##01001
lae
laff
mars
marin
marce
marcel
margul
neighborly
##tersen
2995
validation
##ectsingle
aurait
ausiello
lowe
##umeister
rai
−2i−2
geometrie
multipliers
##indl
postrs
eigensch
eigendecomposition
swamin
designating
merrick
mertens
merkle
spectrometry
opted
effected
0111
0119
falk
caltech
calvanese
sdpval
bets
3393
3353
3326
readout
fpaus
##ikj
##ikation
##ikardt
integrales
farrell
farnsworth
farthest
consumes
##11nf
prompted
##099
selfassem
2mw
bar75
barcel
##offier
leafs
##conque
##128
##122
##1223
stradd
dtms
correa
irjr
##ashnik
duc
duplication
dughmi
successes
##clusionminimalseps
x∈p
x∈∂
##10a
##107
##channel
piet
piunikh
submenu
##shman
##shamov
##ropoulos
framing
tarui
targeting
##tta
attrac
calculi
##onne
illusi
neededflow
interpreter
varadarajan
varshamov
##028
##023
##029
popgcd
−i0
finalize
fritz
##weight
bal93
klerk
klp12
skene
converter
horizons
396
3961
n−p
n−v
##053
##059
duals
collides
goldg
x∼x
correlate
radio
##075
helstrom
helvetic
gravit
##139
demuth
putability
streamed
majorizes
gridpoints
##group
crist
carter
carlini
##180
freeness
grun
boxworld
canonique
promiseyqp
j∈f
j∈l
uncom
uncountable
##logy
purity
complementations
polinomial
2cost
48k
483
storjoh
##142
preflows
naoki
nauty
harary
harvard
expansiveness
decodes
practicality
numerantium
##paign
redefine
450
##efank
breakpoint
cnp
cnrs
##xpy
##meas
prioriti
##068
##06b
##060
delving
bro97
office
thinks
cleanly
2πv
2πδ
2πit
passage
ben90
bencz
norbert
psq
advisor
nondeterministicaly
metricbanach
groger
gro96
grotz
gro75
a2ℓ
ccz
cc09
ltd
##ugal
ip01
ipjr
vanilla
issued
davyd
sheath
she06
533
##783
##renner
svante
informat
informed
explorer
connectors
xyµ
digon
peps
v∈a
v∈h
v∈∆
polymath
cd19
substructures
borner
borowiecki
−kt
inversely
ethz
entirety
47n
479
danish
puiseux
adaption
bd76
doubt
opponent
additively
icdm
2aβ
precedences
investigates
drine
drdθ
kar72
karsten
koen
koppe
559
5584
inserts
reviewed
substitutes
utiliser
hugh
sigmod
misinf
misrec
miscolored
miscell
##aniec
2ℓ−1
ambos
synchronised
braud
genome
genomes
genetics
eu∼π
extraction
martino
suggestive
sqs
sqq
xii
deduplication
unfamili
##warete
herbert
##999
bernardi
sakallah
cubical
summarises
briquel
tailor
kneser
564
##ipala
luo
1≤n≤x
1≤σ≤s
570
persists
##urability
lene
whitehead
magnani
1123
11269
756
7535
2b−1
2−i
2−3
##195
polylogpnqq
adaptative
rtbqspace
ular
ultram
581
580
x1y2
preparatory
speakers
0204
overlay
labellings
propagates
pmn
pmc
pmlr
##lagen
2pq
2pn
a∈z
donoho
##gs98
aspnes
672
679
2g−2
2gvar
stabilizations
wol08
wolsey
cwq
cw01
cw12
coincident
625
cyclicity
044
046
041
0401
0412
0408
0407
yao83
yao82
2sds
mutli
authorization
##otides
progresses
636
bridgeless
sanity
gmz14
kalu
##375
rs5
##paqq
purposely
##ahito
##isante
pdpp
rpσ
sbxd06
explosion
i∈sa
strengthenings
informatique
##loir
0809
nqspace
062
0608
0607
2ϵ∥h∥
##926
proportionally
mediated
resolutions
51th
octagons
651
650
##nsyl
00010
bidding
electr
elector
chordality
chordless
intuitions
shaddin
gharan
y∈u
y∈ω
growths
n−2d
n−2i
n−2k
ds79
1990s
inferring
totals
jonah
wolfram
renato
renormalized
renault
agreeing
c1d
wat99
alexis
alexandra
xorgadget
annotate
liked
772
779
bptisp
symmetrised
u∈β
853
mih
miy
miroslav
jupe
juw09
juedes
qcd
boards
strive
strikes
e∈z
073
072
0702
0703
1036
10395
warsaw
##klov
permanents
permanently
0512
0510
waves
∥vv
chapters
grounded
0011223
0901
0911
0910
ignor
jerome
multimodal
fixpointless
##zyn
insensitive
766
terry
archi
8400
972
979
c∈b
torial
torica
talks
tal17
dictates
las02
las15
softwarete
##230
ellis
abundance
conflicts
narrowness
734
731
864
863
860
papad
ilten
il90
748
743
740
954
959
wraps
transposes
kaiser
relativize
928
sixteen
bondy
snarks
sniady
fprasable
k−d
clocked
marginalizing
akt
pennsyl
iqim
p∈r
threaded
##sight
aziz
x25
##minimal
constructively
8737
bessel
bessiere
fallback
medny
ns94
101e
grigory
massimo
abeledo
822
burcsi
reconc
exceptionally
bmm
−d−1
⊗2m
equivariantly
948
942
epas
epimorphism
broadcasting
masanes
masahito
1≤i≤d
1≤i≤t
1≤i≤j
m−t
preferring
baumeister
roychow
grigori
4d−1
4dmax
bfb
bf02
bf012
fiftieth
iwaniec
´1u
experimenter
experimentation
dgw09
ecology
delegates
834
k−2i
www14
r1r2
unintended
1000ε
10004r
giunch
1133
1136
telesc
quadr
hybrids
bg09
mcgraw
2lq
wallman
∀j∈
938
dfoc
##431
##caled
evertse
sudi
miltersen
r2g
r2sq
debate
bjorn
banerjee
baba
bruhn
kinematics
zuc
2γa
2γk
2γn
bhangale
gqap
##kinis
##kinson
succession
ckis
ck14
ferra
∥bx∥
chiribella
slowest
slowdown
gs11
gs09
gs14
gs´1
bv97
kleitman
mdiscrepancy
128k
dlt
dlvkm
tsyti
##ompact
popularized
kan82
sharpen
m×m×m
paschos
−γx
activated
1029
conservatively
##rousis
chaos
cha76
multiclass
somme
synthesise
morphisme
collapsibility
pgcd
corrupting
kmi
kmrt
millisec
s∈p
s∈λ
0≤j
ahmed
rv14
isomor
1qg
kosciel
−π∥
##theorem
apparatus
categorize
cvz
cvm
cvxpy
seattle
immut
400e
bubeck
wilke
−j−n
1933
salesperson
cocompact
##operative
hub64
lacki
olgica
mmd
mm11
rosales
residuals
ayant
residually
residuel
msb
yztrans
αβq
bateni
battery
ruzzo
ruzsa
##hashi
levensh
3aq
umtc
##hardness
reversibly
averagecase
fulfils
profitable
federal
egly
fibers
fgg
##player
12334
1258
1259
dynamicallyconsistent
fk00
fk03
hp15
j≤3
k∈c
k∈child
departments
e2n
e2sat
ple79
pic15
##ajima
scientifiques
routinely
kepler
kea98
pk´1q
rab63
1536
fundamenta
fbdds
roderick
circumstance
circumradius
gutoski
senses
−s−
⩽d−1
expert
rahman
accomplishes
marchetti
commentarii
reverses
paradigmatic
miki
mikkel
prague
α∈r
α∈f
α∈m
eng03
ct91
##awat
sus16
sus14a
sung
lewiner
endowments
sawin
economies
aviad
bonet
bon70
mimics
##zko
piergiorgio
sandholm
±2δ
1833
attackers
bks14b
boldi
hopfield
hajek
pendent
seventeenth
unusually
redundantly
clarifying
bn−1
hsin
21275
golub
golumb
kirousis
##enbrenner
1≤j≤m
1≤j≤ℓ
bus86
invalidate
shrun
arranging
scheinerman
hirv
rosset
multitasker
sergei
bpsw06
driver
yamazaki
−−−−
−−−→
recipient
florina
discretized
elaborated
x∼dg
d∈sx
eisenberg
lagrange
pfandler
qnt
rqs
##zhoy
##wald
touchette
macgill
1−2α
2∥π
render
ordpf
georgia
a∥bt
kamal
kamali
t∥z
shamos
lrv13
##eteenth
##rifice
abbott
credited
jpψ
jp83
beckmann
entailing
259x
celes
celui
zeitoun
zelevinsky
conclure
shi00
infinitesim
virtual
2v−2
periods
periodically
scholz
dedicata
cuits
cu03
cucker
lindzey
nineteenth
sfb
trotta
yahav
∥ψ∥
roj07
saturation
saturates
schematically
unnecessarily
affirmatively
bosons
dorothea
iγc
okol
sabot
silvio
λ∈r
unbalancing
evidences
brunn
ariano
romero
romberg
zoe
peqe
forbidding
wahlstroem
leonardo
bridging
gabrys
karlsru
naugh
nauxp
odes
s→s
tamper
uwv
sahai
rajsekar
##oupias
rephrasing
disconnecting
accumulate
d∈u
d∈ux
i−s
i−n
i−m
lv97
nanotechnology
nanongkai
xsd
chemistry
subrepresentations
midrijan
sarma
bears
shahin
chandar
spaccam
shrinkage
iprns
ribet
α−γ
##uyuki
##hoek
chengde
nonterminating
libraries
exponentials
martingales
delivery
delivers
preemptions
4δc
5171
volltexte
β∈t
∃u∈u
shayan
nevai
nev86
skeptically
friendly
bootstrap
fel16a
ky05
mccarthy
mcconnell
mccormick
vinod
dissolved
chuzhoy
coarser
coarsest
triggers
##00000000
axiomatized
arauj
fm99
gd201
gorenstein
##independent
studer
mahdi
prrpy
carol
lau09
subtracted
3g−1
bddetect
fwf
judicious
menton
santos
santoni
u3dst
wpv
conversation
assessment
convergents
4130
dubbed
dubhashi
jesse
melvin
titles
σii
absorbing
politics
harrison
layouts
borrows
jianxin
s∩c
villaamil
xgrow
y∈sa
clipped
neuros
spatially
dobkin
recomm
hereinafter
entrances
bigtwocovering
alexandros
golovnev
i∪j∪x∪
duration
durham
eterized
hn90
orem
ruta
sacrifice
´µi
×2w
allevi
nonsubmodular
nonsolvable
mehrab
supplementary
teleport
bcw98
congressus
pyramid
pyramides
cocoa
francoise
bumps
darker
hl18
korwar
kolliopoulos
¨p2n
##ennes
##iscovered
sho92
shells
subcycle
decoration
manageable
sloan
pennink
microarray
zhaohui
hinton
ogi
p−q
qfaps
yan91
disapproving
disapproved
arkadev
10λk
minkwitz
pla84
undoes
emanating
axiomatisation
bracket
nucleic
nucleotides
2σy
buning
c−ag
murty
nuta
nutan
##interpret
cluttered
cluttering
hayes
quelconque
decremental
plethora
bentley
croissante
czech
hobby
lpr13a
natorica
q×h
tadpole
yooseph
y←y
γ∈γ
weh10
cannon
paramter
segre
unrealisable
##ghiu
algebriques
sdpt3
hertli
1024k
isometrically
8c−4
austrian
hh07
nakano
nakajima
pandu
pandey
##rkδ
##bartm
injecting
inaccurate
inaccessible
tod92
baseline
emerges
##pressed
markovian
mirroring
ribbon
encompassing
naseras
tabs
tew2
tewari
∥φz
##helm
inevitable
websites
mande
enveloping
propriety
proprietes
fournit
submultiset
kla10
overloading
manifestly
1950s
remarquant
reciprocals
rebuild
exemplify
fhh10
carolina
culminating
5cδ
gunter
gathered
kulikov
βi≥0
##x5x6
##remiak
develops
havens
spawns
pretends
destined
mohseni
−2a∂
luisa
ultraproduct
dawid
disadvantages
9134
btt89
dessouky
jarvis
kokainis
kokkinis
mcpdpp
nuls
nie09
x∩x
ω∈ω
##vania
maurice
enlarges
enlarged
coxeter
seminaires
postrtbpspace
grønas
narayanaswamy
dmitriy
σ∈σn
triggered
spernerfamily
oveis
ove83
sridhar
sridharan
ticks
tandis
xφyq
zalcstein
δ−k−1
##ratsch
##y3x4
hazan
polynomi
subuniverse
subuniverses
adopts
adopting
schweikardt
restarts
restarting
conforms
1008731
grundlehren
grundlagen
blending
9802049
91226
aesth
auburn
fv98
hariharan
nathann
pemantle
russia
x⊆j⊆s
yunlong
zoltan
´3εqc
ℓ−vp
ℓ∈s⊆
thousands
isfaction
prohibited
##econstructionalgorithm
compseriesauto
unrelativized
chercher
corroboration
intensely
overwritten
remplacant
reprove
programmable
ernst
binatorics
geometriae
helmut
hartung
cohomological
kristian
accompanied
circumvents
rybicki
prohibitively
betweennesscentralityvertex
hurtado
bibliography
bbbv97
warehouses
polyominoes
jozefczyk
supermartingales
bouchitte
jiawei
lelde
lothar
mitigate
ochremiak
odi99
patitz
sierpinski
t4n
vrai
x∧y
yasuhiro
zimmermann
ishay
tou15
appreciate
chessboard
neatly
indiana
equisatisfiable
interessant
desiderata
undergoes
manufact
##anskiy
biomarkers
escoffier
hamilto
geoffrey
superoperator
offloading
krasikov
04249
christiani
northeastern
eccentricity
ferdinando
econometrica
ℓn×ℓn×ℓn
unsuccessful
spaciousc
interlacing
##adjacency
nemirovski
0⩽ϵ
4×4
a⊗b
giannopoulou
gheorghiu
hessian
hoyer
iceland
jouanol
jeffery
kondapally
oeis
rizzi
sutton
srikanth
∈jν
##dhury
##wdith
aschenbrenner
stt05
unsettled
subtensor
outnumber
degrade
imprecision
removals
multiprocessor
perinotti
schultes
schaffner
newspaper
bloem
worktape
wellstudied
16∥q∥
biinclusionminimalseps
threefold
negligibly
cautious
memristor
administ
pseudomom
longueur
irregularities
receipt
klmz17
critere
carvalho
naveh
2r−2n
tomioka
tomorrow
083727
60qα
metamathematical
w∈dρ
christofides
giovann
destabilization
fibered
sepulveda
subintervals
fabrizio
trigonometric
nikolaev
sidiropoulos
scandinavian
tchamkerten
apex
aistats
bureau
c∼φ
clyde
cicalese
citeseer
dphil
dsw12
felipe
hreshold
hildebrand
hlineny
hns07
jutla
jns13
jls18
korman
kiefer
ktt01
kortsarz
koutsoupias
lseq
lambda
luminy
mueller
mieux
n00014
nomenclature
nussbaum
olezkiewicz
oliehoek
rx3c
snowden
serna
sorkin
snapshot
tersenghi
uitto
vedral
vouloir
veb81
vahab
voulgaris
vatshelle
w911nf
wieder
wss04
xizhong
zampetakis
¨b1
ˆsiprks
−idθ
−80k
∥az∥
##t≤h
##2clauses
##javik
##tind2clauses
considere
byjk04
reykjavik
maksim
ressayre
shmonin
seinosuke
seiichiro
unanswered
leipzig
leupold
leitmotif
chardon
chindris
cheriyan
speech
numvars
soheil
noncooperative
smotrovs
manivel
mancinska
schaffer
schrodinger
teichmuller
beltrami
cynthia
biamonte
guibas
langlois
saugata
feynman
backpropagation
shortcomings
bipartite3dominatingset
fraigniaud
glimpse
margulis
eigenschaft
swaminathan
selfassembly
barcelona
piunikhin
attractiveness
illusie
helvetici
gravitational
storjohann
##efankratsch
benczur
grotzsch
davydow
misinformation
misrecorded
miscellaneous
unfamiliar
ultrametric
softwaretechnik
pennsylvania
mednykh
giunchiglia
dlvkm07
milliseconds
levenshtein
golumbic
macgillivray
a∥btlz
zeitouni
karlsruhe
midrijanis
spaccamela
araujo
penninkx
naserasr
jouanolou
0a
0b
097
1e
2ψ
2𝑟
2size
3j
3−
3ω
3①
3−2
3−i
4µ
4η
4ck
4−c
5p
5λ
5∆
5tn
5v3
5−δ
6f
6x
611
698
7q
7c
7x
7×
719
8e
8x
8w
8χ
811
809
816
897
893
896
879
883
884
881
8956
9µ
919
923
9000
aˆ
a△
ation
aum
ath
apl
aeb
apr
a00
aki
arad
aksh
aster
aroy
a−a
aumann
a⊆v
apredu
aigner
b4
b−
bom
bow
bce
bph
bres
bution
bds
bous
bers
bish
bier
burn
bens
bist
burr
bick
bca
bao
bae
bolic
boca
c∥
cµ
cγ
cit
cic
clem
crou
ccl
cision
cck
cbo
camin
camp
catches
dℓ
dum
dach
dents
dvi
dty
dame
d02
dah
d→∞
dhs
dls
dorn
derek
eπ
e→
ere
ect
ete
eure
esp
etern
efs
ebr
e43
e25
eractive
etale
epaqq
fc
fx
f∼
fog
fid
fied
fgh
fop
fpr
fire
fok
fsat
fetch
fuhl
fhs
funk
g×
gin
gir
goll
gree
grib
gks
gion
gss
glement
gend
g−2
gron
g∈n
golds
gkl
gart
gamar
gagan
gewis
hq
h4
hsi
hum
hig
hess
hight
hlf
hood
hops
h∈n
henk
hkl
h×m
hkm
house
hkp
h⊆s
habilitation
iu
i←
iσ
i∼
i∆
i≥
i⊂
iη
ira
ict
ipaq
i→∞
ihes
jh
jδ
j∼
jα
j≥
j⊂
jas
jam
ject
jure
jha
jki
jara
jogle
java
jitt
joux
janne
jprℓs
jgt
kλ
k←
kω
k⊆
kes
kous
kasz
k´1
k×ℓ
ksparse
lut
lic
lent
lir
lid
lite
lish
lately
l−2
lights
loff
lush
lopes
lfcs
lmean
mf
mϵ
mκ
m∆
mec
miz
moll
mant
mall
mps
mour
mspace
mother
mund
mott
mental
mras
mica
muri
muss
mountain
mikolas
mzk
m×r
mallo
mpartitions
nσ
nou
nun
nser
nip
nist
n≥0
nano
nbn
nieu
nqubit
oi
oer
ost
oas
oph
ods
oates
ode
osw
omar
olein
olliv
pψ
p⊥
pim
pth
pix
ponn
pitch
pev
peti
p×n
porting
p−i
ponential
p→∞
p×m
p∼p
p≤d
pνpnqq
pphq
pump
qf
qλ
qℓ
qio
qfas
r∥
rj
r0
rγ
rent
rts
rial
rak
reth
roun
rame
redi
ruth
rash
r∈s
rises
ranged
raton
ruel
r´1
rtisp
rℓs
risman
s⊥
sø
sma
svi
sive
sark
santi
s11
s07
s06
sidel
sale
souv
stines
sification
sieves
s∆t
s096
stings
tδ
t≥
tis
tse
tate
tess
tations
tary
trix
tty
tss
tib
tomes
tpa
t∈s
tank
tsel
tah
tpg
t→0
tapi
tboundaried
t⩾1
u∥
ue
u⋆
u−1
uences
uai
uqal
ubqc
uzi
u←i
vf
vπ
vµ
vθ
v↔
vec
vic
vog
vial
vant
vus
vav
v84
vmc
wul
woc
wie
wip
w∈s
watch
wgs
wbs
w∼n
w−a
wiring
xψ
xω
x𝑗
x∪
xvi
x12
x13
xmax
xdn
xuding
x⊆v
yt
yon
yue
yud
yaz
yale
y−x
ytu
z3
zc
zz
zar
zil
zap
ziel
zell
zeck
zah
zmc
z∼µ
z−x
zterms
¨1
¨g
¨τ
¬ψ
¬χ
¬yi
¬php
±p
±t
±x
±b
´b
´aj
´hp
´op1q
´x2
µq
µi
µ3
µl
µj
µμ
µcd
µ∈m
¾∥
×q
×r
×f
×c
×gm
ıı
ˆt
ˆb
ˆm
ˆtd
˝j
α∥
α3
αji
βt
β−1
γd
γh
γv
γy
γσ
γδ
γφ
γ−1
δi
δ0
δϵ
δγ
δ−2
δ10
εl
εy
εγ
εη
ερ
εϕ
ε→0
ε4a
ζx
θk
θg
θm
θ2
θδ
θdx
κpkq
λi
λe
λτ
ν∥
νp
ν3
νc
νϵ
ν⊢
ν−2
ν≥2
πi
πf
πσ
πθ
πaa
ρ2
ρρ
ρ∈s
ρ∈b
σt
σpl
τn
φp
φγ
φpaq
φpxq
ψ2
ψ∈σ
ωu
ω0
ωχ
ℓf
ℓx
ℓw
ℓ2
ℓ≥1
←c
↑≥
→z
→1
↾λ
∀l
∀τ
∀θ
∂m
∃d
∃l
∃1
∃m
∃α
∆d
∆∈ψ
∇q
∇e
∈q
∈k
∈w
∈𝐽
∈ri
∈sp
∈par
∈li
−ca
−poly
∥ω
∥ν
∥𝑋
∥ri
∥∥x
∧d
∧y
∧dt
∨q
∨y
∩q
∩p
∩r
∩bm
∪r
∪g
∪m
∪𝐼
∼v
∼ℓ
∼χ
≤β
≥a
⊂a
⊆c
⊆j
⊆en
⊕l
⊗p
⊠t
⌜x
①−1
□lemma
□this
△e
◁k
◁▷
♢♢
♯♯
⩽1
𝑋𝛼
𝑚𝑇
𝑡∈
𝑦∥
𝑦𝑉
𝜂𝜖
𝜅𝜖
##oq
##oin
##oit
##oble
##o10
##ooting
##a∥
##aar
##aired
##ahn
##ahedral
##aigne
##dg
##dok
##dw08
##dotti
##stic
##sper
##section
##soul
##scription
##qing
##qexp
##∥2≤1
##ierm
##ivers
##ilement
##i11
##ieni
##i95
##iuc
##pur
##pful
##powers
##tly
##tec
##tant
##tance
##tles
##tton
##tok
##t15
##tao
##tmann
##tarik
##kn
##khn
##kbe
##khi
##kina
##ktw
##kdi
##uq
##uti
##uver
##uated
##uality
##uples
##uoka
##uhrer
##rf
##rv
##rw
##rm
##rance
##rases
##r08
##r97
##e2
##egel
##fes
##full
##f10
##fott
##fois
##fpss
##fuhrer
##nin
##net
##nab
##nable
##nine
##name
##n09
##naya
##nelles
##nw93
##nicke
##h∪
##had
##heng
##hady
##honen
##802
##3ϵ
##543
##585
##556
##lat
##light
##lance
##lick
##l11
##l06
##laden
##c2
##cδ
##cen
##cim
##cate
##cost
##cies
##cases
##c16
##constra
##coup
##cfl
##circu
##vet
##vic
##vig
##vain
##v02
##v14
##vyi
##vano
##zo
##zar
##zan
##zle
##zers
##zov
##zner
##zhn
##z07
##z15
##z94
##zina
##ziak
##xi
##xφ
##xing
##xia
##1i
##1x
##199
##wad
##w12
##w13
##w97
##w95
##w94
##wij
##wanger
##wiger
##∩z
##bu
##bc
##bak
##bour
##bian
##bank
##bins
##biano
##gress
##gason
##g15
##gren
##g93
##gallo
##y∥
##yr
##ye
##yz
##ype
##yev
##yama
##yzin
##yanka
##yfus
##≤i
##≤g
##≤2
##mou
##mari
##m13
##m06
##member
##multi
##mila
##mecke
##2−i
##242
##248
##978
##9002
##je
##jh
##j1
##jm
##jin
##jen
##jie
##jian
##jko
##jima
##j∩z
##0n
##−8
##−α
##−ni
##−prf
##µ∥
##µz
##ℓαq
##ψπ
##∈v
##×d
##∃b
##α−1
##γt
##⊆f
##ør
##∪c
##ρx
##∞≤2
##ти
##˙ec
##ȷq
##erance
##erows
##erjian
##onents
##onson
##onka
##ontia
##tiz
##tial
##tign
##tiori
##orte
##oroll
##orter
##oruk
##input
##inny
##instance
##inatan
##esen
ofek
##atte
##atak
##atured
##atsch
##atenk
##aterial
##atablity
inse
inap
inapp
inert
inasm
inclusive
##enby
##enek
##enyi
##ennan
##alin
##alem
##alore
##alcul
##alieri
##tionen
##itre
##itsi
##itate
##itulate
##edimensional
##rocess
##robin
##roissante
##arp
##aru
##arav
##arred
##arns
##arvey
##arfas
andf
isp
ist
isw
isis
istic
ismp
##anyan
##anishi
##anjit
##requ
##reight
##reau
##render
##lee
##leb
##lewood
##leading
##omor
##omar
##isim
##isma
##ingien
told
toone
tothe
##etak
for01
fortsch
fortiori
thatz
thatx
thatg
thatlim
wea
wend
weir
weigh
weber
weft
webp
##lyzko
proce
prote
prouve
proposi
prouver
##ched
##chre
##chus
##chip
##chia
##chik
##chakov
##chella
##chisl
##chandran
##stre
##stens
##stood
##ecure
##econom
##lla
##llar
##owalk
conq
convey
contient
##asp
##asub
##asios
##ascale
ons
onr
onedimensional
##uter
##emore
##emment
##emory
##emigrou
##icu
##icative
##icating
##imer
##imil
##imper
##image
##raf
##rah
##rach
anast
animation
anima
anuj
sudden
bei
beeck
be97
begs
beek
com1
comfort
##oulie
##otz
##otes
##otted
##otone
##otka
##otnikova
whil
asil
as04
as18
asfm
asz19
asw19
##sii
##sily
##sided
##sitivities
##abi
##abes
##ablement
alin
alized
alina
alois
alimon
comply
compte
compac
compaction
composable
compromise
stur
strid
stok
st99
stconn
stencil
##olt
##olve
##olfs
##olae
##olvability
##olona
##umination
##seev
##seille
dei
deha
deza
dearth
##verpo
##uled
##ulenko
expend
exotic
exascale
##itya
rei
reposition
reactive
recht
reorient
reeconstructionalgorithm
reyzin
##ampo
##amoch
popl
poonen
##urance
##ursive
##rir
##riate
##rific
##quen
##quement
##phys
##ilich
##thy
##there
maure
macc
macker
maher
##tee
##tello
##tson
##tsen
##tsson
##oded
##odis
##odule
##tingen
setcover
notwith
vera
verbits
verdo
thene
letu
allotted
clr
clas
clim
clash
classe
##ogh
##izat
##izio
atti
atri
atmin
##ains
##una
##une
##unte
##unary
##unications
##unicating
reson
reste
reside
resumes
resisted
rescaled
haim
havi
hager
haiko
hailong
pars
parna
parson
pardo
parker
paralog
parlance
thereom
therefor
##ived
##iveness
orus
ortiz
algorithmes
shab
shud
ship
shao
shuk
shimura
shiger
seul
seuk
seoul
##geoch
##essential
problemy
##achandran
appel
[...]
