{
  "version": "1.0",
  "truncation": null,
  "padding": null,
  "added_tokens": [],
  "normalizer": null,
  "pre_tokenizer": {
    "type": "ByteLevel",
    "add_prefix_space": false,
    "trim_offsets": true,
    "use_regex": true
  },
  "post_processor": {
    "type": "ByteLevel",
    "add_prefix_space": true,
    "trim_offsets": false,
    "use_regex": true
  },
  "decoder": {
    "type": "ByteLevel",
    "add_prefix_space": true,
    "trim_offsets": true,
    "use_regex": true
  },
  "model": {
    "type": "BPE",
    "dropout": null,
    "unk_token": null,
    "continuing_subword_prefix": null,
    "end_of_word_suffix": null,
    "fuse_unk": false,
    "vocab": {
      "!": 0,
      "\"": 1,
      "#": 2,
      "$": 3,
      "%": 4,
      "&": 5,
      "'": 6,
      "(": 7,
      ")": 8,
      "*": 9,
      "+": 10,
      ",": 11,
      "-": 12,
      ".": 13,
      "/": 14,
      "0": 15,
      "1": 16,
      "2": 17,
      "3": 18,
      "4": 19,
      "5": 20,
      "6": 21,
      "7": 22,
      "8": 23,
      "9": 24,
      ":": 25,
      ";": 26,
      "<": 27,
      "=": 28,
      ">": 29,
      "?": 30,
      "@": 31,
      "A": 32,
      "B": 33,
      "C": 34,
      "D": 35,
      "E": 36,
      "F": 37,
      "G": 38,
      "H": 39,
      "I": 40,
      "J": 41,
      "K": 42,
      "L": 43,
      "M": 44,
      "N": 45,
      "O": 46,
      "P": 47,
      "Q": 48,
      "R": 49,
      "S": 50,
      "T": 51,
      "U": 52,
      "V": 53,
      "W": 54,
      "X": 55,
      "Y": 56,
      "Z": 57,
      "[": 58,
      "\\": 59,
      "]": 60,
      "^": 61,
      "_": 62,
      "`": 63,
      "a": 64,
      "b": 65,
      "c": 66,
      "d": 67,
      "e": 68,
      "f": 69,
      "g": 70,
      "h": 71,
      "i": 72,
      "j": 73,
      "k": 74,
      "l": 75,
      "m": 76,
      "n": 77,
      "o": 78,
      "p": 79,
      "q": 80,
      "r": 81,
      "s": 82,
      "t": 83,
      "u": 84,
      "v": 85,
      "w": 86,
      "x": 87,
      "y": 88,
      "z": 89,
      "{": 90,
      "|": 91,
      "}": 92,
      "~": 93,
      "¡": 94,
      "¢": 95,
      "£": 96,
      "¤": 97,
      "¥": 98,
      "¦": 99,
      "§": 100,
      "¨": 101,
      "©": 102,
      "ª": 103,
      "«": 104,
      "¬": 105,
      "®": 106,
      "¯": 107,
      "°": 108,
      "±": 109,
      "²": 110,
      "³": 111,
      "´": 112,
      "µ": 113,
      "¶": 114,
      "·": 115,
      "¸": 116,
      "¹": 117,
      "º": 118,
      "»": 119,
      "¼": 120,
      "½": 121,
      "¾": 122,
      "¿": 123,
      "À": 124,
      "Á": 125,
      "Â": 126,
      "Ã": 127,
      "Ä": 128,
      "Å": 129,
      "Æ": 130,
      "Ç": 131,
      "È": 132,
      "É": 133,
      "Ê": 134,
      "Ë": 135,
      "Ì": 136,
      "Í": 137,
      "Î": 138,
      "Ï": 139,
      "Ð": 140,
      "Ñ": 141,
      "Ò": 142,
      "Ó": 143,
      "Ô": 144,
      "Õ": 145,
      "Ö": 146,
      "×": 147,
      "Ø": 148,
      "Ù": 149,
      "Ú": 150,
      "Û": 151,
      "Ü": 152,
      "Ý": 153,
      "Þ": 154,
      "ß": 155,
      "à": 156,
      "á": 157,
      "â": 158,
      "ã": 159,
      "ä": 160,
      "å": 161,
      "æ": 162,
      "ç": 163,
      "è": 164,
      "é": 165,
      "ê": 166,
      "ë": 167,
      "ì": 168,
      "í": 169,
      "î": 170,
      "ï": 171,
      "ð": 172,
      "ñ": 173,
      "ò": 174,
      "ó": 175,
      "ô": 176,
      "õ": 177,
      "ö": 178,
      "÷": 179,
      "ø": 180,
      "ù": 181,
      "ú": 182,
      "û": 183,
      "ü": 184,
      "ý": 185,
      "þ": 186,
      "ÿ": 187,
      "Ā": 188,
      "ā": 189,
      "Ă": 190,
      "ă": 191,
      "Ą": 192,
      "ą": 193,
      "Ć": 194,
      "ć": 195,
      "Ĉ": 196,
      "ĉ": 197,
      "Ċ": 198,
      "ċ": 199,
      "Č": 200,
      "č": 201,
      "Ď": 202,
      "ď": 203,
      "Đ": 204,
      "đ": 205,
      "Ē": 206,
      "ē": 207,
      "Ĕ": 208,
      "ĕ": 209,
      "Ė": 210,
      "ė": 211,
      "Ę": 212,
      "ę": 213,
      "Ě": 214,
      "ě": 215,
      "Ĝ": 216,
      "ĝ": 217,
      "Ğ": 218,
      "ğ": 219,
      "Ġ": 220,
      "ġ": 221,
      "Ģ": 222,
      "ģ": 223,
      "Ĥ": 224,
      "ĥ": 225,
      "Ħ": 226,
      "ħ": 227,
      "Ĩ": 228,
      "ĩ": 229,
      "Ī": 230,
      "ī": 231,
      "Ĭ": 232,
      "ĭ": 233,
      "Į": 234,
      "į": 235,
      "İ": 236,
      "ı": 237,
      "Ĳ": 238,
      "ĳ": 239,
      "Ĵ": 240,
      "ĵ": 241,
      "Ķ": 242,
      "ķ": 243,
      "ĸ": 244,
      "Ĺ": 245,
      "ĺ": 246,
      "Ļ": 247,
      "ļ": 248,
      "Ľ": 249,
      "ľ": 250,
      "Ŀ": 251,
      "ŀ": 252,
      "Ł": 253,
      "ł": 254,
      "Ń": 255,
      "Ġt": 256,
      "Ġa": 257,
      "he": 258,
      "Ġâ": 259,
      "Ġi": 260,
      "on": 261,
      "Ġthe": 262,
      "ti": 263,
      "re": 264,
      "Ġs": 265,
      "Ġ(": 266,
      "Ġo": 267,
      "Ġc": 268,
      "in": 269,
      "er": 270,
      "ĠâĪ": 271,
      "Ġf": 272,
      "or": 273,
      "Ġw": 274,
      "en": 275,
      "Ġp": 276,
      "Ġof": 277,
      "nd": 278,
      "at": 279,
      "Ġ1": 280,
      "tion": 281,
      "al": 282,
      "Ġd": 283,
      "Ġb": 284,
      "es": 285,
      "ĠÎ": 286,
      "Ġ2": 287,
      "Ġn": 288,
      "Ġin": 289,
      "ed": 290,
      "Ġm": 291,
      "ro": 292,
      "Ġ=": 293,
      "Ġand": 294,
      "it": 295,
      "Ġis": 296,
      "Ġth": 297,
      "ar": 298,
      "Ġe": 299,
      "ĠT": 300,
      "an": 301,
      "Ġ)": 302,
      "le": 303,
      "is": 304,
      "Ġ,": 305,
      "ĠâĪĴ": 306,
      "Ġ.": 307,
      "Ġto": 308,
      "ing": 309,
      "ic": 310,
      "Ġ0": 311,
      "ĠÏ": 312,
      "et": 313,
      "Ġthat": 314,
      "om": 315,
      "Ġfor": 316,
      "ĠâĢ": 317,
      "ve": 318,
      "Ġre": 319,
      "as": 320,
      "ly": 321,
      "Ġh": 322,
      "Ġg": 323,
      "Ġ+": 324,
      "Ġl": 325,
      "Ġu": 326,
      "ation": 327,
      "ec": 328,
      "Ġcon": 329,
      "Ġwe": 330,
      "ll": 331,
      "âĪ": 332,
      "ac": 333,
      "ent": 334,
      "Ġk": 335,
      "ĠA": 336,
      "ĠS": 337,
      "ĠThe": 338,
      "ĠL": 339,
      "st": 340,
      "ow": 341,
      "si": 342,
      "Ġv": 343,
      "ĠI": 344,
      "Ġon": 345,
      "ĠF": 346,
      "ith": 347,
      "Ġpro": 348,
      "im": 349,
      "Ġq": 350,
      "ĠC": 351,
      "ce": 352,
      "ot": 353,
      "ĠP": 354,
      "ou": 355,
      "Ġbe": 356,
      "Ġsu": 357,
      "Ġ[": 358,
      "Ġr": 359,
      "ĠâĪĪ": 360,
      "Ġâī": 361,
      "Ġas": 362,
      "Ġx": 363,
      "se": 364,
      "ul": 365,
      "Ġwith": 366,
      "Ġan": 367,
      "ĠR": 368,
      "ol": 369,
      "Ġby": 370,
      "Ġj": 371,
      "ĠW": 372,
      "Ġ3": 373,
      "ĠN": 374,
      "ĠâĢ²": 375,
      "Ġst": 376,
      "Ġex": 377,
      "qu": 378,
      "ĠB": 379,
      "am": 380,
      "ver": 381,
      "ĠH": 382,
      "Ġ|": 383,
      "ĠM": 384,
      "ig": 385,
      "ĠâĢ¢": 386,
      "ore": 387,
      "ts": 388,
      "od": 389,
      "um": 390,
      "âĪĴ": 391,
      "ri": 392,
      "Ġare": 393,
      "ur": 394,
      "Ġde": 395,
      "ĠE": 396,
      "ut": 397,
      "ĠG": 398,
      "ab": 399,
      "em": 400,
      "ĠD": 401,
      "Ġcom": 402,
      "ch": 403,
      "ain": 404,
      ").": 405,
      "res": 406,
      "pp": 407,
      "ity": 408,
      "),": 409,
      "Ġal": 410,
      "ĠX": 411,
      "ction": 412,
      "tic": 413,
      "il": 414,
      "ate": 415,
      "Ġâī¤": 416,
      "tin": 417,
      "Ġwh": 418,
      "Ġwhe": 419,
      "ap": 420,
      "Ġ*": 421,
      "fin": 422,
      "iv": 423,
      "Ġpo": 424,
      "Ġ4": 425,
      "Ġthis": 426,
      "ct": 427,
      "el": 428,
      "ter": 429,
      "Ġcan": 430,
      "Ġ:": 431,
      "Ġcomp": 432,
      "ĠWe": 433,
      "if": 434,
      "ir": 435,
      "ure": 436,
      "Ġha": 437,
      "ge": 438,
      "un": 439,
      "ĠÎ±": 440,
      "ĨĴ": 441,
      "Ġy": 442,
      "tive": 443,
      "rom": 444,
      "oll": 445,
      "ĠâĬ": 446,
      "Ġï": 447,
      "pl": 448,
      "Ġï£": 449,
      "ĠK": 450,
      "ich": 451,
      "ĠIn": 452,
      "Ġor": 453,
      "ting": 454,
      "Ġle": 455,
      "her": 456,
      "te": 457,
      "id": 458,
      "Ġall": 459,
      "ĠÂ": 460,
      "Ġwhich": 461,
      "Ġfrom": 462,
      "iz": 463,
      "ĠV": 464,
      "per": 465,
      "Ġres": 466,
      "Ġhave": 467,
      "us": 468,
      "Ġif": 469,
      "Ġsp": 470,
      "ĠO": 471,
      "Ġ{": 472,
      "og": 473,
      "ollow": 474,
      "ĠâĨĴ": 475,
      "ad": 476,
      "Ġwhere": 477,
      "ition": 478,
      "orm": 479,
      "Ġnot": 480,
      "Ġfollow": 481,
      "Ġit": 482,
      "Ġz": 483,
      "ay": 484,
      "Ġat": 485,
      "Ġdis": 486,
      "ĠâĦ": 487,
      "Ġset": 488,
      "Ġpar": 489,
      "ĠÎ»": 490,
      "ĠâĪ¥": 491,
      "ma": 492,
      "Ġse": 493,
      "Ġsh": 494,
      "sion": 495,
      "ble": 496,
      "Ġus": 497,
      "der": 498,
      "ence": 499,
      "ari": 500,
      "ĠTh": 501,
      "orem": 502,
      "ect": 503,
      "ĠU": 504,
      "Ġdefin": 505,
      "of": 506,
      "ally": 507,
      "po": 508,
      "end": 509,
      "unction": 510,
      "ess": 511,
      "Ġsuch": 512,
      "oc": 513,
      "ant": 514,
      "ach": 515,
      "ations": 516,
      "Ġun": 517,
      "Ġtr": 518,
      "Ġch": 519,
      "ener": 520,
      "ection": 521,
      "tain": 522,
      "Ġcl": 523,
      "Ġfunction": 524,
      "ĠLet": 525,
      "Ġequ": 526,
      "ound": 527,
      "Ġob": 528,
      "Ġapp": 529,
      "all": 530,
      "ase": 531,
      "Ġthen": 532,
      "ple": 533,
      "ĠPro": 534,
      "Ġco": 535,
      "ution": 536,
      "ere": 537,
      "ary": 538,
      "able": 539,
      "ment": 540,
      "str": 541,
      "ies": 542,
      "ĠÃ": 543,
      "ated": 544,
      "Ġâī¥": 545,
      "du": 546,
      "act": 547,
      "ĠQ": 548,
      "ĠÏĥ": 549,
      "igh": 550,
      "Ġthere": 551,
      "ĠÂµ": 552,
      "Ġ>": 553,
      "rou": 554,
      "Ġ5": 555,
      "Ġne": 556,
      "and": 557,
      "ĠZ": 558,
      "Ġ<": 559,
      "Ġsub": 560,
      "ĠÎ²": 561,
      "tim": 562,
      "ĠÎ³": 563,
      "ĠFor": 564,
      "Ġone": 565,
      "ite": 566,
      "ace": 567,
      "Ġbound": 568,
      "Ġmod": 569,
      "erm": 570,
      "Ġma": 571,
      "ĠTheorem": 572,
      "ine": 573,
      "ĠÎ´": 574,
      "ati": 575,
      "ĠâĪŀ": 576,
      "ther": 577,
      "Ġgener": 578,
      "Ġsy": 579,
      "Ġqu": 580,
      "ond": 581,
      "Ġim": 582,
      "ĠY": 583,
      "Ġany": 584,
      "Ġtw": 585,
      "Ġhas": 586,
      "ill": 587,
      "sition": 588,
      "Ġform": 589,
      "ber": 590,
      "Ġass": 591,
      "Ġind": 592,
      "Ġgiv": 593,
      "Ġshow": 594,
      "alu": 595,
      "Ġresul": 596,
      "Ġver": 597,
      "ric": 598,
      "))": 599,
      "ĠÎµ": 600,
      "ĠÏģ": 601,
      "Ġeach": 602,
      "ome": 603,
      "ĠâĪĤ": 604,
      "Ġtwo": 605,
      "Ġpoin": 606,
      "ous": 607,
      "ĠÎ¸": 608,
      "].": 609,
      "ĠThis": 610,
      "ff": 611,
      "so": 612,
      "emma": 613,
      "ĠÏĦ": 614,
      "ince": 615,
      "form": 616,
      "os": 617,
      "th": 618,
      "Ġsim": 619,
      "Ġfin": 620,
      "ds": 621,
      "ĠÏĢ": 622,
      "ose": 623,
      "ĠLemma": 624,
      "ular": 625,
      "gor": 626,
      "ĠâĦĵ": 627,
      "Ġcase": 628,
      "ial": 629,
      "Ġnum": 630,
      "Ġad": 631,
      "rib": 632,
      "Ġden": 633,
      "ĠÃĹ": 634,
      "Î±": 635,
      "dition": 636,
      "Ġab": 637,
      "],": 638,
      "Ġexp": 639,
      "Ġwill": 640,
      "ree": 641,
      "Ġar": 642,
      "iff": 643,
      "ame": 644,
      "Ġfollowing": 645,
      "Ġstr": 646,
      "Ġgr": 647,
      "Ġmat": 648,
      "Ġsol": 649,
      "Ġme": 650,
      "Ġnon": 651,
      "Ġ6": 652,
      "âĪ¥": 653,
      "ans": 654,
      "irst": 655,
      "ĠJ": 656,
      "ote": 657,
      "eren": 658,
      "ical": 659,
      "Ł©": 660,
      "ĠThen": 661,
      "ud": 662,
      "Ġ),": 663,
      "Ġonly": 664,
      "gr": 665,
      "Ġsome": 666,
      "aph": 667,
      "Ġalso": 668,
      "ator": 669,
      "Ġcor": 670,
      "âĪĪ": 671,
      "Ġdiff": 672,
      "Ġfi": 673,
      "ep": 674,
      "ithm": 675,
      "position": 676,
      "Ġint": 677,
      "Ġgiven": 678,
      "ates": 679,
      "cl": 680,
      "ak": 681,
      "Ġtim": 682,
      "âĢ": 683,
      "ight": 684,
      "Ġ]": 685,
      "Ġ}": 686,
      "abil": 687,
      "etw": 688,
      "blem": 689,
      "ers": 690,
      "Ġnumber": 691,
      "ass": 692,
      "Ġinter": 693,
      "ance": 694,
      "Ġexis": 695,
      "ĠÎĵ": 696,
      "ĠFig": 697,
      "ĠÏķ": 698,
      "Ġ).": 699,
      "ire": 700,
      "Ġdist": 701,
      "ph": 702,
      "Ġes": 703,
      "resent": 704,
      "atis": 705,
      "Ġpre": 706,
      "enti": 707,
      "Ġvari": 708,
      "sider": 709,
      "âĦ": 710,
      "Ġ-": 711,
      "Ġmin": 712,
      "ork": 713,
      "gorithm": 714,
      "Ġlog": 715,
      "ĠÏī": 716,
      "ra": 717,
      "Ġproblem": 718,
      "ĠÏµ": 719,
      "Ġfollows": 720,
      "Ġassum": 721,
      "ension": 722,
      "xim": 723,
      "Ġobtain": 724,
      "Ġ:=": 725,
      "Ġcomple": 726,
      "Ġmodel": 727,
      "Ġfirst": 728,
      "ĠâĪĨ": 729,
      "ative": 730,
      "ĠIf": 731,
      "Ġop": 732,
      "Ġ/": 733,
      "Ġcondition": 734,
      "Ġso": 735,
      "ard": 736,
      "roup": 737,
      "Î»": 738,
      "ges": 739,
      "ĠÎ·": 740,
      "Ġrel": 741,
      "ĠÏĨ": 742,
      "Ġour": 743,
      "ient": 744,
      "Ł¨": 745,
      "Ġno": 746,
      "ong": 747,
      "ctor": 748,
      "op": 749,
      "Ġmet": 750,
      "Ġvalu": 751,
      "ves": 752,
      "Ġinte": 753,
      "Ġtime": 754,
      "Ġconstr": 755,
      "resp": 756,
      "ty": 757,
      "stem": 758,
      "atisf": 759,
      "uct": 760,
      "orph": 761,
      "Ġover": 762,
      "ability": 763,
      ".,": 764,
      "ĠProof": 765,
      "Ġsatisf": 766,
      "Ġproof": 767,
      "ĠAs": 768,
      "ality": 769,
      "Ġother": 770,
      "Ġcont": 771,
      "oth": 772,
      "Ġdes": 773,
      "ise": 774,
      "ties": 775,
      "Ġappro": 776,
      "Ġhe": 777,
      "Ġgraph": 778,
      "Ġwhen": 779,
      "Ġper": 780,
      "Ġrep": 781,
      "ĠÎ¾": 782,
      "Ġsc": 783,
      "ĠâĦ¦": 784,
      "Ġdifferen": 785,
      "very": 786,
      "Ġac": 787,
      "Ġsm": 788,
      "Ġsystem": 789,
      "ffic": 790,
      "ĠÏĪ": 791,
      "ective": 792,
      "Ġlet": 793,
      "Ġid": 794,
      "Ġsolution": 795,
      "ðĿ": 796,
      "Ġspace": 797,
      "Ġits": 798,
      "ust": 799,
      "Ġterm": 800,
      "ang": 801,
      "ĠÎ½": 802,
      "yp": 803,
      "Ġresp": 804,
      "Ġalgorithm": 805,
      "Ġdet": 806,
      "Ġline": 807,
      "ĠâĬĹ": 808,
      "ie": 809,
      "ast": 810,
      "Ġpoint": 811,
      "Ġ\"": 812,
      "Ġdo": 813,
      "fore": 814,
      "Ġdefined": 815,
      "ort": 816,
      "ove": 817,
      "Ġuse": 818,
      "ĠIt": 819,
      "ism": 820,
      "Ġorder": 821,
      "gh": 822,
      "sis": 823,
      "Ġev": 824,
      "Ġtrans": 825,
      "Ġconsider": 826,
      "ample": 827,
      "Ġmap": 828,
      "ue": 829,
      "Ġfact": 830,
      "imension": 831,
      "nder": 832,
      "Ġevery": 833,
      "Ġsame": 834,
      "respond": 835,
      "Ġve": 836,
      "Ġreg": 837,
      "ord": 838,
      "Ġoper": 839,
      "ces": 840,
      "lement": 841,
      "ced": 842,
      "Ġen": 843,
      "Ġhol": 844,
      "ied": 845,
      "Ġcorrespond": 846,
      "ĠFigure": 847,
      "Ġthese": 848,
      "Î¸": 849,
      "ÏĢ": 850,
      "Ġusing": 851,
      "Ġproper": 852,
      "Ġlim": 853,
      "Ġgeneral": 854,
      "vi": 855,
      "amet": 856,
      "Ġdec": 857,
      "ark": 858,
      "Ġprov": 859,
      "Ġestim": 860,
      "Ġ7": 861,
      "omorph": 862,
      "Ġclass": 863,
      "ÏĦ": 864,
      "âŁ©": 865,
      "ost": 866,
      "ĠProposition": 867,
      "ser": 868,
      "rix": 869,
      "ents": 870,
      "00": 871,
      "ld": 872,
      "Ġro": 873,
      "Ì¸": 874,
      "ĠBy": 875,
      "ion": 876,
      "Ġout": 877,
      "Ġgroup": 878,
      "Ġfinite": 879,
      "Ġed": 880,
      "ĠâĪļ": 881,
      "Ġdistrib": 882,
      "Âµ": 883,
      "Î²": 884,
      "ĠâŁ¨": 885,
      "Ġext": 886,
      "ĠÎ£": 887,
      "een": 888,
      "Ġcomput": 889,
      "etween": 890,
      "ĠSince": 891,
      "Ġ8": 892,
      "ack": 893,
      "Ġbetween": 894,
      "now": 895,
      "ia": 896,
      "cess": 897,
      "Ġdisc": 898,
      "Ïĥ": 899,
      "Ġloc": 900,
      "our": 901,
      "ization": 902,
      "Ġunder": 903,
      "au": 904,
      "Ġprob": 905,
      "ption": 906,
      "les": 907,
      "Ġbas": 908,
      "Î³": 909,
      "Ġpl": 910,
      "Ġmeas": 911,
      "Ġsubs": 912,
      "Ġmatrix": 913,
      "Ġvector": 914,
      "ĠThere": 915,
      "'s": 916,
      "Ġelement": 917,
      "Ġrec": 918,
      "fficient": 919,
      "Ġthan": 920,
      "Ġresult": 921,
      "efin": 922,
      "ĠâĪ©": 923,
      "Ġresults": 924,
      "Ġanal": 925,
      "are": 926,
      "Ġabove": 927,
      "Ġpartic": 928,
      "Ġsee": 929,
      "Ġmore": 930,
      "ould": 931,
      "tial": 932,
      "Ġsequ": 933,
      "Ġconst": 934,
      "Ġdat": 935,
      "ign": 936,
      "Ġexists": 937,
      "10": 938,
      "âĪŀ": 939,
      "hod": 940,
      "geb": 941,
      "xt": 942,
      "âĢ¢": 943,
      "plic": 944,
      "ĠSection": 945,
      "ide": 946,
      "ĠÌ¸": 947,
      "Ġrepresent": 948,
      "Ġcontain": 949,
      "ĠÎ¦": 950,
      "age": 951,
      "ĠCon": 952,
      "ize": 953,
      "mm": 954,
      "ted": 955,
      "Ġsince": 956,
      "Ġparamet": 957,
      "iqu": 958,
      "ĠÎĽ": 959,
      "Ġman": 960,
      "ulti": 961,
      "Ġmethod": 962,
      "ip": 963,
      "out": 964,
      "ĠâĬĤ": 965,
      "andom": 966,
      "Ġbut": 967,
      "Ġoptim": 968,
      "ke": 969,
      "Ġpoly": 970,
      "ðĿĳ": 971,
      "ever": 972,
      "Ġcur": 973,
      "Ġï£´": 974,
      "Ïģ": 975,
      "Ġ;": 976,
      "Ġlar": 977,
      "ian": 978,
      "Ġdistribution": 979,
      "nt": 980,
      "ized": 981,
      "Ġdefine": 982,
      "vari": 983,
      "Ġâĸ": 984,
      "Ġmay": 985,
      "Ġsection": 986,
      "Î´": 987,
      "Ġdenote": 988,
      "ival": 989,
      "ilar": 990,
      "Ġlinear": 991,
      "Ġrandom": 992,
      "ĠÎº": 993,
      "Î¾": 994,
      "ann": 995,
      "11": 996,
      "est": 997,
      "Ġtyp": 998,
      "âĨĴ": 999,
      "Ġfunctions": 1000,
      "Ġstate": 1001,
      "Ġdep": 1002,
      "sitive": 1003,
      "Ġmulti": 1004,
      "tical": 1005,
      "Ġsec": 1006,
      "ower": 1007,
      "âī": 1008,
      "Ġprobability": 1009,
      "Ġpoints": 1010,
      "ected": 1011,
      "equ": 1012,
      "Ġoperator": 1013,
      "âĦ¦": 1014,
      "Ġinto": 1015,
      "sed": 1016,
      "Ġsmall": 1017,
      "ĠThus": 1018,
      "rodu": 1019,
      "Ġ))": 1020,
      "Ġpr": 1021,
      "bit": 1022,
      "Ġconver": 1023,
      "olog": 1024,
      "Ġprove": 1025,
      "Ġstruct": 1026,
      "pt": 1027,
      "Ġused": 1028,
      "ory": 1029,
      "Ġpat": 1030,
      "air": 1031,
      "low": 1032,
      "Ġminim": 1033,
      "tinu": 1034,
      "ĠTo": 1035,
      "Ġmax": 1036,
      "ors": 1037,
      "12": 1038,
      "vel": 1039,
      "ĠSu": 1040,
      "Ġdefinition": 1041,
      "Ġparticular": 1042,
      "Ġdesc": 1043,
      "Ġdata": 1044,
      "Ġtak": 1045,
      "int": 1046,
      "Ġcho": 1047,
      "Ġboth": 1048,
      "ating": 1049,
      "ĠDefin": 1050,
      "Ġnorm": 1051,
      "Ġcol": 1052,
      "Ġimp": 1053,
      "Ġrem": 1054,
      "Ġprocess": 1055,
      ")|": 1056,
      "ero": 1057,
      "Ġnow": 1058,
      "Ġconstant": 1059,
      "uction": 1060,
      "Ġsupp": 1061,
      "Ġknow": 1062,
      "Ġanaly": 1063,
      "Ïī": 1064,
      "ĠNote": 1065,
      "Ġfix": 1066,
      "Ġconn": 1067,
      "gebra": 1068,
      "Îµ": 1069,
      "Ġcomplex": 1070,
      "omial": 1071,
      "Ġequival": 1072,
      "Ġmeasure": 1073,
      "Ġdeg": 1074,
      "over": 1075,
      "Ġbec": 1076,
      "ĠÄ": 1077,
      "Ġinc": 1078,
      "Ġtri": 1079,
      "Ġtheorem": 1080,
      "ication": 1081,
      "Ġformul": 1082,
      "ures": 1083,
      "etric": 1084,
      "Ġimpl": 1085,
      "Ġem": 1086,
      "Ġnod": 1087,
      "Ġwell": 1088,
      "Ġpap": 1089,
      "sible": 1090,
      "ail": 1091,
      "ĠâĪª": 1092,
      "ix": 1093,
      "ual": 1094,
      "par": 1095,
      "ving": 1096,
      "epend": 1097,
      "Ġdire": 1098,
      "Ġpos": 1099,
      "Ġwork": 1100,
      "Ġassume": 1101,
      "Ġsequence": 1102,
      "ĠAl": 1103,
      "omorphism": 1104,
      "âĢ²": 1105,
      "Ġcorresponding": 1106,
      "clud": 1107,
      "Ã©": 1108,
      "Ġdifferent": 1109,
      "Ġ10": 1110,
      "Ġequation": 1111,
      "Ġobser": 1112,
      "Ġvalue": 1113,
      "sing": 1114,
      "ĠâĪĩ": 1115,
      "Ġholds": 1116,
      "aces": 1117,
      "Ġimplies": 1118,
      "Ġcall": 1119,
      "Ġprodu": 1120,
      "Ġpositive": 1121,
      "Ġder": 1122,
      "Ġsecond": 1123,
      "ĠâŁ©": 1124,
      "Ġneed": 1125,
      "owever": 1126,
      "Ġmaxim": 1127,
      "ne": 1128,
      "Ġcomm": 1129,
      "Ïķ": 1130,
      "Ġsing": 1131,
      "ob": 1132,
      "Ġsur": 1133,
      "Ġpaper": 1134,
      "formation": 1135,
      "âĦĵ": 1136,
      "ile": 1137,
      "ten": 1138,
      "ject": 1139,
      "Ġup": 1140,
      "Ġag": 1141,
      "Ġdepend": 1142,
      "Ġreal": 1143,
      "put": 1144,
      "Ġ9": 1145,
      "Ġspec": 1146,
      "Ġ\\": 1147,
      "see": 1148,
      "ĠÏĩ": 1149,
      "Ġcontinu": 1150,
      "ii": 1151,
      "Ġij": 1152,
      "ĠâĪ¼": 1153,
      "Ġapproxim": 1154,
      "Ġdoes": 1155,
      "Ġexample": 1156,
      "Ġrequ": 1157,
      "Î·": 1158,
      "Ġwas": 1159,
      "urther": 1160,
      "Ġer": 1161,
      "als": 1162,
      "tex": 1163,
      "ique": 1164,
      "Ġpair": 1165,
      "tices": 1166,
      "Ġdimension": 1167,
      "ved": 1168,
      "old": 1169,
      "ases": 1170,
      "ĠâĬĨ": 1171,
      "Ġappl": 1172,
      "Ġmost": 1173,
      "13": 1174,
      "Ġtheir": 1175,
      "ause": 1176,
      "ĠMore": 1177,
      "Ġchar": 1178,
      "Ġredu": 1179,
      "Ġinequ": 1180,
      "nomial": 1181,
      "ive": 1182,
      "ampl": 1183,
      "Ġbounded": 1184,
      "eld": 1185,
      "ice": 1186,
      "ependent": 1187,
      "Ġâĸ¡": 1188,
      "ĥĹ": 1189,
      "Ġpath": 1190,
      "Ġstud": 1191,
      "Ġterms": 1192,
      "ood": 1193,
      "Ġcompon": 1194,
      "ectively": 1195,
      "Ġsign": 1196,
      ")(": 1197,
      "Ġâĭ": 1198,
      "Ġet": 1199,
      "Ġdeterm": 1200,
      "Ġstructure": 1201,
      "ĠTherefore": 1202,
      "wise": 1203,
      "ger": 1204,
      "Ġpresent": 1205,
      "Ġ(âĪĴ": 1206,
      "Ġlarge": 1207,
      "Ġpolynomial": 1208,
      "ens": 1209,
      "nce": 1210,
      "Ġstep": 1211,
      "Ġinst": 1212,
      "etwork": 1213,
      "Ġacc": 1214,
      "Ġclos": 1215,
      "Ġidenti": 1216,
      "Ġget": 1217,
      "ĠðĿĳ": 1218,
      "Ġintrodu": 1219,
      "Ġsatisfy": 1220,
      "hed": 1221,
      "Ġref": 1222,
      "ĠDefinition": 1223,
      "Ġintegr": 1224,
      "Ġhom": 1225,
      "oci": 1226,
      "ĠHence": 1227,
      "gy": 1228,
      "Ïµ": 1229,
      "Ġarg": 1230,
      "ĠÎ¶": 1231,
      "sum": 1232,
      "Î½": 1233,
      "Ġvertices": 1234,
      "ex": 1235,
      "ry": 1236,
      "Ġobtained": 1237,
      "ables": 1238,
      "ÏĪ": 1239,
      "ough": 1240,
      "ily": 1241,
      "Ġexist": 1242,
      "âĪĨ": 1243,
      "20": 1244,
      "Ġwr": 1245,
      "14": 1246,
      "Ġvertex": 1247,
      "Ġvalues": 1248,
      "Ġlat": 1249,
      "ĠâĢ²âĢ²": 1250,
      "Ġsimilar": 1251,
      "Ġdenot": 1252,
      "Ġran": 1253,
      "Ġboundary": 1254,
      "loc": 1255,
      "ks": 1256,
      "eng": 1257,
      "15": 1258,
      "Ġnetwork": 1259,
      "Ġ12": 1260,
      "not": 1261,
      "Ġdom": 1262,
      "Ġalgebra": 1263,
      "its": 1264,
      "Ġassumption": 1265,
      "sid": 1266,
      "Ġconditions": 1267,
      "Ġlocal": 1268,
      "Ġdia": 1269,
      "Ġfind": 1270,
      "Ġent": 1271,
      "ays": 1272,
      "Ġfixed": 1273,
      "ered": 1274,
      "action": 1275,
      "acter": 1276,
      "gram": 1277,
      "ech": 1278,
      "ell": 1279,
      "Ġassoci": 1280,
      "me": 1281,
      "Ġerr": 1282,
      "rough": 1283,
      "vious": 1284,
      ")-": 1285,
      "Ġtype": 1286,
      "Ġperform": 1287,
      "Ġbeen": 1288,
      "ft": 1289,
      "ature": 1290,
      "eed": 1291,
      "istic": 1292,
      "ÏĨ": 1293,
      "Ġend": 1294,
      "Ġzero": 1295,
      "aus": 1296,
      "ĠNow": 1297,
      "Ġindependent": 1298,
      "Ġrespectively": 1299,
      "Ġdescrib": 1300,
      "valu": 1301,
      "Ġleast": 1302,
      "ational": 1303,
      "Ġsatisfies": 1304,
      "ist": 1305,
      "Ġá": 1306,
      "ollary": 1307,
      "Ġfr": 1308,
      "ern": 1309,
      "Îĵ": 1310,
      "Ġedge": 1311,
      "âī¤": 1312,
      "Ġrespect": 1313,
      "ov": 1314,
      "Ġderiv": 1315,
      "ential": 1316,
      "ically": 1317,
      "Ġcharacter": 1318,
      "16": 1319,
      "Ġthey": 1320,
      "Ġinf": 1321,
      "Ġsymm": 1322,
      "Ġeig": 1323,
      "tice": 1324,
      "hen": 1325,
      "ength": 1326,
      "und": 1327,
      "ull": 1328,
      "ĠHowever": 1329,
      "yn": 1330,
      "Ġâ©": 1331,
      "cy": 1332,
      "Ġinequality": 1333,
      "Ġoptimal": 1334,
      "Ġsize": 1335,
      "ĠâĨ": 1336,
      "Ġcontr": 1337,
      "..": 1338,
      "Ġsets": 1339,
      "vers": 1340,
      "ĠSupp": 1341,
      "ym": 1342,
      "Ġge": 1343,
      "ness": 1344,
      "ĠRem": 1345,
      "con": 1346,
      "âĪĩ": 1347,
      "Ġexact": 1348,
      "Ġequivalent": 1349,
      "ĠÂ±": 1350,
      "Ġtop": 1351,
      "tr": 1352,
      "vex": 1353,
      "iform": 1354,
      "âĪĤ": 1355,
      "here": 1356,
      "hes": 1357,
      "bin": 1358,
      "Ġmust": 1359,
      "inc": 1360,
      "Ġmain": 1361,
      "ish": 1362,
      "Ġsum": 1363,
      "Ġstand": 1364,
      "Ġeigen": 1365,
      "Ġcontinuous": 1366,
      "ib": 1367,
      "Ġtheory": 1368,
      "19": 1369,
      "ĠâĪ§": 1370,
      "Ġini": 1371,
      "Ġsimple": 1372,
      "Ġaut": 1373,
      "ag": 1374,
      "ĠâĪĢ": 1375,
      "Ġthus": 1376,
      "Ġright": 1377,
      "Ġsubset": 1378,
      "ooth": 1379,
      "Ġph": 1380,
      "ĠÎ¨": 1381,
      "atur": 1382,
      "Ġaf": 1383,
      "Ġsup": 1384,
      "ĠAssum": 1385,
      "Ġcou": 1386,
      "}.": 1387,
      "Ġconsis": 1388,
      "Ġexpres": 1389,
      "ĠCor": 1390,
      "17": 1391,
      "Ġnew": 1392,
      "Ġdetermin": 1393,
      "Ġhy": 1394,
      "iction": 1395,
      "Ġshown": 1396,
      "sequ": 1397,
      "Ġcod": 1398,
      "ule": 1399,
      "gence": 1400,
      "Ġedges": 1401,
      "ĠRemark": 1402,
      "ology": 1403,
      "Ġpossible": 1404,
      "Ġpropo": 1405,
      "Ġvariables": 1406,
      "Ġconstrain": 1407,
      "ĠMoreover": 1408,
      "Ġproperties": 1409,
      "Ġelements": 1410,
      "Ġmon": 1411,
      "Ġunique": 1412,
      "ĠâĥĹ": 1413,
      "Ġbecause": 1414,
      "ĠSuppose": 1415,
      "Ġproperty": 1416,
      "lying": 1417,
      "Ġlength": 1418,
      "Ġeas": 1419,
      "Ġeven": 1420,
      "ĠÅ": 1421,
      "Ġlimit": 1422,
      "Ġthree": 1423,
      "Ġaction": 1424,
      "Ġhand": 1425,
      "Ġinfin": 1426,
      "ful": 1427,
      "variant": 1428,
      "Ġ20": 1429,
      "Ġam": 1430,
      "imensional": 1431,
      "ning": 1432,
      "Ġincre": 1433,
      "round": 1434,
      "ike": 1435,
      "get": 1436,
      "Ġindu": 1437,
      "ĠEx": 1438,
      "Ġdegree": 1439,
      "Ġwould": 1440,
      "ement": 1441,
      "Ġgives": 1442,
      "Ġshows": 1443,
      "Ġdirect": 1444,
      "Ġproj": 1445,
      "Ġpart": 1446,
      "ĠAn": 1447,
      "Ġcalled": 1448,
      "Ġparameter": 1449,
      "onal": 1450,
      "Ġlin": 1451,
      "Ġfield": 1452,
      "ĠÎł": 1453,
      "Ġsche": 1454,
      "elds": 1455,
      "ĠâĭĨ": 1456,
      "Ġcontro": 1457,
      "tern": 1458,
      "oint": 1459,
      "Ġuniform": 1460,
      "Ġfe": 1461,
      "18": 1462,
      "olic": 1463,
      "Ġassociated": 1464,
      "Ġcy": 1465,
      "Ġsem": 1466,
      "},": 1467,
      "cc": 1468,
      "ear": 1469,
      "Ġerror": 1470,
      "Ġdiscus": 1471,
      "red": 1472,
      "ding": 1473,
      "line": 1474,
      "ral": 1475,
      "Ġbased": 1476,
      "Ġinitial": 1477,
      "Ġscal": 1478,
      "dimensional": 1479,
      "ible": 1480,
      "ither": 1481,
      "Ġsmooth": 1482,
      "ck": 1483,
      "art": 1484,
      "tal": 1485,
      "Ġwhile": 1486,
      "ub": 1487,
      "Ġclosed": 1488,
      "Ġhence": 1489,
      "ities": 1490,
      "Ġstandard": 1491,
      "Ġrequire": 1492,
      "Ġrestr": 1493,
      "Ġequal": 1494,
      "Ġhyper": 1495,
      "ĠCorollary": 1496,
      "Ġstates": 1497,
      "Ġway": 1498,
      "Ġinformation": 1499,
      "Ġproduct": 1500,
      "efficient": 1501,
      "Ġleft": 1502,
      "Ġformula": 1503,
      "ĠÎĺ": 1504,
      "Ġrate": 1505,
      "ynam": 1506,
      "Ġallow": 1507,
      "Ġthrough": 1508,
      "Ġargum": 1509,
      "antum": 1510,
      "one": 1511,
      "Ġï£¬": 1512,
      "Ġapproach": 1513,
      "lear": 1514,
      "Ġfam": 1515,
      "Ġnormal": 1516,
      "Ġ11": 1517,
      "Ġextend": 1518,
      "Ġregular": 1519,
      "Ġnatur": 1520,
      "Ġmany": 1521,
      "ulation": 1522,
      "Ġmetric": 1523,
      "Ġconstruction": 1524,
      "mod": 1525,
      "Ġconstruct": 1526,
      "ven": 1527,
      "ics": 1528,
      "Ġconvex": 1529,
      "ides": 1530,
      "Ġï£·": 1531,
      "Ġlower": 1532,
      "Ġconnected": 1533,
      "urn": 1534,
      "Ġaddition": 1535,
      "Ġremain": 1536,
      "Ġser": 1537,
      "Ġcontains": 1538,
      "ighb": 1539,
      "ategor": 1540,
      "Ġeff": 1541,
      "Ġcoefficient": 1542,
      "Ġsurf": 1543,
      "inal": 1544,
      "anti": 1545,
      "otic": 1546,
      "usion": 1547,
      "Ġcomplete": 1548,
      "rop": 1549,
      "ants": 1550,
      "amples": 1551,
      "ments": 1552,
      "ects": 1553,
      "gn": 1554,
      "ane": 1555,
      "Ġide": 1556,
      "Ġsetting": 1557,
      "Ġcompact": 1558,
      "Ġdx": 1559,
      "pper": 1560,
      "Ġequations": 1561,
      "Ġcases": 1562,
      "tition": 1563,
      "ange": 1564,
      "Ġmean": 1565,
      "val": 1566,
      "ÃĹ": 1567,
      "com": 1568,
      "the": 1569,
      "ĠFin": 1570,
      "Ġknown": 1571,
      "mma": 1572,
      "iew": 1573,
      "Ġsolutions": 1574,
      "Ġsufficient": 1575,
      "Ġunit": 1576,
      "vial": 1577,
      "Ġmo": 1578,
      "Ġwhose": 1579,
      "Ġanalysis": 1580,
      "ordin": 1581,
      "rices": 1582,
      "Ġlemma": 1583,
      "vol": 1584,
      "Ġquantum": 1585,
      "Ġcorre": 1586,
      "Ġyi": 1587,
      "Ġestimate": 1588,
      "Ġiter": 1589,
      "ward": 1590,
      "Ġstudy": 1591,
      "Ġprevious": 1592,
      "tiv": 1593,
      "ros": 1594,
      "Ġarbit": 1595,
      "Ġest": 1596,
      "aim": 1597,
      "annel": 1598,
      "Ġ)(": 1599,
      "Ġconf": 1600,
      "Ġlo": 1601,
      "plicit": 1602,
      "ĠConsider": 1603,
      "ympt": 1604,
      "Ġnote": 1605,
      "Ġsingle": 1606,
      "Ġarbitr": 1607,
      "alc": 1608,
      "Ġ||": 1609,
      "verse": 1610,
      "bed": 1611,
      "Ġima": 1612,
      "clude": 1613,
      "gative": 1614,
      "Ġwor": 1615,
      "row": 1616,
      "ĠâĬķ": 1617,
      "Ġdecom": 1618,
      "Ġconvergence": 1619,
      "Ġâī¡": 1620,
      "omorphic": 1621,
      "Ġeither": 1622,
      "Ġnode": 1623,
      "Ġdomain": 1624,
      "Ġneighb": 1625,
      "ymptotic": 1626,
      "ifold": 1627,
      "Ġsen": 1628,
      "Ġpres": 1629,
      "Ġcent": 1630,
      "for": 1631,
      "Ġparameters": 1632,
      "ĠApp": 1633,
      "Ġprec": 1634,
      "Ġfl": 1635,
      "ĠHere": 1636,
      "Ġweight": 1637,
      "ier": 1638,
      "ha": 1639,
      "etry": 1640,
      "Ġmodels": 1641,
      "sp": 1642,
      "Ġrank": 1643,
      "Ġopen": 1644,
      "ĠOn": 1645,
      "Ġlead": 1646,
      "Ġsl": 1647,
      "Ġstrong": 1648,
      "Ġdynam": 1649,
      "Ġgraphs": 1650,
      "Ġgive": 1651,
      "Ġcombin": 1652,
      "cle": 1653,
      "Ġwrite": 1654,
      "Ġupper": 1655,
      "âŁ¨": 1656,
      "ings": 1657,
      "ĠFrom": 1658,
      "Ġrepresentation": 1659,
      "])": 1660,
      "Ġweak": 1661,
      "ner": 1662,
      "The": 1663,
      "Ġconc": 1664,
      "Ġpower": 1665,
      "Ġsystems": 1666,
      "Ġlevel": 1667,
      "iven": 1668,
      "echn": 1669,
      "ĠâĮ": 1670,
      "Ġtree": 1671,
      "lection": 1672,
      "Ġdistance": 1673,
      "Ġchannel": 1674,
      "asing": 1675,
      "ific": 1676,
      "Ġorig": 1677,
      "Ġdiv": 1678,
      "Ġnodes": 1679,
      "Ġsay": 1680,
      "Ġsupport": 1681,
      "Ġexpl": 1682,
      "Î£": 1683,
      "sive": 1684,
      "Ġhere": 1685,
      "Ġener": 1686,
      "ĠRe": 1687,
      "Ġspect": 1688,
      "to": 1689,
      "ecess": 1690,
      "Ġfactor": 1691,
      "Ġbelow": 1692,
      "Ġdiscre": 1693,
      "Ġadd": 1694,
      "Ġcoordin": 1695,
      "Ġsym": 1696,
      "ĠFurther": 1697,
      "Ġlast": 1698,
      "Ġinters": 1699,
      "Ġgenerated": 1700,
      "abel": 1701,
      "Ġvariable": 1702,
      "ually": 1703,
      "Ġquanti": 1704,
      "ording": 1705,
      "Ġcalc": 1706,
      ")/": 1707,
      "ertain": 1708,
      "Ġasymptotic": 1709,
      "Ġgl": 1710,
      "]).": 1711,
      "sity": 1712,
      "ĠCom": 1713,
      "Ġgo": 1714,
      "Ġmethods": 1715,
      "Ġâ©½": 1716,
      "ately": 1717,
      "Îº": 1718,
      "Ġhow": 1719,
      "iod": 1720,
      "ton": 1721,
      "chie": 1722,
      "Ġbasis": 1723,
      "Ġbloc": 1724,
      "Ġroot": 1725,
      "ĠGiven": 1726,
      "Ġmeans": 1727,
      "Ġnatural": 1728,
      "Ġmatrices": 1729,
      "Ġmaps": 1730,
      "ĠFinally": 1731,
      "Ġproposed": 1732,
      "Ġidentif": 1733,
      "ĠâĬ¤": 1734,
      "Ġabout": 1735,
      "Ġtrue": 1736,
      "ĠÂ´": 1737,
      "ĠNe": 1738,
      "Ġhigh": 1739,
      "hood": 1740,
      "Ġachie": 1741,
      "ĠUsing": 1742,
      "Ġeigenvalu": 1743,
      "ind": 1744,
      "Ġenergy": 1745,
      "ug": 1746,
      "Ġcos": 1747,
      "Ġtherefore": 1748,
      "ently": 1749,
      "Ġcost": 1750,
      "Ġproblems": 1751,
      "Ġgeom": 1752,
      "Ġthem": 1753,
      "Ġpartition": 1754,
      "ĠË": 1755,
      "jective": 1756,
      "ified": 1757,
      "Ġla": 1758,
      "ĠRec": 1759,
      "Ġbounds": 1760,
      "Ġcomponent": 1761,
      "Ġcurve": 1762,
      "Ġtechn": 1763,
      "lect": 1764,
      "Ġ)|": 1765,
      "ĠOur": 1766,
      "Ġindex": 1767,
      "Ġchoice": 1768,
      "Ġwithout": 1769,
      "Î¶": 1770,
      "Ġrelation": 1771,
      "Ġvery": 1772,
      "Ġspaces": 1773,
      "Ġexpon": 1774,
      "Ġgrad": 1775,
      "Ġche": 1776,
      "Ġnext": 1777,
      "22": 1778,
      "Ġnecess": 1779,
      "Ġ'": 1780,
      "ased": 1781,
      "ÎĽ": 1782,
      "Ġobserv": 1783,
      "Ġcontrol": 1784,
      "Ġprim": 1785,
      "Ġcategor": 1786,
      "Ġapproximation": 1787,
      "Ġinfinite": 1788,
      "Ġfamily": 1789,
      "sian": 1790,
      "Ġsin": 1791,
      "Ġalong": 1792,
      "Ġtake": 1793,
      "ene": 1794,
      "ĠâĪħ": 1795,
      "Ġdenotes": 1796,
      "Ġside": 1797,
      "ave": 1798,
      "group": 1799,
      "ĠSo": 1800,
      "Ġregion": 1801,
      "Ġtotal": 1802,
      "Ġsymmetric": 1803,
      "mit": 1804,
      "Ġfurther": 1805,
      ")]": 1806,
      "Ġstrate": 1807,
      "Ġâĩ": 1808,
      "ute": 1809,
      "log": 1810,
      "oss": 1811,
      "Ġtre": 1812,
      "ify": 1813,
      "ĠâĪĴâĨĴ": 1814,
      "Ġdetail": 1815,
      "joint": 1816,
      "iter": 1817,
      "ĠCh": 1818,
      "Ġnotation": 1819,
      "Ġcir": 1820,
      "Ġcompute": 1821,
      "more": 1822,
      "ĠSim": 1823,
      "Ġbel": 1824,
      "Ġcomponents": 1825,
      "Ġembed": 1826,
      "Ġindic": 1827,
      "Ġdue": 1828,
      "most": 1829,
      "ences": 1830,
      "Ġinvariant": 1831,
      "Ġgu": 1832,
      "pping": 1833,
      "Ġstat": 1834,
      "Ġsatisfying": 1835,
      "ĠII": 1836,
      "ĠSp": 1837,
      "ĠFirst": 1838,
      "Î¦": 1839,
      "man": 1840,
      "Ġextension": 1841,
      "Ġalgorithms": 1842,
      "Ġimport": 1843,
      "led": 1844,
      "ision": 1845,
      "ules": 1846,
      "Ġthose": 1847,
      "Ġscheme": 1848,
      "Ġapply": 1849,
      "Ġnumer": 1850,
      "erence": 1851,
      "Ġread": 1852,
      "Ġafter": 1853,
      "ets": 1854,
      "Ġtransform": 1855,
      "Ġpri": 1856,
      "Ġarbitrary": 1857,
      "21": 1858,
      "Ġinteger": 1859,
      "ency": 1860,
      "arch": 1861,
      "Ġargument": 1862,
      "ĠWhen": 1863,
      "Ġfree": 1864,
      "ĠInd": 1865,
      "Ġtriang": 1866,
      "Ġrepl": 1867,
      "ead": 1868,
      "ĠĠ": 1869,
      "Ġexpression": 1870,
      "verage": 1871,
      "ĠâĢł": 1872,
      "Ġdt": 1873,
      "ĠâĬ¥": 1874,
      "Ġshould": 1875,
      "Ġgroups": 1876,
      "Ġocc": 1877,
      "Ġsepar": 1878,
      "Ġbeha": 1879,
      "Ġappear": 1880,
      "Ġdensity": 1881,
      "up": 1882,
      "mon": 1883,
      "Ġdiagram": 1884,
      "ernel": 1885,
      "edi": 1886,
      "Ġclassical": 1887,
      "Ġinput": 1888,
      "Ġoperators": 1889,
      "Ġbeing": 1890,
      "plit": 1891,
      "Ġlear": 1892,
      "Ġexplicit": 1893,
      "Ġconsid": 1894,
      "Ġspecial": 1895,
      "ax": 1896,
      "Ġï£¯": 1897,
      "Ġclaim": 1898,
      "Ġtran": 1899,
      "ys": 1900,
      "Ġsurface": 1901,
      "abl": 1902,
      "Ġproved": 1903,
      "Ġbi": 1904,
      "Ġcap": 1905,
      "Ġ13": 1906,
      "ĠAlgorithm": 1907,
      "Ġcannot": 1908,
      "Ġbr": 1909,
      "Ġke": 1910,
      "Ġagain": 1911,
      "Ġloss": 1912,
      "inary": 1913,
      "Ġsqu": 1914,
      "Ġconsidered": 1915,
      "Ġisomorphism": 1916,
      "ided": 1917,
      "Ġï£º": 1918,
      "Ġclear": 1919,
      "Ġmaximum": 1920,
      "ĠAssume": 1921,
      "Ġdecomposition": 1922,
      "mis": 1923,
      "Ġdescribed": 1924,
      "Ġvia": 1925,
      "ĠEq": 1926,
      "Ġlabel": 1927,
      "Ġ((": 1928,
      "23": 1929,
      "orphism": 1930,
      "âĨĴâĪŀ": 1931,
      "Ġ19": 1932,
      "ries": 1933,
      "Ġyields": 1934,
      ")âĪ¥": 1935,
      ")).": 1936,
      "ways": 1937,
      "25": 1938,
      "Ġperformance": 1939,
      "Ġprecise": 1940,
      "Ġcoefficients": 1941,
      "Ġinvol": 1942,
      "perim": 1943,
      "Ġinstance": 1944,
      "ĠThese": 1945,
      "Ġwere": 1946,
      "ĠGaus": 1947,
      "cept": 1948,
      "clusion": 1949,
      "24": 1950,
      "Ġchoose": 1951,
      "Ġenough": 1952,
      "Ġexactly": 1953,
      "Ġhold": 1954,
      "oid": 1955,
      "astic": 1956,
      "Ġperiod": 1957,
      "Ġversion": 1958,
      "Ġflow": 1959,
      "af": 1960,
      "âī¥": 1961,
      "Ġsense": 1962,
      "Ġdi": 1963,
      "Ġdirection": 1964,
      "Ġlike": 1965,
      "Ġpred": 1966,
      "Ġalways": 1967,
      "Ġir": 1968,
      "Ġrun": 1969,
      "Ġrelative": 1970,
      "uting": 1971,
      "Ġdiag": 1972,
      "Ġav": 1973,
      "Ġinterval": 1974,
      "velop": 1975,
      "Ġintegral": 1976,
      "Ġkernel": 1977,
      "eg": 1978,
      "Ġprojection": 1979,
      "ole": 1980,
      "och": 1981,
      "uch": 1982,
      "Ġframe": 1983,
      "ĠâĪ¨": 1984,
      "Ġstar": 1985,
      "ons": 1986,
      "Ġcalcul": 1987,
      "ĠOne": 1988,
      "Ġ..": 1989,
      "less": 1990,
      "Ġdenoted": 1991,
      "Ġcheck": 1992,
      "rict": 1993,
      "Ġestabl": 1994,
      "ĠðĿ": 1995,
      "ior": 1996,
      "acy": 1997,
      "ators": 1998,
      "Ġvectors": 1999,
      "til": 2000,
      "umn": 2001,
      "ult": 2002,
      "Ġ16": 2003,
      "linear": 2004,
      "read": 2005,
      "ok": 2006,
      "Ġinterp": 2007,
      "Ġcr": 2008,
      "Ġview": 2009,
      "Ġrelations": 2010,
      "Ġhyp": 2011,
      "Ġmake": 2012,
      "Ġconclude": 2013,
      "Ġexistence": 2014,
      "endix": 2015,
      "uc": 2016,
      "sc": 2017,
      "Ġcertain": 2018,
      "ĠWith": 2019,
      "Ġln": 2020,
      "Ġ#": 2021,
      "emp": 2022,
      "ĠRecall": 2023,
      "Ġstrict": 2024,
      "Ġsubgroup": 2025,
      "Ġimportant": 2026,
      "Ġperm": 2027,
      "Ġtra": 2028,
      "We": 2029,
      "Ġsuper": 2030,
      "Ġbund": 2031,
      "ĠExample": 2032,
      "ared": 2033,
      "estion": 2034,
      "Ġtimes": 2035,
      "izing": 2036,
      "Ġrow": 2037,
      "Ġhig": 2038,
      "ĠFurthermore": 2039,
      "Ġminimal": 2040,
      "Ġprovide": 2041,
      "Ġimm": 2042,
      "ret": 2043,
      "Ġbehavi": 2044,
      "Ġevalu": 2045,
      "osen": 2046,
      "Ġdim": 2047,
      "till": 2048,
      "ĠSt": 2049,
      "Ġcomplexity": 2050,
      "Ġquad": 2051,
      "Ġcomputation": 2052,
      "Ġorth": 2053,
      "Ġ([": 2054,
      "Ġcolumn": 2055,
      "Ġdiscrete": 2056,
      "Ġintroduce": 2057,
      "âĮ": 2058,
      "Ġoccur": 2059,
      "ante": 2060,
      "sequence": 2061,
      "Ġglob": 2062,
      "ental": 2063,
      "Ġrelated": 2064,
      "ensor": 2065,
      "ological": 2066,
      "itten": 2067,
      "Ġtor": 2068,
      "Ġdifferential": 2069,
      "Ġfound": 2070,
      "Ġimage": 2071,
      "Ġmaximal": 2072,
      "Ġ`": 2073,
      "Ġrefer": 2074,
      "Ġpot": 2075,
      "olution": 2076,
      "Ġ...,": 2077,
      "Ġatt": 2078,
      "pr": 2079,
      "Ġproced": 2080,
      "graph": 2081,
      "sif": 2082,
      "sign": 2083,
      "Ġchange": 2084,
      "Ġmanifold": 2085,
      "Ġlong": 2086,
      "ĠSimilar": 2087,
      "ility": 2088,
      "Ġï£«": 2089,
      "Ġï£Ń": 2090,
      "Ġcontrad": 2091,
      "otop": 2092,
      "Ġï£¸": 2093,
      "Ġï£¶": 2094,
      "ĠTable": 2095,
      "uted": 2096,
      "(âĪĴ": 2097,
      "Ġrad": 2098,
      "rest": 2099,
      "ĠâĻ": 2100,
      "Ġ14": 2101,
      "Ġchain": 2102,
      "Ġdual": 2103,
      "Ġsingular": 2104,
      "itive": 2105,
      "ON": 2106,
      "Ġmorphism": 2107,
      "Ġclasses": 2108,
      "ict": 2109,
      "Ġcould": 2110,
      "Ġaccording": 2111,
      "Ġ[?": 2112,
      "Ġblock": 2113,
      "Ġinduced": 2114,
      "Ġidentity": 2115,
      "Ġchosen": 2116,
      "ching": 2117,
      "Ġdevelop": 2118,
      "ĠTr": 2119,
      "Ġval": 2120,
      "arily": 2121,
      "Ġmultiplic": 2122,
      "ĠGaussian": 2123,
      "tri": 2124,
      "Ġneighbor": 2125,
      "son": 2126,
      "hom": 2127,
      "ired": 2128,
      "Ġnumbers": 2129,
      "rient": 2130,
      "Ġimpro": 2131,
      "ply": 2132,
      "Ġclust": 2133,
      "pos": 2134,
      "other": 2135,
      "ĠâĨĲ": 2136,
      "Ġdesign": 2137,
      "Ġnotion": 2138,
      "Ġanalog": 2139,
      "Ġemp": 2140,
      "ĠIndeed": 2141,
      "av": 2142,
      "duc": 2143,
      "igur": 2144,
      "tit": 2145,
      "Ġcell": 2146,
      "Ġestimates": 2147,
      "Ġbelong": 2148,
      "Ġreas": 2149,
      "Ġexperim": 2150,
      "ron": 2151,
      "Ġuniformly": 2152,
      "odes": 2153,
      "Ġback": 2154,
      "Ġinterest": 2155,
      "Ġcode": 2156,
      "Ïĩ": 2157,
      "Ġclose": 2158,
      "Ġguar": 2159,
      "Ġorient": 2160,
      "Ġalmost": 2161,
      ");": 2162,
      "ications": 2163,
      "izes": 2164,
      "Ġstill": 2165,
      "Ġstable": 2166,
      "Ġtrivial": 2167,
      "Ġaverage": 2168,
      "Ġjust": 2169,
      "Ġfull": 2170,
      "Ġcorresponds": 2171,
      "time": 2172,
      "Ġfour": 2173,
      "entially": 2174,
      "Ġgre": 2175,
      "side": 2176,
      "Ġeasy": 2177,
      "Ġprinc": 2178,
      "Ġequivalence": 2179,
      "ource": 2180,
      "Ġprogram": 2181,
      "Ġintroduced": 2182,
      "Ġcover": 2183,
      "Ġtest": 2184,
      "Ġquestion": 2185,
      "Ġsimpl": 2186,
      "Ġhypot": 2187,
      "Ġcurves": 2188,
      "assif": 2189,
      "Ġrecall": 2190,
      "Ġinclud": 2191,
      "Ġbefore": 2192,
      "ade": 2193,
      "dd": 2194,
      "Ġill": 2195,
      "Ġstatement": 2196,
      "Ġplay": 2197,
      "gether": 2198,
      "ivers": 2199,
      "Ġtogether": 2200,
      "Ġguarante": 2201,
      "26": 2202,
      "Ġrece": 2203,
      "sel": 2204,
      "Ġturn": 2205,
      "ustr": 2206,
      "Ġminimum": 2207,
      "):": 2208,
      "âĬ": 2209,
      "Ġstrategy": 2210,
      "Ġexamples": 2211,
      "Ġcategory": 2212,
      "Ġposition": 2213,
      "Ġimple": 2214,
      "rent": 2215,
      "Ġconstraints": 2216,
      "ritical": 2217,
      "Ġotherwise": 2218,
      "Ġirre": 2219,
      "Ġcoun": 2220,
      "Ġsubsp": 2221,
      "know": 2222,
      "Ġmom": 2223,
      "Ġoptimization": 2224,
      "sib": 2225,
      "zero": 2226,
      "Ġcros": 2227,
      "tically": 2228,
      "ick": 2229,
      "Ġnumerical": 2230,
      "Ġsample": 2231,
      "ĠCl": 2232,
      "Ġvan": 2233,
      "ĠNo": 2234,
      "Ġ(âĢ¢": 2235,
      "ount": 2236,
      "Ġconfigur": 2237,
      "Ġsufficiently": 2238,
      "lation": 2239,
      "ee": 2240,
      "Ġphase": 2241,
      "ĠPo": 2242,
      "text": 2243,
      "ances": 2244,
      "Ġ],": 2245,
      "Ġtransition": 2246,
      "Ġenc": 2247,
      "Ġseries": 2248,
      "Ġvol": 2249,
      "Ġsever": 2250,
      "vant": 2251,
      "Ġcommun": 2252,
      "Ġeasily": 2253,
      "Ġprocedure": 2254,
      ")),": 2255,
      "Ġ15": 2256,
      "Ġcontained": 2257,
      "bol": 2258,
      "Ġseveral": 2259,
      "Ġless": 2260,
      "Ġ},": 2261,
      "Ġwords": 2262,
      "jecture": 2263,
      "Ġintersection": 2264,
      "Ġquas": 2265,
      "ĠOb": 2266,
      "Ġmak": 2267,
      "Ġsuppose": 2268,
      "Ġconven": 2269,
      "ogene": 2270,
      "ĠHam": 2271,
      "27": 2272,
      "Ġexpected": 2273,
      "Ġassumptions": 2274,
      "Ġbu": 2275,
      "Ġact": 2276,
      "Ġwhether": 2277,
      "Ġconstraint": 2278,
      "Ġadj": 2279,
      "Ġdepends": 2280,
      "TI": 2281,
      "hesis": 2282,
      "ĠPr": 2283,
      "ochastic": 2284,
      "Ġfre": 2285,
      "amely": 2286,
      "28": 2287,
      "unctor": 2288,
      "ĠAppendix": 2289,
      "Ġlow": 2290,
      "work": 2291,
      "Ġglobal": 2292,
      "ius": 2293,
      "Ġrestriction": 2294,
      "Ġcycl": 2295,
      "rid": 2296,
      "Ġassign": 2297,
      "gin": 2298,
      "Ġdifference": 2299,
      "Ġoriginal": 2300,
      "olds": 2301,
      "Ġanother": 2302,
      "Ġapplied": 2303,
      "Ġnoise": 2304,
      "Ġwhat": 2305,
      "Ġcommon": 2306,
      "Ġ{(": 2307,
      "tics": 2308,
      "Ġrule": 2309,
      "wh": 2310,
      "Ġfil": 2311,
      "tivity": 2312,
      "Ġallows": 2313,
      "Ġsimply": 2314,
      "ik": 2315,
      "ink": 2316,
      "Ġbo": 2317,
      "Ġess": 2318,
      "Ġpreser": 2319,
      "Ġdecre": 2320,
      "Ġwithin": 2321,
      "Ġnegative": 2322,
      "tur": 2323,
      "Ġhigher": 2324,
      "Ġobserve": 2325,
      "Ġorbit": 2326,
      "Ġ}.": 2327,
      "Ġcompar": 2328,
      "Ġrequired": 2329,
      "ention": 2330,
      "bolic": 2331,
      "Ġsit": 2332,
      "Ġord": 2333,
      "order": 2334,
      "Ġillustr": 2335,
      "Ġclassif": 2336,
      "Ġáº": 2337,
      "elf": 2338,
      "Ġpairs": 2339,
      "Ġlattice": 2340,
      "Ġupd": 2341,
      "ras": 2342,
      "ages": 2343,
      "Ġlocally": 2344,
      "Ġcanon": 2345,
      "Ġel": 2346,
      "ilton": 2347,
      "Ġds": 2348,
      "ĠâĪŀ.": 2349,
      "Ġgeometric": 2350,
      "Ġsampl": 2351,
      "Ġimplement": 2352,
      "Ġstochastic": 2353,
      "Ġsatisfied": 2354,
      "Ġdistin": 2355,
      "Ġlearning": 2356,
      "Ġcontext": 2357,
      "Ġsumm": 2358,
      "ĠâĪŀ,": 2359,
      "Ġabs": 2360,
      "ĠEqu": 2361,
      "Ġimmedi": 2362,
      "30": 2363,
      "ansion": 2364,
      "Ġconj": 2365,
      "ĠGr": 2366,
      "Ġexpect": 2367,
      "known": 2368,
      "ĠInt": 2369,
      "Ġpresented": 2370,
      "Ġgradient": 2371,
      ")}": 2372,
      "Ġshall": 2373,
      "Ġoutput": 2374,
      "Ġreplac": 2375,
      "Ġauth": 2376,
      "Ġdistributions": 2377,
      "Ġproposition": 2378,
      "Ġlink": 2379,
      "ĠLie": 2380,
      "Ġcomputed": 2381,
      "Ġbecom": 2382,
      "Ġstatis": 2383,
      "ilib": 2384,
      "Ġtaking": 2385,
      "Ġtensor": 2386,
      "Ġodd": 2387,
      "Ġconverges": 2388,
      "Ġdetermined": 2389,
      "ĠSimilarly": 2390,
      "Ġbundle": 2391,
      "icted": 2392,
      "Ġvalid": 2393,
      "Ġconsists": 2394,
      "Ġconnection": 2395,
      "ĠÎ¹": 2396,
      "Ġreason": 2397,
      "Ġalgebraic": 2398,
      "Ġembedding": 2399,
      "ĠSte": 2400,
      "Ġdu": 2401,
      "Ġcoordinates": 2402,
      "Ġpolynomials": 2403,
      "Ġeigenvalues": 2404,
      "Ġframework": 2405,
      "Ġnecessary": 2406,
      "DE": 2407,
      "off": 2408,
      "variance": 2409,
      "Ġsplit": 2410,
      "Ġpermut": 2411,
      "Ġdynamics": 2412,
      "tig": 2413,
      "Ġmultiple": 2414,
      "Ġsymbol": 2415,
      "ips": 2416,
      "ĠLe": 2417,
      "pro": 2418,
      "ilibri": 2419,
      "Ġadditional": 2420,
      "aves": 2421,
      "cing": 2422,
      "...,": 2423,
      "ready": 2424,
      "Ġprop": 2425,
      "Ġsimplic": 2426,
      "||": 2427,
      "29": 2428,
      "Ġinstead": 2429,
      "ater": 2430,
      "Ġbecomes": 2431,
      "/(": 2432,
      "Ġmuch": 2433,
      "Ġprecisely": 2434,
      "Ġpartial": 2435,
      "Ġgood": 2436,
      "Ġprovided": 2437,
      "Ġfunctor": 2438,
      "Ġshort": 2439,
      "uring": 2440,
      "Ġsteps": 2441,
      "Ġequality": 2442,
      "Ġ?": 2443,
      "ceed": 2444,
      "Ġdiagonal": 2445,
      "Ġalready": 2446,
      "Ġwritten": 2447,
      "gebras": 2448,
      "Ġincreasing": 2449,
      "ĠNext": 2450,
      "itz": 2451,
      "Ġexpansion": 2452,
      "Ġmodul": 2453,
      "lo": 2454,
      "Ġdirectly": 2455,
      "Ġevent": 2456,
      "Ġax": 2457,
      "Ġcontrib": 2458,
      "Ġ200": 2459,
      "Ġcommut": 2460,
      "ocus": 2461,
      "Ġorthog": 2462,
      "Ġseen": 2463,
      "Ġmark": 2464,
      "Ġnetworks": 2465,
      "Ġspectral": 2466,
      "ĠLa": 2467,
      "Ġpaths": 2468,
      "ĠHamilton": 2469,
      "Ġcritical": 2470,
      "tif": 2471,
      "fine": 2472,
      "Î¨": 2473,
      "Ġfund": 2474,
      "oun": 2475,
      "Ġlarger": 2476,
      "ogeneous": 2477,
      "ĠÂ§": 2478,
      "Ġunion": 2479,
      "Ġreduced": 2480,
      "ification": 2481,
      "ĠWh": 2482,
      "Ġself": 2483,
      "Ġinves": 2484,
      "Ġâ©¾": 2485,
      "ropy": 2486,
      "ĠBut": 2487,
      "Ġsquare": 2488,
      "alle": 2489,
      "Ġaltern": 2490,
      ".)": 2491,
      "Ġgeneralized": 2492,
      "Ġpotential": 2493,
      "Ġstrictly": 2494,
      "Ġrob": 2495,
      "Ġprior": 2496,
      "Ġbase": 2497,
      "Ġdisjoint": 2498,
      "Ġconstants": 2499,
      "ights": 2500,
      "ĠSch": 2501,
      "reg": 2502,
      "Ġrecur": 2503,
      "Ġdistinct": 2504,
      "ather": 2505,
      "Ġmeasures": 2506,
      "Ġstudied": 2507,
      "Ġkey": 2508,
      "bert": 2509,
      "Ġens": 2510,
      "Ġcanonical": 2511,
      "uts": 2512,
      "edu": 2513,
      "Ġcharacteristic": 2514,
      "Ġreduction": 2515,
      "ĠAssumption": 2516,
      "Ġconsequence": 2517,
      "Ġdescribe": 2518,
      "ducible": 2519,
      "ires": 2520,
      "fer": 2521,
      "Ġaccur": 2522,
      "Ġprovides": 2523,
      "Ġ+âĪŀ": 2524,
      "Ġinverse": 2525,
      "ild": 2526,
      "Ġbl": 2527,
      "Ġï£³": 2528,
      "Ġï£±": 2529,
      "Ġresulting": 2530,
      "Ġremains": 2531,
      "negative": 2532,
      "Ġï£²": 2533,
      "Ġinduction": 2534,
      "In": 2535,
      "ety": 2536,
      "Ġprac": 2537,
      "Ġprot": 2538,
      "ĠUn": 2539,
      "Ġhowever": 2540,
      "Ġ)]": 2541,
      "Ġlines": 2542,
      "ĠMark": 2543,
      "Ġfocus": 2544,
      "Ġmem": 2545,
      "Ġequilibri": 2546,
      "amental": 2547,
      "Ġdistributed": 2548,
      "Ġdesired": 2549,
      "Ġefficient": 2550,
      "Ã¶": 2551,
      "Ġpolic": 2552,
      "Ġadap": 2553,
      "Ġcontaining": 2554,
      "Ġdetails": 2555,
      "ished": 2556,
      "Ġneighborhood": 2557,
      "ress": 2558,
      "resting": 2559,
      "ĠËĨ": 2560,
      "jects": 2561,
      "Ġloop": 2562,
      "Ġcluster": 2563,
      "ĠAlso": 2564,
      "Ġ21": 2565,
      "Ġuseful": 2566,
      "Ġâī²": 2567,
      "Ġformal": 2568,
      "Ġdel": 2569,
      "echan": 2570,
      "war": 2571,
      "Ġret": 2572,
      "Ġquer": 2573,
      "ĠDefine": 2574,
      "ze": 2575,
      "Ġmapping": 2576,
      "oti": 2577,
      "Ġtrain": 2578,
      "Ġfields": 2579,
      "algebra": 2580,
      "32": 2581,
      "Ġsuc": 2582,
      "Ġsmaller": 2583,
      "31": 2584,
      "Ġbet": 2585,
      "imin": 2586,
      "Ġestimation": 2587,
      "Ġcop": 2588,
      "Ġrational": 2589,
      "Ġcycle": 2590,
      "ratic": 2591,
      "Ġbest": 2592,
      "Ġbehavior": 2593,
      "Ġnear": 2594,
      "Ġplane": 2595,
      "Ġconstructed": 2596,
      "(âĢ¢": 2597,
      "Ġextended": 2598,
      "Ġestimator": 2599,
      "Ġcurrent": 2600,
      "Ġuser": 2601,
      "Ġhal": 2602,
      "Ġlaw": 2603,
      "Ġdiscussion": 2604,
      "own": 2605,
      "point": 2606,
      "trivial": 2607,
      "Ġgeodes": 2608,
      "Ġtas": 2609,
      "resh": 2610,
      "Ġsuffic": 2611,
      "ren": 2612,
      "Ġlatter": 2613,
      "Ġmonot": 2614,
      "ope": 2615,
      "Ġhypothesis": 2616,
      "34": 2617,
      "ormal": 2618,
      "Ġapplications": 2619,
      "Ġpertur": 2620,
      "Ġbran": 2621,
      "Ġstart": 2622,
      "pped": 2623,
      "ler": 2624,
      "Ġideal": 2625,
      "Ġsitu": 2626,
      "Ġarc": 2627,
      "ifolds": 2628,
      "Ġ22": 2629,
      "back": 2630,
      "Ġleads": 2631,
      "Ġtransformation": 2632,
      "Ġsequences": 2633,
      "otopy": 2634,
      "âĥĹ": 2635,
      "gest": 2636,
      "Ġapplying": 2637,
      "ale": 2638,
      "Ġirreducible": 2639,
      "ression": 2640,
      "ĠAt": 2641,
      "][": 2642,
      "Ġcollection": 2643,
      "Ġconjug": 2644,
      "aight": 2645,
      "Ġliter": 2646,
      "Ġprocesses": 2647,
      "Ġforms": 2648,
      "Ġgrow": 2649,
      "pose": 2650,
      "ĠâīĪ": 2651,
      "based": 2652,
      "Ġâīĥ": 2653,
      "Ġcontradiction": 2654,
      "though": 2655,
      "Ġsignal": 2656,
      "Ġprobabil": 2657,
      "Ġcirc": 2658,
      "Ġfundamental": 2659,
      "allel": 2660,
      "Ġstraight": 2661,
      "Ġsubspace": 2662,
      "Ġhyperbolic": 2663,
      "Ġamong": 2664,
      "Ġ].": 2665,
      "Ġsymmetry": 2666,
      "ription": 2667,
      "ĠAd": 2668,
      "Ġrange": 2669,
      "ĠâĪĴ(": 2670,
      "iem": 2671,
      "33": 2672,
      "iii": 2673,
      "Ġball": 2674,
      "ĠâĪĳ": 2675,
      "hema": 2676,
      "Ġderived": 2677,
      "ortion": 2678,
      "sh": 2679,
      "Ġtang": 2680,
      "Ġorthogonal": 2681,
      "Ġphys": 2682,
      "dx": 2683,
      "arget": 2684,
      "Ġentries": 2685,
      "Ġremark": 2686,
      "Ġapplication": 2687,
      "Ġmention": 2688,
      "Ġshe": 2689,
      "ird": 2690,
      "âĢ¢âĢ¢": 2691,
      "Ġtypes": 2692,
      "Ġrequires": 2693,
      "Ġmechan": 2694,
      "Ġmoment": 2695,
      "atives": 2696,
      "Ġinvestig": 2697,
      "Ġhor": 2698,
      "ift": 2699,
      "ably": 2700,
      "Ġbasic": 2701,
      "Ġspar": 2702,
      "iques": 2703,
      "Ġdone": 2704,
      "Ġpi": 2705,
      "Ġseg": 2706,
      "Ġreturn": 2707,
      "Ġsource": 2708,
      "Ġtakes": 2709,
      "ters": 2710,
      "Ġsolve": 2711,
      "Ġisomorphic": 2712,
      "Ġsignific": 2713,
      "iemann": 2714,
      "forward": 2715,
      "ER": 2716,
      "pri": 2717,
      "where": 2718,
      "llip": 2719,
      "Ġweights": 2720,
      "Ġsimul": 2721,
      "ux": 2722,
      "Ġring": 2723,
      "ocol": 2724,
      "oy": 2725,
      "Ġbegin": 2726,
      "Ġ[âĪĴ": 2727,
      "Ġhaving": 2728,
      "ishes": 2729,
      "Ġang": 2730,
      "ĠSet": 2731,
      "Ġfunctional": 2732,
      "Ġunderst": 2733,
      "Ġbetter": 2734,
      "Ġfrequ": 2735,
      "Ġiteration": 2736,
      "Ġcorrect": 2737,
      "Ġderive": 2738,
      "Ġ)âĪ¥": 2739,
      "atic": 2740,
      "min": 2741,
      "((": 2742,
      "Ġdou": 2743,
      "Ġderivative": 2744,
      "Ġinteresting": 2745,
      "Ġtes": 2746,
      "Ġque": 2747,
      "ices": 2748,
      "Ġdedu": 2749,
      "Ġcoinc": 2750,
      "Ġaffine": 2751,
      "sequently": 2752,
      "with": 2753,
      "Ġconsist": 2754,
      "Ġtopological": 2755,
      "ondition": 2756,
      "Ġquasi": 2757,
      "free": 2758,
      "aches": 2759,
      "Ġdef": 2760,
      "Ġquoti": 2761,
      "Ġvariance": 2762,
      "raw": 2763,
      "ison": 2764,
      "Ġexponential": 2765,
      "Ġmar": 2766,
      "Ġquadratic": 2767,
      "lec": 2768,
      "ath": 2769,
      "Ġmess": 2770,
      "we": 2771,
      "seud": 2772,
      "Ġcar": 2773,
      "Ġgen": 2774,
      "Ġorigin": 2775,
      "Ġtarget": 2776,
      "ĠMarkov": 2777,
      "gers": 2778,
      "Ġsuit": 2779,
      "Ġexplain": 2780,
      "Ġbinary": 2781,
      "ĠSub": 2782,
      "rier": 2783,
      "ilbert": 2784,
      "ĠThat": 2785,
      "Ġcons": 2786,
      "ĠâĩĴ": 2787,
      "Ġ100": 2788,
      "Ġstability": 2789,
      "Ġhalf": 2790,
      "Ġdomin": 2791,
      "Ġrest": 2792,
      "IN": 2793,
      "Ġapproximate": 2794,
      "Ġtopology": 2795,
      "ins": 2796,
      "Ġrati": 2797,
      "Ġvarious": 2798,
      ")-(": 2799,
      "Ġlay": 2800,
      "Ġcut": 2801,
      "Ġnamely": 2802,
      "Ġutil": 2803,
      "ĠFix": 2804,
      "ĠObser": 2805,
      "rees": 2806,
      "Ġpost": 2807,
      "rum": 2808,
      "Ġstructures": 2809,
      "Ġspecific": 2810,
      "Ġeigenvalue": 2811,
      "ĠÏĳ": 2812,
      "II": 2813,
      "35": 2814,
      "Ġstation": 2815,
      "Ġperiodic": 2816,
      "Ġobjects": 2817,
      "izon": 2818,
      "Ġidea": 2819,
      "sem": 2820,
      "Ġsuffices": 2821,
      "Ġ18": 2822,
      "oding": 2823,
      "Ġpossib": 2824,
      "Ġdiffic": 2825,
      "AR": 2826,
      "ously": 2827,
      "ĠCase": 2828,
      "igure": 2829,
      "Ġconfiguration": 2830,
      "ivid": 2831,
      "Ġcurv": 2832,
      "Ġ(|": 2833,
      "Ġobserved": 2834,
      "ored": 2835,
      "Ġuses": 2836,
      "ĠSec": 2837,
      "alities": 2838,
      "ĠHamiltonian": 2839,
      "lin": 2840,
      "Ġstarting": 2841,
      "ends": 2842,
      "Ġentropy": 2843,
      "Ġfac": 2844,
      "isk": 2845,
      "Ġsa": 2846,
      "Ġunivers": 2847,
      "ĠSpec": 2848,
      "ecting": 2849,
      "self": 2850,
      "ĠDen": 2851,
      "Ġdescription": 2852,
      "bound": 2853,
      "Ġconjecture": 2854,
      "Ġgame": 2855,
      "Ġsupported": 2856,
      "hand": 2857,
      "eness": 2858,
      "âĪĪ[": 2859,
      "ĠNotice": 2860,
      "Ġfraction": 2861,
      "ised": 2862,
      "Ġaround": 2863,
      "su": 2864,
      "Ġsug": 2865,
      "ymm": 2866,
      "Ġpattern": 2867,
      "wer": 2868,
      "Ġpur": 2869,
      "Ġwave": 2870,
      "Ġtheore": 2871,
      "Ġequilibrium": 2872,
      "chitz": 2873,
      "by": 2874,
      "Ġoff": 2875,
      "Ġestablish": 2876,
      "Ġparallel": 2877,
      "Ġrot": 2878,
      "Ġcoordinate": 2879,
      "ĠEach": 2880,
      "Ġdy": 2881,
      "Ġdiscussed": 2882,
      "Ġprotocol": 2883,
      "Ġavail": 2884,
      "Ġround": 2885,
      "zation": 2886,
      "Ġcentral": 2887,
      "Ġunc": 2888,
      "ĠStep": 2889,
      "Ġidentify": 2890,
      "Ġdivis": 2891,
      "Ġpass": 2892,
      "mes": 2893,
      "ST": 2894,
      "36": 2895,
      "ipschitz": 2896,
      "Îł": 2897,
      "200": 2898,
      "defin": 2899,
      "Ġassumed": 2900,
      "ems": 2901,
      "Ġdimensional": 2902,
      "Ġinver": 2903,
      "jection": 2904,
      "Ġsamples": 2905,
      "valued": 2906,
      "monstr": 2907,
      "Ġful": 2908,
      "Ġcapac": 2909,
      "SI": 2910,
      "Ġdiscuss": 2911,
      "Ġmass": 2912,
      "SE": 2913,
      "Ġtransmit": 2914,
      "aking": 2915,
      "ĠHom": 2916,
      "ĠRiemann": 2917,
      "Ġobjective": 2918,
      "Ġthresh": 2919,
      "vector": 2920,
      "Ġsignificant": 2921,
      "angu": 2922,
      "Ġobject": 2923,
      "Ġ17": 2924,
      "Ġmix": 2925,
      "Ġrather": 2926,
      "Ġfiber": 2927,
      "Ġobservation": 2928,
      "Ġsubsets": 2929,
      "OR": 2930,
      "Ġdefinitions": 2931,
      "Ġdetermine": 2932,
      "Ġintegers": 2933,
      "Ġeffect": 2934,
      "Ġthird": 2935,
      "Ġperturb": 2936,
      "ef": 2937,
      "Ġfinal": 2938,
      "Ġsampling": 2939,
      "Ġmade": 2940,
      "Ġscalar": 2941,
      "Theorem": 2942,
      "Ġellip": 2943,
      "Ġfinitely": 2944,
      "ĠHilbert": 2945,
      "ĠSee": 2946,
      "Ġappropri": 2947,
      "Ġcontroll": 2948,
      "atures": 2949,
      "isc": 2950,
      "Ġdraw": 2951,
      "Ġfib": 2952,
      "ĠRes": 2953,
      "Ġfail": 2954,
      "Ġoften": 2955,
      "Ġlater": 2956,
      "aries": 2957,
      "LE": 2958,
      "mits": 2959,
      "ĠIntrodu": 2960,
      "ories": 2961,
      "Ġcomputing": 2962,
      "Ġparts": 2963,
      "Ġadjac": 2964,
      "Ġpure": 2965,
      "Ġpolicy": 2966,
      "Ġtaken": 2967,
      "Ġpop": 2968,
      "Ġrele": 2969,
      "Ġpseud": 2970,
      "Ġliterature": 2971,
      "Ġans": 2972,
      "Ġtraject": 2973,
      "Ġarguments": 2974,
      "Ġprinci": 2975,
      "struction": 2976,
      "Ġoperations": 2977,
      "ĠAll": 2978,
      "Ġanalytic": 2979,
      "Â´": 2980,
      "Ġrepresented": 2981,
      "ume": 2982,
      "Ġdepending": 2983,
      "ivari": 2984,
      "Ġgoal": 2985,
      "ements": 2986,
      "enari": 2987,
      "zed": 2988,
      "Ġgeneric": 2989,
      "module": 2990,
      "Ġconditional": 2991,
      "Ġrepresentations": 2992,
      "Ġ(âĪĤ": 2993,
      "Ġspectrum": 2994,
      "Ġplan": 2995,
      "Ġsemi": 2996,
      "ps": 2997,
      "Ġagent": 2998,
      "Ġmakes": 2999,
      "Ġcoll": 3000,
      "mand": 3001,
      "Ġrepresents": 3002,
      "Ġcontribution": 3003,
      "Ġhorizon": 3004,
      "Ġindivid": 3005,
      "Ġdatas": 3006,
      "Ġpack": 3007,
      "ration": 3008,
      "which": 3009,
      "Ġmight": 3010,
      "Ġcurvature": 3011,
      "pe": 3012,
      "ĠâĮĬ": 3013,
      "Ġcoupl": 3014,
      "37": 3015,
      "Ġlangu": 3016,
      "ape": 3017,
      "ste": 3018,
      "Ġavailable": 3019,
      "Ġá¹": 3020,
      "osition": 3021,
      "Ġgenerality": 3022,
      "ake": 3023,
      "Ġcommunication": 3024,
      "Ġknot": 3025,
      "ference": 3026,
      "Ġusual": 3027,
      "like": 3028,
      "Ġoperation": 3029,
      "Ġselect": 3030,
      "Ġautom": 3031,
      "Ġremaining": 3032,
      "Ġradius": 3033,
      "osing": 3034,
      "Ġcomputational": 3035,
      "fect": 3036,
      "idth": 3037,
      "Ġdown": 3038,
      "Ġsearch": 3039,
      "tible": 3040,
      "Ġtechniques": 3041,
      "Ġdemonstr": 3042,
      "Ġusers": 3043,
      "Ġunderlying": 3044,
      "Ġquotient": 3045,
      "ĠGL": 3046,
      "ĠIm": 3047,
      "Ġcolor": 3048,
      "ott": 3049,
      "Ġable": 3050,
      "Ġprime": 3051,
      "Ġ24": 3052,
      "Ġproofs": 3053,
      "Ġcone": 3054,
      "Ġimprove": 3055,
      "izer": 3056,
      "raph": 3057,
      "Ġinequalities": 3058,
      "mission": 3059,
      "Ġenti": 3060,
      "Ġ23": 3061,
      "Ġsw": 3062,
      "Îĺ": 3063,
      "Ġprojective": 3064,
      "Ġratio": 3065,
      "ĠâĬ¢": 3066,
      "Th": 3067,
      "Ġwal": 3068,
      "Ġrepe": 3069,
      "Ġdeduce": 3070,
      "olute": 3071,
      "Ġrules": 3072,
      "Ġfactors": 3073,
      "Ġneeded": 3074,
      "tingu": 3075,
      "Ġcohom": 3076,
      "Ġinner": 3077,
      "Ġworks": 3078,
      "Ġtrees": 3079,
      "Ġitself": 3080,
      "Ġinterpret": 3081,
      "Ġdifferenti": 3082,
      "Ġimply": 3083,
      "Ġvariety": 3084,
      "let": 3085,
      "Ġobvious": 3086,
      "iting": 3087,
      "Ġtrace": 3088,
      "Ġscenari": 3089,
      "Ġextre": 3090,
      "Ġsurfaces": 3091,
      "Ġstrongly": 3092,
      "ime": 3093,
      "view": 3094,
      "vals": 3095,
      "Ġcomposition": 3096,
      "ising": 3097,
      "Ġimmediately": 3098,
      "Ġjoint": 3099,
      "Ġdefines": 3100,
      "Ġnonlinear": 3101,
      "(|": 3102,
      "ank": 3103,
      "puts": 3104,
      "Ġalgebras": 3105,
      "Ġ!": 3106,
      "plec": 3107,
      "Ġregard": 3108,
      "ledge": 3109,
      "iver": 3110,
      "Ġverify": 3111,
      "Ġiden": 3112,
      "Ġinteraction": 3113,
      "Ġstraightforward": 3114,
      "Ġtriangle": 3115,
      "Ġhel": 3116,
      "Ġword": 3117,
      "ĠAB": 3118,
      "âĩ": 3119,
      "DP": 3120,
      "Ġï£°": 3121,
      "Pro": 3122,
      "Ġonto": 3123,
      "Ġï£®": 3124,
      "ĠIntroduction": 3125,
      "Ġcapacity": 3126,
      "Ġhomomorphism": 3127,
      "CA": 3128,
      "Ġgeodesic": 3129,
      "Ġcount": 3130,
      "Ġsolving": 3131,
      "Ġï£»": 3132,
      "Ġï£¹": 3133,
      "ging": 3134,
      "ĠÎŀ": 3135,
      "stein": 3136,
      "Ġfeas": 3137,
      "Ġflat": 3138,
      "Ġadmits": 3139,
      "Ġpermutation": 3140,
      "Ġabsolute": 3141,
      "ĠEquation": 3142,
      "Ġhomotopy": 3143,
      "ames": 3144,
      "Ġ...": 3145,
      "isson": 3146,
      "Ġthreshold": 3147,
      "Ġwant": 3148,
      "SP": 3149,
      "Ġpiec": 3150,
      "ĠMod": 3151,
      "Ġsituation": 3152,
      "Ġnecessarily": 3153,
      "Ġindividual": 3154,
      "ints": 3155,
      "Ġuniversal": 3156,
      "ots": 3157,
      "Ġhomogeneous": 3158,
      "cf": 3159,
      "ĠEu": 3160,
      "ĠDenote": 3161,
      "40": 3162,
      "Ġwhenever": 3163,
      "plectic": 3164,
      "38": 3165,
      "Ġconsidering": 3166,
      "way": 3167,
      "Ġcomplement": 3168,
      "Ġscale": 3169,
      "ĠSh": 3170,
      "Ġcub": 3171,
      "Ġstationary": 3172,
      "Ġsuitable": 3173,
      "function": 3174,
      ")âĪĴ": 3175,
      "ĠÏ±": 3176,
      "Ġones": 3177,
      "AT": 3178,
      "Ġweighted": 3179,
      "Ġindeed": 3180,
      "invariant": 3181,
      "Ġlies": 3182,
      "ecause": 3183,
      "Ġcriter": 3184,
      "Ġincreases": 3185,
      "ĠLagr": 3186,
      "Ġexplicitly": 3187,
      "ash": 3188,
      "apl": 3189,
      "ming": 3190,
      "Ġgeometry": 3191,
      "ifically": 3192,
      "elian": 3193,
      "Ġinclusion": 3194,
      "ĠUnder": 3195,
      "Ġinterior": 3196,
      "ude": 3197,
      "Ġmotion": 3198,
      "ĠIII": 3199,
      "wards": 3200,
      "Ġcre": 3201,
      "Ġfar": 3202,
      "Ġdeterministic": 3203,
      "TION": 3204,
      "Ġmatching": 3205,
      "ode": 3206,
      "Ġtraining": 3207,
      "ĠÈ": 3208,
      "wr": 3209,
      "Ġbelongs": 3210,
      "Ġagents": 3211,
      "Ġempty": 3212,
      "ĠâĪŀ)": 3213,
      "print": 3214,
      "Ġauthors": 3215,
      "Ġapproaches": 3216,
      "ploy": 3217,
      "Ġproves": 3218,
      "RO": 3219,
      "Ġalloc": 3220,
      "Ġvanish": 3221,
      "Ġprinciple": 3222,
      "Ġmach": 3223,
      "âĪĴâĪĴ": 3224,
      "Ġgenerating": 3225,
      "ural": 3226,
      "Ġmotiv": 3227,
      "Ġcaus": 3228,
      "39": 3229,
      "Ġschemes": 3230,
      "enerate": 3231,
      "app": 3232,
      "Ġproceed": 3233,
      "ĠAr": 3234,
      "Ġlist": 3235,
      "Ġdimensions": 3236,
      "ĠðĿľ": 3237,
      "Ġappropriate": 3238,
      "Ġevolution": 3239,
      "Ġcompared": 3240,
      "Ġexcept": 3241,
      "Ġrobust": 3242,
      "ock": 3243,
      "Ġmeasurement": 3244,
      "Ġslight": 3245,
      "Ġinduces": 3246,
      "ata": 3247,
      "AC": 3248,
      "ĠQu": 3249,
      "Ġdecision": 3250,
      "Ġ)}": 3251,
      "Ġvolume": 3252,
      "Ġ)/": 3253,
      "ĠâĪĥ": 3254,
      "idence": 3255,
      "empty": 3256,
      "Ġmechanism": 3257,
      "tes": 3258,
      "ĠObserve": 3259,
      "Ġexperiments": 3260,
      ")+": 3261,
      "Ġformulation": 3262,
      "Ġsimilarly": 3263,
      "lic": 3264,
      "ĠSL": 3265,
      "Ġpric": 3266,
      "Ġtransmission": 3267,
      "anges": 3268,
      "clide": 3269,
      "Ġband": 3270,
      "Ġknowledge": 3271,
      "clidean": 3272,
      "Ġachieve": 3273,
      "Ġgap": 3274,
      "co": 3275,
      "Ġrates": 3276,
      "ourier": 3277,
      "Ġcovariance": 3278,
      "uture": 3279,
      "Ġempir": 3280,
      "den": 3281,
      "Ġautomorphism": 3282,
      "ĠDir": 3283,
      "Ġtangent": 3284,
      "ience": 3285,
      "ĠPoisson": 3286,
      "Ġdouble": 3287,
      "max": 3288,
      "ially": 3289,
      "Ġrestricted": 3290,
      "Ġthough": 3291,
      "sim": 3292,
      "Ġarea": 3293,
      "Ġnull": 3294,
      "Ġsubgraph": 3295,
      "Ġacts": 3296,
      "âĩĴ": 3297,
      "Ġspin": 3298,
      "Ġduring": 3299,
      "Ġexpressed": 3300,
      "ĠCo": 3301,
      "ĠMat": 3302,
      "Ġcompati": 3303,
      "Ġresi": 3304,
      "Ġrig": 3305,
      "ameter": 3306,
      "ches": 3307,
      "ĠAcc": 3308,
      "Ġá¸": 3309,
      "Ġconcern": 3310,
      "Ġderivatives": 3311,
      "Ġformulas": 3312,
      "Ġinfinity": 3313,
      "ometric": 3314,
      "learly": 3315,
      "Ġ25": 3316,
      "Ġsuccess": 3317,
      "ĠâĪĨ(": 3318,
      "Ġexpectation": 3319,
      "ĠLipschitz": 3320,
      "iding": 3321,
      "Ġpol": 3322,
      "Ġcomparison": 3323,
      "enc": 3324,
      "Ġaccuracy": 3325,
      "Ã¨": 3326,
      "Ġcard": 3327,
      "missible": 3328,
      "posed": 3329,
      "deg": 3330,
      "Ġunitary": 3331,
      "Ġhard": 3332,
      "Ġcodes": 3333,
      "Ġtermin": 3334,
      "Ġlook": 3335,
      "Ġtask": 3336,
      "comp": 3337,
      "EN": 3338,
      "Ġcross": 3339,
      "Ġsugges": 3340,
      "Ġhar": 3341,
      "Ġpropose": 3342,
      "Ġmanifolds": 3343,
      "Ġdistingu": 3344,
      "ĠFourier": 3345,
      "ctive": 3346,
      "Ġreceiv": 3347,
      "Ġarr": 3348,
      "Ġmentioned": 3349,
      "Ġexec": 3350,
      "ES": 3351,
      "Ġsimulation": 3352,
      "Ġmathema": 3353,
      "Ġyield": 3354,
      "comple": 3355,
      "Ġincluding": 3356,
      "AN": 3357,
      "uler": 3358,
      "Ġdev": 3359,
      "Ġcompare": 3360,
      "Ġinclude": 3361,
      "Ġperfect": 3362,
      "izations": 3363,
      ",...,": 3364,
      "Ġarri": 3365,
      "call": 3366,
      "Ġmove": 3367,
      "ares": 3368,
      "Ġreach": 3369,
      "Ġcompletely": 3370,
      "Ġelliptic": 3371,
      "dt": 3372,
      "ĠCP": 3373,
      "Ġhomology": 3374,
      "ĠAf": 3375,
      "ĠClearly": 3376,
      "Ġdeveloped": 3377,
      "Ġsaid": 3378,
      "Ġ(âĪĨ": 3379,
      "Ġupdate": 3380,
      "Ġtheoretical": 3381,
      "inear": 3382,
      "Ġonce": 3383,
      "col": 3384,
      "Ġconsistent": 3385,
      "Ġunderstand": 3386,
      "Ġvis": 3387,
      "Ġear": 3388,
      "Ġtreat": 3389,
      "Ġeffective": 3390,
      "struct": 3391,
      "Ġcohomology": 3392,
      "Ġgain": 3393,
      "Ġstated": 3394,
      "âĮĭ": 3395,
      "osed": 3396,
      "Ġspati": 3397,
      "tially": 3398,
      "Ġinside": 3399,
      "Ġsymplectic": 3400,
      "ĠBe": 3401,
      "Ġrole": 3402,
      "enting": 3403,
      "gies": 3404,
      "rel": 3405,
      "cts": 3406,
      "Ġ|âĪĩ": 3407,
      "Ġcircle": 3408,
      "Ġmut": 3409,
      "Ġsmallest": 3410,
      "Ġaff": 3411,
      "Ġprof": 3412,
      "Ġfew": 3413,
      "umer": 3414,
      "ĠSc": 3415,
      "Ġface": 3416,
      "Ġrecon": 3417,
      "Ġsubstit": 3418,
      "Ġatom": 3419,
      "ples": 3420,
      "Ġcombinator": 3421,
      "Ġobservations": 3422,
      "face": 3423,
      "Ġcombination": 3424,
      "Ġintervals": 3425,
      "Ġblocks": 3426,
      "Ġdense": 3427,
      "Ġsections": 3428,
      "Ġred": 3429,
      "]),": 3430,
      "onic": 3431,
      "Ġconclusion": 3432,
      "Ġdefining": 3433,
      "Ġcolumns": 3434,
      "ĠÃĳ": 3435,
      "Ġappears": 3436,
      "ĠLapl": 3437,
      "})": 3438,
      "stable": 3439,
      "Ġreduce": 3440,
      "Ġpriv": 3441,
      "Ġsphere": 3442,
      "Ġcenter": 3443,
      "sk": 3444,
      "Ġclearly": 3445,
      "eli": 3446,
      "Â±": 3447,
      "Ġstabil": 3448,
      "Ġactually": 3449,
      "Ġrelevant": 3450,
      "Ġreader": 3451,
      "ĠProblem": 3452,
      "urable": 3453,
      "ĠOther": 3454,
      "Ġfuture": 3455,
      "Ġtorus": 3456,
      "Ġquery": 3457,
      "Ġentire": 3458,
      "lu": 3459,
      "ĠÎ¼": 3460,
      "Ġresidu": 3461,
      "Ġaccount": 3462,
      "Ġlargest": 3463,
      "Ġadjacent": 3464,
      "Ġalternative": 3465,
      "Ġ)).": 3466,
      "Ġclassification": 3467,
      "ij": 3468,
      "Ġindices": 3469,
      "Ġâīľ": 3470,
      "([": 3471,
      "ĠBecause": 3472,
      "Ġremo": 3473,
      "Ġtool": 3474,
      "ĠThey": 3475,
      "Ġgeneralization": 3476,
      "Ġcour": 3477,
      "ymmetric": 3478,
      "Ġfeasible": 3479,
      "ĠAccording": 3480,
      "Ġentang": 3481,
      "Ġdeal": 3482,
      "Ġholomorphic": 3483,
      "Ġnonzero": 3484,
      "Ġrese": 3485,
      "ĠAut": 3486,
      "Ġroots": 3487,
      "ĠWhile": 3488,
      "arithm": 3489,
      "Ġfeatures": 3490,
      "Ġselection": 3491,
      "Ġâīª": 3492,
      "ĠEuclidean": 3493,
      "Ġasser": 3494,
      "Ġincrease": 3495,
      "ded": 3496,
      "formal": 3497,
      "Ġscaling": 3498,
      "Ġâª": 3499,
      "Ġshowed": 3500,
      "vable": 3501,
      "ĠSuch": 3502,
      "ili": 3503,
      "Ġopp": 3504,
      "Ġlanguage": 3505,
      "Ġgenerators": 3506,
      "ĠÄı": 3507,
      "Ġunknown": 3508,
      "ipal": 3509,
      "AL": 3510,
      "cep": 3511,
      "Ġprobabilities": 3512,
      "Ġsubsection": 3513,
      "Ġaim": 3514,
      "Ġiff": 3515,
      "Ġâİ": 3516,
      "tite": 3517,
      "IM": 3518,
      "ĠBS": 3519,
      "Ġpe": 3520,
      "ĠdÂµ": 3521,
      "Ġavoid": 3522,
      "Ġenv": 3523,
      "Ġgenus": 3524,
      "Ġphysical": 3525,
      "Ġessentially": 3526,
      "Ġpers": 3527,
      "ĠðĿĲ": 3528,
      "Ġchanges": 3529,
      "Ġsegment": 3530,
      "ram": 3531,
      "ystem": 3532,
      "Ġrecent": 3533,
      "set": 3534,
      "Ġrisk": 3535,
      "Ġestimated": 3536,
      "Ġsubject": 3537,
      "ĠIV": 3538,
      "Ġgenerally": 3539,
      "mat": 3540,
      "Ġclosure": 3541,
      "arities": 3542,
      "Ġsparse": 3543,
      "ĠAfter": 3544,
      "ited": 3545,
      "isation": 3546,
      "Ġdirected": 3547,
      "Ġgenerate": 3548,
      "Ġvi": 3549,
      "ont": 3550,
      "ticle": 3551,
      "Ġ&": 3552,
      "cell": 3553,
      "Ġiterations": 3554,
      "Ġtable": 3555,
      "Ġgau": 3556,
      "Ġempirical": 3557,
      "oli": 3558,
      "ĠâĪĴâĪŀ": 3559,
      "Ġdiver": 3560,
      "Ġconsisting": 3561,
      "tions": 3562,
      "isted": 3563,
      "Ġabelian": 3564,
      "45": 3565,
      "Ġgreater": 3566,
      "defined": 3567,
      "Ġreplaced": 3568,
      "ross": 3569,
      "ĠAg": 3570,
      "lex": 3571,
      "manifold": 3572,
      "Ġerrors": 3573,
      "41": 3574,
      "Ġtechnique": 3575,
      "ext": 3576,
      "Ġmemory": 3577,
      "exp": 3578,
      "iom": 3579,
      "Ġhelp": 3580,
      "Ġstring": 3581,
      "ĠPar": 3582,
      "Ġtoo": 3583,
      "type": 3584,
      "Ġregularity": 3585,
      "osite": 3586,
      "Ġanalogous": 3587,
      "Ġrewr": 3588,
      "Ġensure": 3589,
      "oin": 3590,
      "Ġhapp": 3591,
      "Ġcircu": 3592,
      "|)": 3593,
      "Ġinterested": 3594,
      "Ġweakly": 3595,
      "Ġregression": 3596,
      "variants": 3597,
      "ises": 3598,
      "Ġmeasurements": 3599,
      "Ġproving": 3600,
      "Ġcorrelation": 3601,
      "Ġspann": 3602,
      "Ġachieved": 3603,
      "ĠSU": 3604,
      "Ġrelax": 3605,
      "ĠâĻ¯": 3606,
      "ĠConsequently": 3607,
      "ĠClaim": 3608,
      "Ġdependence": 3609,
      "Ġput": 3610,
      "SS": 3611,
      "ĠSO": 3612,
      "ĠGal": 3613,
      "ivariant": 3614,
      "Ġwalk": 3615,
      "Ġcompletes": 3616,
      "Ġregions": 3617,
      "bounded": 3618,
      "Ġ|=": 3619,
      "ĠEuler": 3620,
      "Ġmessage": 3621,
      "Ġoccurs": 3622,
      "Ġactions": 3623,
      "Ġequals": 3624,
      "Ġadmissible": 3625,
      "Ġfeature": 3626,
      "ikeli": 3627,
      "Ġmodule": 3628,
      "ikelihood": 3629,
      "Ġâĸł": 3630,
      "Ġconverge": 3631,
      "Ġbit": 3632,
      "Ġfully": 3633,
      "Ġattack": 3634,
      "Ġsk": 3635,
      "Ġdz": 3636,
      "Ġsimplicity": 3637,
      "Ġcyclic": 3638,
      "Ġlif": 3639,
      "Ġund": 3640,
      "Ġfinding": 3641,
      "Ġwhole": 3642,
      "Ġcourse": 3643,
      "ĠLagrang": 3644,
      "MP": 3645,
      "iency": 3646,
      "Ġreference": 3647,
      "ading": 3648,
      "Ġspeed": 3649,
      "Ġuntil": 3650,
      "esian": 3651,
      "FT": 3652,
      "ĠâĢ¢)": 3653,
      "Ġmultiplication": 3654,
      "Ġorientation": 3655,
      "ĠâĪ¥âĪĩ": 3656,
      "Ġanswer": 3657,
      "Ġjum": 3658,
      "Ġii": 3659,
      "Ġcontrast": 3660,
      "Ġcycles": 3661,
      "cent": 3662,
      "42": 3663,
      "iron": 3664,
      "unc": 3665,
      "Ġgrid": 3666,
      "ipar": 3667,
      "Ġbox": 3668,
      "âĪ©": 3669,
      "Ġneeds": 3670,
      "Ġrows": 3671,
      "Ġestablished": 3672,
      "Ġleading": 3673,
      "Ġvertical": 3674,
      "Ġgenerator": 3675,
      "Ġasymptotically": 3676,
      "Ġwhereas": 3677,
      "Ġshowing": 3678,
      "Ġfrequency": 3679,
      "Ġcounter": 3680,
      "50": 3681,
      "Ġkeep": 3682,
      "ĠHe": 3683,
      "Ġidentified": 3684,
      "nected": 3685,
      "vity": 3686,
      "Ġ)-": 3687,
      "Ġdecreasing": 3688,
      "Ġordered": 3689,
      "Ġembedded": 3690,
      "Ġproducts": 3691,
      ")!": 3692,
      "icts": 3693,
      "Ġhome": 3694,
      "Ġcrossing": 3695,
      "erences": 3696,
      "Ġoriented": 3697,
      "Ġconstruc": 3698,
      "Ġprincipal": 3699,
      "Ġslightly": 3700,
      "Ġrecover": 3701,
      "ident": 3702,
      "Ġemploy": 3703,
      "Ġdifficult": 3704,
      "Ġpolyt": 3705,
      "Ġpiece": 3706,
      "ĠCombin": 3707,
      "Ġplace": 3708,
      "Ġconcept": 3709,
      "Ġguarantee": 3710,
      "Ġground": 3711,
      "Ġsummar": 3712,
      "44": 3713,
      "01": 3714,
      "Ġdevi": 3715,
      "anging": 3716,
      "Ġbuil": 3717,
      "Ġvir": 3718,
      "Ġlayer": 3719,
      "Ġreplace": 3720,
      "Ġann": 3721,
      "anced": 3722,
      "PT": 3723,
      "Ġcontinuity": 3724,
      "Ġprice": 3725,
      "Ġdri": 3726,
      "Ġgauge": 3727,
      "Ġanti": 3728,
      "monic": 3729,
      "plane": 3730,
      "iqueness": 3731,
      "apter": 3732,
      "erior": 3733,
      "sively": 3734,
      "Ġparticle": 3735,
      "Ġlie": 3736,
      "ĠÃ©": 3737,
      "Ġâīº": 3738,
      "Ġleaves": 3739,
      "Ġreduces": 3740,
      "Ġtransl": 3741,
      "port": 3742,
      "Ġdecay": 3743,
      "Ġhis": 3744,
      "berg": 3745,
      "Ġdiffe": 3746,
      "roid": 3747,
      "points": 3748,
      "aly": 3749,
      "ending": 3750,
      "Ġbits": 3751,
      ")âŁ©": 3752,
      "Ġdisk": 3753,
      "Ġquantity": 3754,
      "Ġabstr": 3755,
      "ched": 3756,
      "roxim": 3757,
      "Ġdynamic": 3758,
      "Ġproportion": 3759,
      "Ġspatial": 3760,
      "AB": 3761,
      "aps": 3762,
      "space": 3763,
      "Ġconcent": 3764,
      "aw": 3765,
      "Ġcorrel": 3766,
      "Ġ(âĢ¢)": 3767,
      "NR": 3768,
      "ring": 3769,
      "dle": 3770,
      "MC": 3771,
      "Ġguarantees": 3772,
      "Ġvariation": 3773,
      "Ġelementary": 3774,
      "Ġbal": 3775,
      "ĠLagrangian": 3776,
      "Ġbecome": 3777,
      "Ġsolved": 3778,
      "Ġsymbols": 3779,
      "Ġextr": 3780,
      "Ġexh": 3781,
      "Ġhorizontal": 3782,
      "Ġcovering": 3783,
      "Ġ30": 3784,
      "ifferen": 3785,
      "Ġintern": 3786,
      "ĠId": 3787,
      "âĨ": 3788,
      "ultane": 3789,
      "Ġshape": 3790,
      "43": 3791,
      "Ġperformed": 3792,
      "Ġpseudo": 3793,
      "Ġprediction": 3794,
      "fi": 3795,
      "Ġmis": 3796,
      "Ġshar": 3797,
      "Ġexplo": 3798,
      "ograph": 3799,
      "99": 3800,
      "Ġenviron": 3801,
      "Ġadding": 3802,
      "herent": 3803,
      "Ġfigure": 3804,
      "Ġchannels": 3805,
      "Ġker": 3806,
      "EM": 3807,
      "auch": 3808,
      "Ġ32": 3809,
      "itt": 3810,
      "ĠCondition": 3811,
      "Ġexpressions": 3812,
      "Ġchoices": 3813,
      "irect": 3814,
      "ĠSubs": 3815,
      "Ġsplitting": 3816,
      "Ġtight": 3817,
      "ources": 3818,
      "Ġ])": 3819,
      "Ġbre": 3820,
      "Ġnaturally": 3821,
      "gan": 3822,
      "Ġadvant": 3823,
      "Ġ({": 3824,
      "Ġmer": 3825,
      "Ġcomes": 3826,
      "Ġquite": 3827,
      "Ġcommutative": 3828,
      "ĠPl": 3829,
      "Ġxy": 3830,
      "ĠJac": 3831,
      "Ġnormalized": 3832,
      "sur": 3833,
      "Ġresearch": 3834,
      "Ġsure": 3835,
      "Ġoutside": 3836,
      "Ġtu": 3837,
      "Ġjk": 3838,
      "Ġpractice": 3839,
      "Ġtransformations": 3840,
      "orel": 3841,
      "PP": 3842,
      "wo": 3843,
      "Ġpreprint": 3844,
      "olation": 3845,
      "oring": 3846,
      "bits": 3847,
      "come": 3848,
      "Ġchoosing": 3849,
      "Ġsides": 3850,
      "Ġangle": 3851,
      "ĠÂ¬": 3852,
      "Ġblack": 3853,
      "auchy": 3854,
      "Ġik": 3855,
      "Ġassuming": 3856,
      "Ġinvariants": 3857,
      "Ġimplementation": 3858,
      "eck": 3859,
      "Ġcorollary": 3860,
      "iti": 3861,
      "Ġelect": 3862,
      "Ġfa": 3863,
      "ĠDe": 3864,
      "Ġneighbour": 3865,
      "Ġbott": 3866,
      "andid": 3867,
      "jor": 3868,
      "Ġidentical": 3869,
      "Ġlinearly": 3870,
      "Ġaccess": 3871,
      "Ġdegrees": 3872,
      "Ġstatistical": 3873,
      "ling": 3874,
      "Ġdynamical": 3875,
      "ĠPh": 3876,
      "volution": 3877,
      "Ġtechnical": 3878,
      "Ġcompatible": 3879,
      "IC": 3880,
      "Ġamount": 3881,
      "48": 3882,
      "Ġrunning": 3883,
      "Ġapplies": 3884,
      "Ġgrowth": 3885,
      "ody": 3886,
      "categor": 3887,
      "Ġcriterion": 3888,
      "ĠAlthough": 3889,
      "Ġstrategies": 3890,
      "MA": 3891,
      "Ġlogarithm": 3892,
      "Ġintegration": 3893,
      "Ġinterpretation": 3894,
      "Ġcombinatorial": 3895,
      "etries": 3896,
      "Ġmeaning": 3897,
      "Ġessential": 3898,
      "Ġturns": 3899,
      "Ġsimultane": 3900,
      "Ġrelationsh": 3901,
      "Ġextends": 3902,
      "Ġtranslation": 3903,
      "ĠSecond": 3904,
      "46": 3905,
      "Ġactive": 3906,
      "Ġbro": 3907,
      "ĠÎ¥": 3908,
      "rown": 3909,
      "Ġcalculation": 3910,
      "Ġnonnegative": 3911,
      "ĠCho": 3912,
      "IT": 3913,
      "Ġdataset": 3914,
      "Ġvanishes": 3915,
      "Ġomit": 3916,
      "Ġplanar": 3917,
      ",âĪŀ": 3918,
      "ĠâĹ": 3919,
      "che": 3920,
      "Ġspan": 3921,
      "Ġusually": 3922,
      "Ġfeed": 3923,
      "Ġparticles": 3924,
      "ĠCauchy": 3925,
      "ipped": 3926,
      "lier": 3927,
      "Ġarbitrarily": 3928,
      "Ġreview": 3929,
      "fficiency": 3930,
      "Ġmachine": 3931,
      "rief": 3932,
      "Ġforward": 3933,
      "Ġpay": 3934,
      "Ġlinks": 3935,
      "Ġswit": 3936,
      "cles": 3937,
      "Ġmodified": 3938,
      "Ġmixed": 3939,
      "acting": 3940,
      "Ġgoes": 3941,
      "Ġdivisor": 3942,
      "Ġuniquely": 3943,
      "Ġdr": 3944,
      "Ġselected": 3945,
      "Ġcells": 3946,
      "Ġcandid": 3947,
      "Ġ)),": 3948,
      "Ġcontact": 3949,
      "Ġmeasurable": 3950,
      "times": 3951,
      "Ġdomains": 3952,
      "Ġanalyze": 3953,
      "Ġpen": 3954,
      "47": 3955,
      "Ġdiscreti": 3956,
      "ĠâĨĵ": 3957,
      "Ġfast": 3958,
      "ception": 3959,
      "ĠBorel": 3960,
      "sub": 3961,
      "Ġcalculate": 3962,
      "Ġmonoid": 3963,
      "Ġlearn": 3964,
      "ĠOF": 3965,
      "Ġreport": 3966,
      "norm": 3967,
      "Ġdelay": 3968,
      "ilies": 3969,
      "rob": 3970,
      "div": 3971,
      "Ġcore": 3972,
      "Ġtriple": 3973,
      "cur": 3974,
      "timal": 3975,
      "Ġvirt": 3976,
      "This": 3977,
      "Ġauthor": 3978,
      "aster": 3979,
      "Ġscenario": 3980,
      "Ġaxiom": 3981,
      "dy": 3982,
      "Ġeigenvector": 3983,
      "Ġorbits": 3984,
      "Ġpref": 3985,
      "Ġexisting": 3986,
      "Ġplayer": 3987,
      "Ġindependently": 3988,
      "Ġevaluation": 3989,
      "Ġincom": 3990,
      "Ġá»": 3991,
      "Ġconser": 3992,
      "Ġlabels": 3993,
      "Ġordering": 3994,
      "Ġ);": 3995,
      "Ġdetailed": 3996,
      "Ġplot": 3997,
      "RE": 3998,
      "Ġuncertain": 3999,
      "ĠApplying": 4000,
      "utes": 4001,
      "Ġbelie": 4002,
      "Ġattr": 4003,
      "Ġperturbation": 4004,
      "Ġpropag": 4005,
      "ĠOp": 4006,
      "utive": 4007,
      "|,": 4008,
      "Ġneg": 4009,
      "Ġuniqueness": 4010,
      "Ġrefin": 4011,
      "ĠâĮĪ": 4012,
      "Ġmoduli": 4013,
      "Ġske": 4014,
      "Ġmes": 4015,
      "ĠÃĥ": 4016,
      "Ġallocation": 4017,
      "LS": 4018,
      "Ġ[(": 4019,
      "Ġmonotone": 4020,
      "Ġadditive": 4021,
      "called": 4022,
      "Ġpractical": 4023,
      "ularities": 4024,
      "chron": 4025,
      "Ġbig": 4026,
      "vation": 4027,
      "acle": 4028,
      "Ġcapt": 4029,
      "ĠAN": 4030,
      "Ġdepth": 4031,
      "ĠBay": 4032,
      "Ġnotice": 4033,
      "Ġimages": 4034,
      "ĠEn": 4035,
      "Ġbrief": 4036,
      "Ġinterference": 4037,
      "Ġacross": 4038,
      "Lemma": 4039,
      "Ġinvertible": 4040,
      "Ġsimplicial": 4041,
      "oper": 4042,
      "Ġresolution": 4043,
      "Ġinjective": 4044,
      "Ġcoincides": 4045,
      "arent": 4046,
      "Ġconvention": 4047,
      "PS": 4048,
      "Ġvary": 4049,
      "Ġdiffusion": 4050,
      "Ġbranch": 4051,
      "MS": 4052,
      "ĠCombining": 4053,
      "ĠExt": 4054,
      "Ġpull": 4055,
      "âĭ": 4056,
      "Ġfilter": 4057,
      "Ġexpand": 4058,
      "Ġ,...,": 4059,
      "Ġspecified": 4060,
      "Ġcategories": 4061,
      "Ġbipar": 4062,
      "ĠCar": 4063,
      "Ġutility": 4064,
      "Xiv": 4065,
      "Sch": 4066,
      "ctang": 4067,
      "Ġentry": 4068,
      "ines": 4069,
      "Ġpopulation": 4070,
      "ĠIN": 4071,
      "ta": 4072,
      "Ġinstances": 4073,
      "Ġsynt": 4074,
      "Ġrespon": 4075,
      "bo": 4076,
      "sitivity": 4077,
      "Ġfamilies": 4078,
      "Ġ27": 4079,
      "Ġcorrespondence": 4080,
      "normal": 4081,
      "vent": 4082,
      "ĠâĬĶ": 4083,
      "ĠâĪħ.": 4084,
      "Ġlogic": 4085,
      "Ġexperiment": 4086,
      "Ġcharacterization": 4087,
      "(âĪĨ": 4088,
      "Ġinternal": 4089,
      "anged": 4090,
      "Ġaux": 4091,
      "mal": 4092,
      "Ġposterior": 4093,
      "Ġbijection": 4094,
      "000": 4095,
      "hol": 4096,
      "Ġcomputations": 4097,
      "olated": 4098,
      "sm": 4099,
      "Ġseman": 4100,
      "Ġreplacing": 4101,
      "Ġequivalently": 4102,
      "RA": 4103,
      "tency": 4104,
      "Ġmi": 4105,
      "Ġassignment": 4106,
      "Ġleaf": 4107,
      "odic": 4108,
      "width": 4109,
      "HS": 4110,
      "Ġtail": 4111,
      "ermin": 4112,
      "Ġtheorems": 4113,
      "Ġtrajectory": 4114,
      "MM": 4115,
      "ibility": 4116,
      "ĠRiemannian": 4117,
      "ĠAnd": 4118,
      "Ġarticle": 4119,
      "ĠBo": 4120,
      "ached": 4121,
      "Ġzer": 4122,
      ".(": 4123,
      "Ġadvers": 4124,
      "Ġmathematical": 4125,
      "Ġrelatively": 4126,
      ",âĪĴ": 4127,
      "Ġcoupling": 4128,
      "lim": 4129,
      "hn": 4130,
      "mann": 4131,
      "Ġimmediate": 4132,
      "atter": 4133,
      "Ġmodulo": 4134,
      "Ġchall": 4135,
      "rete": 4136,
      "ĠPer": 4137,
      "Ġconjugate": 4138,
      "Ġconformal": 4139,
      "Ġcardin": 4140,
      "ĠÃł": 4141,
      "ĠOr": 4142,
      "Ġaddress": 4143,
      "Ġmaking": 4144,
      "]:": 4145,
      "Ġquantities": 4146,
      "Ġpresence": 4147,
      "Ġsimulations": 4148,
      "Ġfit": 4149,
      "âĸ": 4150,
      "HE": 4151,
      "Ġlight": 4152,
      "Ġdifferentiable": 4153,
      "pec": 4154,
      "Ġinvestigate": 4155,
      "Ġconfigurations": 4156,
      "Ġshift": 4157,
      "âĪª": 4158,
      "Ġheight": 4159,
      "change": 4160,
      "Ġdiagrams": 4161,
      "ĠLem": 4162,
      "Ġpredic": 4163,
      "ĠFollow": 4164,
      "ledg": 4165,
      "otent": 4166,
      "local": 4167,
      "Ġlabeled": 4168,
      "godic": 4169,
      "ground": 4170,
      "Ġgraded": 4171,
      "Ġveloc": 4172,
      "Ġvelocity": 4173,
      "Ġmorphisms": 4174,
      "Ġosc": 4175,
      "ĠOtherwise": 4176,
      "ĠSP": 4177,
      "Ġfore": 4178,
      "49": 4179,
      "els": 4180,
      "Ġarcs": 4181,
      "Ġdispl": 4182,
      "pres": 4183,
      "riting": 4184,
      "overy": 4185,
      "ĠBrown": 4186,
      "ĠMon": 4187,
      "Ġrotation": 4188,
      "regular": 4189,
      "nother": 4190,
      "Ġproven": 4191,
      "yl": 4192,
      "grad": 4193,
      "ites": 4194,
      "ĠAgain": 4195,
      "Ġrecently": 4196,
      "Ġevents": 4197,
      "Ġconclud": 4198,
      "ley": 4199,
      "rence": 4200,
      "Ġbehaviour": 4201,
      "|.": 4202,
      "Ġwho": 4203,
      "Ġsingularities": 4204,
      "Ġjoin": 4205,
      "Ġâĸ³": 4206,
      "Ġ28": 4207,
      "Ġaway": 4208,
      "sue": 4209,
      "Ġkind": 4210,
      "Ġmarked": 4211,
      "Ġparab": 4212,
      "atively": 4213,
      "ĠSpecifically": 4214,
      "Ġefficiency": 4215,
      "Ġestimators": 4216,
      "Ġeffects": 4217,
      "qq": 4218,
      "Ġpartitions": 4219,
      "Ġmajor": 4220,
      "Ġnontrivial": 4221,
      "Ġevaluate": 4222,
      "CC": 4223,
      "ĠTheorems": 4224,
      "Ġwide": 4225,
      "Ġ|,": 4226,
      "Ġtrunc": 4227,
      "Ġlimits": 4228,
      "imal": 4229,
      "Ġmonomial": 4230,
      "ying": 4231,
      "Ġaver": 4232,
      "tinuous": 4233,
      "ush": 4234,
      "05": 4235,
      ")))": 4236,
      "Ġlikelihood": 4237,
      "ĠMor": 4238,
      "Ġ[[": 4239,
      "Ġpurpose": 4240,
      "ĠPre": 4241,
      "Ġextensions": 4242,
      "modules": 4243,
      "Ġlocation": 4244,
      "ĠAnother": 4245,
      "ÏĢi": 4246,
      "ured": 4247,
      "Ġfaces": 4248,
      "Ġpreserves": 4249,
      "Ġseems": 4250,
      "Ġblow": 4251,
      "Ġstage": 4252,
      "Ġconvenient": 4253,
      "Ġrectang": 4254,
      "Ġdirections": 4255,
      "Ġduality": 4256,
      "Ġisom": 4257,
      "Ã¼": 4258,
      "Ġmodules": 4259,
      "Ġatten": 4260,
      "ĠNot": 4261,
      "ĠMa": 4262,
      "ierarch": 4263,
      "IS": 4264,
      "finite": 4265,
      "Ġpenal": 4266,
      "ĠJacob": 4267,
      "Ġintu": 4268,
      "Ġimplicit": 4269,
      "mer": 4270,
      "Ġdemand": 4271,
      "igroup": 4272,
      "Ã¤": 4273,
      "Ġproduce": 4274,
      "Ġdefinite": 4275,
      "ependence": 4276,
      "ĠNP": 4277,
      "ĠRep": 4278,
      "Ġfeedback": 4279,
      "oting": 4280,
      "Ġdiffeomorphism": 4281,
      "Ġeq": 4282,
      "omen": 4283,
      "Ġpairwise": 4284,
      "Ġexponent": 4285,
      "be": 4286,
      "omin": 4287,
      "Ġcoding": 4288,
      "ginal": 4289,
      "Ġadded": 4290,
      "Ġcruc": 4291,
      "ering": 4292,
      "orts": 4293,
      "Ġillustrate": 4294,
      "CP": 4295,
      "Ġenvironment": 4296,
      "Ïĳ": 4297,
      "case": 4298,
      "Ġhist": 4299,
      "reasing": 4300,
      "Ġentanglement": 4301,
      "convex": 4302,
      "tw": 4303,
      "ĠAck": 4304,
      "Ġregime": 4305,
      "Ġdig": 4306,
      "Ġinflu": 4307,
      "Ġnever": 4308,
      "Ġpolar": 4309,
      "(âĢ¢)": 4310,
      "Ġtil": 4311,
      "Ġscore": 4312,
      "Ġcopies": 4313,
      "Ġdistinguish": 4314,
      "Ġsignificantly": 4315,
      "Ġreceived": 4316,
      "Ġinductive": 4317,
      "tree": 4318,
      "ĠAny": 4319,
      "Ġtransfer": 4320,
      "fully": 4321,
      "ifies": 4322,
      "Ġlevels": 4323,
      "ectivity": 4324,
      "Ġthank": 4325,
      "Ġlemm": 4326,
      "Ġallowed": 4327,
      "eties": 4328,
      "Ġensures": 4329,
      "Ġequipped": 4330,
      "Ġsubgroups": 4331,
      "poses": 4332,
      "iers": 4333,
      "Ġextreme": 4334,
      "Ġtem": 4335,
      "Ġfractional": 4336,
      "cal": 4337,
      "]]": 4338,
      "Ġagainst": 4339,
      "Ġdetection": 4340,
      "Ġrandomly": 4341,
      "Ġparametri": 4342,
      "ĠSome": 4343,
      "Ġderivation": 4344,
      "fold": 4345,
      "ĠGener": 4346,
      "Ġadop": 4347,
      "ream": 4348,
      "âŁ©,": 4349,
      "ĠBr": 4350,
      "herical": 4351,
      "Ġbipartite": 4352,
      "Ġstatistics": 4353,
      "Ġpolyg": 4354,
      "etermin": 4355,
      "actor": 4356,
      "Ġ50": 4357,
      "Ġdiscon": 4358,
      "ĠAb": 4359,
      "Ġouter": 4360,
      "nowledg": 4361,
      "Ġles": 4362,
      "Ġmetrics": 4363,
      "Ġarrow": 4364,
      "Ġalthough": 4365,
      "Ġqueries": 4366,
      "inter": 4367,
      "Ġnotations": 4368,
      "ichlet": 4369,
      "ĠTwo": 4370,
      "ĠâĦı": 4371,
      "ĠAcknowledg": 4372,
      "ĠðĿĳĸ": 4373,
      "bes": 4374,
      "Ġcardinality": 4375,
      "Ġexponentially": 4376,
      "Ġearlier": 4377,
      "\".": 4378,
      "Ġexception": 4379,
      "Ġpossibly": 4380,
      "Ġdele": 4381,
      "Ġruns": 4382,
      "Ġbin": 4383,
      "Ġbottom": 4384,
      "part": 4385,
      "Ġinference": 4386,
      "Ġtypical": 4387,
      "ĠBrownian": 4388,
      "Ġintroduction": 4389,
      "Ġcoincide": 4390,
      "âĮī": 4391,
      "iliary": 4392,
      "Ġfinally": 4393,
      "ĠâĪħ,": 4394,
      "âĢ¢âĢ¢âĢ¢": 4395,
      "Ġelimin": 4396,
      "Ġdemonstrate": 4397,
      "ĠÅ©": 4398,
      "â©": 4399,
      "ĠFollowing": 4400,
      "ĠNew": 4401,
      "ĠConjecture": 4402,
      "Ġaxis": 4403,
      "ĠST": 4404,
      "Ġpreviously": 4405,
      "vice": 4406,
      "ĠRel": 4407,
      "IG": 4408,
      "Ġcare": 4409,
      "Ġzeros": 4410,
      "wor": 4411,
      "Ġ|.": 4412,
      "ĠÎ±Î²": 4413,
      "Ġpx": 4414,
      "Ġcircuit": 4415,
      "Ġadvantage": 4416,
      "Ġinvolved": 4417,
      "Ġ26": 4418,
      "Ġinfinitely": 4419,
      "ĠarXiv": 4420,
      "Ġ(âĪĩ": 4421,
      "Ġergodic": 4422,
      "ĠAlice": 4423,
      "Ġintegrals": 4424,
      "Ġrestrict": 4425,
      "oder": 4426,
      "Ġonline": 4427,
      "ror": 4428,
      "ĠdÃ©": 4429,
      "Ġinv": 4430,
      "iag": 4431,
      "Ġindicates": 4432,
      "Ġabstract": 4433,
      "Ġow": 4434,
      "Ġmoves": 4435,
      "Ġstack": 4436,
      "Ġdetermines": 4437,
      "ternal": 4438,
      "ĠBob": 4439,
      "Ġways": 4440,
      "alse": 4441,
      "Ġincludes": 4442,
      "ms": 4443,
      "resenting": 4444,
      "adic": 4445,
      "amin": 4446,
      "Ġinputs": 4447,
      "que": 4448,
      "Ġfiltr": 4449,
      "ĠËļ": 4450,
      "ĠVar": 4451,
      "ĠâĻ£": 4452,
      "uth": 4453,
      "Ġadmit": 4454,
      "Ġmultiplicity": 4455,
      "...": 4456,
      "Ġapproximations": 4457,
      "Ġtesting": 4458,
      "ĠâĪ¥(": 4459,
      "Ġgoing": 4460,
      "Ġinser": 4461,
      "ĠâĪ¶": 4462,
      "Ġnor": 4463,
      "ropic": 4464,
      "Ġstatements": 4465,
      "Ġtowards": 4466,
      "ector": 4467,
      "Ġagg": 4468,
      "Ġacting": 4469,
      "Ġgames": 4470,
      "Ġupon": 4471,
      "Ġsettings": 4472,
      "ĠLi": 4473,
      "Ġâª¯": 4474,
      "ski": 4475,
      "ilinear": 4476,
      "Ġpick": 4477,
      "Ġextra": 4478,
      "Ġ|(": 4479,
      "Ġmultipl": 4480,
      "Ġharmonic": 4481,
      "Ġvanishing": 4482,
      "encies": 4483,
      "onom": 4484,
      "henomen": 4485,
      "Ġquantif": 4486,
      "Ġmember": 4487,
      "Ġtemp": 4488,
      "Ġrelationship": 4489,
      "idden": 4490,
      "Ġinvolving": 4491,
      "class": 4492,
      "DF": 4493,
      "ĠDirichlet": 4494,
      "Ġsched": 4495,
      "Ġsignals": 4496,
      "Ġsimplify": 4497,
      "Ġdeterminant": 4498,
      "56": 4499,
      ")âĪĪ": 4500,
      "ĠTaking": 4501,
      "br": 4502,
      "Ġmarginal": 4503,
      "];": 4504,
      "Ġoscill": 4505,
      "Ġitem": 4506,
      "Ġtot": 4507,
      "Ġgiving": 4508,
      "Ġrepresenting": 4509,
      "ĠâĮĭ": 4510,
      "ĠStr": 4511,
      "ĠSe": 4512,
      "Ġtends": 4513,
      "Ġrise": 4514,
      "Ġexplained": 4515,
      "Ġorgan": 4516,
      "ged": 4517,
      "Ġhierarch": 4518,
      "Ġvers": 4519,
      "Ġviewed": 4520,
      "AP": 4521,
      "ois": 4522,
      "ĠBefore": 4523,
      "Ġneighbors": 4524,
      "tegr": 4525,
      "Ġnature": 4526,
      "Ġbundles": 4527,
      "Ġadaptive": 4528,
      "Ġmanner": 4529,
      "Ġphenomen": 4530,
      "âĪ¼": 4531,
      "Ġsums": 4532,
      "Ġsizes": 4533,
      "Ġtrack": 4534,
      "ĠReg": 4535,
      "Ġattention": 4536,
      "Ġinterpre": 4537,
      "level": 4538,
      "ĠDue": 4539,
      "forms": 4540,
      "Ġstronger": 4541,
      "rank": 4542,
      "gue": 4543,
      "connected": 4544,
      "Ġoverall": 4545,
      "acian": 4546,
      "âĬĹ": 4547,
      "Ġclustering": 4548,
      "go": 4549,
      "dec": 4550,
      "Ġworst": 4551,
      "Ġmonotonic": 4552,
      "Ġprobabilistic": 4553,
      "âĪŀ,": 4554,
      "Ġ199": 4555,
      "ĠAC": 4556,
      "ĠWithout": 4557,
      "period": 4558,
      "Ġintegrable": 4559,
      "ulations": 4560,
      "Ġtrajectories": 4561,
      "Ġsingularity": 4562,
      "semble": 4563,
      "ĠForm": 4564,
      "Ġprimitive": 4565,
      "Ġcrucial": 4566,
      "Ġresponse": 4567,
      "edy": 4568,
      "Ġexpress": 4569,
      "Ġ(âĢ¢,": 4570,
      "Ġparabolic": 4571,
      "heses": 4572,
      "ean": 4573,
      "Ġauxiliary": 4574,
      "Ġexecution": 4575,
      "Ġintersect": 4576,
      "teness": 4577,
      ")[": 4578,
      "DS": 4579,
      "\",": 4580,
      "abell": 4581,
      "As": 4582,
      "Â¨": 4583,
      "Ġsubsequence": 4584,
      "iable": 4585,
      "Ġelse": 4586,
      "EC": 4587,
      "ĠÎ©": 4588,
      "Ġmoments": 4589,
      "Ġincident": 4590,
      "oted": 4591,
      "Ġexhi": 4592,
      "60": 4593,
      "Ġmodular": 4594,
      "ĠEvery": 4595,
      "Ġ31": 4596,
      "Ġjump": 4597,
      "de": 4598,
      "Ġdecoding": 4599,
      "symmetric": 4600,
      "ativity": 4601,
      "gent": 4602,
      "ensors": 4603,
      "AS": 4604,
      "Ġune": 4605,
      "Ġadjoint": 4606,
      "BS": 4607,
      "TS": 4608,
      "Ġsyn": 4609,
      "ype": 4610,
      "olean": 4611,
      "Ġbra": 4612,
      "Ġsurjective": 4613,
      "Ġmid": 4614,
      "ĠHa": 4615,
      "Ġdeformation": 4616,
      "Ġissue": 4617,
      "51": 4618,
      "mas": 4619,
      "Ġpresentation": 4620,
      "Ġconnecting": 4621,
      "ĠOut": 4622,
      "Ġbias": 4623,
      "For": 4624,
      "approxim": 4625,
      "Ġintr": 4626,
      "ĠÅ«": 4627,
      "Ġends": 4628,
      "Ġdependent": 4629,
      "Ġinvolves": 4630,
      "]-": 4631,
      "Ġpositions": 4632,
      "Ġrequirement": 4633,
      "itian": 4634,
      "Ġsurely": 4635,
      "Ġmatch": 4636,
      "ĠComput": 4637,
      "Ġsimultaneously": 4638,
      "Ġtypically": 4639,
      "55": 4640,
      "cri": 4641,
      "atch": 4642,
      "ĠThrough": 4643,
      "Ġreceiver": 4644,
      "mark": 4645,
      "Ġassigned": 4646,
      "Ġreflection": 4647,
      "Ġconsum": 4648,
      "Ġimproved": 4649,
      "Ġpiecewise": 4650,
      "Ġcalculated": 4651,
      "Ġfoli": 4652,
      "Ġsemigroup": 4653,
      "reng": 4654,
      "Ġunbounded": 4655,
      "Ġlonger": 4656,
      "Ġstudies": 4657,
      "NN": 4658,
      "Ġreferred": 4659,
      "Ġpermutations": 4660,
      "tered": 4661,
      "Ġfair": 4662,
      "Ġrepeated": 4663,
      "Ġattain": 4664,
      "Ġtreatment": 4665,
      "Ġshif": 4666,
      "Ġtorsion": 4667,
      "Ġpolytope": 4668,
      "Ġquadr": 4669,
      "reen": 4670,
      "Ġcontraction": 4671,
      "illing": 4672,
      "Ġlift": 4673,
      "category": 4674,
      "Ġideas": 4675,
      "Ġpict": 4676,
      "ithme": 4677,
      "ĠÂ¨": 4678,
      "hest": 4679,
      "Ġtasks": 4680,
      "Ġlimiting": 4681,
      "Ġitems": 4682,
      "active": 4683,
      "Ġwhy": 4684,
      "versely": 4685,
      "tor": 4686,
      "clic": 4687,
      "Ġidentification": 4688,
      "variate": 4689,
      "Ġmode": 4690,
      "optimal": 4691,
      "Ġimplemented": 4692,
      "Ġclusters": 4693,
      "Ġproject": 4694,
      "ogn": 4695,
      "Ġpub": 4696,
      "opf": 4697,
      "Ġbroad": 4698,
      "Ġplayers": 4699,
      "hing": 4700,
      "Ġoutcome": 4701,
      "Ġchild": 4702,
      "Ġfacts": 4703,
      "Ġsquares": 4704,
      "Ġcoc": 4705,
      "Ġillustrated": 4706,
      "tz": 4707,
      "Ġcentered": 4708,
      "tingale": 4709,
      "Ġresol": 4710,
      "Ġwin": 4711,
      "Ġmessages": 4712,
      "Ġdivergence": 4713,
      "Ġ/(": 4714,
      "ĠComp": 4715,
      "ĠPS": 4716,
      "Ġsubspaces": 4717,
      "ĠBan": 4718,
      "vially": 4719,
      "ayer": 4720,
      "Ġoutputs": 4721,
      "Ġoverl": 4722,
      "Ġvarieties": 4723,
      "Ġaggreg": 4724,
      "umul": 4725,
      "Ġpartially": 4726,
      "tima": 4727,
      "Ġregularization": 4728,
      "Ġprivacy": 4729,
      "Ġdrawn": 4730,
      "non": 4731,
      "Ġep": 4732,
      "medi": 4733,
      "Ġopposite": 4734,
      "Ġcomplic": 4735,
      "Ġ()": 4736,
      "Ġthroughout": 4737,
      "Ġlimited": 4738,
      "Ġformally": 4739,
      "Ġbrack": 4740,
      "ustif": 4741,
      "52": 4742,
      "ressed": 4743,
      "stead": 4744,
      "Ġyet": 4745,
      "ĠEr": 4746,
      "Ġsoc": 4747,
      "Ġdifficul": 4748,
      "Î¹": 4749,
      "Ġdescent": 4750,
      "ci": 4751,
      "Ġquestions": 4752,
      "Ġask": 4753,
      "Ġtheories": 4754,
      "Ġ[?,": 4755,
      "Ġmaintain": 4756,
      "Ġdescribes": 4757,
      "Ġcf": 4758,
      "ĠLy": 4759,
      "Ġcomplexes": 4760,
      "Ġrespective": 4761,
      "Ġetc": 4762,
      "'t": 4763,
      "poly": 4764,
      "Ġmagn": 4765,
      "mut": 4766,
      "Ġ=âĩĴ": 4767,
      "onormal": 4768,
      "ists": 4769,
      "Ġefficiently": 4770,
      "Ġremainder": 4771,
      "algebras": 4772,
      "ĠHerm": 4773,
      "Ġexternal": 4774,
      "Ġdecreases": 4775,
      "rimin": 4776,
      "Ġsent": 4777,
      "Ġconsistency": 4778,
      "Ġcharacterized": 4779,
      "Ġstreng": 4780,
      "path": 4781,
      "step": 4782,
      "UC": 4783,
      "ĠâĨĳ": 4784,
      "ĠBoth": 4785,
      "right": 4786,
      "Ġfalse": 4787,
      "ittle": 4788,
      "Ġordinary": 4789,
      "Ġlemmas": 4790,
      "state": 4791,
      "besgue": 4792,
      "57": 4793,
      "Ġuncertainty": 4794,
      "Ġsemantics": 4795,
      "ĠLaplacian": 4796,
      "Ġsegments": 4797,
      "Ġasp": 4798,
      "Ġrewrite": 4799,
      "Ġtests": 4800,
      "Ġblue": 4801,
      "Ġprofile": 4802,
      "Ġminimization": 4803,
      "ðĿľ": 4804,
      "Ġrigid": 4805,
      "Ġcountable": 4806,
      "Ġfiltration": 4807,
      "AM": 4808,
      "ried": 4809,
      "Ġpatterns": 4810,
      "Ġwidth": 4811,
      "Ġhypersur": 4812,
      "Ġ[?]": 4813,
      "Ġcombined": 4814,
      "uing": 4815,
      "ĠSym": 4816,
      "Ġothers": 4817,
      "0000": 4818,
      "urity": 4819,
      "ĠÏĸ": 4820,
      "Ġdans": 4821,
      "eter": 4822,
      "Ġconvolution": 4823,
      "ĠÃĤ": 4824,
      "uristic": 4825,
      "Ġincluded": 4826,
      "Ġáºĭ": 4827,
      "itude": 4828,
      "Ġassertion": 4829,
      "ĠTHE": 4830,
      "Ġsheaf": 4831,
      "overed": 4832,
      "Ġoptimality": 4833,
      "ĠOf": 4834,
      "Ġactual": 4835,
      "Ġtransport": 4836,
      "(âĢ¢,": 4837,
      "ensity": 4838,
      "Ġhandle": 4839,
      "ĠBern": 4840,
      "Ġarithme": 4841,
      "ĠFr": 4842,
      "Ġpour": 4843,
      "Ġ|)": 4844,
      "âŁ©.": 4845,
      "ults": 4846,
      "ĠÂµÎ½": 4847,
      "Ġhomeomorphism": 4848,
      "¿½": 4849,
      "Ġcopy": 4850,
      "Ġprogramming": 4851,
      "ĠProper": 4852,
      "Ġbackground": 4853,
      "Ġ??": 4854,
      "Ġslow": 4855,
      "Ġseparable": 4856,
      "Ġmeasured": 4857,
      "Ġbar": 4858,
      "imod": 4859,
      "Ġ})": 4860,
      "09": 4861,
      "Ġcandidate": 4862,
      "Ġregret": 4863,
      "Ġul": 4864,
      "Ġreconstruction": 4865,
      "orff": 4866,
      "Ġevaluated": 4867,
      "Figure": 4868,
      "Ġreferences": 4869,
      "Ġminimize": 4870,
      "Ġher": 4871,
      "Ġamplit": 4872,
      "Ġgets": 4873,
      "Ġvariational": 4874,
      "atically": 4875,
      ",(": 4876,
      "53": 4877,
      "Ġjob": 4878,
      "Ġcus": 4879,
      "Ġnond": 4880,
      "Ġcounting": 4881,
      "AG": 4882,
      "edge": 4883,
      "Ġspherical": 4884,
      "CS": 4885,
      "spec": 4886,
      "ĠLebesgue": 4887,
      "sities": 4888,
      "Ġalph": 4889,
      "lor": 4890,
      "Ġâĸ·": 4891,
      "Ġachieves": 4892,
      "Ġenumer": 4893,
      "Ġreturns": 4894,
      "Ġ(âĪ": 4895,
      "functions": 4896,
      "Ġsends": 4897,
      "Ġinterpreted": 4898,
      "Ġcome": 4899,
      "ĠEs": 4900,
      "Ġnotions": 4901,
      "Ġload": 4902,
      "owers": 4903,
      "Ġhappens": 4904,
      "Ġresource": 4905,
      "Ġ{âĪĴ": 4906,
      "54": 4907,
      "kin": 4908,
      "Ġrelay": 4909,
      "bi": 4910,
      "olev": 4911,
      "Ġ01": 4912,
      "Ġnois": 4913,
      "Ġunstable": 4914,
      "periodic": 4915,
      "Ġimplic": 4916,
      "Ġsto": 4917,
      "Ġindependence": 4918,
      "ĠMulti": 4919,
      "Ġprojections": 4920,
      "Ġjustif": 4921,
      "RS": 4922,
      "Ġbeginning": 4923,
      "Ġcausal": 4924,
      "plan": 4925,
      "ĠBanach": 4926,
      "Ġproportional": 4927,
      "Ġinvariance": 4928,
      "ians": 4929,
      "plex": 4930,
      "dorff": 4931,
      "Ġdeviation": 4932,
      "istrib": 4933,
      "Ġmarket": 4934,
      "lder": 4935,
      "ortun": 4936,
      "ĠÂº": 4937,
      "Ġorthonormal": 4938,
      "netic": 4939,
      "aton": 4940,
      "Ġindicate": 4941,
      "Ġencoding": 4942,
      "ĠEnd": 4943,
      "amp": 4944,
      "ĠModel": 4945,
      "Ġendpoints": 4946,
      "Ġcombining": 4947,
      "Ġminimizing": 4948,
      "Ġpolyhed": 4949,
      "ausdorff": 4950,
      "Ġbriefly": 4951,
      "Ġneural": 4952,
      "ecti": 4953,
      "Ġneighbourhood": 4954,
      "Ġrecovery": 4955,
      "Ġaug": 4956,
      "Ġachievable": 4957,
      "Ġpredict": 4958,
      "Ġapplic": 4959,
      "Ġbid": 4960,
      "ĠBes": 4961,
      "cd": 4962,
      "199": 4963,
      "oded": 4964,
      "Ġown": 4965,
      "Ġgenerates": 4966,
      "timating": 4967,
      "Ġhypotheses": 4968,
      "Ġapproximately": 4969,
      "Ġstri": 4970,
      "Ġhighest": 4971,
      "Ġuv": 4972,
      "bre": 4973,
      "Ġarise": 4974,
      "adjoint": 4975,
      "otropic": 4976,
      "ĠAND": 4977,
      "Ġtriangles": 4978,
      "lock": 4979,
      "Ġorders": 4980,
      "Con": 4981,
      "Ġincor": 4982,
      "lli": 4983,
      "Ġmultiplicative": 4984,
      "Ġverified": 4985,
      "Ġmatter": 4986,
      "ĠAx": 4987,
      "Ġcoar": 4988,
      "ibb": 4989,
      "58": 4990,
      "Ġcomplicated": 4991,
      "Ġinsp": 4992,
      "erial": 4993,
      "Ġhad": 4994,
      "Ġconvenience": 4995,
      "Ġconnections": 4996,
      "ĠSNR": 4997,
      "Ġdatasets": 4998,
      "ĠGe": 4999,
      "Ġqq": 5000,
      "that": 5001,
      "Ġ(âĥĹ": 5002,
      "Ġshare": 5003,
      "ĠLemmas": 5004,
      "Ġcharacterize": 5005,
      "ensive": 5006,
      "ĠâĬĻ": 5007,
      "Ġxx": 5008,
      "iring": 5009,
      "theless": 5010,
      "Ġquality": 5011,
      "Ï±": 5012,
      "ecutive": 5013,
      "Ġcompletion": 5014,
      "Ã©s": 5015,
      "Ġ29": 5016,
      "({": 5017,
      "use": 5018,
      "Ġdiscrimin": 5019,
      "linder": 5020,
      "oral": 5021,
      "Ġqueue": 5022,
      "cepts": 5023,
      "08": 5024,
      "Ġtemper": 5025,
      "Ġpreserving": 5026,
      "Ġfactorization": 5027,
      "Ġconcludes": 5028,
      "Ġplac": 5029,
      "Ġcalculations": 5030,
      "ĠBayesian": 5031,
      "mediate": 5032,
      "lecting": 5033,
      "Section": 5034,
      "umann": 5035,
      "Ġsof": 5036,
      "enef": 5037,
      "ĠLP": 5038,
      "Ch": 5039,
      "Ġguaranteed": 5040,
      "ĠPRO": 5041,
      "ĠTake": 5042,
      "LP": 5043,
      "Ġmomentum": 5044,
      "ĠChoose": 5045,
      "Ġmic": 5046,
      "Ġreve": 5047,
      "Ġrealization": 5048,
      "Ġprocessing": 5049,
      "Ġnonempty": 5050,
      "ĠChapter": 5051,
      "Ġunless": 5052,
      "ulus": 5053,
      "ogen": 5054,
      "Proposition": 5055,
      "âĭĨ": 5056,
      "aylor": 5057,
      "Ġaverag": 5058,
      "ĠâĪĴâĪĴâĪĴ": 5059,
      "edom": 5060,
      "Ġintersects": 5061,
      "Ġvariant": 5062,
      "Ġrever": 5063,
      "ĠCR": 5064,
      "dependent": 5065,
      "Ġspe": 5066,
      "ĠRic": 5067,
      "Ġtrade": 5068,
      "bl": 5069,
      "ĠBased": 5070,
      "roben": 5071,
      "Ġrough": 5072,
      "Ġskew": 5073,
      "xy": 5074,
      "icon": 5075,
      "cop": 5076,
      "Ġsket": 5077,
      "Ġji": 5078,
      "Ġflows": 5079,
      "pecially": 5080,
      "ĠÄĢ": 5081,
      "ah": 5082,
      "Ġgeneralize": 5083,
      "Ġdiam": 5084,
      "Ġclosely": 5085,
      "Ġsetup": 5086,
      "Ġrecursive": 5087,
      "ses": 5088,
      "Ġdifferences": 5089,
      "Ġdv": 5090,
      "Ġmesh": 5091,
      "Ġsolves": 5092,
      "unov": 5093,
      "Ġloops": 5094,
      "arÃ©": 5095,
      "Ġsuggests": 5096,
      "obolev": 5097,
      "Ġâī«": 5098,
      "unct": 5099,
      "Ġbody": 5100,
      "ET": 5101,
      "field": 5102,
      "Ġproduces": 5103,
      "matrix": 5104,
      "zing": 5105,
      "ED": 5106,
      "phas": 5107,
      "lected": 5108,
      "Ġanalogue": 5109,
      "ĠNon": 5110,
      "ĠMC": 5111,
      "+âĪŀ": 5112,
      "ĠIs": 5113,
      "Ġcontent": 5114,
      "Ġunits": 5115,
      "robenius": 5116,
      "brid": 5117,
      "Ġmoreover": 5118,
      "Ġmed": 5119,
      "Ġadapt": 5120,
      "na": 5121,
      "rag": 5122,
      "Ġconsecutive": 5123,
      "GL": 5124,
      "Ġsimpler": 5125,
      "Ġappearing": 5126,
      "Ġvirtual": 5127,
      "Ġpassing": 5128,
      "Ġbuild": 5129,
      "Ġstream": 5130,
      "Ġoracle": 5131,
      "Ġmn": 5132,
      "ĠVI": 5133,
      "Ġalphab": 5134,
      "Ġcoherent": 5135,
      "ĠRef": 5136,
      "Ġamb": 5137,
      "Ġneither": 5138,
      "Ġfaster": 5139,
      "Ġnoted": 5140,
      "scale": 5141,
      "Ġimpos": 5142,
      "ĠThroughout": 5143,
      "erc": 5144,
      "Ġinvolution": 5145,
      "Ġlogarithmic": 5146,
      "Ġarithmetic": 5147,
      "Ġthink": 5148,
      "Ġsynchron": 5149,
      "Ġdistances": 5150,
      "Ġpriori": 5151,
      "ĠHopf": 5152,
      "chain": 5153,
      "incarÃ©": 5154,
      "ĠÄĽ": 5155,
      "Ġnorms": 5156,
      "Ġsays": 5157,
      "ĠIts": 5158,
      "75": 5159,
      "Ġisolated": 5160,
      "Ġrelies": 5161,
      "Ġconstrained": 5162,
      "Ġconverse": 5163,
      "ĠBl": 5164,
      "Ġ00": 5165,
      "Ġbenef": 5166,
      "Ġsubsequ": 5167,
      "Ġcompe": 5168,
      "Ġsignature": 5169,
      "Ġcosts": 5170,
      "Ġheuristic": 5171,
      "izable": 5172,
      "gru": 5173,
      "strain": 5174,
      "Ġemphas": 5175,
      "Ġcontradicts": 5176,
      "Ġsubstitution": 5177,
      "yond": 5178,
      "Ã¶lder": 5179,
      "âĪ§": 5180,
      "por": 5181,
      "ĠSC": 5182,
      "Ġservice": 5183,
      "ĠâĩĲ": 5184,
      "Ġremove": 5185,
      "Al": 5186,
      "otopic": 5187,
      "avity": 5188,
      "diag": 5189,
      "Ġendow": 5190,
      "Ġformer": 5191,
      "Ġcorrection": 5192,
      "complex": 5193,
      "Ġ33": 5194,
      "Ġsaf": 5195,
      "Ġremoved": 5196,
      "ĠCompar": 5197,
      "Ġschedul": 5198,
      "Ġwire": 5199,
      "Ġinterpolation": 5200,
      "Ġscenarios": 5201,
      "Ġunderstood": 5202,
      "Ġapproximated": 5203,
      "Ġther": 5204,
      "Ġdon": 5205,
      "Ġplus": 5206,
      "Ġaccurate": 5207,
      "no": 5208,
      "Ġpreced": 5209,
      "irected": 5210,
      "Ġpowers": 5211,
      "Ġfive": 5212,
      "apunov": 5213,
      "roupo": 5214,
      "Ġmixt": 5215,
      "opes": 5216,
      "Ġtools": 5217,
      "Ġlocus": 5218,
      "Ġsocial": 5219,
      "--": 5220,
      "hard": 5221,
      "Ġchains": 5222,
      "Ġconfidence": 5223,
      "ĠVer": 5224,
      "Ġlabell": 5225,
      "ulated": 5226,
      "Ġcontributions": 5227,
      "mar": 5228,
      "Ġyear": 5229,
      "Re": 5230,
      "Ġreward": 5231,
      "âŁ©âŁ¨": 5232,
      "Ġanten": 5233,
      "fl": 5234,
      "Ġpq": 5235,
      "ĠBC": 5236,
      "Ġfreedom": 5237,
      "cor": 5238,
      "tu": 5239,
      "06": 5240,
      "LU": 5241,
      "ĠâĪĨ,": 5242,
      "ibr": 5243,
      "roupoid": 5244,
      "Ġlengths": 5245,
      "Ġboundaries": 5246,
      "Ġimpact": 5247,
      "Ġshortest": 5248,
      "Ġtuple": 5249,
      "Ġtransitions": 5250,
      "Ġmaterial": 5251,
      "Ġnovel": 5252,
      "Ġinteractions": 5253,
      "Ġexchange": 5254,
      "Ġintermediate": 5255,
      "](": 5256,
      "Ġmodes": 5257,
      "Ġcylinder": 5258,
      "Ġobtains": 5259,
      "Ġtrivially": 5260,
      "ĠInstead": 5261,
      "Ġ40": 5262,
      "ĠTaylor": 5263,
      "ĠMin": 5264,
      "ĠDes": 5265,
      "Ġinfluence": 5266,
      "Ġgeneration": 5267,
      "ĠâŁ©,": 5268,
      "Ġtrad": 5269,
      "Ġspecify": 5270,
      "Ġmoving": 5271,
      "Ġconstructions": 5272,
      "Ġsampled": 5273,
      "Ġappendix": 5274,
      "Ġespecially": 5275,
      "ĠÃ»": 5276,
      "59": 5277,
      "Ġpossibility": 5278,
      "Ġmatroid": 5279,
      "Ġinfer": 5280,
      "Ġsharp": 5281,
      "ĠCO": 5282,
      "ĠExp": 5283,
      "Ġâī»": 5284,
      "ĠAD": 5285,
      "Ġunderstanding": 5286,
      "Ġkl": 5287,
      "paramet": 5288,
      "ĠSV": 5289,
      "complete": 5290,
      "rem": 5291,
      "Ã¡": 5292,
      "selves": 5293,
      "ĠAP": 5294,
      "Ġprog": 5295,
      "Proof": 5296,
      "Ġsparsity": 5297,
      "istence": 5298,
      "Ġcovers": 5299,
      "ĠUp": 5300,
      "parameter": 5301,
      "ĠConversely": 5302,
      "Ġpush": 5303,
      "Ġarises": 5304,
      "Ġconvexity": 5305,
      "zz": 5306,
      "ĠChe": 5307,
      "Ġmag": 5308,
      "ĠðĿĳĽ": 5309,
      "equival": 5310,
      "Ġexperimental": 5311,
      "ĠNewton": 5312,
      "Ġdegenerate": 5313,
      "gener": 5314,
      "Ġconstit": 5315,
      "isim": 5316,
      "ĠCart": 5317,
      "Ġsummand": 5318,
      "Ġimag": 5319,
      "icting": 5320,
      "ai": 5321,
      "head": 5322,
      "ĠÄħ": 5323,
      "Ġfulf": 5324,
      "ĠÅľ": 5325,
      "Ġcalculus": 5326,
      "Ġtrop": 5327,
      "Ġdecrease": 5328,
      "Ġdiameter": 5329,
      "Ġfollowed": 5330,
      "Ġhyperplane": 5331,
      "Ġte": 5332,
      "Ġstarts": 5333,
      "Ġestimating": 5334,
      "Ġpapers": 5335,
      "ĠLyapunov": 5336,
      "ĠCF": 5337,
      "Ġequivariant": 5338,
      "GD": 5339,
      "ĠWeyl": 5340,
      "Ġdiffer": 5341,
      "Ġsix": 5342,
      "Ġballs": 5343,
      "Ġconstructing": 5344,
      "Ġwind": 5345,
      "Let": 5346,
      "Ġdeform": 5347,
      "Ġdid": 5348,
      "Ġadapted": 5349,
      "ĠCS": 5350,
      "64": 5351,
      "Ġtan": 5352,
      "Ġtotally": 5353,
      "ï¸": 5354,
      "Ġformed": 5355,
      "Ġ34": 5356,
      "Ġhighly": 5357,
      "Ġtriangulation": 5358,
      "Ġimportance": 5359,
      "Ġvaluation": 5360,
      "ula": 5361,
      "Ġnoting": 5362,
      "ĠâĩĶ": 5363,
      "versal": 5364,
      "Ġbases": 5365,
      "Ġkernels": 5366,
      "Ġspl": 5367,
      "bility": 5368,
      "Ġnil": 5369,
      "Ġfails": 5370,
      "Ġsources": 5371,
      "ĠMathema": 5372,
      "Ġsolid": 5373,
      "Ġcodimension": 5374,
      "Ġspanning": 5375,
      "Ġcontinuously": 5376,
      "80": 5377,
      "Ġbeam": 5378,
      "ĠâĨĴâĪŀ": 5379,
      "ĠNamely": 5380,
      "ancy": 5381,
      "abor": 5382,
      "Ġparticularly": 5383,
      "Ġparity": 5384,
      "erving": 5385,
      "IP": 5386,
      "67": 5387,
      "Ġrepresentative": 5388,
      "St": 5389,
      "Ġrestrictions": 5390,
      "Ġseparately": 5391,
      "ensus": 5392,
      "itively": 5393,
      "sigh": 5394,
      "left": 5395,
      "Ġpointwise": 5396,
      "singular": 5397,
      "Ġ{|": 5398,
      "ether": 5399,
      "Ġsimplex": 5400,
      "Ġprograms": 5401,
      "Ġpp": 5402,
      "manifolds": 5403,
      "uli": 5404,
      "ĠÄ¤": 5405,
      "ions": 5406,
      "Ġcondu": 5407,
      "weight": 5408,
      "02": 5409,
      "theore": 5410,
      "rep": 5411,
      "Ġtransitive": 5412,
      "ĠÄĥ": 5413,
      "Ġeventually": 5414,
      "ĠBound": 5415,
      "ĠHausdorff": 5416,
      "Ġcontroller": 5417,
      "Ġimprovement": 5418,
      "Ġfibration": 5419,
      "Ġdeep": 5420,
      "attering": 5421,
      "Ġign": 5422,
      "FS": 5423,
      "Ġresidual": 5424,
      "Ġxi": 5425,
      "Ġindexed": 5426,
      "Ġlikely": 5427,
      "rian": 5428,
      "Ġtoric": 5429,
      "Ġcubic": 5430,
      "acts": 5431,
      "Ġmagnitude": 5432,
      "Ġtext": 5433,
      "term": 5434,
      "ĠSobolev": 5435,
      "ey": 5436,
      "Ġnumerically": 5437,
      "Ġpicture": 5438,
      "Ġflu": 5439,
      "Ġkn": 5440,
      "Ġnormalization": 5441,
      "ĠNeumann": 5442,
      "Ġarch": 5443,
      "Ġiterative": 5444,
      "anc": 5445,
      "Ġrandomized": 5446,
      "ĠDirac": 5447,
      "hler": 5448,
      "Ex": 5449,
      "Ġcomputer": 5450,
      "Ġwhite": 5451,
      "ĠDec": 5452,
      "Ġreasonable": 5453,
      "faces": 5454,
      "ĠGraph": 5455,
      "aten": 5456,
      "Ġcomputes": 5457,
      "Ġrigor": 5458,
      "ĠResults": 5459,
      "ĠPO": 5460,
      "Ġversions": 5461,
      "ĠCON": 5462,
      "tro": 5463,
      "Ġcontin": 5464,
      "Ġminimizer": 5465,
      "ended": 5466,
      "ested": 5467,
      "herence": 5468,
      "cos": 5469,
      "ĠMo": 5470,
      "ues": 5471,
      ")}.": 5472,
      "Ġprecision": 5473,
      "ĠÈ³": 5474,
      "ĠSubsection": 5475,
      "Ġcompleteness": 5476,
      "instein": 5477,
      "Ġvarying": 5478,
      "Ġbilinear": 5479,
      "dz": 5480,
      "Ġfunctors": 5481,
      "ĠÄ¥": 5482,
      "Ġknots": 5483,
      "Ġthesis": 5484,
      "Ġpayoff": 5485,
      "Ġrooted": 5486,
      "equivariant": 5487,
      "odrom": 5488,
      "Ġ(?": 5489,
      "Ġeverywhere": 5490,
      "Ġslope": 5491,
      "â©½": 5492,
      "ĠMan": 5493,
      "ĠBoolean": 5494,
      "Ġ)âĪĴ": 5495,
      "Ġaugment": 5496,
      "ĠPoincarÃ©": 5497,
      "ev": 5498,
      "ĠPart": 5499,
      "ounts": 5500,
      "Ġattrib": 5501,
      "Ġmonotonicity": 5502,
      "ĠAddition": 5503,
      "Ġcongru": 5504,
      "Ġbreak": 5505,
      "Ġcircles": 5506,
      "orn": 5507,
      "Ġpointed": 5508,
      "Ġcomb": 5509,
      "Ġconcentr": 5510,
      "ĠKL": 5511,
      "66": 5512,
      "Ġcontrolled": 5513,
      "Ġhidden": 5514,
      "ĠLaplace": 5515,
      "arity": 5516,
      "Ġimpossible": 5517,
      "Ġplays": 5518,
      "Ġterminal": 5519,
      "gl": 5520,
      "Ġstead": 5521,
      "Ġpt": 5522,
      "Ġhull": 5523,
      "Ġformulated": 5524,
      "Ġsi": 5525,
      "Ġdensities": 5526,
      "Ġmixing": 5527,
      "itness": 5528,
      "Ġbif": 5529,
      "Ġarray": 5530,
      "aut": 5531,
      "Ġcommutes": 5532,
      "07": 5533,
      "arc": 5534,
      "Ġ|âĪĤ": 5535,
      "IR": 5536,
      "Ġchanging": 5537,
      "Ġthanks": 5538,
      "ĠWr": 5539,
      "ĠðĿĳĺ": 5540,
      "Ġtemperature": 5541,
      "ĠGalois": 5542,
      "Ġlayers": 5543,
      "Ġlocations": 5544,
      "\\{": 5545,
      "Ġstopping": 5546,
      "Ġspanned": 5547,
      "entials": 5548,
      "Ġsymmetries": 5549,
      "ĠÏħ": 5550,
      "Ġbeyond": 5551,
      "acted": 5552,
      "this": 5553,
      "ĠdÏĦ": 5554,
      "Ġconcerning": 5555,
      "Ġcharge": 5556,
      "ashed": 5557,
      "Ġreads": 5558,
      "eas": 5559,
      "umber": 5560,
      "Ġremoving": 5561,
      "Ġinvestigated": 5562,
      "Ġtopolog": 5563,
      "ken": 5564,
      "Ġbraid": 5565,
      "Ġupdates": 5566,
      "Ġpacket": 5567,
      "Ġidentically": 5568,
      "Ġpast": 5569,
      "Ġseparation": 5570,
      "Ġá¹½": 5571,
      "Ġcarry": 5572,
      "Ġstructural": 5573,
      "ker": 5574,
      "Ġperforms": 5575,
      "alog": 5576,
      "Ġdesigned": 5577,
      "Ġintroducing": 5578,
      "ĠCher": 5579,
      "Ġensemble": 5580,
      "ĠPDE": 5581,
      "Ġcomputable": 5582,
      "Ġsituations": 5583,
      "Ġchallen": 5584,
      "Ġdiscretization": 5585,
      "Ġvac": 5586,
      "Ġcolors": 5587,
      "Ġargue": 5588,
      "bles": 5589,
      "68": 5590,
      "Ġproperly": 5591,
      "Ġsn": 5592,
      "word": 5593,
      "izers": 5594,
      "ĠCH": 5595,
      "Ġspacetime": 5596,
      "preserving": 5597,
      "ĠGeneral": 5598,
      "Ġspecifically": 5599,
      "Ġbalanced": 5600,
      "Ġrecogn": 5601,
      "hic": 5602,
      "Ġdepicted": 5603,
      "Ġtell": 5604,
      "Ġtruth": 5605,
      "iability": 5606,
      "uk": 5607,
      "Ġnoisy": 5608,
      "ycle": 5609,
      "UL": 5610,
      "ĠPic": 5611,
      "Ġworth": 5612,
      "Ġscales": 5613,
      "Ġsometimes": 5614,
      "ĠFrobenius": 5615,
      "ĠDo": 5616,
      "Ġrounds": 5617,
      "Ġdrop": 5618,
      "ĠâĩĲâĩĴ": 5619,
      "tine": 5620,
      "Ġalternating": 5621,
      "Ġadv": 5622,
      "Ġtreated": 5623,
      "Ġfibers": 5624,
      "Ġopt": 5625,
      "Ġtun": 5626,
      "Ġ(âĪ¥": 5627,
      "Ġarrive": 5628,
      "Ġappe": 5629,
      "Ġsteady": 5630,
      "Ġtriangular": 5631,
      "Ġreasoning": 5632,
      "Ġeigenvectors": 5633,
      "ATION": 5634,
      "Ġprivate": 5635,
      "ious": 5636,
      "Ġtwice": 5637,
      "Ġisometry": 5638,
      "100": 5639,
      "size": 5640,
      "arr": 5641,
      "Ġclique": 5642,
      "Ġmodify": 5643,
      "Ġcorrelations": 5644,
      "meas": 5645,
      "Ġrelaxation": 5646,
      "ands": 5647,
      "ĠProp": 5648,
      "Ġseparate": 5649,
      "ĠTrans": 5650,
      "Ġinstant": 5651,
      "ĠMet": 5652,
      "Ġcontinue": 5653,
      "ital": 5654,
      "Ġidentities": 5655,
      "Ġalphabet": 5656,
      "ĠâĬĥ": 5657,
      "Ġcollision": 5658,
      "ĠSum": 5659,
      "Ġprefix": 5660,
      "âĪŀ)": 5661,
      "Ġforce": 5662,
      "Ġpa": 5663,
      "heres": 5664,
      "Ġmodification": 5665,
      "Ġsecurity": 5666,
      "Ġabsolutely": 5667,
      "Ġpopular": 5668,
      "Ġbuilding": 5669,
      "(âĪĤ": 5670,
      "efinite": 5671,
      "ilities": 5672,
      "ĠBer": 5673,
      "Ġsuff": 5674,
      "Ġmodeling": 5675,
      "Ġlittle": 5676,
      "Ġdiscussions": 5677,
      "Ġglobally": 5678,
      "Ġpenalty": 5679,
      "orting": 5680,
      "Ġisomorphisms": 5681,
      "ĠSE": 5682,
      "Ġrequirements": 5683,
      "Ġ=:": 5684,
      "urc": 5685,
      "ĠHÃ¶lder": 5686,
      "pective": 5687,
      "evertheless": 5688,
      "ĠSm": 5689,
      "Ġorganized": 5690,
      "04": 5691,
      "Ġgeodesics": 5692,
      "Ġserver": 5693,
      "Ġrou": 5694,
      "trans": 5695,
      "Ġrecursion": 5696,
      "Ġobtaining": 5697,
      "loop": 5698,
      "ĠOnce": 5699,
      "Ġorb": 5700,
      "Ġcusp": 5701,
      "98": 5702,
      "ifferential": 5703,
      "Ġ)+": 5704,
      "warz": 5705,
      "Ġcolour": 5706,
      "comes": 5707,
      "lects": 5708,
      "ĠFIG": 5709,
      "irm": 5710,
      "Ġcoupled": 5711,
      "Ġissu": 5712,
      "ĠÃ¿": 5713,
      "yper": 5714,
      "Ġsubst": 5715,
      "Ġqubits": 5716,
      "Ġexper": 5717,
      "ĠâĨĶ": 5718,
      "65": 5719,
      "dis": 5720,
      "Ġbad": 5721,
      "Ġexceptional": 5722,
      "degenerate": 5723,
      "Ġgrows": 5724,
      "oses": 5725,
      "ĠdÎ¸": 5726,
      "Ġcoarse": 5727,
      "Ġautomaton": 5728,
      "Ġseem": 5729,
      "Ġtwisted": 5730,
      "Ġregarding": 5731,
      "Ġextremal": 5732,
      "Ġbandwidth": 5733,
      "owski": 5734,
      "omp": 5735,
      "DI": 5736,
      "Ġfluid": 5737,
      ")=": 5738,
      "Ġcoloring": 5739,
      "61": 5740,
      "Ġcombinations": 5741,
      "ocal": 5742,
      "Ġflux": 5743,
      "Ġcube": 5744,
      "ĠNevertheless": 5745,
      "Ġname": 5746,
      "yclic": 5747,
      "homogeneous": 5748,
      "Ġphysics": 5749,
      "Ġseparated": 5750,
      "Ġce": 5751,
      "Ġweaker": 5752,
      "Ġmul": 5753,
      "uniform": 5754,
      "Ġgreat": 5755,
      "ĠâĦľ": 5756,
      "Ġprimary": 5757,
      "Ġtwist": 5758,
      "Ġstatic": 5759,
      "BC": 5760,
      "Ġwa": 5761,
      "ĠType": 5762,
      "Ġleave": 5763,
      "78": 5764,
      "Ġtransverse": 5765,
      "95": 5766,
      "Ġwish": 5767,
      "itect": 5768,
      "Ġstands": 5769,
      "70": 5770,
      "Ġperturbations": 5771,
      "Ġinsigh": 5772,
      "process": 5773,
      "Ġpage": 5774,
      "Ġrescal": 5775,
      "Ġadversary": 5776,
      "Ġatoms": 5777,
      "actions": 5778,
      "Ġmartingale": 5779,
      "Ġgroupoid": 5780,
      "ĠâŁ©.": 5781,
      "ĠÅ¨": 5782,
      "Ġnice": 5783,
      "Ġpropagation": 5784,
      "Ġsort": 5785,
      "Ġworking": 5786,
      ")].": 5787,
      "Ġheter": 5788,
      "Ġwitness": 5789,
      "Ġrealized": 5790,
      "Ġdescribing": 5791,
      "Ġsad": 5792,
      "62": 5793,
      "Ġcarried": 5794,
      "Ġtraffic": 5795,
      "smooth": 5796,
      "Ġ[?].": 5797,
      "Ġsucces": 5798,
      "Ġconcave": 5799,
      "Ġperspective": 5800,
      "ĠAnaly": 5801,
      "Ġembeddings": 5802,
      "ethe": 5803,
      "Ġletting": 5804,
      "Ġpolicies": 5805,
      "Ġmixture": 5806,
      "Ġcreate": 5807,
      "Ġparent": 5808,
      "ube": 5809,
      "Ġá»¹": 5810,
      "Ġcontour": 5811,
      "Ġstore": 5812,
      "Ġsake": 5813,
      "Ġexhibit": 5814,
      "Ġdegener": 5815,
      "Ġexceed": 5816,
      "Ġoutper": 5817,
      "Ġperforming": 5818,
      "cript": 5819,
      "Ġscattering": 5820,
      "Ã¤hler": 5821,
      "Ġá¹¼": 5822,
      "Ġdatab": 5823,
      "Ġslot": 5824,
      "ĠDisc": 5825,
      "Ġdoub": 5826,
      "illed": 5827,
      "Ġ.)": 5828,
      "63": 5829,
      "Ġpresents": 5830,
      "ĠCC": 5831,
      "ĠEven": 5832,
      "orage": 5833,
      "Ġincorpor": 5834,
      "Ġrely": 5835,
      "ĠâĭĬ": 5836,
      "ĠChern": 5837,
      "ĠHermitian": 5838,
      "Ġreverse": 5839,
      "sure": 5840,
      "vered": 5841,
      "Ġheat": 5842,
      "Ġ[?],": 5843,
      "Ġdominated": 5844,
      "Ġlattices": 5845,
      "Ġpara": 5846,
      "ĠKer": 5847,
      "ĠÄĿ": 5848,
      "[(": 5849,
      "Ġconcrete": 5850,
      "ĠMonte": 5851,
      "Ġactiv": 5852,
      "Ġáº¼": 5853,
      ",+": 5854,
      "Ġsensor": 5855,
      "Ġsimilarity": 5856,
      "Ġstudying": 5857,
      "iminaries": 5858,
      "ĠSS": 5859,
      "77": 5860,
      "Ġimaginary": 5861,
      "Ġreasons": 5862,
      "egend": 5863,
      "AD": 5864,
      "Ġsequential": 5865,
      "Ġproviding": 5866,
      "Ġcovered": 5867,
      "ĠMax": 5868,
      "Ġsubsequent": 5869,
      "px": 5870,
      "Ġposs": 5871,
      "Ġgreedy": 5872,
      "Ġassociate": 5873,
      "Ġideals": 5874,
      "arest": 5875,
      "Ġminor": 5876,
      "Ġreported": 5877,
      "since": 5878,
      "Ġaccept": 5879,
      "Ġvehic": 5880,
      "Ġalign": 5881,
      "Ġdominant": 5882,
      "Ġyears": 5883,
      "roduct": 5884,
      "Ġdetect": 5885,
      "Ġangles": 5886,
      "ĠâĪŀ),": 5887,
      "lar": 5888,
      "aching": 5889,
      "88": 5890,
      "Ġbir": 5891,
      "Ġrepeat": 5892,
      "Ġbranching": 5893,
      "Ġpurposes": 5894,
      "Ġpurely": 5895,
      "Ġport": 5896,
      "OM": 5897,
      "ĠSections": 5898,
      "Ġbifurc": 5899,
      "Ġprefer": 5900,
      "Ġhappen": 5901,
      "Ġil": 5902,
      "earch": 5903,
      "Ġmonoidal": 5904,
      "Ġforest": 5905,
      "Ġapplicable": 5906,
      "vergence": 5907,
      "âĪĪ{": 5908,
      "Ġá»¸": 5909,
      "umerical": 5910,
      "Ġcooper": 5911,
      "Ġdg": 5912,
      "Ġallowing": 5913,
      "ĠConclusion": 5914,
      "Ġstrings": 5915,
      "Ġshared": 5916,
      "Ġpreserve": 5917,
      "ðĿĲ": 5918,
      "Ġconvergent": 5919,
      "Ġoutcomes": 5920,
      "BM": 5921,
      "Ġhypergraph": 5922,
      "Ġproduced": 5923,
      "Ġpu": 5924,
      "compact": 5925,
      "âĮĬ": 5926,
      "Ġsimplified": 5927,
      "03": 5928,
      "ĠDel": 5929,
      "Ġ36": 5930,
      "Ġrings": 5931,
      "ĠAssuming": 5932,
      "ulate": 5933,
      "Ġsite": 5934,
      "Ġconcentration": 5935,
      "Ġmapped": 5936,
      "Ġformulate": 5937,
      "Ġpullback": 5938,
      "gs": 5939,
      "io": 5940,
      "commut": 5941,
      "ille": 5942,
      "AV": 5943,
      "king": 5944,
      "ench": 5945,
      "Ġarchitect": 5946,
      "Ġdifficulty": 5947,
      "Ġtropical": 5948,
      "Ġfoliation": 5949,
      "Ġmultivariate": 5950,
      "Ġquantization": 5951,
      "Ġvalued": 5952,
      "69": 5953,
      "prising": 5954,
      "Ġstrength": 5955,
      "Ġ|||": 5956,
      "oung": 5957,
      "Ġconsensus": 5958,
      "Ġarising": 5959,
      "Ġ|âŁ¨": 5960,
      "87": 5961,
      "ales": 5962,
      "Ġpunct": 5963,
      "respectively": 5964,
      "Ġanalytical": 5965,
      "Ġmargin": 5966,
      "uctu": 5967,
      "Ġisometric": 5968,
      "Ġfourth": 5969,
      "LL": 5970,
      "Ġâĭħ": 5971,
      "ĠHod": 5972,
      "Ġmaximize": 5973,
      "Ġsatur": 5974,
      "crib": 5975,
      "Ġinfinites": 5976,
      "lig": 5977,
      "Ġevol": 5978,
      "ĠPut": 5979,
      "apping": 5980,
      "Ġcomparing": 5981,
      "link": 5982,
      "theoretic": 5983,
      "Îŀ": 5984,
      "istance": 5985,
      "sided": 5986,
      "Ġtemporal": 5987,
      "89": 5988,
      "ĠâĭĦ": 5989,
      "changed": 5990,
      "ĠÅµ": 5991,
      "Ġ35": 5992,
      "asso": 5993,
      "Ġsimulated": 5994,
      "posable": 5995,
      "Ġconcepts": 5996,
      "separ": 5997,
      "Ġthroughput": 5998,
      "Ġna": 5999,
      "orth": 6000,
      "ĠÃ£": 6001,
      "fortun": 6002,
      "Ġconsideration": 6003,
      "ones": 6004,
      "ystems": 6005,
      "sip": 6006,
      "Ġsemid": 6007,
      "ĠiÎ¸": 6008,
      "[[": 6009,
      "Ġpreceding": 6010,
      "Ġcumul": 6011,
      "Ġcoverage": 6012,
      "Ġ_": 6013,
      "¾±": 6014,
      "Ġsummation": 6015,
      "sibly": 6016,
      "Ġextending": 6017,
      "going": 6018,
      "Sp": 6019,
      "Ġbuilt": 6020,
      "Ġhead": 6021,
      "Ġcorner": 6022,
      "ĠOP": 6023,
      "celer": 6024,
      "ĠÄľ": 6025,
      "ĠÄĪ": 6026,
      "Ġdisplay": 6027,
      "ĠRad": 6028,
      "tt": 6029,
      "integr": 6030,
      "Ġparametric": 6031,
      "Ġready": 6032,
      "Ġstorage": 6033,
      "Ġcomposite": 6034,
      "Ġautomorphisms": 6035,
      "Ġreprodu": 6036,
      "âĸ¡": 6037,
      "IMO": 6038,
      "Ġcosh": 6039,
      "ert": 6040,
      "andard": 6041,
      "Ġcommute": 6042,
      "Ġmiddle": 6043,
      "ĠðĿĽ": 6044,
      "vy": 6045,
      "degree": 6046,
      "Ġcriteria": 6047,
      "Ġbelief": 6048,
      "ishing": 6049,
      "Ġconsiders": 6050,
      "ĠExamples": 6051,
      "Ġreadily": 6052,
      "Ġbracket": 6053,
      "what": 6054,
      "Ġpan": 6055,
      "Ġwireless": 6056,
      "Ġflag": 6057,
      "ĠÄģ": 6058,
      "It": 6059,
      "Ġaxioms": 6060,
      "Ġtransformed": 6061,
      "Ġwindow": 6062,
      "ln": 6063,
      "Ġmissing": 6064,
      "copic": 6065,
      "Ġphenomenon": 6066,
      "viously": 6067,
      "eff": 6068,
      "ĠUnivers": 6069,
      "Ġspeaking": 6070,
      "ĠdÎ¾": 6071,
      "ĠAm": 6072,
      "III": 6073,
      "Ġsubt": 6074,
      "Ġintuition": 6075,
      "Ġfailure": 6076,
      "actable": 6077,
      "oks": 6078,
      "Ġdivided": 6079,
      "Ġrefinement": 6080,
      "Ġsaddle": 6081,
      "ifications": 6082,
      "ĠThm": 6083,
      "Ġpreserved": 6084,
      "igu": 6085,
      "cluding": 6086,
      "ĠMR": 6087,
      "ĠLegend": 6088,
      "Ġaffect": 6089,
      "Ġadjust": 6090,
      "Ġobviously": 6091,
      "Ġspread": 6092,
      "ĠIR": 6093,
      "84": 6094,
      "Ġletters": 6095,
      "ĠSol": 6096,
      "Ġamplitude": 6097,
      "Ġcoming": 6098,
      "Cor": 6099,
      "insic": 6100,
      "Ġtherein": 6101,
      "terior": 6102,
      "Ġcolored": 6103,
      "structure": 6104,
      "Ġhypersurface": 6105,
      "Ġ)âŁ©": 6106,
      "Ġrewritten": 6107,
      "Ġpossess": 6108,
      "Ġinvolve": 6109,
      "Ġmonodrom": 6110,
      "Ġguess": 6111,
      "ING": 6112,
      "Ġstatistic": 6113,
      "az": 6114,
      "ĠWhat": 6115,
      "Ġcharacters": 6116,
      "ĠWrite": 6117,
      "Ġ@": 6118,
      "Ġobservable": 6119,
      "Ġcapture": 6120,
      "97": 6121,
      "Ġhelpful": 6122,
      "fortunately": 6123,
      "oulli": 6124,
      "ðĿĳ¥": 6125,
      "Ġsubdiv": 6126,
      "df": 6127,
      "ĠNotation": 6128,
      "Ġasymptotics": 6129,
      "Ġkin": 6130,
      "Ġith": 6131,
      "aling": 6132,
      "Ġpairing": 6133,
      "assive": 6134,
      "Ġdistortion": 6135,
      "Ġmotivated": 6136,
      "ĠNash": 6137,
      "Ġlabelled": 6138,
      "itary": 6139,
      "Ġendowed": 6140,
      "Ġissues": 6141,
      "tific": 6142,
      "Tr": 6143,
      "Ġfluctu": 6144,
      "Ġmutual": 6145,
      "Ġkj": 6146,
      "Ġnone": 6147,
      "ĠSubstit": 6148,
      "Ġresources": 6149,
      "amed": 6150,
      "Ġworld": 6151,
      "Ġpolygon": 6152,
      "alls": 6153,
      "Ġsinh": 6154,
      "diagonal": 6155,
      "Ġsubmanifold": 6156,
      "bund": 6157,
      "ĠâĬº": 6158,
      "enchmark": 6159,
      "ĠCM": 6160,
      "ximal": 6161,
      "atory": 6162,
      "ustom": 6163,
      "ĠBell": 6164,
      "Ġreplic": 6165,
      "Ġdivide": 6166,
      "ĠÏĤ": 6167,
      "Ġfinds": 6168,
      "Ġsgn": 6169,
      "Ġscheduling": 6170,
      "Ġqubit": 6171,
      "Ġsmoothness": 6172,
      "Ġestablishes": 6173,
      "Ġcomposed": 6174,
      "âĪħ": 6175,
      "Ġexam": 6176,
      "vey": 6177,
      "Ġchecking": 6178,
      "ller": 6179,
      "itting": 6180,
      "ĠNS": 6181,
      "Ġnet": 6182,
      "ĠâĢ¢,": 6183,
      "Ġexploit": 6184,
      "Ġflex": 6185,
      "ĠSM": 6186,
      ")],": 6187,
      "ĠÅ·": 6188,
      "Ġprotocols": 6189,
      "Ġing": 6190,
      "ĠHodge": 6191,
      "Ġwidely": 6192,
      "ĠProperty": 6193,
      "Ġcorrelated": 6194,
      "Ġwaves": 6195,
      "Ġdevelopment": 6196,
      "ĠEstim": 6197,
      "ĠRS": 6198,
      "Ġprimes": 6199,
      "Ġemployed": 6200,
      "Ġexplore": 6201,
      "LO": 6202,
      "potent": 6203,
      "ĠCN": 6204,
      "Ġcof": 6205,
      "kes": 6206,
      "Ġposet": 6207,
      "72": 6208,
      "96": 6209,
      "enberg": 6210,
      "ĠâĦİ": 6211,
      "Ġverification": 6212,
      "Ġconcaten": 6213,
      "Ġtradition": 6214,
      "85": 6215,
      "ĠML": 6216,
      "Ġpn": 6217,
      "Ġsheaves": 6218,
      "ih": 6219,
      "Ġ.,": 6220,
      "ographic": 6221,
      "plying": 6222,
      "Ġendpoint": 6223,
      "Ġeasier": 6224,
      "ĠRE": 6225,
      ")/(": 6226,
      "forming": 6227,
      "independent": 6228,
      "ĠBel": 6229,
      "ogether": 6230,
      "ĠâĮī": 6231,
      "Ġautomatically": 6232,
      "Ġagree": 6233,
      "ĠâĪŀ).": 6234,
      "ĠSto": 6235,
      "Ġconjugacy": 6236,
      "axis": 6237,
      "ĠPrel": 6238,
      "amma": 6239,
      "positive": 6240,
      "ĠLS": 6241,
      "Ġsketch": 6242,
      "Ġfaith": 6243,
      "Ġcomputationally": 6244,
      "Ġdetermining": 6245,
      "Ġray": 6246,
      "ĠÐ": 6247,
      "Ġoption": 6248,
      "Ġprimal": 6249,
      "Ġquick": 6250,
      "Ġcombine": 6251,
      "pite": 6252,
      "Ġsquared": 6253,
      "ĠGreen": 6254,
      "Ġ1000": 6255,
      "Ġphases": 6256,
      "ĠLo": 6257,
      "ache": 6258,
      "Ġexc": 6259,
      "neighb": 6260,
      "Ġmac": 6261,
      "DM": 6262,
      "Ġhistory": 6263,
      "Ġviol": 6264,
      "ĠâĻŃ": 6265,
      "dual": 6266,
      "ĠGP": 6267,
      "Ġmeet": 6268,
      "ĠODE": 6269,
      "actif": 6270,
      "Ġdisks": 6271,
      "ĠâĪĴâĪĴ": 6272,
      "Ġchecked": 6273,
      "Ġrobustness": 6274,
      "ĠðĿĳĹ": 6275,
      "Ġwalks": 6276,
      "Ġconduct": 6277,
      "oration": 6278,
      "ky": 6279,
      "Ġlaws": 6280,
      "Ġram": 6281,
      "Ġanalyzed": 6282,
      "Ġ](": 6283,
      "sen": 6284,
      "Ã©n": 6285,
      "ĠAdditionally": 6286,
      "ĠMS": 6287,
      "sibility": 6288,
      "If": 6289,
      "cast": 6290,
      "imum": 6291,
      "ĠLO": 6292,
      "Ġclaimed": 6293,
      "similar": 6294,
      "TL": 6295,
      "ĠCr": 6296,
      "Ġlocalization": 6297,
      "Ġtransforms": 6298,
      "Ġmainly": 6299,
      "Ġcas": 6300,
      "ĠMorse": 6301,
      "Ġformulae": 6302,
      "Ġinversion": 6303,
      "Ġlogical": 6304,
      "Ġdistinguished": 6305,
      "Ġlocated": 6306,
      "Ġwriting": 6307,
      "Ġunity": 6308,
      "86": 6309,
      "Ġsummarized": 6310,
      "OF": 6311,
      "Ġ):": 6312,
      "udget": 6313,
      "value": 6314,
      "Ġ]]": 6315,
      "oot": 6316,
      "Ġdrift": 6317,
      "Ġï£¦": 6318,
      "ĠÅ¼": 6319,
      "ĠCarlo": 6320,
      "Ġradial": 6321,
      "Ġ64": 6322,
      "Ġcustom": 6323,
      "ĠEX": 6324,
      "Ġterminology": 6325,
      "Ġferm": 6326,
      "79": 6327,
      "well": 6328,
      "Ġsubalgebra": 6329,
      "ĠHes": 6330,
      "sche": 6331,
      "Ġinterface": 6332,
      "ĠYoung": 6333,
      "Ġrk": 6334,
      "veness": 6335,
      "Ġarrang": 6336,
      "ĠBernoulli": 6337,
      "Ġpotentials": 6338,
      "Ġshr": 6339,
      "ĠGauss": 6340,
      "squ": 6341,
      "|âī¤": 6342,
      "omain": 6343,
      "IF": 6344,
      "Ġtruncated": 6345,
      "Ġsuprem": 6346,
      "ĠVol": 6347,
      "ĠAR": 6348,
      "Ġmob": 6349,
      "avi": 6350,
      "Ġindicator": 6351,
      "Î¼": 6352,
      "Ġoccup": 6353,
      "PC": 6354,
      "Ġbackward": 6355,
      "ĠdB": 6356,
      "ĠDu": 6357,
      "Ġevidence": 6358,
      "Le": 6359,
      "Ġremarks": 6360,
      "EE": 6361,
      "Ġâª°": 6362,
      "Ġconv": 6363,
      "Ġsuggest": 6364,
      "otstr": 6365,
      "har": 6366,
      "DA": 6367,
      "top": 6368,
      "Ġgate": 6369,
      "76": 6370,
      "Ġseed": 6371,
      "Ġconnectivity": 6372,
      "light": 6373,
      "sch": 6374,
      "ĠâĬł": 6375,
      "Ġarrival": 6376,
      "ware": 6377,
      "Ġbrid": 6378,
      "Ġspecies": 6379,
      "Ġcharacteristics": 6380,
      "Ġmonodromy": 6381,
      "ĠAssumptions": 6382,
      "Ġreform": 6383,
      "Ġmodeled": 6384,
      "Ġra": 6385,
      "sequences": 6386,
      "Ġarrows": 6387,
      "ryst": 6388,
      "Ġpackets": 6389,
      "possibly": 6390,
      "ĠJacobian": 6391,
      "Ġundirected": 6392,
      "Ġsummarize": 6393,
      "Ġbenchmark": 6394,
      "Ġindicated": 6395,
      "ĠâĪĸ": 6396,
      "closed": 6397,
      "Ġvacu": 6398,
      "vertex": 6399,
      "Ġintensity": 6400,
      "Ġbounding": 6401,
      "Ġimpose": 6402,
      "iner": 6403,
      "commutative": 6404,
      "Ġnothing": 6405,
      "ampling": 6406,
      "Ġrecord": 6407,
      "Ġdevoted": 6408,
      "acing": 6409,
      "ordan": 6410,
      "73": 6411,
      "DG": 6412,
      "planes": 6413,
      "Ġsupremum": 6414,
      "Ġdenomin": 6415,
      "mid": 6416,
      "ĠMain": 6417,
      "Ġss": 6418,
      "Ġacyclic": 6419,
      "ĠNumerical": 6420,
      "See": 6421,
      "Ġfibre": 6422,
      "ĠðĿĳ¡": 6423,
      "Ġtend": 6424,
      "Ġswitching": 6425,
      "Fig": 6426,
      "Ġaccep": 6427,
      "Ġconsequently": 6428,
      "Ġpoles": 6429,
      "Ġequilibria": 6430,
      "ĠMar": 6431,
      "Ġvariants": 6432,
      "Ġacceler": 6433,
      "redient": 6434,
      "Ġsimplest": 6435,
      "Ġreached": 6436,
      "Ġprocedures": 6437,
      "omm": 6438,
      "reement": 6439,
      "Ġindividuals": 6440,
      "Ġ(âĪĴâĪŀ,": 6441,
      "Ġijk": 6442,
      "eline": 6443,
      "Ġtableau": 6444,
      "Ġhybrid": 6445,
      "))|": 6446,
      "modular": 6447,
      "Ġ:\"": 6448,
      "DR": 6449,
      "aussian": 6450,
      "Ġisotopy": 6451,
      "eta": 6452,
      "Ġsuggested": 6453,
      "Ġexterior": 6454,
      "di": 6455,
      "Ġhierarchy": 6456,
      "ĠSR": 6457,
      "âĪĴ(": 6458,
      "Ġsomewhat": 6459,
      "Ġlatent": 6460,
      "71": 6461,
      "ynamic": 6462,
      "Ġbelonging": 6463,
      "Ġeffectively": 6464,
      "Ġlowest": 6465,
      "Ġredund": 6466,
      "Ġrev": 6467,
      "ĠFe": 6468,
      "Ġtry": 6469,
      "Ġautomata": 6470,
      "Ġ(,": 6471,
      "represent": 6472,
      "Ġatomic": 6473,
      "Ġcones": 6474,
      "onent": 6475,
      "âĨĴ+âĪŀ": 6476,
      "biased": 6477,
      "Ġidentifying": 6478,
      "Ġlack": 6479,
      "length": 6480,
      "Ġsummary": 6481,
      "tent": 6482,
      "iss": 6483,
      "Ġillustrates": 6484,
      "Ġformalism": 6485,
      "ivariate": 6486,
      "ĠdÏĥ": 6487,
      "Ġnearest": 6488,
      "Ġcompactif": 6489,
      "leton": 6490,
      "Ġconjugation": 6491,
      "ĠPa": 6492,
      "ĠFOR": 6493,
      "avy": 6494,
      "rÃ¶": 6495,
      "ymmetry": 6496,
      "Ġsensing": 6497,
      "ĠObviously": 6498,
      "det": 6499,
      "Ġcomments": 6500,
      "Ġdivisors": 6501,
      "Ġstress": 6502,
      "Ġstabilizer": 6503,
      "Ġparameterized": 6504,
      "Å©": 6505,
      "Ġlanguages": 6506,
      "OP": 6507,
      "ĠLore": 6508,
      "Ġresidue": 6509,
      "Ġmagnetic": 6510,
      "74": 6511,
      "(âĪ¥": 6512,
      "omic": 6513,
      "Ġaspects": 6514,
      "Ġrenormal": 6515,
      "Ġreceive": 6516,
      "Ġrandomness": 6517,
      "Ġroughly": 6518,
      "Ġexamine": 6519,
      ")},": 6520,
      "Ġadjacency": 6521,
      "mp": 6522,
      "âĢ¢,": 6523,
      "Ġclock": 6524,
      "Ġslice": 6525,
      "CH": 6526,
      "Ġspecification": 6527,
      "gine": 6528,
      "Ġrectangle": 6529,
      "ĠCox": 6530,
      "Ġpieces": 6531,
      "atif": 6532,
      "Ġmir": 6533,
      "load": 6534,
      "Ġregarded": 6535,
      "Ġversus": 6536,
      "Ġadopt": 6537,
      "Ġsites": 6538,
      "Ġinitially": 6539,
      "orient": 6540,
      "ĠÃķ": 6541,
      "titive": 6542,
      "Ġfading": 6543,
      "critical": 6544,
      "sol": 6545,
      "Ġshad": 6546,
      "Ġgluing": 6547,
      "ĠÅ¶": 6548,
      "ĠËĺ": 6549,
      "Ġ2017": 6550,
      "CE": 6551,
      "Ġinfinitesimal": 6552,
      "Ġmutually": 6553,
      "Ġfrequencies": 6554,
      "90": 6555,
      "83": 6556,
      "Ġcellular": 6557,
      "ĠâĪĴâĪĨ": 6558,
      "posing": 6559,
      "ĠâĪĨ)": 6560,
      "Ġfunctionals": 6561,
      "Ġá¸¡": 6562,
      "Ġobservables": 6563,
      "Ġrecursively": 6564,
      "Ġtransmitter": 6565,
      "Ġintersections": 6566,
      "tere": 6567,
      "ards": 6568,
      "Ġomitted": 6569,
      "using": 6570,
      "Ġbelieve": 6571,
      "Ġedition": 6572,
      "Ġangular": 6573,
      "Sh": 6574,
      "plete": 6575,
      "pre": 6576,
      "Ġupdated": 6577,
      "Ġsequel": 6578,
      "ĠRP": 6579,
      "Ġtransmitted": 6580,
      "ĠCal": 6581,
      "Ġcompleted": 6582,
      "Ġdecompose": 6583,
      "Ġbudget": 6584,
      "Ġinduce": 6585,
      "ĠCL": 6586,
      "Ð¾": 6587,
      "Ġconsumption": 6588,
      "but": 6589,
      "iles": 6590,
      "osp": 6591,
      "ru": 6592,
      "Ġenables": 6593,
      "ĠâĢ²âĢ²âĢ²": 6594,
      "ĠFact": 6595,
      "Ġrecurrence": 6596,
      "âŁ©)": 6597,
      "ners": 6598,
      "ĠSk": 6599,
      "Ġingredient": 6600,
      "Ġexplan": 6601,
      "entioned": 6602,
      "ĠAcknowledgements": 6603,
      "Ġbul": 6604,
      "Ġencoded": 6605,
      "Ġreduc": 6606,
      "82": 6607,
      "ĠTechn": 6608,
      "ĠDF": 6609,
      "ĠâĬĵ": 6610,
      "Ġcompactness": 6611,
      "Ġprices": 6612,
      "Ġvs": 6613,
      "ĠTe": 6614,
      "Ġcorrectly": 6615,
      "ĠdÎ»": 6616,
      "Ġstop": 6617,
      "ĠFunction": 6618,
      "ĠLog": 6619,
      "Ġjumps": 6620,
      "=âĪĴ": 6621,
      "81": 6622,
      "ĠKÃ¤hler": 6623,
      "bal": 6624,
      "Ġ(âŁ¨": 6625,
      "li": 6626,
      "Ġunlike": 6627,
      "Ġoptimum": 6628,
      "Å«": 6629,
      "Ġá¾±": 6630,
      "Ġthought": 6631,
      "tinuity": 6632,
      "van": 6633,
      "ĠâĪ«": 6634,
      "Ġtensors": 6635,
      "Ġparagraph": 6636,
      "Ġreson": 6637,
      "Ġpossibilities": 6638,
      "Ġgcd": 6639,
      "Ġexpansions": 6640,
      "ĠâŁ©âŁ¨": 6641,
      "ĠIni": 6642,
      "Ġps": 6643,
      "cycle": 6644,
      "label": 6645,
      "ĠðĿĳ¥": 6646,
      "ĠIntu": 6647,
      "ĠĠĠ": 6648,
      "urb": 6649,
      "Ġï¿½": 6650,
      "Ġï£¾": 6651,
      "Ġelectric": 6652,
      "SION": 6653,
      "Ġdot": 6654,
      "Ġscaled": 6655,
      "approximation": 6656,
      "Ġki": 6657,
      "Ġï£¼": 6658,
      "ĠTop": 6659,
      "Ġcompactly": 6660,
      "Ġphot": 6661,
      "ĠCol": 6662,
      "ppings": 6663,
      "Ġspectra": 6664,
      "tale": 6665,
      ")||": 6666,
      "Ġ(??": 6667,
      "ĠDP": 6668,
      "ault": 6669,
      "Ġparticip": 6670,
      "Ġeigenfunctions": 6671,
      "ĠDiff": 6672,
      "romatic": 6673,
      "Ġmanip": 6674,
      "roscopic": 6675,
      "net": 6676,
      "Ġletter": 6677,
      "Ġbootstr": 6678,
      "Ġdecompositions": 6679,
      "Ġgrant": 6680,
      "Ġ2016": 6681,
      "ĠTheir": 6682,
      "tra": 6683,
      "Ġimmer": 6684,
      "ĠSubstituting": 6685,
      "Ġreducing": 6686,
      "stant": 6687,
      "Ġcoherence": 6688,
      "atz": 6689,
      "Ġisotropic": 6690,
      "flow": 6691,
      "ĠHessian": 6692,
      "ĠINT": 6693,
      "Ġ)[": 6694,
      "Ġspheres": 6695,
      "ĠAnalysis": 6696,
      "ĠAL": 6697,
      "Ġcrossings": 6698,
      "Ġemer": 6699,
      "Ġexponents": 6700,
      "Ġgeneralizes": 6701,
      "Ġoverlap": 6702,
      "Ġclause": 6703,
      "idel": 6704,
      "Ġnearly": 6705,
      "(âĥĹ": 6706,
      "Ġcircular": 6707,
      "Ġrigorous": 6708,
      "Ġsynthe": 6709,
      "Ġdil": 6710,
      "Ġbranches": 6711,
      "Ã¶b": 6712,
      "Ġmechanics": 6713,
      "ĠEinstein": 6714,
      "ĠXY": 6715,
      "arial": 6716,
      "Ġï£½": 6717,
      "ister": 6718,
      "Ïĸ": 6719,
      "An": 6720,
      "ĠRF": 6721,
      "Ġ\\{": 6722,
      "ashion": 6723,
      "Ġprepar": 6724,
      "Ġsurprising": 6725,
      "Ġtet": 6726,
      "sl": 6727,
      "Ġcompression": 6728,
      "Ġdatabase": 6729,
      "Ġamounts": 6730,
      "Ġcomplementary": 6731,
      "Ġmotivation": 6732,
      "âĦı": 6733,
      "Ġtraditional": 6734,
      "Ġchalleng": 6735,
      "Ġpressure": 6736,
      "Ġsend": 6737,
      "Ã©vy": 6738,
      "Ġcircuits": 6739,
      "Ġsending": 6740,
      "ML": 6741,
      "alit": 6742,
      "ĠHF": 6743,
      "inkowski": 6744,
      "problem": 6745,
      "Ġcovari": 6746,
      "ĠâĨ¾": 6747,
      "eb": 6748,
      "ĠUnfortunately": 6749,
      "Ġreconstruct": 6750,
      "Ġlying": 6751,
      "),(": 6752,
      "index": 6753,
      "Ġ$": 6754,
      "note": 6755,
      "ĠâĪĨ.": 6756,
      "Ġclassifier": 6757,
      "ĠIC": 6758,
      "Ġmicro": 6759,
      "Ġvisual": 6760,
      "Ġrefers": 6761,
      "ordism": 6762,
      "Ġdecomposed": 6763,
      "Ġmappings": 6764,
      "Ġconcerned": 6765,
      "ibbs": 6766,
      "Ġdecoder": 6767,
      "Ġpeak": 6768,
      "Ġconditioned": 6769,
      "Ġdecide": 6770,
      "Ġsurger": 6771,
      "Ġobst": 6772,
      "Ġcreated": 6773,
      "Ġhole": 6774,
      "ĠFlo": 6775,
      "Ġattached": 6776,
      "Ġbeh": 6777,
      "ĠOver": 6778,
      "ĠVari": 6779,
      "dro": 6780,
      "dim": 6781,
      "ĠBP": 6782,
      "Ġimmersion": 6783,
      "Ġ)))": 6784,
      "Ã©e": 6785,
      "ĠAppl": 6786,
      "multi": 6787,
      "ĠSetting": 6788,
      "BP": 6789,
      "Ġvisc": 6790,
      "ĠDC": 6791,
      "Ġentangled": 6792,
      "Ġconservation": 6793,
      "dinger": 6794,
      "Ġabsor": 6795,
      "VM": 6796,
      "mn": 6797,
      "Ġnilpotent": 6798,
      "Ġsuccessful": 6799,
      "Ġvar": 6800,
      "Defin": 6801,
      "BF": 6802,
      "ĠMM": 6803,
      "Ġlabeling": 6804,
      "Ġpotentially": 6805,
      "Ġcollap": 6806,
      "Ġthin": 6807,
      "ham": 6808,
      "Ġgates": 6809,
      "Ġdigraph": 6810,
      "haps": 6811,
      "94": 6812,
      "Ġemphasize": 6813,
      "By": 6814,
      "ĠCSI": 6815,
      "Ġchildren": 6816,
      "ĠEquival": 6817,
      "ĠInter": 6818,
      "Ġnested": 6819,
      "istribution": 6820,
      "Ġchallenging": 6821,
      "ĠMIMO": 6822,
      "urs": 6823,
      "Ġtrig": 6824,
      "Ġdemonstrated": 6825,
      "elling": 6826,
      "Ġgover": 6827,
      "ï¸ģ": 6828,
      "amb": 6829,
      "Ġtells": 6830,
      "Ġconnect": 6831,
      "Ġcer": 6832,
      "//": 6833,
      "Ġlifting": 6834,
      "âĨĵ": 6835,
      "Ġapproximating": 6836,
      "Ġforces": 6837,
      "ĠSing": 6838,
      "Ġmonomials": 6839,
      "fr": 6840,
      "Ġboundedness": 6841,
      "Ġâľ": 6842,
      "ĠLÃ©vy": 6843,
      "Ġfrag": 6844,
      "ĠNetwork": 6845,
      "dÂµ": 6846,
      "disc": 6847,
      "rad": 6848,
      "Ġcot": 6849,
      "Ġneglig": 6850,
      "Ġendomorphism": 6851,
      "ĠSchrÃ¶": 6852,
      "Ġ+âĪŀ.": 6853,
      "Ġbook": 6854,
      "Ġfashion": 6855,
      "Ġsolvable": 6856,
      "ĠJacobi": 6857,
      "ĠRandom": 6858,
      "ĠDG": 6859,
      "Ġclient": 6860,
      "Ġhope": 6861,
      "constrain": 6862,
      "Ġ2015": 6863,
      "ecom": 6864,
      "ĠâĪĤ(": 6865,
      "ĠAPP": 6866,
      "ĠAS": 6867,
      "ĠâĢº": 6868,
      "Ġtravel": 6869,
      "Ġperturbed": 6870,
      "sets": 6871,
      "Ġannulus": 6872,
      "parametric": 6873,
      "Ġprescrib": 6874,
      "Ġrobot": 6875,
      "Ëĩ": 6876,
      "Ġdashed": 6877,
      "Ġdp": 6878,
      "Ġboxes": 6879,
      "ĠIntuitively": 6880,
      "Ġentirely": 6881,
      "Ġenfor": 6882,
      "image": 6883,
      "Ġcommunity": 6884,
      "Ġidemp": 6885,
      "section": 6886,
      "Ġplots": 6887,
      "Ġrelate": 6888,
      "entif": 6889,
      "OT": 6890,
      "ander": 6891,
      "etri": 6892,
      "CD": 6893,
      "ĠInput": 6894,
      "Ġarm": 6895,
      "Ġgave": 6896,
      "lat": 6897,
      "Ġpredicate": 6898,
      "anning": 6899,
      "ĠÃ¢": 6900,
      "ĠBas": 6901,
      "xx": 6902,
      "Ġsupports": 6903,
      "ĠMA": 6904,
      "ĠÃĽ": 6905,
      "Ġinform": 6906,
      "Â¬": 6907,
      "ĠAltern": 6908,
      "oupl": 6909,
      "nas": 6910,
      "Ġsplits": 6911,
      "Ġsubd": 6912,
      "Ġpole": 6913,
      "irable": 6914,
      "rect": 6915,
      "Ġansw": 6916,
      "MR": 6917,
      "ship": 6918,
      "ĠFigures": 6919,
      "Ġmaximization": 6920,
      "ĠâĬĩ": 6921,
      "Ġvariations": 6922,
      "Ġsubgraphs": 6923,
      "parse": 6924,
      "continuous": 6925,
      "Es": 6926,
      "Ã©r": 6927,
      "Ġillustration": 6928,
      "ĠâĬĳ": 6929,
      "Ġsmoothing": 6930,
      "Ġlisted": 6931,
      "ryp": 6932,
      "udes": 6933,
      "Ġtopic": 6934,
      "IV": 6935,
      "Ġholonom": 6936,
      "Ġobstruction": 6937,
      "ĠResearch": 6938,
      "Ġbehind": 6939,
      "ĠDet": 6940,
      "Ġmechanisms": 6941,
      "Ġsharing": 6942,
      "|=": 6943,
      "lementary": 6944,
      "hedron": 6945,
      "Ġconsiderations": 6946,
      "Ġ2014": 6947,
      "Ġcontinuation": 6948,
      "Ġlooking": 6949,
      "Ġcolim": 6950,
      "ĠSchur": 6951,
      "Ġintrinsic": 6952,
      "Ġdenoting": 6953,
      "Ġgene": 6954,
      "ordered": 6955,
      "weighted": 6956,
      "Ġcha": 6957,
      "))(": 6958,
      "Ġimplication": 6959,
      "Ġrecovered": 6960,
      "anks": 6961,
      "Ġconventional": 6962,
      "Ġabsence": 6963,
      "ĠPreliminaries": 6964,
      "Ġcontrols": 6965,
      "Ġ60": 6966,
      "Ġlex": 6967,
      "Ġsubtree": 6968,
      "Ġplaces": 6969,
      "Ġthick": 6970,
      "+(": 6971,
      "related": 6972,
      "Ġpublic": 6973,
      "une": 6974,
      "92": 6975,
      "Lipschitz": 6976,
      "Ġsound": 6977,
      "Ġhomeomorphic": 6978,
      "Ġdf": 6979,
      "Ġmedi": 6980,
      "ĠJordan": 6981,
      "Ġstored": 6982,
      "yi": 6983,
      "Ġjointly": 6984,
      "words": 6985,
      "ĠProb": 6986,
      "Ġincreased": 6987,
      "Ġsubstituting": 6988,
      "ĠdÎ½": 6989,
      "graded": 6990,
      "Ġleg": 6991,
      "ails": 6992,
      "Ġcomparable": 6993,
      "Ġchord": 6994,
      "Ġreceives": 6995,
      "ĠSer": 6996,
      "Ġsafe": 6997,
      "Ġconserv": 6998,
      "Ġsemidefinite": 6999,
      "âĬ¥": 7000,
      "ĠLike": 7001,
      "Ġfixing": 7002,
      "atil": 7003,
      "romov": 7004,
      "Ġquantit": 7005,
      "ider": 7006,
      "Ðµ": 7007,
      "ĠÃĬ": 7008,
      "Ġste": 7009,
      "Ġenh": 7010,
      "Ġvon": 7011,
      "Ġcloser": 7012,
      "lf": 7013,
      "Ġsurvey": 7014,
      "ĠZh": 7015,
      "ung": 7016,
      "Ġmonoton": 7017,
      "lective": 7018,
      "ĠLR": 7019,
      "93": 7020,
      "ĠâĹģ": 7021,
      "zy": 7022,
      "des": 7023,
      ")ÃĹ": 7024,
      "ouv": 7025,
      "ĠÄ±": 7026,
      "ĠMO": 7027,
      "Ġprogress": 7028,
      "Ġcontrary": 7029,
      "ĠÃ©tale": 7030,
      "Ġbalance": 7031,
      "Ġimplying": 7032,
      "Ġstrip": 7033,
      "Ġâİª": 7034,
      "apid": 7035,
      "Ġmind": 7036,
      "after": 7037,
      "Ġnegligible": 7038,
      "Ġintroduces": 7039,
      "Ġincrement": 7040,
      "ued": 7041,
      "ĠGibbs": 7042,
      "aracter": 7043,
      "ĠQuestion": 7044,
      "ntz": 7045,
      "Ġreaches": 7046,
      "Ġfaithful": 7047,
      "ĠâĪĭ": 7048,
      "then": 7049,
      "Ġconfirm": 7050,
      "Ġdiffers": 7051,
      "super": 7052,
      "ðĿĳ¡": 7053,
      "theory": 7054,
      "Ġ|{": 7055,
      "ĠdP": 7056,
      "ĠBesides": 7057,
      "uff": 7058,
      "Ġdestin": 7059,
      "Ġdro": 7060,
      "Ġsensitivity": 7061,
      "recall": 7062,
      "ĠSchrÃ¶dinger": 7063,
      "Ġconsequences": 7064,
      "ĠMinkowski": 7065,
      "Ġspir": 7066,
      "Ġdevices": 7067,
      "uri": 7068,
      "ID": 7069,
      "Ġsubdivision": 7070,
      "ĠPC": 7071,
      "ĠâĪŀ-": 7072,
      "ĠExperim": 7073,
      "ĠâĪĿ": 7074,
      "Ġdevice": 7075,
      "Ġfront": 7076,
      "ĠUniversity": 7077,
      "Ġminimizes": 7078,
      "Ġcuts": 7079,
      "PR": 7080,
      "Ġmy": 7081,
      "Definition": 7082,
      "ĠâĪ¥âĪĤ": 7083,
      "Ġchooses": 7084,
      "Ġdissip": 7085,
      "down": 7086,
      "Ġpubl": 7087,
      "ĠData": 7088,
      "Ġsigns": 7089,
      "Ġaveraging": 7090,
      "Ġfine": 7091,
      "Ġau": 7092,
      "Ġ45": 7093,
      "ano": 7094,
      "Ġmodulus": 7095,
      "ument": 7096,
      "Ġswitch": 7097,
      "Ġneur": 7098,
      "Ġtoler": 7099,
      "Ġbifurcation": 7100,
      "Ġbuy": 7101,
      "increasing": 7102,
      "Ġvalidity": 7103,
      "Ġpowerful": 7104,
      "Ġimproves": 7105,
      "Ġparametrized": 7106,
      "ĠHig": 7107,
      "Ġsigned": 7108,
      "body": 7109,
      "osity": 7110,
      "aving": 7111,
      "ĠMethod": 7112,
      "Ġlifts": 7113,
      "UCTION": 7114,
      "ectives": 7115,
      "Ġ2013": 7116,
      "Ġsolver": 7117,
      "Ġpanel": 7118,
      "Ġinj": 7119,
      "ynchron": 7120,
      "ĠAug": 7121,
      "Ġstructured": 7122,
      "Ġimplicitly": 7123,
      "Ġforcing": 7124,
      "pace": 7125,
      "Ġ48": 7126,
      "Ġprelim": 7127,
      "Ġalgebraically": 7128,
      "vec": 7129,
      "Ġcorrectness": 7130,
      "isting": 7131,
      "Ġassumes": 7132,
      "requ": 7133,
      "Ġreaction": 7134,
      "Ġcommonly": 7135,
      "Ġconverging": 7136,
      "ĠLinear": 7137,
      "almost": 7138,
      "elle": 7139,
      "ords": 7140,
      "Ġantennas": 7141,
      "Ġrays": 7142,
      "Ġtetra": 7143,
      "ĠComparison": 7144,
      "ĠCay": 7145,
      "Ġareas": 7146,
      "ita": 7147,
      "adget": 7148,
      "Ġtuples": 7149,
      "Ġcovariant": 7150,
      "Ã³": 7151,
      "DD": 7152,
      "Ġpreliminary": 7153,
      "ĠAct": 7154,
      "ĠCT": 7155,
      "Ã´": 7156,
      "ĠWork": 7157,
      "Ġequivalences": 7158,
      "Ġsector": 7159,
      "dr": 7160,
      "Ġimplied": 7161,
      "ĠEM": 7162,
      "Ġvacuum": 7163,
      "Ne": 7164,
      "Ġqui": 7165,
      "eterministic": 7166,
      "Ġbootstrap": 7167,
      "Ġcounts": 7168,
      "Ġ+,": 7169,
      "Ġimposed": 7170,
      "diff": 7171,
      "bundle": 7172,
      "UT": 7173,
      "Ġhum": 7174,
      "Ġorbifold": 7175,
      "Ġ2018": 7176,
      "Â¨Â¨": 7177,
      "Ġnom": 7178,
      "ĠSA": 7179,
      "condition": 7180,
      "Ġreveal": 7181,
      "ĠMost": 7182,
      "ests": 7183,
      "Ġshrink": 7184,
      "Ġconclusions": 7185,
      "Ġtn": 7186,
      "Ġwinning": 7187,
      "Ġgraphical": 7188,
      "Ã¨me": 7189,
      "Ġheavy": 7190,
      "Ġpolytopes": 7191,
      "GS": 7192,
      "Ġpropos": 7193,
      "ĠKle": 7194,
      "iteness": 7195,
      "Ġda": 7196,
      "Ġrecalling": 7197,
      "Ġportion": 7198,
      "Ġrapid": 7199,
      "Ġneut": 7200,
      "ĠRob": 7201,
      "Ġyielding": 7202,
      "redu": 7203,
      "ĠPropositions": 7204,
      "ĠTheory": 7205,
      "(âĪĩ": 7206,
      "onality": 7207,
      "Ġaccom": 7208,
      "INR": 7209,
      "ox": 7210,
      "Ġ];": 7211,
      "Ġseparating": 7212,
      "Ġfig": 7213,
      "Ġobserving": 7214,
      "Ġmatches": 7215,
      "Ġsoft": 7216,
      "Ġgreen": 7217,
      "Ġcause": 7218,
      "Ġrequiring": 7219,
      "ills": 7220,
      "Ġdenominator": 7221,
      "Id": 7222,
      "isher": 7223,
      "Ġsensors": 7224,
      "Ġearly": 7225,
      "Ġ42": 7226,
      "Ġ|âĪĨ": 7227,
      "Ġcob": 7228,
      "Ġability": 7229,
      "thing": 7230,
      "Ġ2012": 7231,
      "Ġdisper": 7232,
      "ĠCA": 7233,
      "âĬ¤": 7234,
      "Ġmultiplier": 7235,
      "Ġoccurrence": 7236,
      "ogeneity": 7237,
      "terex": 7238,
      "Ġcache": 7239,
      "ĠConstruction": 7240,
      "Ġnm": 7241,
      "ĠRecently": 7242,
      "ĠGromov": 7243,
      "user": 7244,
      "Ġclosest": 7245,
      "irection": 7246,
      "Ġ2022": 7247,
      "ĠBV": 7248,
      "ĠLagrange": 7249,
      "orov": 7250,
      "Ġintegrating": 7251,
      "trie": 7252,
      "Ġfibr": 7253,
      "91": 7254,
      "Ġsubcategory": 7255,
      "Ġbulk": 7256,
      "Corollary": 7257,
      "new": 7258,
      "oh": 7259,
      "Ġfurthermore": 7260,
      "Ġextract": 7261,
      "Ġalgorithmic": 7262,
      "Ġinspired": 7263,
      "Ġcompatibility": 7264,
      "Ġthemselves": 7265,
      "Ġmachines": 7266,
      "ĠCartan": 7267,
      "Ġjoining": 7268,
      "On": 7269,
      "ĠLorentz": 7270,
      "ĠâĪĵ": 7271,
      "geometric": 7272,
      "atility": 7273,
      "orementioned": 7274,
      "ads": 7275,
      "Ġpositivity": 7276,
      "Ġrelaxed": 7277,
      "actible": 7278,
      "Ġattacks": 7279,
      "Im": 7280,
      "Ġcance": 7281,
      "To": 7282,
      "ĠMSE": 7283,
      "Ġadversarial": 7284,
      "Ġrealizations": 7285,
      "supp": 7286,
      "Ġaforementioned": 7287,
      "ĠâĪĴ|": 7288,
      "Our": 7289,
      "ĠCompute": 7290,
      "ĠTV": 7291,
      "ĠDM": 7292,
      "Ġcryst": 7293,
      "Ġagrees": 7294,
      "Ġcongruence": 7295,
      "len": 7296,
      "Ġquickly": 7297,
      "ki": 7298,
      "sphere": 7299,
      "Ġelastic": 7300,
      "Ġ2010": 7301,
      "Ġlearned": 7302,
      "kh": 7303,
      "Ġthereby": 7304,
      "poch": 7305,
      "ember": 7306,
      "sistent": 7307,
      "ĠÈ²": 7308,
      "Ġdoing": 7309,
      "illi": 7310,
      "Ġfile": 7311,
      "Ġranges": 7312,
      "urst": 7313,
      "Ġquiver": 7314,
      "Ġfav": 7315,
      "Ġmaximizing": 7316,
      "ĠRed": 7317,
      "Ġagreement": 7318,
      "ĠGu": 7319,
      "timate": 7320,
      "ĠEqs": 7321,
      "Ġsecure": 7322,
      "model": 7323,
      "Ġvor": 7324,
      "empt": 7325,
      "ĠPR": 7326,
      "Po": 7327,
      "Ġunchanged": 7328,
      "ĠMc": 7329,
      "Ġgains": 7330,
      "ns": 7331,
      "Ġfusion": 7332,
      "hyper": 7333,
      "Ġtruncation": 7334,
      "ĠRicci": 7335,
      "ĠBi": 7336,
      "ĠLocal": 7337,
      "qubit": 7338,
      "stit": 7339,
      "Ġarchitecture": 7340,
      "Ġmirror": 7341,
      "IST": 7342,
      "ani": 7343,
      "cut": 7344,
      "UM": 7345,
      "box": 7346,
      "Note": 7347,
      "ĠdW": 7348,
      "Ġhyperplanes": 7349,
      "ĠIP": 7350,
      "2013": 7351,
      "Ġshifted": 7352,
      "typ": 7353,
      "ĠWi": 7354,
      "IL": 7355,
      "ĠMany": 7356,
      "Ġevaluating": 7357,
      "ĠBu": 7358,
      "Ġunbiased": 7359,
      "Ġcle": 7360,
      "Ġsuccessive": 7361,
      "elike": 7362,
      "Ġaugmented": 7363,
      "ĠInte": 7364,
      "ĠÃ©t": 7365,
      "Ġplaced": 7366,
      "ĠAlex": 7367,
      "Ġuni": 7368,
      "Ġdivision": 7369,
      "Ġmolec": 7370,
      "Ġmatched": 7371,
      "Ġá¸ł": 7372,
      "Ġsingleton": 7373,
      "Ġ2011": 7374,
      "Ġdivides": 7375,
      "ecke": 7376,
      "Ġexten": 7377,
      "ump": 7378,
      "Ġfinish": 7379,
      "ĠDE": 7380,
      "ĠBar": 7381,
      "Ġ37": 7382,
      "âĪĨ)": 7383,
      "Ġpredicted": 7384,
      "ateral": 7385,
      "Ġdealing": 7386,
      "Ġbc": 7387,
      "Ġattained": 7388,
      "Ġprecondition": 7389,
      "Ġsont": 7390,
      "Ġequally": 7391,
      "ĠFormally": 7392,
      "Ġchallenge": 7393,
      "KS": 7394,
      "Ġdefinable": 7395,
      "Ġiterated": 7396,
      "Ġmild": 7397,
      "Ġrefined": 7398,
      "Ġrequest": 7399,
      "Ġdiction": 7400,
      "ĠrÃ©": 7401,
      "Ġfold": 7402,
      "onym": 7403,
      "Ġplanes": 7404,
      "Ġexploration": 7405,
      "venue": 7406,
      "Ġvot": 7407,
      "âĬĨ": 7408,
      "Ġformation": 7409,
      "hedral": 7410,
      "rossing": 7411,
      "ĠSpin": 7412,
      "Ġjobs": 7413,
      "ĠGrass": 7414,
      "entral": 7415,
      "ROD": 7416,
      "OS": 7417,
      "Ġcandidates": 7418,
      "vised": 7419,
      "Ġambigu": 7420,
      "Ġcumulative": 7421,
      "NS": 7422,
      "Ġgeometrically": 7423,
      "Ġencoun": 7424,
      "Ġcounterpart": 7425,
      "Ġbatch": 7426,
      "ĠHar": 7427,
      "alth": 7428,
      "Ġdivisible": 7429,
      "ĠPol": 7430,
      "Ġpk": 7431,
      "processing": 7432,
      "Ġabuse": 7433,
      "menting": 7434,
      "ĠPreprint": 7435,
      "Ġrouting": 7436,
      "Ġattempt": 7437,
      "ibration": 7438,
      "Ġcontribute": 7439,
      "lling": 7440,
      "tier": 7441,
      "Ãł": 7442,
      "auses": 7443,
      "Ġtraces": 7444,
      "Ġdividing": 7445,
      "Ġstratif": 7446,
      "aire": 7447,
      "Ġintersecting": 7448,
      "ĠGro": 7449,
      "ĠâĦĺ": 7450,
      "âĻ": 7451,
      "Ġenvelop": 7452,
      "Ġvaries": 7453,
      "foli": 7454,
      "block": 7455,
      "constrained": 7456,
      "ĠðĿĳĿ": 7457,
      "âĬĤ": 7458,
      "{|": 7459,
      "Ġdrawing": 7460,
      "Ġni": 7461,
      "ĠApproxim": 7462,
      "+|": 7463,
      "Ġsemisim": 7464,
      "Ġbinomial": 7465,
      "Ġanalytically": 7466,
      "Ġcontinuum": 7467,
      "Ġkeeping": 7468,
      "aneous": 7469,
      "Ġcommunic": 7470,
      "Sim": 7471,
      "Ġoutline": 7472,
      "Ġsubtr": 7473,
      "ĠSD": 7474,
      "Ġextremely": 7475,
      "bas": 7476,
      "Ġcancell": 7477,
      "world": 7478,
      "ĠÅĿ": 7479,
      "dule": 7480,
      "Ġdw": 7481,
      "arting": 7482,
      "Ġsuccessfully": 7483,
      "Ġmedian": 7484,
      "ĠDL": 7485,
      "Ġcarries": 7486,
      "Ġpacking": 7487,
      "ĠEd": 7488,
      "Ġmonotonically": 7489,
      "Ġgrading": 7490,
      "onential": 7491,
      "Ġcounterex": 7492,
      "Ġgradients": 7493,
      "texts": 7494,
      "Ġregularized": 7495,
      "Ġauction": 7496,
      "Ġá¸¢": 7497,
      "ĠCD": 7498,
      "NC": 7499,
      "ĠER": 7500,
      "Ġtriples": 7501,
      "Ġfiltered": 7502,
      "Ġinher": 7503,
      "Ġsurgery": 7504,
      "Ġmultic": 7505,
      "Ġassess": 7506,
      "ĠDef": 7507,
      "Ġconservative": 7508,
      "product": 7509,
      "Ġchapter": 7510,
      "ĠConvergence": 7511,
      "att": 7512,
      "Ġti": 7513,
      "anding": 7514,
      "ĠINTROD": 7515,
      "Then": 7516,
      "://": 7517,
      "ĠObservation": 7518,
      "Ġsimulate": 7519,
      "ihil": 7520,
      "ao": 7521,
      "Ġ500": 7522,
      "Ġdesirable": 7523,
      "ĠDS": 7524,
      "Ġhomomorphisms": 7525,
      "ĠINTRODUCTION": 7526,
      "aced": 7527,
      "cks": 7528,
      "ĠFloer": 7529,
      "rational": 7530,
      "ĠLip": 7531,
      "2015": 7532,
      "Ġarrangement": 7533,
      "Ġreducible": 7534,
      "such": 7535,
      "ned": 7536,
      "Ġnp": 7537,
      "struc": 7538,
      "Ġexpanding": 7539,
      "Ġestablishing": 7540,
      "Ġinterpol": 7541,
      "Ġdiscriminant": 7542,
      "Ġdur": 7543,
      "Ġecon": 7544,
      "Ġadditionally": 7545,
      "ongest": 7546,
      "Ġframes": 7547,
      "Ġfewer": 7548,
      "OL": 7549,
      "Ġorientable": 7550,
      "ĠGH": 7551,
      "tre": 7552,
      "Ġcat": 7553,
      "ugging": 7554,
      "ercise": 7555,
      "Ġepoch": 7556,
      "Ġgadget": 7557,
      "ĠZar": 7558,
      "ĠOPT": 7559,
      "Ġfixes": 7560,
      "Ġbos": 7561,
      "Ġ41": 7562,
      "Ġequalities": 7563,
      "ask": 7564,
      "Ġoutperforms": 7565,
      "asser": 7566,
      "Ġ+(": 7567,
      "ĠOutput": 7568,
      "Ġinductively": 7569,
      "Ġobj": 7570,
      "Ġoverview": 7571,
      "ĠGF": 7572,
      "Ġshap": 7573,
      "Ġrecip": 7574,
      "ĠID": 7575,
      "Ġcocycle": 7576,
      "iton": 7577,
      "Ġbaseline": 7578,
      "ĠMap": 7579,
      "ĠQuantum": 7580,
      "Ġpercol": 7581,
      "ĠCoxeter": 7582,
      "Ġgravity": 7583,
      "ï¿½": 7584,
      "Ġperiods": 7585,
      "Ġprescribed": 7586,
      "Ġquantitative": 7587,
      "oud": 7588,
      "ĠAnalog": 7589,
      "ĠIntegr": 7590,
      "ĠÅ´": 7591,
      "Ġoutgoing": 7592,
      "ixed": 7593,
      "from": 7594,
      "Ġdeformations": 7595,
      "Ġmodifications": 7596,
      "ĠâŁ¨âĪĩ": 7597,
      "ĠMean": 7598,
      "Ġcal": 7599,
      "RT": 7600,
      "Ġcompr": 7601,
      "ĠMDP": 7602,
      "2016": 7603,
      "âĬķ": 7604,
      "ohn": 7605,
      "Ġvolatility": 7606,
      "2014": 7607,
      "Ġkine": 7608,
      "Ġappeared": 7609,
      "Ġnondeg": 7610,
      "atern": 7611,
      "values": 7612,
      "Ġ+âĪŀ,": 7613,
      "|(": 7614,
      "ĠDifferen": 7615,
      "GM": 7616,
      "factor": 7617,
      "irc": 7618,
      "sembles": 7619,
      "Ġpxq": 7620,
      "Ġpreference": 7621,
      "Î¥": 7622,
      "ĠÄĤ": 7623,
      "Ġcircum": 7624,
      "omposition": 7625,
      "ĠâĹĭ": 7626,
      "Ġanalogy": 7627,
      "Ġlinearized": 7628,
      "Ġinsight": 7629,
      "Ġmembers": 7630,
      "rec": 7631,
      "ening": 7632,
      "Ġhash": 7633,
      "matic": 7634,
      "Ġtractable": 7635,
      "US": 7636,
      "ĠpX": 7637,
      "Ġanalogously": 7638,
      "polynomial": 7639,
      "ĠInitial": 7640,
      "Ġwall": 7641,
      "Ġretrie": 7642,
      "Ġâīį": 7643,
      "Ġold": 7644,
      "ĠKn": 7645,
      "()": 7646,
      "Ġ(âĪŀ)": 7647,
      "decreasing": 7648,
      "ĠNE": 7649,
      "Ġanom": 7650,
      "Ġincoming": 7651,
      "Ġcodeword": 7652,
      "Ġaveraged": 7653,
      "Ġparametrization": 7654,
      "brevi": 7655,
      "Ġrecomm": 7656,
      "ĠSi": 7657,
      "Ã©or": 7658,
      "Ġclaims": 7659,
      "Ġsoon": 7660,
      "ĠâĪ¶=": 7661,
      "âŁ©|": 7662,
      "ĠBayes": 7663,
      ")|.": 7664,
      "random": 7665,
      "Ġ43": 7666,
      "Ġinfimum": 7667,
      "arm": 7668,
      "2012": 7669,
      "Ġdestination": 7670,
      "ĠÄī": 7671,
      "Ġchart": 7672,
      "Ġ(+": 7673,
      "rs": 7674,
      "Ã©t": 7675,
      "Ġmaximally": 7676,
      "rate": 7677,
      "ĠTime": 7678,
      "Ġrobots": 7679,
      "midt": 7680,
      "ba": 7681,
      "Ġpredictions": 7682,
      "artz": 7683,
      "ovi": 7684,
      "Ġded": 7685,
      "Ġtout": 7686,
      "uck": 7687,
      "Ġaddressed": 7688,
      "amination": 7689,
      "Ġbuff": 7690,
      "Schwarz": 7691,
      "formally": 7692,
      "Ġcalls": 7693,
      "ĠCov": 7694,
      "ĠDT": 7695,
      "Ġunimod": 7696,
      "Ġschedule": 7697,
      "rences": 7698,
      "UR": 7699,
      "Ġcenters": 7700,
      "partite": 7701,
      "Ġpricing": 7702,
      "2017": 7703,
      "oidal": 7704,
      "dv": 7705,
      "Ġvice": 7706,
      "ĠPT": 7707,
      "ĠSN": 7708,
      "ĠConsidering": 7709,
      "Ġpasses": 7710,
      "tuple": 7711,
      "sin": 7712,
      "ĠðĿĳļ": 7713,
      "Ġreplacement": 7714,
      "Ġnu": 7715,
      "Ġselecting": 7716,
      "ĠBelow": 7717,
      "Ġanalyzing": 7718,
      "ĠIS": 7719,
      "Ġbenefit": 7720,
      "Ġprojected": 7721,
      "Ġminimax": 7722,
      "ĠDR": 7723,
      "Ġnaive": 7724,
      "writing": 7725,
      "ogram": 7726,
      "Net": 7727,
      "Ġ{{": 7728,
      "alk": 7729,
      "inf": 7730,
      "2011": 7731,
      "Ġhierarchical": 7732,
      "Ġcd": 7733,
      "Ġrs": 7734,
      "Ġoptimize": 7735,
      "Ġcontradicting": 7736,
      "Ġtori": 7737,
      "ams": 7738,
      "Ġcaptures": 7739,
      "while": 7740,
      "Ġrepresentatives": 7741,
      "ouville": 7742,
      "MF": 7743,
      "ĠGl": 7744,
      "edges": 7745,
      "conn": 7746,
      "ĠâŁ©|": 7747,
      ")âĪĤ": 7748,
      "Ġsemisimple": 7749,
      "Ġhighlight": 7750,
      "Ġhtt": 7751,
      "Ġpreparation": 7752,
      "Ġbis": 7753,
      "Ġcurrently": 7754,
      "Ġsecret": 7755,
      "ĠPoly": 7756,
      "asting": 7757,
      "ecker": 7758,
      "Ġ38": 7759,
      "ĠEquations": 7760,
      "Ġpy": 7761,
      "idable": 7762,
      "Ġconcerns": 7763,
      "strong": 7764,
      "Ġbridge": 7765,
      "Ġfluctuations": 7766,
      "Cl": 7767,
      "Ġchecks": 7768,
      "Ġhomotopic": 7769,
      "ĠdÏī": 7770,
      "ĠâĩĿ": 7771,
      "Ġsecre": 7772,
      "Ġmere": 7773,
      "ĠÅª": 7774,
      "analy": 7775,
      "Ġ44": 7776,
      "ĠLast": 7777,
      "Ã¨re": 7778,
      "Ġhex": 7779,
      "âĮĪ": 7780,
      "Ġinvestigation": 7781,
      "ME": 7782,
      "ectral": 7783,
      "Ġqualit": 7784,
      "Ġserve": 7785,
      "Ġ2009": 7786,
      "abi": 7787,
      "fil": 7788,
      "Ġfan": 7789,
      "Ġsensitive": 7790,
      "Ġcobordism": 7791,
      "ĠSH": 7792,
      "split": 7793,
      "ĠAugust": 7794,
      "Ġtiling": 7795,
      "Ġclauses": 7796,
      "KL": 7797,
      "sig": 7798,
      "crossing": 7799,
      "ĠSDP": 7800,
      "Ġcouple": 7801,
      "ĠBB": 7802,
      "emic": 7803,
      "Ġdefault": 7804,
      "Ġregardless": 7805,
      "ĠUAV": 7806,
      "constant": 7807,
      "ighting": 7808,
      "ders": 7809,
      "ÑĤ": 7810,
      "Ġlot": 7811,
      "Ġchanged": 7812,
      "Ġservers": 7813,
      "Ġiterates": 7814,
      "ĠGrassmann": 7815,
      "Ġdependency": 7816,
      "usive": 7817,
      "Ġled": 7818,
      "iski": 7819,
      "âĪĴ|": 7820,
      "cover": 7821,
      "isons": 7822,
      "da": 7823,
      "Ġ000": 7824,
      "Ġindecom": 7825,
      "Ax": 7826,
      "Ġoverhead": 7827,
      "ĠCayley": 7828,
      "Ġmobile": 7829,
      "Ġapparent": 7830,
      "Ġcoin": 7831,
      "aff": 7832,
      "Ġannihil": 7833,
      "Ġ::": 7834,
      "ney": 7835,
      "Gaussian": 7836,
      "Ġmeets": 7837,
      "Ġcompetitive": 7838,
      "Ġ?,": 7839,
      "tware": 7840,
      "Ġcorners": 7841,
      "Ġoriginally": 7842,
      "ĠâĪ¥âĪĨ": 7843,
      "ford": 7844,
      "Ġscores": 7845,
      "Ġreachable": 7846,
      "Ã»": 7847,
      "ĠáºĲ": 7848,
      "Ġexplanation": 7849,
      "Ġtrained": 7850,
      "Ġvec": 7851,
      "ĠES": 7852,
      "Ġ++": 7853,
      "Ġthermod": 7854,
      "pi": 7855,
      "Ġpartitioned": 7856,
      "Ġconcur": 7857,
      "Ġoccurring": 7858,
      "Ġparties": 7859,
      "arding": 7860,
      "ĠRam": 7861,
      "oi": 7862,
      "Ġdoc": 7863,
      "Ġcareful": 7864,
      "oul": 7865,
      "bing": 7866,
      "Ġxn": 7867,
      "neighbor": 7868,
      "ĠCat": 7869,
      "Ġworse": 7870,
      "ĠHyp": 7871,
      "Ġfinishes": 7872,
      "asi": 7873,
      "ĠHad": 7874,
      "Ġmultiplying": 7875,
      "urning": 7876,
      "ĠdÃ©fin": 7877,
      "Ġbroadcast": 7878,
      "Ġconjunction": 7879,
      ")âĪĨ": 7880,
      "dÎ¸": 7881,
      "pass": 7882,
      "Ġquotients": 7883,
      "Ġwt": 7884,
      "Ġunital": 7885,
      "vability": 7886,
      "Ã©ri": 7887,
      "Ġlists": 7888,
      "spaces": 7889,
      "Ð°": 7890,
      "Ġdeviations": 7891,
      "ĠLetting": 7892,
      "Ġconjectured": 7893,
      "inters": 7894,
      "Ġruntime": 7895,
      "Ġranking": 7896,
      "ĠScience": 7897,
      "Ġcommuting": 7898,
      "hev": 7899,
      "Ġfreely": 7900,
      "Ġlocalized": 7901,
      "ĠEquivalently": 7902,
      "itation": 7903,
      "Ġcardinal": 7904,
      "Ġtopologically": 7905,
      "ĠAcknowledgments": 7906,
      "holomorphic": 7907,
      "Ġcovariates": 7908,
      "Ġappropriately": 7909,
      "ĠInequ": 7910,
      "Ġgrate": 7911,
      "Ġadaptation": 7912,
      "Ġtransversal": 7913,
      "lov": 7914,
      "Ġproceeds": 7915,
      "Ġrestricts": 7916,
      "enable": 7917,
      "Ġtracking": 7918,
      "inger": 7919,
      "Ġdiffeomorphisms": 7920,
      "ĠCV": 7921,
      "rov": 7922,
      "Ġleader": 7923,
      "Ġáºĳ": 7924,
      "ĠâĻ¢": 7925,
      "ĠAlg": 7926,
      "2010": 7927,
      "âĸ³": 7928,
      "Ġadopted": 7929,
      "Ġ39": 7930,
      "conc": 7931,
      "Ġphenomena": 7932,
      "Ġrealistic": 7933,
      "acement": 7934,
      "ictive": 7935,
      "eless": 7936,
      "Ġengine": 7937,
      "Ġviscosity": 7938,
      "Ġcontractible": 7939,
      "Ġmajority": 7940,
      "ĠPL": 7941,
      "Ġencode": 7942,
      "Ġlk": 7943,
      "Ġattemp": 7944,
      "Ġsimultaneous": 7945,
      "pq": 7946,
      "ĠClass": 7947,
      "ĠProofs": 7948,
      "Ar": 7949,
      "ĠâĢ¢âĢ¢âĢ¢": 7950,
      "ĠBM": 7951,
      "ĠEl": 7952,
      "Ġiterate": 7953,
      "ĠCliff": 7954,
      "Ġobserver": 7955,
      "Ġeffort": 7956,
      "ĠLear": 7957,
      "Ġassigns": 7958,
      "Ãĳ": 7959,
      "Ġstarted": 7960,
      "Ġrevenue": 7961,
      "Ġdm": 7962,
      "Ġprep": 7963,
      "hel": 7964,
      "idal": 7965,
      "ĠVor": 7966,
      "ĠMP": 7967,
      "Ġapart": 7968,
      "imes": 7969,
      "gradient": 7970,
      "component": 7971,
      "anon": 7972,
      "Ġquadrature": 7973,
      "Ġtile": 7974,
      "Ġextensively": 7975,
      "Ġrestricting": 7976,
      "ĠTogether": 7977,
      "ĠCE": 7978,
      "Ġambient": 7979,
      "atum": 7980,
      "ENDI": 7981,
      "âĪĢ": 7982,
      "uv": 7983,
      "indric": 7984,
      "rog": 7985,
      "ĠÄĴ": 7986,
      "Ġdesigns": 7987,
      "Ġanswers": 7988,
      "Ġretr": 7989,
      "real": 7990,
      "Ġportfoli": 7991,
      "ĠZariski": 7992,
      "Ġpercolation": 7993,
      "Li": 7994,
      "romag": 7995,
      "Ãª": 7996,
      "â©¾": 7997,
      "Ġplotted": 7998,
      "Ġparad": 7999,
      "Ġcontexts": 8000,
      "Ġquatern": 8001,
      "Ġignore": 8002,
      "ENDIX": 8003,
      "Ġsubmodular": 8004,
      "Ġwhence": 8005,
      "ĠdS": 8006,
      "ĠHaar": 8007,
      "date": 8008,
      "ĠOptim": 8009,
      "Ġminus": 8010,
      "orbit": 8011,
      "Ġdecisions": 8012,
      "Ġsynthetic": 8013,
      ".\"": 8014,
      "Ġimplications": 8015,
      "Ġassociative": 8016,
      "âĢ¢âĪ¥": 8017,
      "ĠdR": 8018,
      "ĠRelated": 8019,
      "ĠHecke": 8020,
      "Ġhuman": 8021,
      "isomorphism": 8022,
      "Ġconcentrated": 8023,
      "Ġmethodology": 8024,
      "Ġproduction": 8025,
      "Ġnotic": 8026,
      "anov": 8027,
      "ĠRM": 8028,
      "chet": 8029,
      "ionic": 8030,
      "valid": 8031,
      "pn": 8032,
      "ometry": 8033,
      "Ġinjection": 8034,
      "ĠSW": 8035,
      "gu": 8036,
      "Ġbond": 8037,
      "Ġmostly": 8038,
      "arying": 8039,
      "ĠHo": 8040,
      "Ġexhibits": 8041,
      "ENT": 8042,
      "Ġfall": 8043,
      "ogonal": 8044,
      "ancing": 8045,
      "á¹": 8046,
      "Ġextensive": 8047,
      "Ġconcatenation": 8048,
      "Ġovercome": 8049,
      "ĠLM": 8050,
      "Ġkinds": 8051,
      "angle": 8052,
      "Ġances": 8053,
      "ography": 8054,
      "pair": 8055,
      "kn": 8056,
      "ĠÇ": 8057,
      "amard": 8058,
      "Ġantenna": 8059,
      "Ġprofiles": 8060,
      "Ġdeploy": 8061,
      "uer": 8062,
      "ĠSystem": 8063,
      "Ġourselves": 8064,
      "add": 8065,
      "ĠAmong": 8066,
      "Ġstay": 8067,
      "Ġbijective": 8068,
      "layer": 8069,
      "cessible": 8070,
      "ĠDRA": 8071,
      "Ġinitialization": 8072,
      "ĠFirstly": 8073,
      "CM": 8074,
      "Ġactivation": 8075,
      "Ġmonit": 8076,
      "Ġsimplifies": 8077,
      "Ġbus": 8078,
      "ĠâĪĳï¸ģ": 8079,
      "Ġsurv": 8080,
      "Ġacqu": 8081,
      "Ġdictionary": 8082,
      "also": 8083,
      "Ġintuitive": 8084,
      "ĠVII": 8085,
      "Ġgh": 8086,
      "NE": 8087,
      "Ġfeasibility": 8088,
      "ĠDer": 8089,
      "Ġcontract": 8090,
      "node": 8091,
      "morphism": 8092,
      "ĠYang": 8093,
      "clust": 8094,
      "Ġshifts": 8095,
      "Ġsecrecy": 8096,
      "Ġdiscrep": 8097,
      "ĠâĨł": 8098,
      "Ġforget": 8099,
      "ĠSINR": 8100,
      "Ġ(âĪĢ": 8101,
      "book": 8102,
      "variety": 8103,
      "Ġmeromorphic": 8104,
      "Ġfon": 8105,
      "CT": 8106,
      "Ġasymmetric": 8107,
      "atest": 8108,
      "Ġpartitioning": 8109,
      "Ġseek": 8110,
      "obal": 8111,
      "Ġsimplices": 8112,
      "Ġ)}.": 8113,
      "ĠPD": 8114,
      "Ġiteratively": 8115,
      "Ġnodal": 8116,
      "Ġsymbolic": 8117,
      "Ġuniverse": 8118,
      "Ġreally": 8119,
      "LR": 8120,
      "Ġtheoretic": 8121,
      "ĠRT": 8122,
      "ato": 8123,
      "aming": 8124,
      "etti": 8125,
      "alg": 8126,
      "Ġweb": 8127,
      "Ġabbrevi": 8128,
      "Ġfilters": 8129,
      "versity": 8130,
      "Ġgrav": 8131,
      "Ġincon": 8132,
      "Ġperhaps": 8133,
      "Ġpolyhedral": 8134,
      "Ġdeduced": 8135,
      "Ġtranslations": 8136,
      "ĠFP": 8137,
      "coloring": 8138,
      "Ġreductions": 8139,
      "Ġdisconnected": 8140,
      "ubin": 8141,
      "Ġ(âĪĴ)": 8142,
      "Ġelimination": 8143,
      "ĠAPPENDIX": 8144,
      "Ġfiltering": 8145,
      "CR": 8146,
      "Ġcs": 8147,
      "lined": 8148,
      "ĠBR": 8149,
      "ĠSever": 8150,
      "Ġdisturb": 8151,
      "Ġoptimized": 8152,
      "Ġholonomy": 8153,
      "',": 8154,
      "amber": 8155,
      "Ġcollect": 8156,
      "ini": 8157,
      "ense": 8158,
      "Ġreser": 8159,
      "itch": 8160,
      "ologies": 8161,
      "Ġintegrated": 8162,
      "Ġexpectations": 8163,
      "Ġpm": 8164,
      "Ġmaximizes": 8165,
      "ynamics": 8166,
      "ĠKilling": 8167,
      "/|": 8168,
      "Ġfract": 8169,
      "ĠâĻ®": 8170,
      "Ġtested": 8171,
      "Ġintegrand": 8172,
      "NA": 8173,
      "ĠdV": 8174,
      "Ġversa": 8175,
      "ura": 8176,
      "adap": 8177,
      "Ġrecurrent": 8178,
      "Ġreflex": 8179,
      "Ġcompactification": 8180,
      "Ġfacets": 8181,
      "epending": 8182,
      "arrow": 8183,
      "Ġkinetic": 8184,
      "))]": 8185,
      "Ġscope": 8186,
      "harmonic": 8187,
      "Ġpolyhedron": 8188,
      "Com": 8189,
      "ĠPhD": 8190,
      "levant": 8191,
      "Ġrearr": 8192,
      "ĠAlternatively": 8193,
      "Ġindecomposable": 8194,
      "âĨĳ": 8195,
      "Ð¸": 8196,
      "ĠAc": 8197,
      "----": 8198,
      "Ġargmin": 8199,
      "Ġfrequently": 8200,
      "ĠXi": 8201,
      "small": 8202,
      "Ġpix": 8203,
      "NF": 8204,
      "Ġjj": 8205,
      "Ġtuning": 8206,
      "Ġsusp": 8207,
      "mo": 8208,
      "Ġgeneralizations": 8209,
      "Ġ2000": 8210,
      "ogenous": 8211,
      "ĠâĩĢ": 8212,
      "Ġcalculating": 8213,
      "Ġoutage": 8214,
      "Ġpropositions": 8215,
      "Ġconject": 8216,
      "ĠKron": 8217,
      "Ġassociation": 8218,
      "ĠKK": 8219,
      "BR": 8220,
      "ĠPe": 8221,
      "Ġdescend": 8222,
      "Ġsecondary": 8223,
      "Ġeigens": 8224,
      "Ġassignments": 8225,
      "á¹½": 8226,
      "Ġratios": 8227,
      "Ġfacet": 8228,
      "ĠStein": 8229,
      "Ġcyl": 8230,
      "ĠSY": 8231,
      "Ġbroken": 8232,
      "Ġ+âĪŀ)": 8233,
      "ĠâĢļ": 8234,
      "oo": 8235,
      "Ġample": 8236,
      "ĠSDE": 8237,
      "ĠActually": 8238,
      "erman": 8239,
      "Ġ%": 8240,
      "ĠPROOF": 8241,
      "kov": 8242,
      "sym": 8243,
      "ressing": 8244,
      "2009": 8245,
      "aard": 8246,
      "ĠHu": 8247,
      "ĠHaving": 8248,
      "arge": 8249,
      "ww": 8250,
      "ĠHamiltonians": 8251,
      "ĠRHS": 8252,
      "Ġoffer": 8253,
      "Ġconditioning": 8254,
      "vanishing": 8255,
      "isotropic": 8256,
      "[âĪĴ": 8257,
      "ifert": 8258,
      "Ġkm": 8259,
      "CG": 8260,
      "ĠLegendrian": 8261,
      "ĠâŁ©)": 8262,
      "ĠXn": 8263,
      "Ġvehicle": 8264,
      "Ġisotopic": 8265,
      "Ã¹": 8266,
      "Ġtt": 8267,
      "Ġachieving": 8268,
      "Ġholes": 8269,
      "Yau": 8270,
      "Ġthread": 8271,
      "ocation": 8272,
      "Ġ{Â±": 8273,
      "Ġration": 8274,
      "Ġcertainly": 8275,
      "coordin": 8276,
      "Ġnd": 8277,
      "Ġreading": 8278,
      "ette": 8279,
      "áº": 8280,
      "Ġiii": 8281,
      "Ġwavelet": 8282,
      "Ġorientations": 8283,
      "ĠInformation": 8284,
      "Ġperfectly": 8285,
      "Ġclassified": 8286,
      "Ġpas": 8287,
      "Ġdemonstrates": 8288,
      "Ġbehaves": 8289,
      "ĠClifford": 8290,
      "Ġorthogonality": 8291,
      "URE": 8292,
      "Ġeigenfunction": 8293,
      "Ġnondegenerate": 8294,
      "sec": 8295,
      "Ġoptions": 8296,
      "jug": 8297,
      "Ġlinked": 8298,
      "Ġcollected": 8299,
      "CAL": 8300,
      "Ġgrowing": 8301,
      "Ġreveals": 8302,
      "Ġneighborhoods": 8303,
      "Ġcarefully": 8304,
      "ĠKh": 8305,
      "Ġdelta": 8306,
      "Ġmedium": 8307,
      "Ġsubc": 8308,
      "Ġshadow": 8309,
      "oking": 8310,
      "Ġenumeration": 8311,
      "obser": 8312,
      "Ġrotations": 8313,
      ",[": 8314,
      "gular": 8315,
      "mean": 8316,
      "Ġdisj": 8317,
      "2018": 8318,
      "ressive": 8319,
      "Ġstages": 8320,
      "Ġrequests": 8321,
      "ounting": 8322,
      "Ġverifies": 8323,
      "Ġfill": 8324,
      "Ġprem": 8325,
      "Ġidempotent": 8326,
      "she": 8327,
      "Ġantic": 8328,
      "equivalent": 8329,
      "Ġiso": 8330,
      "aul": 8331,
      "ĠConc": 8332,
      "Ġrescaling": 8333,
      "ĠMathematics": 8334,
      "vin": 8335,
      "Ġcn": 8336,
      "Mod": 8337,
      "Ġtradeoff": 8338,
      "ĠMT": 8339,
      "Ġterminates": 8340,
      "ĠDRAFT": 8341,
      "Ġpointing": 8342,
      "Ġvide": 8343,
      "Ġrepeatedly": 8344,
      "ĠDi": 8345,
      "Ġri": 8346,
      "Ġsubsystem": 8347,
      "pend": 8348,
      "ĠPick": 8349,
      "arded": 8350,
      "Ġaffected": 8351,
      "ĠËĿ": 8352,
      "ĠÃª": 8353,
      "Ġcommit": 8354,
      "Ġquar": 8355,
      "responding": 8356,
      "ancial": 8357,
      "Ġap": 8358,
      "ĠSeifert": 8359,
      "rd": 8360,
      "station": 8361,
      "solution": 8362,
      "ript": 8363,
      "]}": 8364,
      "Ġneighboring": 8365,
      "energy": 8366,
      "partition": 8367,
      "relation": 8368,
      "Ġsystematic": 8369,
      "Ġisometries": 8370,
      "ulating": 8371,
      "Ġintegrate": 8372,
      "Ġcancel": 8373,
      "Ġthermal": 8374,
      "ĠCW": 8375,
      "knot": 8376,
      "Ġtriangulations": 8377,
      "È³": 8378,
      "Ġdominating": 8379,
      "Ġtranslate": 8380,
      "ĠBA": 8381,
      "ĠPauli": 8382,
      "Ġnk": 8383,
      "ĠLT": 8384,
      "gel": 8385,
      "Ġmassive": 8386,
      "Ġdq": 8387,
      "Ġsumming": 8388,
      "CLU": 8389,
      "Ad": 8390,
      "Ġsaturated": 8391,
      "More": 8392,
      "Ġacknow": 8393,
      "ĠSI": 8394,
      "ĠThanks": 8395,
      "Ġsubproblem": 8396,
      "Ġupdating": 8397,
      "Ġidentifies": 8398,
      "ori": 8399,
      "Ġreversible": 8400,
      "Ġsoftware": 8401,
      "ulse": 8402,
      "minimal": 8403,
      "definite": 8404,
      "Ġdn": 8405,
      "Ġdiversity": 8406,
      "Ġhexag": 8407,
      "ilit": 8408,
      "ĠËĻ": 8409,
      "liers": 8410,
      "Ġfamili": 8411,
      "Ġpreferred": 8412,
      "categories": 8413,
      "Ġbarrier": 8414,
      "mail": 8415,
      "rot": 8416,
      "ĠAv": 8417,
      "ĠFound": 8418,
      "trol": 8419,
      "ka": 8420,
      "comput": 8421,
      "areto": 8422,
      "ĠCG": 8423,
      "CL": 8424,
      "[|": 8425,
      "Ġgerm": 8426,
      "La": 8427,
      "ĠðĿĳĳ": 8428,
      "cells": 8429,
      "Ġremov": 8430,
      "asserstein": 8431,
      "Ġpreferences": 8432,
      "ĠdH": 8433,
      "ĠâĦµ": 8434,
      "ĠAT": 8435,
      ")\\": 8436,
      "Ġencryp": 8437,
      "Ġalors": 8438,
      "ABLE": 8439,
      "Fin": 8440,
      "Ġadvantages": 8441,
      "Ġattractor": 8442,
      "ĠCartesian": 8443,
      "Ġsom": 8444,
      "ĠRL": 8445,
      "ĠHS": 8446,
      "NO": 8447,
      "Ġli": 8448,
      "Ġfigures": 8449,
      "Ġele": 8450,
      "Ġalg": 8451,
      "Ġhypersurfaces": 8452,
      "Ġexploiting": 8453,
      "Ġelectron": 8454,
      "Ġopin": 8455,
      "ars": 8456,
      "Ġdifferentials": 8457,
      "Ġlexic": 8458,
      "Ġeliminate": 8459,
      "ept": 8460,
      "Ġbic": 8461,
      "Ġduration": 8462,
      "};": 8463,
      "ĠHeeg": 8464,
      "Ġdetected": 8465,
      "Ġconnects": 8466,
      "ĠâĢ°": 8467,
      "Ġexposition": 8468,
      "Ġspirit": 8469,
      "Ġalone": 8470,
      "ĠEm": 8471,
      "Ġrelates": 8472,
      "ko": 8473,
      "likelihood": 8474,
      "ĠâĪ¥âĢ¢âĪ¥": 8475,
      "-)": 8476,
      "Ġisot": 8477,
      "Ġsous": 8478,
      "ĠHow": 8479,
      "Ġrectangles": 8480,
      "sions": 8481,
      "Ġaspect": 8482,
      "-(": 8483,
      "rip": 8484,
      "ĠRR": 8485,
      "Ġdominates": 8486,
      "ellow": 8487,
      "âĪ¨": 8488,
      "Gr": 8489,
      "verses": 8490,
      "Ġexclud": 8491,
      "ĠIr": 8492,
      "Pr": 8493,
      "Ġrich": 8494,
      "easible": 8495,
      "anonical": 8496,
      "idelity": 8497,
      "ĠTuring": 8498,
      "acking": 8499,
      "aker": 8500,
      "ĠPri": 8501,
      "ĠâĪı": 8502,
      "Ġpiv": 8503,
      "pa": 8504,
      "ĠdX": 8505,
      "Ġincomplete": 8506,
      "ectiveness": 8507,
      "}).": 8508,
      "ĠRH": 8509,
      "ËĨ": 8510,
      "ĠProcess": 8511,
      "Ġdimensionality": 8512,
      "Ġpool": 8513,
      "]):": 8514,
      "Ġlg": 8515,
      "Ġcaused": 8516,
      "ĠPhase": 8517,
      "xi": 8518,
      "Ġdoubly": 8519,
      "Ġmm": 8520,
      "open": 8521,
      "Ġpoor": 8522,
      "angent": 8523,
      "Ġexpensive": 8524,
      "ĠSn": 8525,
      "ĠFisher": 8526,
      "labeled": 8527,
      "Ġinclusions": 8528,
      "lines": 8529,
      "Ġending": 8530,
      "igen": 8531,
      "Ġaggregation": 8532,
      "ovian": 8533,
      "Ġreceivers": 8534,
      "ĠPA": 8535,
      "Ġgeneralised": 8536,
      "âĪĪ(": 8537,
      "Ġsucceed": 8538,
      "Ð½": 8539,
      "ĠDehn": 8540,
      "standard": 8541,
      "Ġattributes": 8542,
      "Ġsynchronization": 8543,
      "Rec": 8544,
      "Ġ.(": 8545,
      "plo": 8546,
      "Ġribb": 8547,
      "Un": 8548,
      "ĠHypot": 8549,
      "Ms": 8550,
      "Ġslots": 8551,
      "Ns": 8552,
      "ĠHeegaard": 8553,
      ",âĪŀ)": 8554,
      "ĠRo": 8555,
      "ĠâĪ¥.": 8556,
      "CF": 8557,
      "Ġbranched": 8558,
      "Ġdifficulties": 8559,
      "Ġtiles": 8560,
      "Ġexecuted": 8561,
      "ek": 8562,
      "Ġpriority": 8563,
      "holm": 8564,
      "ĠSeveral": 8565,
      "ĠÎ±n": 8566,
      "ball": 8567,
      "ĠSGD": 8568,
      "Ġclassic": 8569,
      "simple": 8570,
      "Ġvaluations": 8571,
      "Ġtag": 8572,
      "oughly": 8573,
      "Ġprofit": 8574,
      "Ġquantile": 8575,
      "Ġfilling": 8576,
      "ĠGo": 8577,
      "prime": 8578,
      "Ã¼ller": 8579,
      "Ġfairness": 8580,
      "Ġexplored": 8581,
      "Ġoccurrences": 8582,
      "oles": 8583,
      "Ġiner": 8584,
      "ĠCe": 8585,
      "Ġretain": 8586,
      "Ġlinearity": 8587,
      "olm": 8588,
      "ĠLearning": 8589,
      "ĠâĬĬ": 8590,
      "ament": 8591,
      "ipher": 8592,
      "Ġsuperposition": 8593,
      "ĠProgram": 8594,
      "ĠCur": 8595,
      "unk": 8596,
      "Ġtables": 8597,
      "Ġknows": 8598,
      "Ġobstacle": 8599,
      "Äģ": 8600,
      "Ġfulfilled": 8601,
      "Ġsubscript": 8602,
      "Ġexamin": 8603,
      "Ġ46": 8604,
      "aining": 8605,
      "channel": 8606,
      "Ġiniti": 8607,
      "annon": 8608,
      "Ġaccepted": 8609,
      "ĠCONCLU": 8610,
      "Ġrestrictive": 8611,
      "varying": 8612,
      "ĠSG": 8613,
      "ĠdÏģ": 8614,
      "'.": 8615,
      "Ġproposal": 8616,
      "core": 8617,
      "Ġcommutator": 8618,
      "Ã©orÃ¨me": 8619,
      "dimension": 8620,
      "ĠDA": 8621,
      "Ġresolvent": 8622,
      "ĠLeft": 8623,
      "tran": 8624,
      "Du": 8625,
      "Ġcharacterizes": 8626,
      "ĠRecalling": 8627,
      "classical": 8628,
      "Ġwelf": 8629,
      "ĠBol": 8630,
      "Ġintegrability": 8631,
      "Ġtranslates": 8632,
      "ats": 8633,
      "Ġaccordingly": 8634,
      "Ġcauses": 8635,
      "ĠCalabi": 8636,
      "Ġviolation": 8637,
      "Ġfragment": 8638,
      "ĠHadamard": 8639,
      "map": 8640,
      "Ġage": 8641,
      "Ġland": 8642,
      "Ġbigger": 8643,
      "forth": 8644,
      "âĪĥ": 8645,
      "UE": 8646,
      "Ġencoder": 8647,
      "Ġderivations": 8648,
      "Ġdk": 8649,
      "ĠKlein": 8650,
      "deriv": 8651,
      "used": 8652,
      "formed": 8653,
      "Ġrelationships": 8654,
      "ĠFind": 8655,
      "ypt": 8656,
      "cr": 8657,
      "ques": 8658,
      "Ġpositively": 8659,
      "ĠAA": 8660,
      "Ġwelfare": 8661,
      "ĠUnlike": 8662,
      "ITH": 8663,
      "ĠBack": 8664,
      "ðĿĳĸ": 8665,
      "Ġsafety": 8666,
      "Ġ2008": 8667,
      "Ġyou": 8668,
      "CO": 8669,
      "Ġtrick": 8670,
      "ĠðĿĳł": 8671,
      "aj": 8672,
      "Ġsummands": 8673,
      "ĠdÎ±": 8674,
      "ynchronous": 8675,
      "Ġenj": 8676,
      "Ġmerely": 8677,
      "Ġpolyn": 8678,
      "ĠChen": 8679,
      "Ġpromis": 8680,
      "acher": 8681,
      "wartz": 8682,
      "ĠComparing": 8683,
      "Ġpredictive": 8684,
      "ativ": 8685,
      "close": 8686,
      "Ġseconds": 8687,
      "Ġexhaus": 8688,
      "ĠËĨR": 8689,
      "ĠâŁ¨âŁ¨": 8690,
      "Ġdriven": 8691,
      "ĠTR": 8692,
      "Ġfocused": 8693,
      "ĠFi": 8694,
      "Ïħ": 8695,
      "ĠLikewise": 8696,
      "ĠGS": 8697,
      "ĠpR": 8698,
      "ĠÄİ": 8699,
      "Ġ90": 8700,
      "(âŁ¨": 8701,
      "even": 8702,
      "isenberg": 8703,
      "encil": 8704,
      "Ġflip": 8705,
      "Ġease": 8706,
      "EP": 8707,
      "ĠMaxim": 8708,
      "Ġminima": 8709,
      "Ġpolygons": 8710,
      "ĠâĦĳ": 8711,
      "dÏĦ": 8712,
      "ĠCheb": 8713,
      "eting": 8714,
      "ĠCont": 8715,
      "ĠAccordingly": 8716,
      "\")": 8717,
      "Ġtanh": 8718,
      "Su": 8719,
      "Ġstrengthen": 8720,
      "Ġpati": 8721,
      "Ġaggregate": 8722,
      ")âĪ©": 8723,
      "Ġtermination": 8724,
      "schild": 8725,
      "Ġflexible": 8726,
      "olar": 8727,
      "chi": 8728,
      "Ġformulations": 8729,
      "ĠON": 8730,
      "element": 8731,
      "Ġextent": 8732,
      "Ġnonsingular": 8733,
      "Ste": 8734,
      "Ġrescaled": 8735,
      "Ġchem": 8736,
      "Sm": 8737,
      "Ġfinancial": 8738,
      "Ġrepair": 8739,
      "Ġplanning": 8740,
      "BD": 8741,
      "Ġfairly": 8742,
      "Ġbrackets": 8743,
      "good": 8744,
      "ĠâĢ¹": 8745,
      "Ġstratum": 8746,
      "ĠTyp": 8747,
      "ĠRay": 8748,
      "Ġaims": 8749,
      ")âĪĩ": 8750,
      "Ġdiscrepancy": 8751,
      "Ġses": 8752,
      "Ġplayed": 8753,
      "ĠBir": 8754,
      "Ġ80": 8755,
      "ĠKronecker": 8756,
      "cube": 8757,
      "Ġfu": 8758,
      "Ġrectangular": 8759,
      "Ġexit": 8760,
      "onest": 8761,
      "Ġnonlocal": 8762,
      "ĠPareto": 8763,
      "Ġmultipliers": 8764,
      "Ġlife": 8765,
      "BG": 8766,
      "ĠpA": 8767,
      "Ġredundant": 8768,
      "Ġcontinued": 8769,
      "ami": 8770,
      "VE": 8771,
      "semb": 8772,
      "zes": 8773,
      "Ġhitting": 8774,
      "ĠComputing": 8775,
      "Ġobe": 8776,
      "Ġchamber": 8777,
      "abilities": 8778,
      "ĠFred": 8779,
      "Ġ..,": 8780,
      "ordance": 8781,
      "ĠÈ·": 8782,
      "ĠRun": 8783,
      "sov": 8784,
      "stage": 8785,
      "Ġserves": 8786,
      "Ġtub": 8787,
      "Ġmathematics": 8788,
      "Ġamenable": 8789,
      "Ġultra": 8790,
      "ĠSF": 8791,
      "ĠPrinc": 8792,
      "Ġnonparametric": 8793,
      "Ġuns": 8794,
      "Ġbirational": 8795,
      "sparse": 8796,
      "Ġrare": 8797,
      "Ġcoset": 8798,
      "Ġmanag": 8799,
      "acles": 8800,
      "Ġselects": 8801,
      "Ġnames": 8802,
      "Ġnominal": 8803,
      "boundary": 8804,
      "Ġunivariate": 8805,
      "Ġmultiplicities": 8806,
      "ĠBF": 8807,
      "Ġoperational": 8808,
      "istributed": 8809,
      "Ġgenerically": 8810,
      "onomous": 8811,
      "Ġportfolio": 8812,
      "ĠPP": 8813,
      "á»": 8814,
      "ĠÄ¨": 8815,
      "assification": 8816,
      "Ġlogistic": 8817,
      "ĠSy": 8818,
      "Ġsemicon": 8819,
      "Ġenable": 8820,
      "cho": 8821,
      "Ġlooks": 8822,
      "Ġtransvers": 8823,
      "ĠðĿĳĵ": 8824,
      "Ġevident": 8825,
      "Ġeffectiveness": 8826,
      "Ġdisplayed": 8827,
      "ĠMotiv": 8828,
      "Ġsubstitute": 8829,
      "symmetry": 8830,
      "ĠdÎ·": 8831,
      "Ġâī³": 8832,
      "graphs": 8833,
      "otal": 8834,
      "ĠStruct": 8835,
      "nstein": 8836,
      "Ġbehave": 8837,
      "Ġcosm": 8838,
      "Ġsmoothly": 8839,
      "ĠSchwarz": 8840,
      "ĠâŁ¨(": 8841,
      "Ġbuffer": 8842,
      "ieck": 8843,
      "Ġmultiply": 8844,
      "uit": 8845,
      "Ġsuitably": 8846,
      "zen": 8847,
      "ĠGroup": 8848,
      "Ġactivity": 8849,
      "ĠLevi": 8850,
      "balanced": 8851,
      "yshev": 8852,
      "ĠNumber": 8853,
      "Ġcloud": 8854,
      "aring": 8855,
      "UN": 8856,
      "Ġleaving": 8857,
      "simplex": 8858,
      "Ġamplitudes": 8859,
      "adj": 8860,
      "Ġtransi": 8861,
      "Ġheterogeneous": 8862,
      "ĠOper": 8863,
      "Ġminimizers": 8864,
      "Ġdiscontinuous": 8865,
      "Ġsees": 8866,
      "Ġâĭī": 8867,
      "Ġsuffix": 8868,
      "Ġcaching": 8869,
      "igm": 8870,
      "Ġanonym": 8871,
      "âĹ": 8872,
      "artesian": 8873,
      "|âĪĴ": 8874,
      "Ġproximal": 8875,
      "{(": 8876,
      "ĠGR": 8877,
      "á»¹": 8878,
      "ĠInequality": 8879,
      "ĠLin": 8880,
      "Ġcomparisons": 8881,
      "ĠSecondly": 8882,
      "ifier": 8883,
      "Ġcodewords": 8884,
      "sky": 8885,
      "Ġvisible": 8886,
      "Ġalignment": 8887,
      "oir": 8888,
      "perfect": 8889,
      "ĠBG": 8890,
      "ĠTechnical": 8891,
      "posedness": 8892,
      "Ġmutation": 8893,
      "ĠCONCLUSION": 8894,
      "ĠMI": 8895,
      "Ġinteracting": 8896,
      "ĠMath": 8897,
      "Ġpolarization": 8898,
      "indrical": 8899,
      "zer": 8900,
      "Ġrn": 8901,
      "Ġbisim": 8902,
      "Rem": 8903,
      "Ġvalidation": 8904,
      "ĠAF": 8905,
      "ÏĤ": 8906,
      "Ġcompan": 8907,
      "ĠDAG": 8908,
      "ĠMac": 8909,
      "states": 8910,
      "ĠSur": 8911,
      "Ġtranspose": 8912,
      "iral": 8913,
      "vention": 8914,
      "thend": 8915,
      "ĠÂ¯": 8916,
      "imed": 8917,
      "measurable": 8918,
      "Ġclar": 8919,
      "exact": 8920,
      "ĠAbelian": 8921,
      "Ġcaptured": 8922,
      "Ã¶bius": 8923,
      "ĠSem": 8924,
      "Ġmeaningful": 8925,
      "EG": 8926,
      "hal": 8927,
      "nov": 8928,
      "ĠTeich": 8929,
      "band": 8930,
      "Ġdead": 8931,
      ")|,": 8932,
      "ades": 8933,
      "atement": 8934,
      "verag": 8935,
      "thendieck": 8936,
      "Ġfamiliar": 8937,
      "when": 8938,
      "Ġderiving": 8939,
      "including": 8940,
      "ĠComplex": 8941,
      "Ġincidence": 8942,
      "weak": 8943,
      "Ġevaluations": 8944,
      "ĠHH": 8945,
      "ĠNO": 8946,
      "Ġflo": 8947,
      "Ġlosses": 8948,
      "cription": 8949,
      "Ġpossesses": 8950,
      "Ġenergies": 8951,
      "ĠIsing": 8952,
      "Ġzeta": 8953,
      "Ġnotational": 8954,
      "Ġthresholds": 8955,
      "Ġkth": 8956,
      "ĠHard": 8957,
      "Ġáº½": 8958,
      "Ġip": 8959,
      "ĠMas": 8960,
      "ĠPutting": 8961,
      "Ġtx": 8962,
      "algebraic": 8963,
      "Ġcompens": 8964,
      "Since": 8965,
      "Ġdatum": 8966,
      "Ġambiguity": 8967,
      "Ġadds": 8968,
      "ĠFl": 8969,
      "ĠFoundation": 8970,
      "Ġgaps": 8971,
      "onoi": 8972,
      "ocks": 8973,
      "Ġattacker": 8974,
      "Ġmatchings": 8975,
      "oclin": 8976,
      "Ġclassify": 8977,
      "Ġsubtle": 8978,
      "Ġcubes": 8979,
      "urent": 8980,
      "Ġopposed": 8981,
      "Ġimplementations": 8982,
      "Ġmath": 8983,
      "Ġdetector": 8984,
      "ramified": 8985,
      "Ġrelating": 8986,
      "Ġeight": 8987,
      "Ġfacilit": 8988,
      "itational": 8989,
      "alition": 8990,
      "Ġsynthesis": 8991,
      "ĠAss": 8992,
      "Ġcrosses": 8993,
      "Ġâĥ": 8994,
      "ITY": 8995,
      "odies": 8996,
      "Ġforb": 8997,
      "Ġordinal": 8998,
      "antine": 8999,
      "Ġsubstanti": 9000,
      "aux": 9001,
      "lass": 9002,
      "orable": 9003,
      "Ġconic": 9004,
      "Ġsink": 9005,
      "Ġlinearization": 9006,
      "Ġregimes": 9007,
      "Ġremarkable": 9008,
      "ĠKe": 9009,
      "Ġdiscovered": 9010,
      "Ġmoder": 9011,
      "ĠHamming": 9012,
      "Ġsignificance": 9013,
      "ĠProperties": 9014,
      "Ġgrateful": 9015,
      "ĠÎ¸n": 9016,
      "Ġribbon": 9017,
      "Ġallocated": 9018,
      "Ġwater": 9019,
      "ðĿĳĽ": 9020,
      "istable": 9021,
      "Ġbrevity": 9022,
      "Br": 9023,
      "Ġms": 9024,
      "ĠHiggs": 9025,
      "ĠâĢ¢âŁ©": 9026,
      "Ġmeasuring": 9027,
      "ĠGrad": 9028,
      "Ġlinking": 9029,
      "Ã©nyi": 9030,
      "ÑĢ": 9031,
      "Ġdecays": 9032,
      "Ġinstantaneous": 9033,
      "Ġreturned": 9034,
      "Ġcompressed": 9035,
      "Ġsemic": 9036,
      "OC": 9037,
      "Ġinstr": 9038,
      "Ġpercent": 9039,
      "Ġexpanded": 9040,
      "Ġeras": 9041,
      "Ġmaster": 9042,
      "ectors": 9043,
      "basis": 9044,
      "contr": 9045,
      "Ġnr": 9046,
      "ĠSti": 9047,
      "ĠCn": 9048,
      "lliptic": 9049,
      "Ġconstructs": 9050,
      "ĠÃİ": 9051,
      "ĠCAT": 9052,
      "tives": 9053,
      "ĠFD": 9054,
      "Ġdispersion": 9055,
      "Ġcurl": 9056,
      "Ġcommunications": 9057,
      "Ġ(??)": 9058,
      "Ġpackage": 9059,
      "sup": 9060,
      "ĠLater": 9061,
      "hence": 9062,
      "Ġstabilization": 9063,
      "Ġdespite": 9064,
      "Ġshapes": 9065,
      "Ġtower": 9066,
      "Wh": 9067,
      "Ġcrypt": 9068,
      "particle": 9069,
      "Ġbeamforming": 9070,
      "HT": 9071,
      "ĠâĪĴ,": 9072,
      "Ġ[|": 9073,
      "ĠSw": 9074,
      "Ġtolerance": 9075,
      "Ġxt": 9076,
      "ĠRight": 9077,
      "2008": 9078,
      "sample": 9079,
      "Ġrewriting": 9080,
      "gen": 9081,
      "ĠCalc": 9082,
      "Ñģ": 9083,
      "Ġcounterexample": 9084,
      "Ġpreimage": 9085,
      "Ġquantify": 9086,
      "pole": 9087,
      "kl": 9088,
      "Ġoptimizing": 9089,
      "ensen": 9090,
      "Ġexplains": 9091,
      "Ġrapidly": 9092,
      "fact": 9093,
      "romagnetic": 9094,
      "ĠMÃ¶bius": 9095,
      "ĠDis": 9096,
      "BA": 9097,
      "Ġsupporting": 9098,
      "Ġpatch": 9099,
      "Ġ)âĪĪ": 9100,
      "Ġfron": 9101,
      "metric": 9102,
      "measure": 9103,
      "ĠJohn": 9104,
      "ounted": 9105,
      "Ġsubmanifolds": 9106,
      ")âĢ¢": 9107,
      "Ġampl": 9108,
      "orter": 9109,
      "arb": 9110,
      "}|": 9111,
      "Ġrealize": 9112,
      "ĠFS": 9113,
      "atible": 9114,
      "Ġconditionally": 9115,
      "Ġtransaction": 9116,
      "Ã©chet": 9117,
      "Is": 9118,
      "Ġrid": 9119,
      "ĠBen": 9120,
      "Ġ{[": 9121,
      "Ġrecipro": 9122,
      "dist": 9123,
      "ĠCPU": 9124,
      "Î±Î²": 9125,
      "iences": 9126,
      "There": 9127,
      "ĠHeisenberg": 9128,
      "ĠLiouville": 9129,
      "Ġconstructive": 9130,
      "ĠEnt": 9131,
      "ĠLasso": 9132,
      "ĠTri": 9133,
      "Ġinsertion": 9134,
      "ĠUS": 9135,
      "Ġlongest": 9136,
      "Lie": 9137,
      "ĠTS": 9138,
      "ĠDr": 9139,
      "only": 9140,
      "Ã¢": 9141,
      "Ġdonc": 9142,
      "Ġindicating": 9143,
      "Ġstating": 9144,
      "tzmann": 9145,
      "formance": 9146,
      "ĠInteresting": 9147,
      "ĠArtin": 9148,
      "Ġou": 9149,
      "Ġseparates": 9150,
      "itter": 9151,
      "antor": 9152,
      "ĠÂ¡": 9153,
      "Ġcontracting": 9154,
      "signing": 9155,
      "Ġenvironments": 9156,
      "archer": 9157,
      "Ġdotted": 9158,
      "Ġconfl": 9159,
      "Ġ-(": 9160,
      "Ġavec": 9161,
      "Ġradi": 9162,
      "Ġinherent": 9163,
      "etherian": 9164,
      "uning": 9165,
      "simplic": 9166,
      "Car": 9167,
      "Ġxj": 9168,
      "ĠMN": 9169,
      "ĠChoosing": 9170,
      "ĠGrothendieck": 9171,
      "ĠLA": 9172,
      "Ġrepetition": 9173,
      "equivalence": 9174,
      "timately": 9175,
      "Ġpil": 9176,
      "Ġthings": 9177,
      "ĠOptimal": 9178,
      "Ġstays": 9179,
      "Ġoperad": 9180,
      "ours": 9181,
      "Ġutilize": 9182,
      "Ġaccurately": 9183,
      "Ġabstraction": 9184,
      "Ġinsights": 9185,
      "Ġoutlined": 9186,
[...]
