{
  "version": "1.0",
  "truncation": null,
  "padding": null,
  "added_tokens": [
    {
      "id": 0,
      "content": "[PAD]",
      "single_word": false,
      "lstrip": false,
      "rstrip": false,
      "normalized": false,
      "special": true
    },
    {
      "id": 1,
      "content": "[UNK]",
      "single_word": false,
      "lstrip": false,
      "rstrip": false,
      "normalized": false,
      "special": true
    },
    {
      "id": 2,
      "content": "[CLS]",
      "single_word": false,
      "lstrip": false,
      "rstrip": false,
      "normalized": false,
      "special": true
    },
    {
      "id": 3,
      "content": "[SEP]",
      "single_word": false,
      "lstrip": false,
      "rstrip": false,
      "normalized": false,
      "special": true
    },
    {
      "id": 4,
      "content": "[MASK]",
      "single_word": false,
      "lstrip": false,
      "rstrip": false,
      "normalized": false,
      "special": true
    }
  ],
  "normalizer": {
    "type": "BertNormalizer",
    "clean_text": true,
    "handle_chinese_chars": true,
    "strip_accents": null,
    "lowercase": true
  },
  "pre_tokenizer": {
    "type": "BertPreTokenizer"
  },
  "post_processor": null,
  "decoder": {
    "type": "WordPiece",
    "prefix": "##",
    "cleanup": true
  },
  "model": {
    "type": "WordPiece",
    "unk_token": "[UNK]",
    "continuing_subword_prefix": "##",
    "max_input_chars_per_word": 100,
    "vocab": {
      "[PAD]": 0,
      "[UNK]": 1,
      "[CLS]": 2,
      "[SEP]": 3,
      "[MASK]": 4,
      "!": 5,
      "\"": 6,
      "#": 7,
      "$": 8,
      "%": 9,
      "&": 10,
      "'": 11,
      "(": 12,
      ")": 13,
      "*": 14,
      "+": 15,
      ",": 16,
      "-": 17,
      ".": 18,
      "/": 19,
      "0": 20,
      "1": 21,
      "2": 22,
      "3": 23,
      "4": 24,
      "5": 25,
      "6": 26,
      "7": 27,
      "8": 28,
      "9": 29,
      ":": 30,
      ";": 31,
      "<": 32,
      "=": 33,
      ">": 34,
      "?": 35,
      "@": 36,
      "[": 37,
      "\\": 38,
      "]": 39,
      "^": 40,
      "_": 41,
      "`": 42,
      "a": 43,
      "b": 44,
      "c": 45,
      "d": 46,
      "e": 47,
      "f": 48,
      "g": 49,
      "h": 50,
      "i": 51,
      "j": 52,
      "k": 53,
      "l": 54,
      "m": 55,
      "n": 56,
      "o": 57,
      "p": 58,
      "q": 59,
      "r": 60,
      "s": 61,
      "t": 62,
      "u": 63,
      "v": 64,
      "w": 65,
      "x": 66,
      "y": 67,
      "z": 68,
      "{": 69,
      "|": 70,
      "}": 71,
      "~": 72,
      "¡": 73,
      "¢": 74,
      "£": 75,
      "¤": 76,
      "¥": 77,
      "¦": 78,
      "§": 79,
      "¨": 80,
      "©": 81,
      "ª": 82,
      "«": 83,
      "¬": 84,
      "®": 85,
      "¯": 86,
      "°": 87,
      "±": 88,
      "²": 89,
      "³": 90,
      "´": 91,
      "µ": 92,
      "¶": 93,
      "¸": 94,
      "¹": 95,
      "º": 96,
      "»": 97,
      "¼": 98,
      "½": 99,
      "¾": 100,
      "¿": 101,
      "×": 102,
      "ß": 103,
      "ð": 104,
      "÷": 105,
      "ø": 106,
      "þ": 107,
      "đ": 108,
      "ħ": 109,
      "ı": 110,
      "ĳ": 111,
      "ł": 112,
      "ŋ": 113,
      "ƌ": 114,
      "ƒ": 115,
      "ƚ": 116,
      "ƶ": 117,
      "ȷ": 118,
      "ɖ": 119,
      "ɛ": 120,
      "ˆ": 121,
      "ˇ": 122,
      "˓": 123,
      "˘": 124,
      "˙": 125,
      "˚": 126,
      "˛": 127,
      "˜": 128,
      "˝": 129,
      "˲": 130,
      "ͳ": 131,
      "α": 132,
      "β": 133,
      "γ": 134,
      "δ": 135,
      "ε": 136,
      "ζ": 137,
      "η": 138,
      "θ": 139,
      "ι": 140,
      "κ": 141,
      "λ": 142,
      "μ": 143,
      "ν": 144,
      "ξ": 145,
      "ο": 146,
      "π": 147,
      "ρ": 148,
      "ς": 149,
      "σ": 150,
      "τ": 151,
      "υ": 152,
      "φ": 153,
      "χ": 154,
      "ψ": 155,
      "ω": 156,
      "ϑ": 157,
      "ϒ": 158,
      "ϕ": 159,
      "ϖ": 160,
      "ϙ": 161,
      "ϝ": 162,
      "ϟ": 163,
      "ϭ": 164,
      "ϯ": 165,
      "ϰ": 166,
      "ϱ": 167,
      "ϳ": 168,
      "ϵ": 169,
      "϶": 170,
      "а": 171,
      "б": 172,
      "в": 173,
      "г": 174,
      "д": 175,
      "е": 176,
      "ж": 177,
      "з": 178,
      "и": 179,
      "к": 180,
      "л": 181,
      "м": 182,
      "н": 183,
      "о": 184,
      "п": 185,
      "р": 186,
      "с": 187,
      "т": 188,
      "у": 189,
      "ф": 190,
      "х": 191,
      "ц": 192,
      "ч": 193,
      "ш": 194,
      "щ": 195,
      "ъ": 196,
      "ы": 197,
      "ь": 198,
      "э": 199,
      "ю": 200,
      "я": 201,
      "ր": 202,
      "ց": 203,
      "א": 204,
      "ב": 205,
      "ג": 206,
      "ה": 207,
      "י": 208,
      "ש": 209,
      "ଵ": 210,
      "ଶ": 211,
      "െ": 212,
      "ൗ": 213,
      "ᵀ": 214,
      "‖": 215,
      "‚": 216,
      "†": 217,
      "‡": 218,
      "•": 219,
      "…": 220,
      "‰": 221,
      "′": 222,
      "‵": 223,
      "‹": 224,
      "›": 225,
      "⁄": 226,
      "⁅": 227,
      "⁆": 228,
      "⁞": 229,
      "₁": 230,
      "₂": 231,
      "€": 232,
      "⃝": 233,
      "ℂ": 234,
      "ℋ": 235,
      "ℌ": 236,
      "ℍ": 237,
      "ℎ": 238,
      "ℏ": 239,
      "ℐ": 240,
      "ℑ": 241,
      "ℒ": 242,
      "ℓ": 243,
      "ℕ": 244,
      "№": 245,
      "℘": 246,
      "ℙ": 247,
      "ℚ": 248,
      "ℛ": 249,
      "ℜ": 250,
      "ℝ": 251,
      "™": 252,
      "ℤ": 253,
      "℧": 254,
      "ℬ": 255,
      "ℭ": 256,
      "ℰ": 257,
      "ℱ": 258,
      "ℳ": 259,
      "ℵ": 260,
      "ℶ": 261,
      "ℸ": 262,
      "⅁": 263,
      "ⅈ": 264,
      "←": 265,
      "↑": 266,
      "→": 267,
      "↓": 268,
      "↔": 269,
      "↕": 270,
      "↖": 271,
      "↗": 272,
      "↘": 273,
      "↙": 274,
      "↝": 275,
      "↞": 276,
      "↠": 277,
      "↢": 278,
      "↣": 279,
      "↦": 280,
      "↩": 281,
      "↪": 282,
      "↬": 283,
      "↭": 284,
      "↰": 285,
      "↱": 286,
      "↵": 287,
      "↶": 288,
      "↷": 289,
      "↺": 290,
      "↼": 291,
      "↽": 292,
      "↾": 293,
      "↿": 294,
      "⇀": 295,
      "⇁": 296,
      "⇂": 297,
      "⇃": 298,
      "⇄": 299,
      "⇆": 300,
      "⇈": 301,
      "⇉": 302,
      "⇊": 303,
      "⇋": 304,
      "⇌": 305,
      "⇐": 306,
      "⇑": 307,
      "⇒": 308,
      "⇓": 309,
      "⇔": 310,
      "⇕": 311,
      "⇚": 312,
      "⇛": 313,
      "⇝": 314,
      "⇠": 315,
      "⇡": 316,
      "⇢": 317,
      "⇣": 318,
      "⇤": 319,
      "⇥": 320,
      "⇧": 321,
      "∀": 322,
      "∁": 323,
      "∂": 324,
      "∃": 325,
      "∅": 326,
      "∆": 327,
      "∇": 328,
      "∈": 329,
      "∋": 330,
      "∎": 331,
      "∏": 332,
      "∐": 333,
      "∑": 334,
      "−": 335,
      "∓": 336,
      "∔": 337,
      "∕": 338,
      "∖": 339,
      "∘": 340,
      "√": 341,
      "∝": 342,
      "∞": 343,
      "∠": 344,
      "∡": 345,
      "∢": 346,
      "∣": 347,
      "∥": 348,
      "∧": 349,
      "∨": 350,
      "∩": 351,
      "∪": 352,
      "∫": 353,
      "∬": 354,
      "∮": 355,
      "∱": 356,
      "∳": 357,
      "∴": 358,
      "∵": 359,
      "∶": 360,
      "∼": 361,
      "∽": 362,
      "≀": 363,
      "≂": 364,
      "≃": 365,
      "≅": 366,
      "≈": 367,
      "≊": 368,
      "≍": 369,
      "≎": 370,
      "≏": 371,
      "≐": 372,
      "≑": 373,
      "≒": 374,
      "≔": 375,
      "≜": 376,
      "≡": 377,
      "≤": 378,
      "≥": 379,
      "≦": 380,
      "≧": 381,
      "≨": 382,
      "≩": 383,
      "≪": 384,
      "≫": 385,
      "≬": 386,
      "≲": 387,
      "≳": 388,
      "≶": 389,
      "≷": 390,
      "≺": 391,
      "≻": 392,
      "≼": 393,
      "≽": 394,
      "≾": 395,
      "≿": 396,
      "⊂": 397,
      "⊃": 398,
      "⊆": 399,
      "⊇": 400,
      "⊊": 401,
      "⊋": 402,
      "⊍": 403,
      "⊎": 404,
      "⊏": 405,
      "⊐": 406,
      "⊑": 407,
      "⊒": 408,
      "⊓": 409,
      "⊔": 410,
      "⊕": 411,
      "⊖": 412,
      "⊗": 413,
      "⊘": 414,
      "⊙": 415,
      "⊚": 416,
      "⊛": 417,
      "⊜": 418,
      "⊞": 419,
      "⊟": 420,
      "⊠": 421,
      "⊡": 422,
      "⊢": 423,
      "⊣": 424,
      "⊤": 425,
      "⊥": 426,
      "⊧": 427,
      "⊨": 428,
      "⊩": 429,
      "⊪": 430,
      "⊫": 431,
      "⊲": 432,
      "⊳": 433,
      "⊴": 434,
      "⊵": 435,
      "⊸": 436,
      "⊺": 437,
      "⊻": 438,
      "⊼": 439,
      "⋀": 440,
      "⋁": 441,
      "⋂": 442,
      "⋃": 443,
      "⋄": 444,
      "⋅": 445,
      "⋆": 446,
      "⋇": 447,
      "⋉": 448,
      "⋊": 449,
      "⋋": 450,
      "⋌": 451,
      "⋍": 452,
      "⋎": 453,
      "⋏": 454,
      "⋐": 455,
      "⋑": 456,
      "⋒": 457,
      "⋓": 458,
      "⋔": 459,
      "⋖": 460,
      "⋗": 461,
      "⋚": 462,
      "⋛": 463,
      "⋞": 464,
      "⋟": 465,
      "⋨": 466,
      "⋮": 467,
      "⋯": 468,
      "⋰": 469,
      "⋱": 470,
      "⌃": 471,
      "⌄": 472,
      "⌅": 473,
      "⌈": 474,
      "⌉": 475,
      "⌊": 476,
      "⌋": 477,
      "⌘": 478,
      "⌜": 479,
      "⌝": 480,
      "⌞": 481,
      "⌟": 482,
      "⌢": 483,
      "⌣": 484,
      "⌥": 485,
      "⌦": 486,
      "⌧": 487,
      "⌫": 488,
      "⍟": 489,
      "⎛": 490,
      "⎜": 491,
      "⎝": 492,
      "⎞": 493,
      "⎟": 494,
      "⎠": 495,
      "⎡": 496,
      "⎢": 497,
      "⎣": 498,
      "⎤": 499,
      "⎥": 500,
      "⎦": 501,
      "⎧": 502,
      "⎨": 503,
      "⎩": 504,
      "⎪": 505,
      "⎫": 506,
      "⎬": 507,
      "⎭": 508,
      "⎷": 509,
      "⏐": 510,
      "⏞": 511,
      "⏟": 512,
      "␣": 513,
      "①": 514,
      "②": 515,
      "③": 516,
      "④": 517,
      "⑤": 518,
      "ⓢ": 519,
      "■": 520,
      "□": 521,
      "▲": 522,
      "△": 523,
      "▶": 524,
      "▷": 525,
      "▸": 526,
      "▼": 527,
      "▽": 528,
      "◀": 529,
      "◁": 530,
      "◆": 531,
      "◇": 532,
      "◊": 533,
      "○": 534,
      "◗": 535,
      "◯": 536,
      "◻": 537,
      "◼": 538,
      "☀": 539,
      "★": 540,
      "☆": 541,
      "☎": 542,
      "☛": 543,
      "☞": 544,
      "♀": 545,
      "♂": 546,
      "♠": 547,
      "♡": 548,
      "♢": 549,
      "♣": 550,
      "♥": 551,
      "♦": 552,
      "♭": 553,
      "♮": 554,
      "♯": 555,
      "✁": 556,
      "✂": 557,
      "✄": 558,
      "✅": 559,
      "✆": 560,
      "✉": 561,
      "✌": 562,
      "✍": 563,
      "✎": 564,
      "✏": 565,
      "✐": 566,
      "✑": 567,
      "✒": 568,
      "✓": 569,
      "✔": 570,
      "✕": 571,
      "✖": 572,
      "✗": 573,
      "✘": 574,
      "✙": 575,
      "✚": 576,
      "✛": 577,
      "✜": 578,
      "✝": 579,
      "✞": 580,
      "✟": 581,
      "✠": 582,
      "✡": 583,
      "✢": 584,
      "✣": 585,
      "✤": 586,
      "✥": 587,
      "✦": 588,
      "✧": 589,
      "✩": 590,
      "✫": 591,
      "✭": 592,
      "✮": 593,
      "✯": 594,
      "✰": 595,
      "✲": 596,
      "✳": 597,
      "✵": 598,
      "✶": 599,
      "✷": 600,
      "✸": 601,
      "✹": 602,
      "✺": 603,
      "✻": 604,
      "❀": 605,
      "❂": 606,
      "❃": 607,
      "❄": 608,
      "❅": 609,
      "❆": 610,
      "❇": 611,
      "❈": 612,
      "❌": 613,
      "❍": 614,
      "❏": 615,
      "❑": 616,
      "❖": 617,
      "❙": 618,
      "❚": 619,
      "❛": 620,
      "❜": 621,
      "❝": 622,
      "❞": 623,
      "❡": 624,
      "❤": 625,
      "❦": 626,
      "❯": 627,
      "❳": 628,
      "❴": 629,
      "❶": 630,
      "➀": 631,
      "➁": 632,
      "➂": 633,
      "➃": 634,
      "➄": 635,
      "➊": 636,
      "➋": 637,
      "➌": 638,
      "➢": 639,
      "➤": 640,
      "➺": 641,
      "⟂": 642,
      "⟐": 643,
      "⟦": 644,
      "⟧": 645,
      "⟨": 646,
      "⟩": 647,
      "⟪": 648,
      "⟫": 649,
      "⟲": 650,
      "⟳": 651,
      "⟶": 652,
      "⟹": 653,
      "⦃": 654,
      "⦄": 655,
      "⧈": 656,
      "⧵": 657,
      "⧸": 658,
      "⧹": 659,
      "⨁": 660,
      "⨂": 661,
      "⨆": 662,
      "⨉": 663,
      "⨏": 664,
      "⨻": 665,
      "⨼": 666,
      "⨿": 667,
      "⩔": 668,
      "⩕": 669,
      "⩽": 670,
      "⩾": 671,
      "⪅": 672,
      "⪆": 673,
      "⪇": 674,
      "⪈": 675,
      "⪋": 676,
      "⪌": 677,
      "⪕": 678,
      "⪯": 679,
      "⪰": 680,
      "⪵": 681,
      "⫅": 682,
      "⫋": 683,
      "⫌": 684,
      "⫝": 685,
      "⫯": 686,
      "⫰": 687,
      "⬔": 688,
      "⬕": 689,
      "⬠": 690,
      "〈": 691,
      "〉": 692,
      "〚": 693,
      "〛": 694,
      "か": 695,
      "こ": 696,
      "し": 697,
      "す": 698,
      "て": 699,
      "と": 700,
      "に": 701,
      "の": 702,
      "は": 703,
      "よ": 704,
      "ら": 705,
      "る": 706,
      "れ": 707,
      "を": 708,
      "・": 709,
      "下": 710,
      "以": 711,
      "価": 712,
      "天": 713,
      "定": 714,
      "山": 715,
      "式": 716,
      "攊": 717,
      "攨": 718,
      "攩": 719,
      "攬": 720,
      "攮": 721,
      "攰": 722,
      "攱": 723,
      "攲": 724,
      "攳": 725,
      "攽": 726,
      "敡": 727,
      "敤": 728,
      "敥": 729,
      "敩": 730,
      "敬": 731,
      "敮": 732,
      "敯": 733,
      "数": 734,
      "敲": 735,
      "敳": 736,
      "整": 737,
      "評": 738,
      "関": 739,
      "ꓥ": 740,
      "，": 741,
      "．": 742,
      "０": 743,
      "𝐀": 744,
      "𝐃": 745,
      "𝐄": 746,
      "𝐅": 747,
      "𝐇": 748,
      "𝐌": 749,
      "𝐏": 750,
      "𝐖": 751,
      "𝐗": 752,
      "𝐚": 753,
      "𝐠": 754,
      "𝐩": 755,
      "𝐫": 756,
      "𝐮": 757,
      "𝐯": 758,
      "𝐰": 759,
      "𝐱": 760,
      "𝐲": 761,
      "𝐳": 762,
      "𝐴": 763,
      "𝐵": 764,
      "𝐶": 765,
      "𝐷": 766,
      "𝐸": 767,
      "𝐹": 768,
      "𝐺": 769,
      "𝐻": 770,
      "𝐼": 771,
      "𝐽": 772,
      "𝐾": 773,
      "𝐿": 774,
      "𝑀": 775,
      "𝑁": 776,
      "𝑂": 777,
      "𝑃": 778,
      "𝑄": 779,
      "𝑅": 780,
      "𝑆": 781,
      "𝑇": 782,
      "𝑈": 783,
      "𝑉": 784,
      "𝑊": 785,
      "𝑋": 786,
      "𝑌": 787,
      "𝑍": 788,
      "𝑎": 789,
      "𝑏": 790,
      "𝑐": 791,
      "𝑑": 792,
      "𝑒": 793,
      "𝑓": 794,
      "𝑔": 795,
      "𝑖": 796,
      "𝑗": 797,
      "𝑘": 798,
      "𝑙": 799,
      "𝑚": 800,
      "𝑛": 801,
      "𝑜": 802,
      "𝑝": 803,
      "𝑞": 804,
      "𝑟": 805,
      "𝑠": 806,
      "𝑡": 807,
      "𝑢": 808,
      "𝑣": 809,
      "𝑤": 810,
      "𝑥": 811,
      "𝑦": 812,
      "𝑧": 813,
      "𝑨": 814,
      "𝑩": 815,
      "𝑪": 816,
      "𝑭": 817,
      "𝑮": 818,
      "𝑯": 819,
      "𝑰": 820,
      "𝑲": 821,
      "𝑳": 822,
      "𝑴": 823,
      "𝑷": 824,
      "𝑸": 825,
      "𝑹": 826,
      "𝑺": 827,
      "𝑻": 828,
      "𝑼": 829,
      "𝑽": 830,
      "𝑾": 831,
      "𝑿": 832,
      "𝒀": 833,
      "𝒁": 834,
      "𝒂": 835,
      "𝒃": 836,
      "𝒄": 837,
      "𝒅": 838,
      "𝒆": 839,
      "𝒇": 840,
      "𝒈": 841,
      "𝒉": 842,
      "𝒊": 843,
      "𝒋": 844,
      "𝒌": 845,
      "𝒎": 846,
      "𝒏": 847,
      "𝒑": 848,
      "𝒒": 849,
      "𝒓": 850,
      "𝒔": 851,
      "𝒕": 852,
      "𝒖": 853,
      "𝒗": 854,
      "𝒘": 855,
      "𝒙": 856,
      "𝒚": 857,
      "𝒛": 858,
      "𝒜": 859,
      "𝒞": 860,
      "𝒟": 861,
      "𝒢": 862,
      "𝒥": 863,
      "𝒦": 864,
      "𝒩": 865,
      "𝒪": 866,
      "𝒫": 867,
      "𝒮": 868,
      "𝒯": 869,
      "𝒰": 870,
      "𝒱": 871,
      "𝒲": 872,
      "𝒳": 873,
      "𝒴": 874,
      "𝓁": 875,
      "𝓇": 876,
      "𝔇": 877,
      "𝔉": 878,
      "𝔎": 879,
      "𝔏": 880,
      "𝔐": 881,
      "𝔖": 882,
      "𝔗": 883,
      "𝔛": 884,
      "𝔜": 885,
      "𝔞": 886,
      "𝔟": 887,
      "𝔠": 888,
      "𝔡": 889,
      "𝔢": 890,
      "𝔣": 891,
      "𝔤": 892,
      "𝔥": 893,
      "𝔦": 894,
      "𝔪": 895,
      "𝔫": 896,
      "𝔭": 897,
      "𝔯": 898,
      "𝔰": 899,
      "𝔲": 900,
      "𝔳": 901,
      "𝔴": 902,
      "𝔶": 903,
      "𝔸": 904,
      "𝔼": 905,
      "𝔽": 906,
      "𝕊": 907,
      "𝕋": 908,
      "𝖲": 909,
      "𝖳": 910,
      "𝖶": 911,
      "𝖷": 912,
      "𝖺": 913,
      "𝖼": 914,
      "𝖽": 915,
      "𝖾": 916,
      "𝗂": 917,
      "𝗅": 918,
      "𝗆": 919,
      "𝗇": 920,
      "𝗈": 921,
      "𝗉": 922,
      "𝗋": 923,
      "𝗌": 924,
      "𝗍": 925,
      "𝗎": 926,
      "𝗏": 927,
      "𝗐": 928,
      "𝚤": 929,
      "𝚪": 930,
      "𝚫": 931,
      "𝚯": 932,
      "𝚲": 933,
      "𝚷": 934,
      "𝚺": 935,
      "𝚽": 936,
      "𝚿": 937,
      "𝛀": 938,
      "𝛤": 939,
      "𝛥": 940,
      "𝛴": 941,
      "𝛷": 942,
      "𝛹": 943,
      "𝛺": 944,
      "𝛼": 945,
      "𝛽": 946,
      "𝛾": 947,
      "𝛿": 948,
      "𝜀": 949,
      "𝜁": 950,
      "𝜂": 951,
      "𝜃": 952,
      "𝜄": 953,
      "𝜅": 954,
      "𝜆": 955,
      "𝜇": 956,
      "𝜈": 957,
      "𝜉": 958,
      "𝜋": 959,
      "𝜌": 960,
      "𝜍": 961,
      "𝜎": 962,
      "𝜏": 963,
      "𝜐": 964,
      "𝜑": 965,
      "𝜒": 966,
      "𝜓": 967,
      "𝜔": 968,
      "𝜕": 969,
      "𝜖": 970,
      "𝜗": 971,
      "𝜙": 972,
      "𝜚": 973,
      "𝜛": 974,
      "𝜶": 975,
      "𝜷": 976,
      "𝜸": 977,
      "𝜹": 978,
      "𝜺": 979,
      "𝜻": 980,
      "𝜼": 981,
      "𝜽": 982,
      "𝝀": 983,
      "𝝁": 984,
      "𝝂": 985,
      "𝝃": 986,
      "𝝅": 987,
      "𝝆": 988,
      "𝝈": 989,
      "𝝉": 990,
      "𝝋": 991,
      "𝝌": 992,
      "𝝍": 993,
      "𝝎": 994,
      "𝝓": 995,
      "𝟎": 996,
      "𝟏": 997,
      "𝟐": 998,
      "𝟑": 999,
      "𝟙": 1000,
      "𝟣": 1001,
      "𝟤": 1002,
      "𝟥": 1003,
      "𭟋": 1004,
      "##a": 1005,
      "##h": 1006,
      "##n": 1007,
      "##i": 1008,
      "##y": 1009,
      "##r": 1010,
      "##m": 1011,
      "##β": 1012,
      "##⪯": 1013,
      "##j": 1014,
      "##∈": 1015,
      "##s": 1016,
      "##t": 1017,
      "##c": 1018,
      "##o": 1019,
      "##b": 1020,
      "##l": 1021,
      "##8": 1022,
      "##9": 1023,
      "##p": 1024,
      "##1": 1025,
      "##´": 1026,
      "##e": 1027,
      "##ξ": 1028,
      "##f": 1029,
      "##−": 1030,
      "##x": 1031,
      "##u": 1032,
      "##g": 1033,
      "##3": 1034,
      "##v": 1035,
      "##w": 1036,
      "##0": 1037,
      "##6": 1038,
      "##2": 1039,
      "##∥": 1040,
      "##d": 1041,
      "##α": 1042,
      "##4": 1043,
      "##7": 1044,
      "##±": 1045,
      "##5": 1046,
      "##z": 1047,
      "##ν": 1048,
      "##ℓ": 1049,
      "##q": 1050,
      "##k": 1051,
      "##∩": 1052,
      "##δ": 1053,
      "##⊂": 1054,
      "##ı": 1055,
      "##∪": 1056,
      "##ϕ": 1057,
      "##∂": 1058,
      "##ω": 1059,
      "##□": 1060,
      "##µ": 1061,
      "##ρ": 1062,
      "##≤": 1063,
      "##π": 1064,
      "##τ": 1065,
      "##θ": 1066,
      "##∇": 1067,
      "##∆": 1068,
      "##λ": 1069,
      "##≳": 1070,
      "##γ": 1071,
      "##ϵ": 1072,
      "##σ": 1073,
      "##𝑅": 1074,
      "##⊥": 1075,
      "##ε": 1076,
      "##⋯": 1077,
      "##⊢": 1078,
      "##κ": 1079,
      "##×": 1080,
      "##ψ": 1081,
      "##𝐺": 1082,
      "##𝑋": 1083,
      "##˙": 1084,
      "##о": 1085,
      "##з": 1086,
      "##м": 1087,
      "##ж": 1088,
      "##н": 1089,
      "##ы": 1090,
      "##е": 1091,
      "##ζ": 1092,
      "##∧": 1093,
      "##𝑏": 1094,
      "##𝑠": 1095,
      "##а": 1096,
      "##∞": 1097,
      "##¬": 1098,
      "##▽": 1099,
      "##∼": 1100,
      "##η": 1101,
      "##→": 1102,
      "##𝑜": 1103,
      "##𝑡": 1104,
      "##υ": 1105,
      "##ˆ": 1106,
      "##≥": 1107,
      "##⌣": 1108,
      "##↦": 1109,
      "##⊗": 1110,
      "##⊸": 1111,
      "##𝑣": 1112,
      "##˘": 1113,
      "##˚": 1114,
      "##ℵ": 1115,
      "##в": 1116,
      "##л": 1117,
      "##и": 1118,
      "##ч": 1119,
      "##я": 1120,
      "##𝑖": 1121,
      "##𝑛": 1122,
      "##⊆": 1123,
      "##𝑢": 1124,
      "##𝜂": 1125,
      "##φ": 1126,
      "##≺": 1127,
      "##ˇ": 1128,
      "##к": 1129,
      "##р": 1130,
      "##ю": 1131,
      "##щ": 1132,
      "##χ": 1133,
      "##𝒜": 1134,
      "##𝑥": 1135,
      "##𝜆": 1136,
      "##⌟": 1137,
      "##↓": 1138,
      "##ϑ": 1139,
      "##⋅": 1140,
      "##♭": 1141,
      "##∅": 1142,
      "##с": 1143,
      "##ς": 1144,
      "##∑": 1145,
      "##˝": 1146,
      "##∀": 1147,
      "##𝑧": 1148,
      "##⊨": 1149,
      "##¯": 1150,
      "##∠": 1151,
      "##≡": 1152,
      "##п": 1153,
      "##𝜃": 1154,
      "##𝐻": 1155,
      "##𝑓": 1156,
      "##⇝": 1157,
      "##ℑ": 1158,
      "##у": 1159,
      "##б": 1160,
      "##т": 1161,
      "##𝑦": 1162,
      "##⊔": 1163,
      "##↑": 1164,
      "##⩽": 1165,
      "##⊓": 1166,
      "##∖": 1167,
      "##ь": 1168,
      "##⇒": 1169,
      "##ϱ": 1170,
      "##◁": 1171,
      "##х": 1172,
      "##𝑀": 1173,
      "##𝑚": 1174,
      "##⌜": 1175,
      "##𝑒": 1176,
      "##⊕": 1177,
      "##∣": 1178,
      "##𝜐": 1179,
      "##ι": 1180,
      "##ℜ": 1181,
      "##𝑃": 1182,
      "##⇓": 1183,
      "##∨": 1184,
      "##⊳": 1185,
      "##¸": 1186,
      "##¨": 1187,
      "##ħ": 1188,
      "##𝑉": 1189,
      "##ø": 1190,
      "##𝑙": 1191,
      "##μ": 1192,
      "##𝛼": 1193,
      "##⩾": 1194,
      "##ℳ": 1195,
      "##𝑑": 1196,
      "##⊴": 1197,
      "##𝜷": 1198,
      "##𝑗": 1199,
      "##⨿": 1200,
      "##√": 1201,
      "##⊣": 1202,
      "##д": 1203,
      "##ъ": 1204,
      "##⇛": 1205,
      "##➋": 1206,
      "##𝐾": 1207,
      "##≪": 1208,
      "##←": 1209,
      "##ℏ": 1210,
      "##⊑": 1211,
      "##⊞": 1212,
      "##⋆": 1213,
      "##≫": 1214,
      "##𝛾": 1215,
      "##↾": 1216,
      "##𝛽": 1217,
      "##⋄": 1218,
      "##≦": 1219,
      "##𝐿": 1220,
      "##⊙": 1221,
      "##𝜇": 1222,
      "##𝜌": 1223,
      "##𝜏": 1224,
      "##∶": 1225,
      "##⋊": 1226,
      "##™": 1227,
      "##°": 1228,
      "##𝐵": 1229,
      "##ϖ": 1230,
      "##⊖": 1231,
      "##∓": 1232,
      "##✥": 1233,
      "##✆": 1234,
      "##✁": 1235,
      "##ß": 1236,
      "##⊲": 1237,
      "##𝑊": 1238,
      "##𝐷": 1239,
      "##𝑎": 1240,
      "##ф": 1241,
      "##𝑍": 1242,
      "##𝑞": 1243,
      "##𝜕": 1244,
      "##𝑟": 1245,
      "##𝜓": 1246,
      "##△": 1247,
      "##ł": 1248,
      "##𝑄": 1249,
      "##𝑐": 1250,
      "##⊏": 1251,
      "##⌝": 1252,
      "##∋": 1253,
      "##∃": 1254,
      "##⊺": 1255,
      "##≻": 1256,
      "##𝛿": 1257,
      "##𝑘": 1258,
      "##ℎ": 1259,
      "##¥": 1260,
      "##⧸": 1261,
      "##①": 1262,
      "##⊎": 1263,
      "##𝜄": 1264,
      "##𝜔": 1265,
      "##↵": 1266,
      "##𝑝": 1267,
      "##≈": 1268,
      "##⇤": 1269,
      "##⋖": 1270,
      "##𝚫": 1271,
      "##▷": 1272,
      "##𝜑": 1273,
      "##↗": 1274,
      "##𝐹": 1275,
      "##𝐼": 1276,
      "##✄": 1277,
      "##⊠": 1278,
      "##𝜋": 1279,
      "##ϒ": 1280,
      "##⪇": 1281,
      "##𝑌": 1282,
      "##𝜙": 1283,
      "##𝑤": 1284,
      "##г": 1285,
      "##𝜒": 1286,
      "##▼": 1287,
      "##␣": 1288,
      "##≜": 1289,
      "##ĳ": 1290,
      "##♮": 1291,
      "##ƚ": 1292,
      "##≲": 1293,
      "##𝜅": 1294,
      "##£": 1295,
      "##º": 1296,
      "##⫋": 1297,
      "##℘": 1298,
      "##ц": 1299,
      "##⃝": 1300,
      "##ο": 1301,
      "##𝐸": 1302,
      "##⊤": 1303,
      "##𝜈": 1304,
      "##♯": 1305,
      "##𝐠": 1306,
      "##ȷ": 1307,
      "##⇐": 1308,
      "##𝐶": 1309,
      "##≃": 1310,
      "##¢": 1311,
      "##𝑂": 1312,
      "##𝑇": 1313,
      "##𝒙": 1314,
      "##♢": 1315,
      "##𝑈": 1316,
      "##⇔": 1317,
      "##𭟋": 1318,
      "##≼": 1319,
      "##∕": 1320,
      "##𝜎": 1321,
      "##¦": 1322,
      "##ш": 1323,
      "##𝐽": 1324,
      "##↔": 1325,
      "##˜": 1326,
      "##𝒗": 1327,
      "##⊇": 1328,
      "##∫": 1329,
      "##⊃": 1330,
      "##↷": 1331,
      "##↘": 1332,
      "##𝑁": 1333,
      "##⟲": 1334,
      "##♣": 1335,
      "##⇢": 1336,
      "##¾": 1337,
      "##≾": 1338,
      "##♡": 1339,
      "##ℕ": 1340,
      "##↙": 1341,
      "##⌞": 1342,
      "##𝐴": 1343,
      "##♦": 1344,
      "##◯": 1345,
      "##⇠": 1346,
      "##𝑔": 1347,
      "##⌢": 1348,
      "##ⓢ": 1349,
      "##𝜀": 1350,
      "##𝔟": 1351,
      "##✲": 1352,
      "##⋉": 1353,
      "##⋗": 1354,
      "##ℐ": 1355,
      "##✓": 1356,
      "##✖": 1357,
      "##⪰": 1358,
      "##✷": 1359,
      "##𝐮": 1360,
      "##𝗂": 1361,
      "##𝗇": 1362,
      "##𝖺": 1363,
      "##𝗋": 1364,
      "##○": 1365,
      "##て": 1366,
      "##は": 1367,
      "##に": 1368,
      "##★": 1369,
      "##ƶ": 1370,
      "##ɛ": 1371,
      "##ƌ": 1372,
      "##𝑆": 1373,
      "##э": 1374,
      "##⊒": 1375,
      "##⇥": 1376,
      "##𝜉": 1377,
      "##⊩": 1378,
      "##⧹": 1379,
      "##𝜗": 1380,
      "##✡": 1381,
      "##❜": 1382,
      "##✝": 1383,
      "##☛": 1384,
      "##÷": 1385,
      "##⇂": 1386,
      "##ℙ": 1387,
      "##≧": 1388,
      "##≀": 1389,
      "##𝜚": 1390,
      "##¼": 1391,
      "##½": 1392,
      "##✶": 1393,
      "##⊊": 1394,
      "##ŋ": 1395,
      "##𝗅": 1396,
      "##✠": 1397,
      "##∘": 1398,
      "##⇋": 1399,
      "##≽": 1400,
      "##𝛺": 1401,
      "##る": 1402,
      "##∁": 1403,
      "##✌": 1404,
      "##☞": 1405,
      "##✕": 1406,
      "##✟": 1407,
      "##✜": 1408,
      "##✂": 1409,
      "##☎": 1410,
      "##𝜖": 1411,
      "##⋐": 1412,
      "##◻": 1413,
      "##®": 1414,
      "##𝟎": 1415,
      "##⌫": 1416,
      "##𝜻": 1417,
      "##≍": 1418,
      "##⟳": 1419,
      "##⋃": 1420,
      "##⋏": 1421,
      "##𝐚": 1422,
      "##⇌": 1423,
      "##⇀": 1424,
      "##✗": 1425,
      "##➂": 1426,
      "##⇑": 1427,
      "##𝛥": 1428,
      "##ℤ": 1429,
      "##✏": 1430,
      "##✑": 1431,
      "##✒": 1432,
      "##✔": 1433,
      "##𝐱": 1434,
      "##ℒ": 1435,
      "##∢": 1436,
      "##ଵ": 1437,
      "##⪈": 1438,
      "##❤": 1439,
      "##❡": 1440,
      "##𝒳": 1441,
      "##²": 1442,
      "##ͳ": 1443,
      "##ɖ": 1444,
      "##✞": 1445,
      "##✣": 1446,
      "##↶": 1447,
      "##𝒩": 1448,
      "##ϯ": 1449,
      "##©": 1450,
      "##■": 1451,
      "##↠": 1452,
      "##ð": 1453,
      "##þ": 1454,
      "##ℬ": 1455,
      "##♥": 1456,
      "##↿": 1457,
      "##𝐲": 1458,
      "##↣": 1459,
      "##𝒂": 1460,
      "##⋌": 1461,
      "##⪕": 1462,
      "##ら": 1463,
      "##𝒖": 1464,
      "##⋞": 1465,
      "##𝒫": 1466,
      "##≩": 1467,
      "##𝔢": 1468,
      "##⊘": 1469,
      "##↖": 1470,
      "##↕": 1471,
      "##⊚": 1472,
      "##י": 1473,
      "##𝔛": 1474,
      "##ℸ": 1475,
      "##⋁": 1476,
      "##▶": 1477,
      "##𝑼": 1478,
      "##⌦": 1479,
      "##ϭ": 1480,
      "##𝒞": 1481,
      "##✎": 1482,
      "##⎞": 1483,
      "##𝐃": 1484,
      "##𝜶": 1485,
      "##⊻": 1486,
      "##𝒛": 1487,
      "##⊋": 1488,
      "##₁": 1489,
      "##⇁": 1490,
      "##≿": 1491,
      "##↞": 1492,
      "##の": 1493,
      "##đ": 1494,
      "##∽": 1495,
      "##¤": 1496,
      "##∝": 1497,
      "##↼": 1498,
      "##𝔞": 1499,
      "##▲": 1500,
      "##𝔼": 1501,
      "##⅁": 1502,
      "##ה": 1503,
      "##✤": 1504,
      "##↭": 1505,
      "##𝟥": 1506,
      "##⊛": 1507,
      "##✻": 1508,
      "##↰": 1509,
      "##✐": 1510,
      "##✉": 1511,
      "##❀": 1512,
      "##𝒏": 1513,
      "##𝜁": 1514,
      "##⨼": 1515,
      "##℧": 1516,
      "##ℝ": 1517,
      "##𝗍": 1518,
      "##³": 1519,
      "##˛": 1520,
      "##◇": 1521,
      "##𝓇": 1522,
      "##❞": 1523,
      "##❝": 1524,
      "##こ": 1525,
      "##と": 1526,
      "##⫅": 1527,
      "##𝒘": 1528,
      "##𝖾": 1529,
      "##𝗎": 1530,
      "##ℰ": 1531,
      "##𝒰": 1532,
      "##⏞": 1533,
      "##⏟": 1534,
      "##ᵀ": 1535,
      "##𝚯": 1536,
      "##∐": 1537,
      "##◀": 1538,
      "##𝑷": 1539,
      "##ℱ": 1540,
      "##𝔎": 1541,
      "##∔": 1542,
      "##✦": 1543,
      "##✢": 1544,
      "##𝓁": 1545,
      "##０": 1546,
      "##ℭ": 1547,
      "##✵": 1548,
      "##⋎": 1549,
      "##✺": 1550,
      "##𝒉": 1551,
      "##⇧": 1552,
      "##✹": 1553,
      "##❛": 1554,
      "##✮": 1555,
      "##א": 1556,
      "##⫌": 1557,
      "##𝒯": 1558,
      "##𝚲": 1559,
      "##ª": 1560,
      "##𝝆": 1561,
      "##𝒆": 1562,
      "##⊡": 1563,
      "##か": 1564,
      "##⎤": 1565,
      "##₂": 1566,
      "##≅": 1567,
      "##𝗈": 1568,
      "##𝖽": 1569,
      "##𝑮": 1570,
      "##∡": 1571,
      "##⫯": 1572,
      "##よ": 1573,
      "##②": 1574,
      "##③": 1575,
      "##④": 1576,
      "##⑤": 1577,
      "##⧈": 1578,
      "##✍": 1579,
      "##𝒚": 1580,
      "##⌧": 1581,
      "##𝚽": 1582,
      "##❙": 1583,
      "##𝗐": 1584,
      "##♠": 1585,
      "##❇": 1586,
      "##𝑿": 1587,
      "##ℂ": 1588,
      "##ℶ": 1589,
      "##⇃": 1590,
      "##✚": 1591,
      "##◆": 1592,
      "##⊵": 1593,
      "##⫰": 1594,
      "##⊧": 1595,
      "##⩕": 1596,
      "##𝒒": 1597,
      "##𝛷": 1598,
      "##✙": 1599,
      "##∏": 1600,
      "##𝔪": 1601,
      "##𝖼": 1602,
      "##𝗉": 1603,
      "##れ": 1604,
      "##す": 1605,
      "##✛": 1606,
      "##𝐫": 1607,
      "##ℋ": 1608,
      "##∎": 1609,
      "##ש": 1610,
      "##𝟐": 1611,
      "##𝑳": 1612,
      "##⇡": 1613,
      "##⋔": 1614,
      "##¹": 1615,
      "##𝗏": 1616,
      "##€": 1617,
      "##𝑹": 1618,
      "##⌃": 1619,
      "##𝒦": 1620,
      "##⨆": 1621,
      "##ϰ": 1622,
      "##𝔲": 1623,
      "##𝔯": 1624,
      "##ց": 1625,
      "##↱": 1626,
      "##⇕": 1627,
      "##𝟙": 1628,
      "##⋀": 1629,
      "##⇣": 1630,
      "##𝔭": 1631,
      "##𝒃": 1632,
      "##☀": 1633,
      "##⟹": 1634,
      "##❚": 1635,
      "##❆": 1636,
      "##ב": 1637,
      "##𝒟": 1638,
      "##ϳ": 1639,
      "##𝒄": 1640,
      "##𝝃": 1641,
      "##ג": 1642,
      "##✫": 1643,
      "##✧": 1644,
      "##✳": 1645,
      "##𝒇": 1646,
      "##⎫": 1647,
      "##𝑴": 1648,
      "##𝐇": 1649,
      "##⁄": 1650,
      "##⋓": 1651,
      "##ꓥ": 1652,
      "##✘": 1653,
      "##𝐌": 1654,
      "##𝔤": 1655,
      "##𝔥": 1656,
      "##𝒈": 1657,
      "##≷": 1658,
      "##◊": 1659,
      "##⌘": 1660,
      "##⌄": 1661,
      "##𝒔": 1662,
      "##𝜍": 1663,
      "##≬": 1664,
      "##𝒴": 1665,
      "##⇚": 1666,
      "##⇄": 1667,
      "##𝐩": 1668,
      "##ϟ": 1669,
      "##𝟣": 1670,
      "##𝝎": 1671,
      "##❂": 1672,
      "##𝑪": 1673,
      "##𝝂": 1674,
      "##ϝ": 1675,
      "##𝑯": 1676,
      "##𝚤": 1677,
      "##𝔖": 1678,
      "##𝔦": 1679,
      "##𝜸": 1680,
      "##し": 1681,
      "##𝒕": 1682,
      "##𝝓": 1683,
      "##𝒢": 1684,
      "##∳": 1685,
      "##𝔰": 1686,
      "##𝑻": 1687,
      "##𝑸": 1688,
      "##⊟": 1689,
      "##𝒀": 1690,
      "##𝔳": 1691,
      "##𝖷": 1692,
      "##≏": 1693,
      "##𝐗": 1694,
      "##ℛ": 1695,
      "##𝑭": 1696,
      "##∴": 1697,
      "##𝗆": 1698,
      "##𝝉": 1699,
      "##𝒮": 1700,
      "##⋇": 1701,
      "##𝝀": 1702,
      "##≨": 1703,
      "##𝗌": 1704,
      "##𝒪": 1705,
      "##𝟏": 1706,
      "##✩": 1707,
      "##𝝍": 1708,
      "##❈": 1709,
      "##𝑾": 1710,
      "##𝜺": 1711,
      "##𝜛": 1712,
      "##を": 1713,
      "##↪": 1714,
      "##𝒋": 1715,
      "##𝔐": 1716,
      "##⊼": 1717,
      "##⎛": 1718,
      "##ℍ": 1719,
      "##𝒓": 1720,
      "##⧵": 1721,
      "##𝑺": 1722,
      "##ℚ": 1723,
      "##⇆": 1724,
      "##𝐅": 1725,
      "##𝐳": 1726,
      "##✰": 1727,
      "##𝒱": 1728,
      "##𝑽": 1729,
      "##✸": 1730,
      "##𝖲": 1731,
      "##𝐄": 1732,
      "##↢": 1733,
      "##⇊": 1734,
      "##𝑩": 1735,
      "##❍": 1736,
      "##➀": 1737,
      "##𝔴": 1738,
      "##𝑲": 1739,
      "##𝒊": 1740,
      "##↝": 1741,
      "##𝚺": 1742,
      "##≂": 1743,
      "##𝔽": 1744,
      "##𝒑": 1745,
      "##𝐯": 1746,
      "##✯": 1747,
      "##𝔗": 1748,
      "##𝔏": 1749,
      "##𝛤": 1750,
      "##𝒥": 1751,
      "##𝝁": 1752,
      "##𝒎": 1753,
      "##✭": 1754,
      "##⨻": 1755,
      "##𝜹": 1756,
      "##𝕊": 1757,
      "##↬": 1758,
      "##❏": 1759,
      "##𝜽": 1760,
      "##𝖳": 1761,
      "##❄": 1762,
      "##𝝈": 1763,
      "##❖": 1764,
      "##❅": 1765,
      "##❦": 1766,
      "##◼": 1767,
      "##⪵": 1768,
      "##ଶ": 1769,
      "##⋒": 1770,
      "##⎷": 1771,
      "##𝛴": 1772,
      "##𝚿": 1773,
      "##▸": 1774,
      "##⇈": 1775,
      "##⋋": 1776,
      "##𝝅": 1777,
      "##⊍": 1778,
      "##𝒅": 1779,
      "##϶": 1780,
      "##𝔉": 1781,
      "##𝐀": 1782,
      "##𝑨": 1783,
      "##➃": 1784,
      "##𝒁": 1785,
      "##⎦": 1786,
      "##𝖶": 1787,
      "##ൗ": 1788,
      "##𝕋": 1789,
      "##ƒ": 1790,
      "##⩔": 1791,
      "##❃": 1792,
      "##⊐": 1793,
      "##⋑": 1794,
      "##˲": 1795,
      "##⌅": 1796,
      "##𝐏": 1797,
      "##≊": 1798,
      "##𝔣": 1799,
      "##≶": 1800,
      "##∱": 1801,
      "##ℌ": 1802,
      "##𝔫": 1803,
      "##⊪": 1804,
      "##𝝋": 1805,
      "##⋂": 1806,
      "##𝜼": 1807,
      "##⎪": 1808,
      "##⎠": 1809,
      "##⌥": 1810,
      "##𝒌": 1811,
      "##⨉": 1812,
      "##⎧": 1813,
      "##𝑰": 1814,
      "##➁": 1815,
      "##𝚷": 1816,
      "##⨏": 1817,
      "##𝚪": 1818,
      "##𝐰": 1819,
      "##𝟤": 1820,
      "##⟂": 1821,
      "##⋮": 1822,
      "##≑": 1823,
      "##𝒲": 1824,
      "##≐": 1825,
      "##𝔡": 1826,
      "##𝛀": 1827,
      "##☆": 1828,
      "##⨁": 1829,
      "##♂": 1830,
      "##𝟑": 1831,
      "##⊫": 1832,
      "##∵": 1833,
      "##𝔸": 1834,
      "##ϙ": 1835,
      "##𝔠": 1836,
      "##ⅈ": 1837,
      "##⏐": 1838,
      "##↺": 1839,
      "##⇉": 1840,
      "##➄": 1841,
      "th": 1842,
      "the": 1843,
      "##on": 1844,
      "##ti": 1845,
      "##er": 1846,
      "##or": 1847,
      "##in": 1848,
      "##en": 1849,
      "##es": 1850,
      "of": 1851,
      "##nd": 1852,
      "##at": 1853,
      "##tion": 1854,
      "in": 1855,
      "##al": 1856,
      "##ed": 1857,
      "and": 1858,
      "is": 1859,
      "##ro": 1860,
      "##it": 1861,
      "##ar": 1862,
      "##re": 1863,
      "##an": 1864,
      "##is": 1865,
      "to": 1866,
      "##et": 1867,
      "##ing": 1868,
      "##ic": 1869,
      "for": 1870,
      "we": 1871,
      "##ec": 1872,
      "that": 1873,
      "##om": 1874,
      "##le": 1875,
      "##as": 1876,
      "con": 1877,
      "##ly": 1878,
      "##ve": 1879,
      "pro": 1880,
      "##ation": 1881,
      "##ll": 1882,
      "##ent": 1883,
      "##ac": 1884,
      "##ow": 1885,
      "on": 1886,
      "##em": 1887,
      "##ith": 1888,
      "##im": 1889,
      "##st": 1890,
      "wh": 1891,
      "##si": 1892,
      "su": 1893,
      "as": 1894,
      "##ot": 1895,
      "##ce": 1896,
      "##ou": 1897,
      "be": 1898,
      "an": 1899,
      "by": 1900,
      "with": 1901,
      "##ul": 1902,
      "st": 1903,
      "re": 1904,
      "ex": 1905,
      "##ol": 1906,
      "##se": 1907,
      "##am": 1908,
      "de": 1909,
      "##ver": 1910,
      "##qu": 1911,
      "##ur": 1912,
      "##ig": 1913,
      "##ts": 1914,
      "##od": 1915,
      "this": 1916,
      "##um": 1917,
      "##ch": 1918,
      "are": 1919,
      "##ri": 1920,
      "com": 1921,
      "al": 1922,
      "##ut": 1923,
      "##ab": 1924,
      "##ain": 1925,
      "##pl": 1926,
      "##ity": 1927,
      "po": 1928,
      "##ap": 1929,
      "##el": 1930,
      "##tic": 1931,
      "##il": 1932,
      "##ate": 1933,
      "##tin": 1934,
      "##ter": 1935,
      "if": 1936,
      "##ir": 1937,
      "##ction": 1938,
      "##ere": 1939,
      "res": 1940,
      "##fin": 1941,
      "##iv": 1942,
      "can": 1943,
      "it": 1944,
      "##ect": 1945,
      "##if": 1946,
      "ha": 1947,
      "##pp": 1948,
      "or": 1949,
      "##oll": 1950,
      "then": 1951,
      "not": 1952,
      "comp": 1953,
      "##ge": 1954,
      "##res": 1955,
      "##tive": 1956,
      "##rom": 1957,
      "##un": 1958,
      "##ure": 1959,
      "sp": 1960,
      "##ence": 1961,
      "let": 1962,
      "##ich": 1963,
      "from": 1964,
      "se": 1965,
      "defin": 1966,
      "##ting": 1967,
      "all": 1968,
      "##id": 1969,
      "theor": 1970,
      "which": 1971,
      "##th": 1972,
      "ch": 1973,
      "##uc": 1974,
      "sh": 1975,
      "par": 1976,
      "##iz": 1977,
      "##der": 1978,
      "lo": 1979,
      "at": 1980,
      "have": 1981,
      "us": 1982,
      "##per": 1983,
      "dis": 1984,
      "where": 1985,
      "set": 1986,
      "##us": 1987,
      "##ollow": 1988,
      "follow": 1989,
      "there": 1990,
      "##ition": 1991,
      "−1": 1992,
      "##ay": 1993,
      "##for": 1994,
      "tr": 1995,
      "##sion": 1996,
      "##ble": 1997,
      "un": 1998,
      "##ad": 1999,
      "cl": 2000,
      "##ach": 2001,
      "##ection": 2002,
      "##ant": 2003,
      "co": 2004,
      "##ari": 2005,
      "equ": 2006,
      "theorem": 2007,
      "fun": 2008,
      "such": 2009,
      "##ma": 2010,
      "##ally": 2011,
      "ob": 2012,
      "ne": 2013,
      "##of": 2014,
      "##ound": 2015,
      "##ations": 2016,
      "int": 2017,
      "function": 2018,
      "##ess": 2019,
      "##tain": 2020,
      "##po": 2021,
      "##igh": 2022,
      "##−1": 2023,
      "##ase": 2024,
      "##all": 2025,
      "mod": 2026,
      "le": 2027,
      "##ution": 2028,
      "##able": 2029,
      "ass": 2030,
      "proof": 2031,
      "##ary": 2032,
      "one": 2033,
      "sub": 2034,
      "##erm": 2035,
      "##ies": 2036,
      "##ment": 2037,
      "##ated": 2038,
      "##act": 2039,
      "##ds": 2040,
      "app": 2041,
      "gen": 2042,
      "ind": 2043,
      "##ric": 2044,
      "lem": 2045,
      "sy": 2046,
      "giv": 2047,
      "##ple": 2048,
      "qu": 2049,
      "bound": 2050,
      "im": 2051,
      "fin": 2052,
      "const": 2053,
      "##fer": 2054,
      "##ite": 2055,
      "gener": 2056,
      "form": 2057,
      "lemma": 2058,
      "##ace": 2059,
      "sim": 2060,
      "sin": 2061,
      "##tim": 2062,
      "tw": 2063,
      "en": 2064,
      "cor": 2065,
      "ma": 2066,
      "##rou": 2067,
      "any": 2068,
      "##ati": 2069,
      "ad": 2070,
      "##ine": 2071,
      "has": 2072,
      "##ber": 2073,
      "##ill": 2074,
      "ver": 2075,
      "##sition": 2076,
      "poin": 2077,
      "##end": 2078,
      "each": 2079,
      "##and": 2080,
      "resul": 2081,
      "show": 2082,
      "ab": 2083,
      "##alu": 2084,
      "gr": 2085,
      "two": 2086,
      "ar": 2087,
      "case": 2088,
      "inter": 2089,
      "den": 2090,
      "##ore": 2091,
      "##ome": 2092,
      "##dition": 2093,
      "##ous": 2094,
      "str": 2095,
      "mat": 2096,
      "##so": 2097,
      "exp": 2098,
      "given": 2099,
      "since": 2100,
      "num": 2101,
      "so": 2102,
      "assum": 2103,
      "non": 2104,
      "me": 2105,
      "##gor": 2106,
      "##ose": 2107,
      "##ff": 2108,
      "##ular": 2109,
      "fi": 2110,
      "##ial": 2111,
      "following": 2112,
      "##rib": 2113,
      "sol": 2114,
      "also": 2115,
      "will": 2116,
      "##ree": 2117,
      "##uct": 2118,
      "##form": 2119,
      "##enti": 2120,
      "##ding": 2121,
      "##ame": 2122,
      "##oth": 2123,
      "section": 2124,
      "ac": 2125,
      "##sider": 2126,
      "tim": 2127,
      "consider": 2128,
      "fig": 2129,
      "##ther": 2130,
      "fir": 2131,
      "dif": 2132,
      "##oc": 2133,
      "##ans": 2134,
      "log": 2135,
      "some": 2136,
      "##gr": 2137,
      "first": 2138,
      "propo": 2139,
      "see": 2140,
      "##ical": 2141,
      "only": 2142,
      "our": 2143,
      "##aph": 2144,
      "di": 2145,
      "##ator": 2146,
      "min": 2147,
      "##os": 2148,
      "op": 2149,
      "##ep": 2150,
      "##ithm": 2151,
      "##og": 2152,
      "no": 2153,
      "##ates": 2154,
      "dist": 2155,
      "##ight": 2156,
      "number": 2157,
      "##blem": 2158,
      "##ak": 2159,
      "##abil": 2160,
      "##etw": 2161,
      "exis": 2162,
      "vari": 2163,
      "10": 2164,
      "cont": 2165,
      "problem": 2166,
      "more": 2167,
      "##ph": 2168,
      "##ance": 2169,
      "when": 2170,
      "##ud": 2171,
      "max": 2172,
      "##ass": 2173,
      "rec": 2174,
      "##resent": 2175,
      "model": 2176,
      "##atis": 2177,
      "per": 2178,
      "valu": 2179,
      "condition": 2180,
      "rel": 2181,
      "##ork": 2182,
      "time": 2183,
      "##gorithm": 2184,
      "##ra": 2185,
      "algorithm": 2186,
      "denot": 2187,
      "es": 2188,
      "##orm": 2189,
      "follows": 2190,
      "obtain": 2191,
      "##ension": 2192,
      "##est": 2193,
      "##ust": 2194,
      "##eth": 2195,
      "map": 2196,
      "id": 2197,
      "using": 2198,
      "resp": 2199,
      "##cl": 2200,
      "##roup": 2201,
      "constr": 2202,
      "differ": 2203,
      "##ative": 2204,
      "pre": 2205,
      "sm": 2206,
      "order": 2207,
      "other": 2208,
      "##ers": 2209,
      "##ong": 2210,
      "##ents": 2211,
      "rep": 2212,
      "over": 2213,
      "appro": 2214,
      "line": 2215,
      "graph": 2216,
      "##ex": 2217,
      "these": 2218,
      "definition": 2219,
      "##ard": 2220,
      "##ector": 2221,
      "des": 2222,
      "##plic": 2223,
      "##stem": 2224,
      "pr": 2225,
      "##ang": 2226,
      "##orph": 2227,
      "##atisf": 2228,
      "##ability": 2229,
      "satisf": 2230,
      "##ves": 2231,
      "##yp": 2232,
      "system": 2233,
      "##ality": 2234,
      "dim": 2235,
      "##ise": 2236,
      "det": 2237,
      "ev": 2238,
      "##ties": 2239,
      "space": 2240,
      "point": 2241,
      "proposition": 2242,
      "term": 2243,
      "reg": 2244,
      "thus": 2245,
      "its": 2246,
      "##very": 2247,
      "defined": 2248,
      "##ective": 2249,
      "now": 2250,
      "solution": 2251,
      "mo": 2252,
      "##lement": 2253,
      "rem": 2254,
      "##ffic": 2255,
      "##op": 2256,
      "supp": 2257,
      "bas": 2258,
      "figure": 2259,
      "trans": 2260,
      "do": 2261,
      "##ty": 2262,
      "##pon": 2263,
      "20": 2264,
      "und": 2265,
      "##ast": 2266,
      "##ie": 2267,
      "hol": 2268,
      "exam": 2269,
      "fact": 2270,
      "pl": 2271,
      "use": 2272,
      "every": 2273,
      "##etric": 2274,
      "##ue": 2275,
      "##fore": 2276,
      "dec": 2277,
      "##cal": 2278,
      "##ct": 2279,
      "##ism": 2280,
      "##gh": 2281,
      "oper": 2282,
      "##uction": 2283,
      "proper": 2284,
      "out": 2285,
      "ext": 2286,
      "12": 2287,
      "##ort": 2288,
      "general": 2289,
      "same": 2290,
      "note": 2291,
      "##respon": 2292,
      "correspon": 2293,
      "under": 2294,
      "lim": 2295,
      "class": 2296,
      "ed": 2297,
      "estim": 2298,
      "##ied": 2299,
      "group": 2300,
      "comput": 2301,
      "##ges": 2302,
      "subs": 2303,
      "11": 2304,
      "prov": 2305,
      "finite": 2306,
      "disc": 2307,
      "but": 2308,
      "distrib": 2309,
      "##ark": 2310,
      "##omorph": 2311,
      "inte": 2312,
      "kn": 2313,
      "##rix": 2314,
      "##vi": 2315,
      "##ion": 2316,
      "dimension": 2317,
      "##ld": 2318,
      "##ffici": 2319,
      "##een": 2320,
      "anal": 2321,
      "prob": 2322,
      "meas": 2323,
      "##ser": 2324,
      "vector": 2325,
      "##ack": 2326,
      "proc": 2327,
      "##etween": 2328,
      "between": 2329,
      "man": 2330,
      "matrix": 2331,
      "element": 2332,
      "how": 2333,
      "define": 2334,
      "##ove": 2335,
      "##sis": 2336,
      "hence": 2337,
      "##our": 2338,
      "results": 2339,
      "##amet": 2340,
      "##ization": 2341,
      "##au": 2342,
      "dat": 2343,
      "than": 2344,
      "##ption": 2345,
      "result": 2346,
      "partic": 2347,
      "##les": 2348,
      "sec": 2349,
      "sequ": 2350,
      "sym": 2351,
      "optim": 2352,
      "typ": 2353,
      "assume": 2354,
      "represent": 2355,
      "above": 2356,
      "##ign": 2357,
      "##ide": 2358,
      "##ould": 2359,
      "linear": 2360,
      "poly": 2361,
      "denote": 2362,
      "mul": 2363,
      "exists": 2364,
      "##geb": 2365,
      "inv": 2366,
      "cur": 2367,
      "##ize": 2368,
      "paramet": 2369,
      "meth": 2370,
      "##enc": 2371,
      "##ected": 2372,
      "method": 2373,
      "contain": 2374,
      "therefore": 2375,
      "dep": 2376,
      "##ip": 2377,
      "##ath": 2378,
      "##iqu": 2379,
      "example": 2380,
      "ii": 2381,
      "##age": 2382,
      "equiv": 2383,
      "##andom": 2384,
      "multi": 2385,
      "lar": 2386,
      "fix": 2387,
      "conver": 2388,
      "distribution": 2389,
      "random": 2390,
      "tak": 2391,
      "##ian": 2392,
      "##out": 2393,
      "##ized": 2394,
      "norm": 2395,
      "may": 2396,
      "##lex": 2397,
      "state": 2398,
      "em": 2399,
      "##ond": 2400,
      "tri": 2401,
      "##ke": 2402,
      "##pt": 2403,
      "bec": 2404,
      "algeb": 2405,
      "obser": 2406,
      "functions": 2407,
      "struct": 2408,
      "cho": 2409,
      "spec": 2410,
      "deg": 2411,
      "know": 2412,
      "##ilar": 2413,
      "minim": 2414,
      "##ential": 2415,
      "points": 2416,
      "small": 2417,
      "probability": 2418,
      "##ag": 2419,
      "equation": 2420,
      "operator": 2421,
      "##ish": 2422,
      "conn": 2423,
      "similar": 2424,
      "both": 2425,
      "##ann": 2426,
      "red": 2427,
      "##ower": 2428,
      "##rod": 2429,
      "##sitive": 2430,
      "##tical": 2431,
      "##ever": 2432,
      "acc": 2433,
      "ag": 2434,
      "ap": 2435,
      "##rr": 2436,
      "##sed": 2437,
      "into": 2438,
      "equival": 2439,
      "##air": 2440,
      "data": 2441,
      "##low": 2442,
      "analy": 2443,
      "##vel": 2444,
      "sch": 2445,
      "##ors": 2446,
      "##ual": 2447,
      "##olog": 2448,
      "prove": 2449,
      "desc": 2450,
      "##ently": 2451,
      "used": 2452,
      "process": 2453,
      "imp": 2454,
      "complex": 2455,
      "call": 2456,
      "step": 2457,
      "##plies": 2458,
      "inc": 2459,
      "##tinu": 2460,
      "##bit": 2461,
      "hom": 2462,
      "particular": 2463,
      "13": 2464,
      "##xim": 2465,
      "constant": 2466,
      "formul": 2467,
      "pos": 2468,
      "nod": 2469,
      "##ero": 2470,
      "second": 2471,
      "up": 2472,
      "##ating": 2473,
      "dire": 2474,
      "sum": 2475,
      "ro": 2476,
      "comm": 2477,
      "introd": 2478,
      "work": 2479,
      "sing": 2480,
      "well": 2481,
      "value": 2482,
      "##omial": 2483,
      "pap": 2484,
      "approxim": 2485,
      "prod": 2486,
      "der": 2487,
      "##ures": 2488,
      "here": 2489,
      "##ted": 2490,
      "assumption": 2491,
      "##over": 2492,
      "maxim": 2493,
      "positive": 2494,
      "##ord": 2495,
      "##ail": 2496,
      "corresponding": 2497,
      "sequence": 2498,
      "##sible": 2499,
      "continu": 2500,
      "sur": 2501,
      "##oun": 2502,
      "##ving": 2503,
      "measure": 2504,
      "##omorphism": 2505,
      "different": 2506,
      "##uced": 2507,
      "ij": 2508,
      "##aces": 2509,
      "inst": 2510,
      "##ss": 2511,
      "holds": 2512,
      "implies": 2513,
      "et": 2514,
      "real": 2515,
      "##equ": 2516,
      "need": 2517,
      "however": 2518,
      "paper": 2519,
      "ph": 2520,
      "##tial": 2521,
      "pair": 2522,
      "##formation": 2523,
      "19": 2524,
      "##plet": 2525,
      "##int": 2526,
      "most": 2527,
      "14": 2528,
      "##ile": 2529,
      "algebra": 2530,
      "path": 2531,
      "fur": 2532,
      "suppose": 2533,
      "char": 2534,
      "their": 2535,
      "does": 2536,
      "requ": 2537,
      "bounded": 2538,
      "type": 2539,
      "inequ": 2540,
      "##ique": 2541,
      "zero": 2542,
      "was": 2543,
      "la": 2544,
      "bl": 2545,
      "fiel": 2546,
      "##tices": 2547,
      "polyn": 2548,
      "sign": 2549,
      "stud": 2550,
      "16": 2551,
      "fr": 2552,
      "determ": 2553,
      "##epend": 2554,
      "wr": 2555,
      "col": 2556,
      "integr": 2557,
      "##ens": 2558,
      "compon": 2559,
      "##ved": 2560,
      "15": 2561,
      "##ases": 2562,
      "remark": 2563,
      "clos": 2564,
      "##ific": 2565,
      "##ause": 2566,
      "based": 2567,
      "##ix": 2568,
      "independ": 2569,
      "terms": 2570,
      "##ice": 2571,
      "ran": 2572,
      "polynomial": 2573,
      "##ive": 2574,
      "##ough": 2575,
      "##tex": 2576,
      "##eng": 2577,
      "local": 2578,
      "identi": 2579,
      "respective": 2580,
      "large": 2581,
      "they": 2582,
      "structure": 2583,
      "##are": 2584,
      "complet": 2585,
      "dy": 2586,
      "af": 2587,
      "present": 2588,
      "##ft": 2589,
      "dom": 2590,
      "exist": 2591,
      "end": 2592,
      "vertex": 2593,
      "lat": 2594,
      "##ood": 2595,
      "aut": 2596,
      "arg": 2597,
      "##etwork": 2598,
      "##als": 2599,
      "##old": 2600,
      "get": 2601,
      "##put": 2602,
      "network": 2603,
      "high": 2604,
      "ge": 2605,
      "fe": 2606,
      "##ger": 2607,
      "vertices": 2608,
      "n−1": 2609,
      "satisfy": 2610,
      "values": 2611,
      "sam": 2612,
      "hand": 2613,
      "rest": 2614,
      "err": 2615,
      "##gy": 2616,
      "##uce": 2617,
      "obtained": 2618,
      "boundary": 2619,
      "##ry": 2620,
      "##ables": 2621,
      "symm": 2622,
      "because": 2623,
      "##ks": 2624,
      "##oci": 2625,
      "##ern": 2626,
      "##ily": 2627,
      "mon": 2628,
      "li": 2629,
      "##gram": 2630,
      "conditions": 2631,
      "respectively": 2632,
      "##ength": 2633,
      "fixed": 2634,
      "edge": 2635,
      "perform": 2636,
      "##ret": 2637,
      "optimal": 2638,
      "invari": 2639,
      "associ": 2640,
      "##wise": 2641,
      "am": 2642,
      "##clud": 2643,
      "new": 2644,
      "##its": 2645,
      "top": 2646,
      "−2": 2647,
      "##acter": 2648,
      "ent": 2649,
      "depend": 2650,
      "##ell": 2651,
      "proj": 2652,
      "##ech": 2653,
      "dx": 2654,
      "##ays": 2655,
      "coroll": 2656,
      "right": 2657,
      "##und": 2658,
      "dimensional": 2659,
      "deriv": 2660,
      "hy": 2661,
      "##vious": 2662,
      "been": 2663,
      "##ear": 2664,
      "##ature": 2665,
      "apply": 2666,
      "theory": 2667,
      "##ten": 2668,
      "approach": 2669,
      "##istic": 2670,
      "describ": 2671,
      "sc": 2672,
      "least": 2673,
      "character": 2674,
      "##ull": 2675,
      "size": 2676,
      "eig": 2677,
      "while": 2678,
      "main": 2679,
      "loc": 2680,
      "##ational": 2681,
      "satisfies": 2682,
      "corollary": 2683,
      "moreover": 2684,
      "simple": 2685,
      "contr": 2686,
      "gl": 2687,
      "sl": 2688,
      "sets": 2689,
      "inequality": 2690,
      "ini": 2691,
      "respect": 2692,
      "cy": 2693,
      "##ob": 2694,
      "continuous": 2695,
      "stand": 2696,
      "action": 2697,
      "unif": 2698,
      "##vers": 2699,
      "called": 2700,
      "exact": 2701,
      "##cc": 2702,
      "lin": 2703,
      "even": 2704,
      "cod": 2705,
      "##tice": 2706,
      "sel": 2707,
      "vi": 2708,
      "##ym": 2709,
      "##xt": 2710,
      "determin": 2711,
      "##ples": 2712,
      "sup": 2713,
      "eigen": 2714,
      "##par": 2715,
      "property": 2716,
      "part": 2717,
      "consis": 2718,
      "##ooth": 2719,
      "constrain": 2720,
      "recall": 2721,
      "##ule": 2722,
      "comb": 2723,
      "scal": 2724,
      "17": 2725,
      "##ness": 2726,
      "next": 2727,
      "##action": 2728,
      "##vex": 2729,
      "independent": 2730,
      "must": 2731,
      "edges": 2732,
      "sem": 2733,
      "expres": 2734,
      "length": 2735,
      "##rough": 2736,
      "##eed": 2737,
      "subset": 2738,
      "##ov": 2739,
      "regular": 2740,
      "parameter": 2741,
      "2n": 2742,
      "uniform": 2743,
      "smooth": 2744,
      "limit": 2745,
      "properties": 2746,
      "degree": 2747,
      "left": 2748,
      "##aus": 2749,
      "##ject": 2750,
      "infin": 2751,
      "unique": 2752,
      "##atur": 2753,
      "##00": 2754,
      "incre": 2755,
      "##ether": 2756,
      "field": 2757,
      "18": 2758,
      "through": 2759,
      "shown": 2760,
      "elements": 2761,
      "variables": 2762,
      "##ement": 2763,
      "converg": 2764,
      "contro": 2765,
      "direct": 2766,
      "fl": 2767,
      "possible": 2768,
      "known": 2769,
      "three": 2770,
      "hyper": 2771,
      "##fic": 2772,
      "##ology": 2773,
      "error": 2774,
      "find": 2775,
      "eas": 2776,
      "convex": 2777,
      "initial": 2778,
      "##sequ": 2779,
      "21": 2780,
      "ser": 2781,
      "connected": 2782,
      "normal": 2783,
      "star": 2784,
      "discus": 2785,
      "closed": 2786,
      "##str": 2787,
      "##ning": 2788,
      "##fficient": 2789,
      "schem": 2790,
      "##ences": 2791,
      "##ful": 2792,
      "##ib": 2793,
      "standard": 2794,
      "information": 2795,
      "##clu": 2796,
      "would": 2797,
      "shows": 2798,
      "gives": 2799,
      "combin": 2800,
      "201": 2801,
      "addition": 2802,
      "equivalent": 2803,
      "associated": 2804,
      "product": 2805,
      "prec": 2806,
      "##olic": 2807,
      "way": 2808,
      "##onal": 2809,
      "complete": 2810,
      "rate": 2811,
      "formula": 2812,
      "restric": 2813,
      "many": 2814,
      "##ral": 2815,
      "construction": 2816,
      "states": 2817,
      "##gn": 2818,
      "he": 2819,
      "##ects": 2820,
      "mean": 2821,
      "free": 2822,
      "metric": 2823,
      "manif": 2824,
      "##ible": 2825,
      "equal": 2826,
      "##ities": 2827,
      "##ither": 2828,
      "refer": 2829,
      "lower": 2830,
      "##nam": 2831,
      "cal": 2832,
      "natur": 2833,
      "##oint": 2834,
      "fam": 2835,
      "##ompo": 2836,
      "construct": 2837,
      "quant": 2838,
      "##iel": 2839,
      "pres": 2840,
      "setting": 2841,
      "compact": 2842,
      "22": 2843,
      "parti": 2844,
      "##tern": 2845,
      "allow": 2846,
      "argum": 2847,
      "##ends": 2848,
      "inf": 2849,
      "rank": 2850,
      "analysis": 2851,
      "equations": 2852,
      "##−2": 2853,
      "corre": 2854,
      "k−1": 2855,
      "quantum": 2856,
      "ide": 2857,
      "coe": 2858,
      "##ist": 2859,
      "surf": 2860,
      "##anc": 2861,
      "invariant": 2862,
      "cle": 2863,
      "##inc": 2864,
      "##ics": 2865,
      "##ides": 2866,
      "eigenv": 2867,
      "##ategor": 2868,
      "cent": 2869,
      "br": 2870,
      "unit": 2871,
      "##ulation": 2872,
      "##ire": 2873,
      "level": 2874,
      "##tal": 2875,
      "##ired": 2876,
      "remain": 2877,
      "##adi": 2878,
      "asym": 2879,
      "contains": 2880,
      "##tiv": 2881,
      "wor": 2882,
      "iter": 2883,
      "finally": 2884,
      "##ighb": 2885,
      "##ically": 2886,
      "cases": 2887,
      "convergence": 2888,
      "dt": 2889,
      "est": 2890,
      "conc": 2891,
      "weight": 2892,
      "##ants": 2893,
      "neighb": 2894,
      "ima": 2895,
      "strong": 2896,
      "eff": 2897,
      "after": 2898,
      "decompo": 2899,
      "div": 2900,
      "##ane": 2901,
      "applic": 2902,
      "solutions": 2903,
      "##otic": 2904,
      "conf": 2905,
      "write": 2906,
      "##inal": 2907,
      "tree": 2908,
      "##urn": 2909,
      "##anti": 2910,
      "node": 2911,
      "interv": 2912,
      "estimate": 2913,
      "##pper": 2914,
      "whose": 2915,
      "1−": 2916,
      "previous": 2917,
      "without": 2918,
      "study": 2919,
      "##iew": 2920,
      "##ock": 2921,
      "##vial": 2922,
      "compar": 2923,
      "dynam": 2924,
      "arbit": 2925,
      "open": 2926,
      "clear": 2927,
      "weak": 2928,
      "cr": 2929,
      "##rop": 2930,
      "domain": 2931,
      "##rices": 2932,
      "graphs": 2933,
      "##ments": 2934,
      "coll": 2935,
      "##tions": 2936,
      "either": 2937,
      "neg": 2938,
      "cla": 2939,
      "further": 2940,
      "##annel": 2941,
      "representation": 2942,
      "models": 2943,
      "##ub": 2944,
      "power": 2945,
      "##ordin": 2946,
      "23": 2947,
      "arbitr": 2948,
      "##ange": 2949,
      "##ward": 2950,
      "parameters": 2951,
      "ener": 2952,
      "upper": 2953,
      "yiel": 2954,
      "factor": 2955,
      "##plicit": 2956,
      "##de": 2957,
      "channel": 2958,
      "cos": 2959,
      "systems": 2960,
      "claim": 2961,
      "asympt": 2962,
      "##ings": 2963,
      "add": 2964,
      "##ency": 2965,
      "go": 2966,
      "##bed": 2967,
      "distance": 2968,
      "spect": 2969,
      "categor": 2970,
      "lab": 2971,
      "##clude": 2972,
      "##ier": 2973,
      "due": 2974,
      "calc": 2975,
      "##omorphic": 2976,
      "last": 2977,
      "below": 2978,
      "geom": 2979,
      "say": 2980,
      "asymptotic": 2981,
      "mark": 2982,
      "inters": 2983,
      "coun": 2984,
      "coordin": 2985,
      "##etry": 2986,
      "##row": 2987,
      "eq": 2988,
      "##ost": 2989,
      "take": 2990,
      "expl": 2991,
      "give": 2992,
      "extend": 2993,
      "##cle": 2994,
      "24": 2995,
      "like": 2996,
      "support": 2997,
      "nodes": 2998,
      "variable": 2999,
      "single": 3000,
      "quanti": 3001,
      "energy": 3002,
      "sen": 3003,
      "##eck": 3004,
      "el": 3005,
      "orig": 3006,
      "tech": 3007,
      "approximation": 3008,
      "again": 3009,
      "root": 3010,
      "table": 3011,
      "index": 3012,
      "symmetric": 3013,
      "techn": 3014,
      "basis": 3015,
      "##asing": 3016,
      "##sity": 3017,
      "generated": 3018,
      "indeed": 3019,
      "observ": 3020,
      "25": 3021,
      "cost": 3022,
      "means": 3023,
      "##ecess": 3024,
      "true": 3025,
      "##one": 3026,
      "methods": 3027,
      "##ually": 3028,
      "##ner": 3029,
      "gu": 3030,
      "matrices": 3031,
      "##sive": 3032,
      "numer": 3033,
      "##ha": 3034,
      "2π": 3035,
      "ach": 3036,
      "notation": 3037,
      "component": 3038,
      "prim": 3039,
      "natural": 3040,
      "lead": 3041,
      "##olution": 3042,
      "expon": 3043,
      "maps": 3044,
      "##ording": 3045,
      "##edi": 3046,
      "av": 3047,
      "##ertain": 3048,
      "spaces": 3049,
      "problems": 3050,
      "achie": 3051,
      "proposed": 3052,
      "control": 3053,
      "##iod": 3054,
      "bounds": 3055,
      "eigenvalu": 3056,
      "according": 3057,
      "att": 3058,
      "##ately": 3059,
      "about": 3060,
      "bi": 3061,
      "infinite": 3062,
      "inver": 3063,
      "consequ": 3064,
      "pri": 3065,
      "cir": 3066,
      "##not": 3067,
      "compute": 3068,
      "adm": 3069,
      "curve": 3070,
      "##sions": 3071,
      "relation": 3072,
      "##ug": 3073,
      "cover": 3074,
      "##hood": 3075,
      "them": 3076,
      "necess": 3077,
      "ds": 3078,
      "choice": 3079,
      "separ": 3080,
      "very": 3081,
      "side": 3082,
      "along": 3083,
      "region": 3084,
      "##ead": 3085,
      "input": 3086,
      "bel": 3087,
      "aver": 3088,
      "ke": 3089,
      "strate": 3090,
      "extension": 3091,
      "conv": 3092,
      "squ": 3093,
      "detail": 3094,
      "modul": 3095,
      "stat": 3096,
      "family": 3097,
      "lear": 3098,
      "total": 3099,
      "tre": 3100,
      "##ets": 3101,
      "diag": 3102,
      "adj": 3103,
      "trivial": 3104,
      "embed": 3105,
      "choose": 3106,
      "obj": 3107,
      "cap": 3108,
      "##rete": 3109,
      "##line": 3110,
      "##round": 3111,
      "##tit": 3112,
      "scheme": 3113,
      "algorithms": 3114,
      "indic": 3115,
      "period": 3116,
      "bo": 3117,
      "##sian": 3118,
      "car": 3119,
      "triang": 3120,
      "transform": 3121,
      "appear": 3122,
      "##ided": 3123,
      "##ross": 3124,
      "denotes": 3125,
      "classical": 3126,
      "observe": 3127,
      "components": 3128,
      "##ified": 3129,
      "those": 3130,
      "import": 3131,
      "repl": 3132,
      "tran": 3133,
      "##ilt": 3134,
      "−→": 3135,
      "2k": 3136,
      "iii": 3137,
      "groups": 3138,
      "integer": 3139,
      "specific": 3140,
      "ln": 3141,
      "##agram": 3142,
      "##ene": 3143,
      "##led": 3144,
      "sto": 3145,
      "emp": 3146,
      "explicit": 3147,
      "satisfying": 3148,
      "similarly": 3149,
      "density": 3150,
      "label": 3151,
      "decomposition": 3152,
      "special": 3153,
      "exper": 3154,
      "beha": 3155,
      "##ify": 3156,
      "gaus": 3157,
      "ax": 3158,
      "isomorphism": 3159,
      "##iter": 3160,
      "arbitrary": 3161,
      "diagram": 3162,
      "##ision": 3163,
      "occ": 3164,
      "##lish": 3165,
      "argument": 3166,
      "##ute": 3167,
      "##arg": 3168,
      "otherwise": 3169,
      "being": 3170,
      "loss": 3171,
      "gre": 3172,
      "manifold": 3173,
      "negative": 3174,
      "operators": 3175,
      "maximum": 3176,
      "run": 3177,
      "##most": 3178,
      "##sp": 3179,
      "append": 3180,
      "should": 3181,
      "##graph": 3182,
      "flow": 3183,
      "surface": 3184,
      "tor": 3185,
      "via": 3186,
      "du": 3187,
      "##plit": 3188,
      "lie": 3189,
      "performance": 3190,
      "calcul": 3191,
      "##inary": 3192,
      "##cept": 3193,
      "##ernel": 3194,
      "i−1": 3195,
      "super": 3196,
      "##ention": 3197,
      "pred": 3198,
      "##atic": 3199,
      "proved": 3200,
      "##ave": 3201,
      "before": 3202,
      "furth": 3203,
      "relative": 3204,
      "identif": 3205,
      "##ermore": 3206,
      "direction": 3207,
      "precise": 3208,
      "furthermore": 3209,
      "cell": 3210,
      "considered": 3211,
      "cannot": 3212,
      "check": 3213,
      "##uces": 3214,
      "partition": 3215,
      "integral": 3216,
      "instance": 3217,
      "kernel": 3218,
      "described": 3219,
      "existence": 3220,
      "##fficients": 3221,
      "coefficients": 3222,
      "##ys": 3223,
      "projection": 3224,
      "bund": 3225,
      "dual": 3226,
      "frame": 3227,
      "related": 3228,
      "interval": 3229,
      "200": 3230,
      "##other": 3231,
      "back": 3232,
      "interp": 3233,
      "val": 3234,
      "appendix": 3235,
      "##orphism": 3236,
      "denoted": 3237,
      "yields": 3238,
      "exactly": 3239,
      "##ways": 3240,
      "subg": 3241,
      "##ons": 3242,
      "minimal": 3243,
      "##adic": 3244,
      "stric": 3245,
      "##ries": 3246,
      "stable": 3247,
      "were": 3248,
      "##her": 3249,
      "discrete": 3250,
      "##fficiently": 3251,
      "##astic": 3252,
      "another": 3253,
      "enough": 3254,
      "hyp": 3255,
      "view": 3256,
      "hold": 3257,
      "vectors": 3258,
      "sense": 3259,
      "orth": 3260,
      "##oid": 3261,
      "##→∞": 3262,
      "glob": 3263,
      "sti": 3264,
      "long": 3265,
      "##vari": 3266,
      "strict": 3267,
      "always": 3268,
      "found": 3269,
      "evalu": 3270,
      "transm": 3271,
      "##ablish": 3272,
      "perm": 3273,
      "differential": 3274,
      "relations": 3275,
      "establish": 3276,
      "##uting": 3277,
      "complexity": 3278,
      "block": 3279,
      "##velop": 3280,
      "chain": 3281,
      "##av": 3282,
      "quad": 3283,
      "##own": 3284,
      "ret": 3285,
      "singular": 3286,
      "##ply": 3287,
      "26": 3288,
      "test": 3289,
      "row": 3290,
      "computation": 3291,
      "pot": 3292,
      "certain": 3293,
      "imm": 3294,
      "vol": 3295,
      "##ensor": 3296,
      "##ior": 3297,
      "subgroup": 3298,
      "important": 3299,
      "##af": 3300,
      "##ext": 3301,
      "experim": 3302,
      "clust": 3303,
      "##umn": 3304,
      "gaussian": 3305,
      "del": 3306,
      "make": 3307,
      "image": 3308,
      "27": 3309,
      "examples": 3310,
      "analog": 3311,
      "column": 3312,
      "fre": 3313,
      "##acy": 3314,
      "almost": 3315,
      "conclude": 3316,
      "maximal": 3317,
      "tra": 3318,
      "numerical": 3319,
      "##til": 3320,
      "ori": 3321,
      "##ators": 3322,
      "times": 3323,
      "##read": 3324,
      "neighbor": 3325,
      "taking": 3326,
      "behavi": 3327,
      "morphism": 3328,
      "##plied": 3329,
      "30": 3330,
      "##ole": 3331,
      "##izing": 3332,
      "##pling": 3333,
      "##ching": 3334,
      "introduce": 3335,
      "proced": 3336,
      "##ps": 3337,
      "occur": 3338,
      "orient": 3339,
      "28": 3340,
      "##ok": 3341,
      "ques": 3342,
      "design": 3343,
      "change": 3344,
      "provide": 3345,
      "play": 3346,
      "category": 3347,
      "simul": 3348,
      "predic": 3349,
      "ens": 3350,
      "princ": 3351,
      "##ental": 3352,
      "32": 3353,
      "##ping": 3354,
      "##osen": 3355,
      "##esting": 3356,
      "tog": 3357,
      "multiplic": 3358,
      "name": 3359,
      "code": 3360,
      "hypoth": 3361,
      "program": 3362,
      "##fication": 3363,
      "equivalence": 3364,
      "inclu": 3365,
      "act": 3366,
      "##uch": 3367,
      "##ological": 3368,
      "classes": 3369,
      "sever": 3370,
      "together": 3371,
      "average": 3372,
      "close": 3373,
      "induced": 3374,
      "##itten": 3375,
      "i∈": 3376,
      "van": 3377,
      "preser": 3378,
      "##onstr": 3379,
      "require": 3380,
      "phase": 3381,
      "identity": 3382,
      "sample": 3383,
      "contradic": 3384,
      "prop": 3385,
      "##ility": 3386,
      "full": 3387,
      "##eness": 3388,
      "hypothes": 3389,
      "impro": 3390,
      "enc": 3391,
      "##otop": 3392,
      "ref": 3393,
      "develop": 3394,
      "just": 3395,
      "applying": 3396,
      "estimates": 3397,
      "what": 3398,
      "ill": 3399,
      "dem": 3400,
      "assumptions": 3401,
      "##ind": 3402,
      "instead": 3403,
      "chosen": 3404,
      "numbers": 3405,
      "##uted": 3406,
      "##itive": 3407,
      "##assi": 3408,
      "could": 3409,
      "##entially": 3410,
      "quas": 3411,
      "still": 3412,
      "four": 3413,
      "uniformly": 3414,
      "##pr": 3415,
      "statement": 3416,
      "mom": 3417,
      "bu": 3418,
      "##arily": 3419,
      "orbit": 3420,
      "##dd": 3421,
      "guar": 3422,
      "curves": 3423,
      "summ": 3424,
      "cycl": 3425,
      "conject": 3426,
      "version": 3427,
      "##igur": 3428,
      "n−": 3429,
      "output": 3430,
      "reas": 3431,
      "##omes": 3432,
      "cf": 3433,
      "optimization": 3434,
      "minimum": 3435,
      "##ade": 3436,
      "belong": 3437,
      "diff": 3438,
      "##izes": 3439,
      "imple": 3440,
      "several": 3441,
      "strategy": 3442,
      "ham": 3443,
      "##etic": 3444,
      "invol": 3445,
      "31": 3446,
      "easy": 3447,
      "simpl": 3448,
      "##ras": 3449,
      "consist": 3450,
      "assi": 3451,
      "series": 3452,
      "##son": 3453,
      "corresponds": 3454,
      "∥x": 3455,
      "interest": 3456,
      "##ration": 3457,
      "constraints": 3458,
      "introduced": 3459,
      "decre": 3460,
      "learning": 3461,
      "position": 3462,
      "guarant": 3463,
      "intersection": 3464,
      "##arch": 3465,
      "commun": 3466,
      "turn": 3467,
      "configur": 3468,
      "##ource": 3469,
      "mak": 3470,
      "rece": 3471,
      "global": 3472,
      "rob": 3473,
      "subsp": 3474,
      "transition": 3475,
      "cross": 3476,
      "geometric": 3477,
      "uni": 3478,
      "notice": 3479,
      "symb": 3480,
      "##chastic": 3481,
      "irr": 3482,
      "rule": 3483,
      "upd": 3484,
      "low": 3485,
      "ess": 3486,
      "noise": 3487,
      "##tur": 3488,
      "29": 3489,
      "cons": 3490,
      "procedure": 3491,
      "potential": 3492,
      "stochastic": 3493,
      "correspond": 3494,
      "##ogene": 3495,
      "disj": 3496,
      "expression": 3497,
      "##ritical": 3498,
      "color": 3499,
      "##sel": 3500,
      "split": 3501,
      "##ick": 3502,
      "classi": 3503,
      "sufficiently": 3504,
      "contained": 3505,
      "##sib": 3506,
      "near": 3507,
      "##man": 3508,
      "abs": 3509,
      "constraint": 3510,
      "conj": 3511,
      "less": 3512,
      "##odes": 3513,
      "##kn": 3514,
      "##ron": 3515,
      "altern": 3516,
      "illust": 3517,
      "diagonal": 3518,
      "words": 3519,
      "difference": 3520,
      "algebraic": 3521,
      "expected": 3522,
      "##ances": 3523,
      "gradi": 3524,
      "within": 3525,
      "link": 3526,
      "loop": 3527,
      "assign": 3528,
      "sit": 3529,
      "good": 3530,
      "##lation": 3531,
      "whether": 3532,
      "statis": 3533,
      "easily": 3534,
      "##vant": 3535,
      "locally": 3536,
      "higher": 3537,
      "canon": 3538,
      "##side": 3539,
      "introduction": 3540,
      "bundle": 3541,
      "vanish": 3542,
      "lattice": 3543,
      "applied": 3544,
      "tensor": 3545,
      "##here": 3546,
      "common": 3547,
      "clearly": 3548,
      "2m": 3549,
      "valid": 3550,
      "auth": 3551,
      "prot": 3552,
      "mix": 3553,
      "simply": 3554,
      "implement": 3555,
      "original": 3556,
      "increasing": 3557,
      "depends": 3558,
      "replac": 3559,
      "pairs": 3560,
      "##ount": 3561,
      "ri": 3562,
      "module": 3563,
      "plane": 3564,
      "##war": 3565,
      "commut": 3566,
      "context": 3567,
      "##olds": 3568,
      "adap": 3569,
      "namely": 3570,
      "expan": 3571,
      "##tivity": 3572,
      "cluster": 3573,
      "connection": 3574,
      "##work": 3575,
      "##ucible": 3576,
      "allows": 3577,
      "generalized": 3578,
      "##rid": 3579,
      "−i": 3580,
      "simplic": 3581,
      "pi": 3582,
      "odd": 3583,
      "mem": 3584,
      "partial": 3585,
      "required": 3586,
      "immedi": 3587,
      "orthog": 3588,
      "embedding": 3589,
      "reduction": 3590,
      "critical": 3591,
      "distin": 3592,
      "expect": 3593,
      "cycle": 3594,
      "##ax": 3595,
      "##ilton": 3596,
      "short": 3597,
      "event": 3598,
      "read": 3599,
      "dynamics": 3600,
      "coordinates": 3601,
      "square": 3602,
      "funct": 3603,
      "##sc": 3604,
      "self": 3605,
      "satisfied": 3606,
      "##ference": 3607,
      "distributions": 3608,
      "spectral": 3609,
      "steps": 3610,
      "multiple": 3611,
      "additional": 3612,
      "fund": 3613,
      "networks": 3614,
      "polynomials": 3615,
      "math": 3616,
      "disjoint": 3617,
      "permut": 3618,
      "pat": 3619,
      "hamilton": 3620,
      "bet": 3621,
      "presented": 3622,
      "framework": 3623,
      "sw": 3624,
      "−n": 3625,
      "##ages": 3626,
      "shall": 3627,
      "symbol": 3628,
      "computed": 3629,
      "determined": 3630,
      "##ener": 3631,
      "question": 3632,
      "iv": 3633,
      "33": 3634,
      "reason": 3635,
      "recur": 3636,
      "equil": 3637,
      "##sch": 3638,
      "paths": 3639,
      "spar": 3640,
      "sa": 3641,
      "prior": 3642,
      "curr": 3643,
      "eigenvalues": 3644,
      "precisely": 3645,
      "provided": 3646,
      "contrib": 3647,
      "much": 3648,
      "converges": 3649,
      "##less": 3650,
      "reduced": 3651,
      "key": 3652,
      "##ecting": 3653,
      "necessary": 3654,
      "hor": 3655,
      "user": 3656,
      "equality": 3657,
      "##ory": 3658,
      "consists": 3659,
      "##ne": 3660,
      "irred": 3661,
      "inverse": 3662,
      "##onic": 3663,
      "base": 3664,
      "law": 3665,
      "written": 3666,
      "equilib": 3667,
      "canonical": 3668,
      "univers": 3669,
      "conjecture": 3670,
      "covari": 3671,
      "distributed": 3672,
      "##tig": 3673,
      "ded": 3674,
      "hyperb": 3675,
      "gradient": 3676,
      "monot": 3677,
      "34": 3678,
      "##aves": 3679,
      "strictly": 3680,
      "lines": 3681,
      "hal": 3682,
      "sufficient": 3683,
      "##ready": 3684,
      "union": 3685,
      "already": 3686,
      "∥u": 3687,
      "becomes": 3688,
      "foc": 3689,
      "equilibri": 3690,
      "##ress": 3691,
      "##uring": 3692,
      "polic": 3693,
      "directly": 3694,
      "##fine": 3695,
      "forms": 3696,
      "requir": 3697,
      "estimation": 3698,
      "neighborhood": 3699,
      "studied": 3700,
      "among": 3701,
      "##ceed": 3702,
      "##itz": 3703,
      "accur": 3704,
      "periodic": 3705,
      "seen": 3706,
      "ball": 3707,
      "##ein": 3708,
      "characteristic": 3709,
      "larger": 3710,
      "##hom": 3711,
      "measures": 3712,
      "hypothesis": 3713,
      "sk": 3714,
      "details": 3715,
      "##alle": 3716,
      "bran": 3717,
      "radi": 3718,
      "train": 3719,
      "rational": 3720,
      "entrop": 3721,
      "distinct": 3722,
      "##idual": 3723,
      "##ogeneous": 3724,
      "quer": 3725,
      "constants": 3726,
      "communic": 3727,
      "phys": 3728,
      "notion": 3729,
      "induction": 3730,
      "applications": 3731,
      "prac": 3732,
      "geodes": 3733,
      "focus": 3734,
      "cut": 3735,
      "conjug": 3736,
      "cou": 3737,
      "best": 3738,
      "##bert": 3739,
      "formal": 3740,
      "##ety": 3741,
      "seg": 3742,
      "arc": 3743,
      "##uts": 3744,
      "##ights": 3745,
      "fundam": 3746,
      "consequence": 3747,
      "possib": 3748,
      "##jective": 3749,
      "conclu": 3750,
      "pertur": 3751,
      "tas": 3752,
      "empty": 3753,
      "range": 3754,
      "ideal": 3755,
      "describe": 3756,
      "def": 3757,
      "cop": 3758,
      "##ather": 3759,
      "center": 3760,
      "hyperbolic": 3761,
      "##gest": 3762,
      "application": 3763,
      "##emp": 3764,
      "##eni": 3765,
      "dr": 3766,
      "analytic": 3767,
      "guarante": 3768,
      "resulting": 3769,
      "fields": 3770,
      "provides": 3771,
      "##rem": 3772,
      "extended": 3773,
      "chang": 3774,
      "circ": 3775,
      "reach": 3776,
      "having": 3777,
      "remains": 3778,
      "mapping": 3779,
      "orthogonal": 3780,
      "start": 3781,
      "exponential": 3782,
      "##hed": 3783,
      "##ratic": 3784,
      "basic": 3785,
      "desired": 3786,
      "containing": 3787,
      "off": 3788,
      "symmetry": 3789,
      "##ild": 3790,
      "signal": 3791,
      "##ules": 3792,
      "dou": 3793,
      "irreducible": 3794,
      "tang": 3795,
      "##lying": 3796,
      "dra": 3797,
      "useful": 3798,
      "estimator": 3799,
      "ang": 3800,
      "correct": 3801,
      "lay": 3802,
      "moment": 3803,
      "##imin": 3804,
      "sn": 3805,
      "frequ": 3806,
      "fundamental": 3807,
      "probabil": 3808,
      "smaller": 3809,
      "behavior": 3810,
      "transformation": 3811,
      "hard": 3812,
      "succ": 3813,
      "sequences": 3814,
      "quasi": 3815,
      "##echan": 3816,
      "2d": 3817,
      "interesting": 3818,
      "##ler": 3819,
      "homotop": 3820,
      "##oti": 3821,
      "lip": 3822,
      "processes": 3823,
      "mechan": 3824,
      "grow": 3825,
      "paralle": 3826,
      "approximate": 3827,
      "lif": 3828,
      "##linear": 3829,
      "source": 3830,
      "constructed": 3831,
      "stra": 3832,
      "35": 3833,
      "stability": 3834,
      "##gin": 3835,
      "isomorphic": 3836,
      "types": 3837,
      "##to": 3838,
      "unc": 3839,
      "quadratic": 3840,
      "situ": 3841,
      "post": 3842,
      "return": 3843,
      "##resh": 3844,
      "##ope": 3845,
      "ring": 3846,
      "subspace": 3847,
      "collection": 3848,
      "straight": 3849,
      "valued": 3850,
      "domin": 3851,
      "latter": 3852,
      "parallel": 3853,
      "affine": 3854,
      "liter": 3855,
      "har": 3856,
      "leads": 3857,
      "##llip": 3858,
      "restriction": 3859,
      "algebras": 3860,
      "fil": 3861,
      "##ots": 3862,
      "station": 3863,
      "observation": 3864,
      "grad": 3865,
      "##ader": 3866,
      "contradiction": 3867,
      "36": 3868,
      "derived": 3869,
      "expansion": 3870,
      "entropy": 3871,
      "solve": 3872,
      "starting": 3873,
      "##ater": 3874,
      "hil": 3875,
      "er": 3876,
      "##rum": 3877,
      "functional": 3878,
      "inves": 3879,
      "topological": 3880,
      "variance": 3881,
      "mention": 3882,
      "##emann": 3883,
      "suffic": 3884,
      "##ription": 3885,
      "scale": 3886,
      "illustr": 3887,
      "entries": 3888,
      "obvious": 3889,
      "iteration": 3890,
      "plan": 3891,
      "underst": 3892,
      "weights": 3893,
      "rot": 3894,
      "pass": 3895,
      "binary": 3896,
      "investig": 3897,
      "derivative": 3898,
      "structures": 3899,
      "topology": 3900,
      "rati": 3901,
      "−∞": 3902,
      "##up": 3903,
      "requires": 3904,
      "##ird": 3905,
      "signific": 3906,
      "spin": 3907,
      "targ": 3908,
      "que": 3909,
      "pur": 3910,
      "##iques": 3911,
      "begin": 3912,
      "mess": 3913,
      "comparis": 3914,
      "done": 3915,
      "##app": 3916,
      "##red": 3917,
      "##atives": 3918,
      "mathem": 3919,
      "quoti": 3920,
      "##ying": 3921,
      "half": 3922,
      "##ably": 3923,
      "measur": 3924,
      "rev": 3925,
      "takes": 3926,
      "fiber": 3927,
      "##lin": 3928,
      "t−1": 3929,
      "##tics": 3930,
      "better": 3931,
      "##though": 3932,
      "markov": 3933,
      "util": 3934,
      "riemann": 3935,
      "although": 3936,
      "hamiltonian": 3937,
      "∥f": 3938,
      "derive": 3939,
      "round": 3940,
      "wal": 3941,
      "shar": 3942,
      "##ocol": 3943,
      "j−1": 3944,
      "suit": 3945,
      "##ses": 3946,
      "syn": 3947,
      "coinc": 3948,
      "fraction": 3949,
      "##ux": 3950,
      "computing": 3951,
      "various": 3952,
      "definitions": 3953,
      "third": 3954,
      "central": 3955,
      "coordinate": 3956,
      "hel": 3957,
      "##wer": 3958,
      "fac": 3959,
      "divis": 3960,
      "later": 3961,
      "origin": 3962,
      "rather": 3963,
      "−t": 3964,
      "game": 3965,
      "pe": 3966,
      "m−1": 3967,
      "depending": 3968,
      "equilibrium": 3969,
      "##sing": 3970,
      "proofs": 3971,
      "curv": 3972,
      "##ification": 3973,
      "functor": 3974,
      "sampling": 3975,
      "mass": 3976,
      "protocol": 3977,
      "pse": 3978,
      "−k": 3979,
      "description": 3980,
      "pattern": 3981,
      "explain": 3982,
      "current": 3983,
      "ellip": 3984,
      "vis": 3985,
      "pseud": 3986,
      "configuration": 3987,
      "thresh": 3988,
      "lang": 3989,
      "horiz": 3990,
      "##ult": 3991,
      "once": 3992,
      "objects": 3993,
      "##gers": 3994,
      "##∈n": 3995,
      "##rier": 3996,
      "eigenvalue": 3997,
      "generic": 3998,
      "agent": 3999,
      "capac": 4000,
      "princi": 4001,
      "##ze": 4002,
      "controll": 4003,
      "40": 4004,
      "##ortion": 4005,
      "shif": 4006,
      "perturb": 4007,
      "##ices": 4008,
      "semi": 4009,
      "##ression": 4010,
      "effective": 4011,
      "hilbert": 4012,
      "theorems": 4013,
      "down": 4014,
      "##ised": 4015,
      "idea": 4016,
      "sections": 4017,
      "supported": 4018,
      "observed": 4019,
      "##ters": 4020,
      "∂x": 4021,
      "she": 4022,
      "avail": 4023,
      "x∈": 4024,
      "diffic": 4025,
      "pack": 4026,
      "around": 4027,
      "pop": 4028,
      "pure": 4029,
      "xy": 4030,
      "repe": 4031,
      "objective": 4032,
      "representations": 4033,
      "policy": 4034,
      "suffices": 4035,
      "sug": 4036,
      "ful": 4037,
      "object": 4038,
      "uses": 4039,
      "subsection": 4040,
      "pol": 4041,
      "horizon": 4042,
      "encod": 4043,
      "conditional": 4044,
      "##ously": 4045,
      "effect": 4046,
      "final": 4047,
      "discussion": 4048,
      "bor": 4049,
      "adjac": 4050,
      "autom": 4051,
      "transmit": 4052,
      "considering": 4053,
      "often": 4054,
      "draw": 4055,
      "ans": 4056,
      "scalar": 4057,
      "trees": 4058,
      "37": 4059,
      "target": 4060,
      "fail": 4061,
      "##alities": 4062,
      "projective": 4063,
      "coefficient": 4064,
      "substit": 4065,
      "##verse": 4066,
      "cone": 4067,
      "discussed": 4068,
      "samples": 4069,
      "##back": 4070,
      "determine": 4071,
      "##ems": 4072,
      "flat": 4073,
      "contribution": 4074,
      "subsets": 4075,
      "d−1": 4076,
      "##schitz": 4077,
      "rele": 4078,
      "2r": 4079,
      "assumed": 4080,
      "##zation": 4081,
      "weighted": 4082,
      "significant": 4083,
      "fib": 4084,
      "parts": 4085,
      "dz": 4086,
      "ir": 4087,
      "##jector": 4088,
      "spectrum": 4089,
      "search": 4090,
      "##aries": 4091,
      "shap": 4092,
      "integers": 4093,
      "datas": 4094,
      "computational": 4095,
      "##pri": 4096,
      "##ements": 4097,
      "homogeneous": 4098,
      "finitely": 4099,
      "##forward": 4100,
      "##off": 4101,
      "trajector": 4102,
      "cp": 4103,
      "##osition": 4104,
      "##ising": 4105,
      "operations": 4106,
      "indiv": 4107,
      "strongly": 4108,
      "comparison": 4109,
      "volum": 4110,
      "100": 4111,
      "made": 4112,
      "differenti": 4113,
      "##isk": 4114,
      "curvature": 4115,
      "appropri": 4116,
      "taken": 4117,
      "01": 4118,
      "communication": 4119,
      "ratio": 4120,
      "lipschitz": 4121,
      "langu": 4122,
      "trace": 4123,
      "complement": 4124,
      "solving": 4125,
      "impo": 4126,
      "##ture": 4127,
      "cub": 4128,
      "goal": 4129,
      "represented": 4130,
      "decod": 4131,
      "##atures": 4132,
      "motiv": 4133,
      "manifolds": 4134,
      "degener": 4135,
      "subsequ": 4136,
      "literature": 4137,
      "prime": 4138,
      "##ins": 4139,
      "ker": 4140,
      "available": 4141,
      "arguments": 4142,
      "abel": 4143,
      "operation": 4144,
      "inner": 4145,
      "scen": 4146,
      "cohom": 4147,
      "rules": 4148,
      "tu": 4149,
      "##ces": 4150,
      "far": 4151,
      "interpret": 4152,
      "stationary": 4153,
      "composition": 4154,
      "lagr": 4155,
      "robust": 4156,
      "deterministic": 4157,
      "put": 4158,
      "nonlinear": 4159,
      "works": 4160,
      "scenari": 4161,
      "##te": 4162,
      "inequalities": 4163,
      "ord": 4164,
      "##self": 4165,
      "matching": 4166,
      "homomorphism": 4167,
      "whenever": 4168,
      "users": 4169,
      "quotient": 4170,
      "joint": 4171,
      "##usion": 4172,
      "radius": 4173,
      "makes": 4174,
      "demonstr": 4175,
      "represents": 4176,
      "00": 4177,
      "efficient": 4178,
      "count": 4179,
      "capacity": 4180,
      "##ocks": 4181,
      "surfaces": 4182,
      "modules": 4183,
      "##rees": 4184,
      "universal": 4185,
      "extrem": 4186,
      "word": 4187,
      "factors": 4188,
      "usual": 4189,
      "variety": 4190,
      "might": 4191,
      "techniques": 4192,
      "geodesic": 4193,
      "38": 4194,
      "branch": 4195,
      "##ms": 4196,
      "improve": 4197,
      "50": 4198,
      "triangle": 4199,
      "mach": 4200,
      "##earch": 4201,
      "##ott": 4202,
      "interaction": 4203,
      "remaining": 4204,
      "generality": 4205,
      "homotopy": 4206,
      "though": 4207,
      "research": 4208,
      "simulation": 4209,
      "combining": 4210,
      "choos": 4211,
      "lemm": 4212,
      "geometry": 4213,
      "##fect": 4214,
      "underlying": 4215,
      "enti": 4216,
      "discuss": 4217,
      "##ale": 4218,
      "##idth": 4219,
      "##plo": 4220,
      "absol": 4221,
      "##tible": 4222,
      "able": 4223,
      "compared": 4224,
      "##izer": 4225,
      "except": 4226,
      "isom": 4227,
      "feas": 4228,
      "refl": 4229,
      "verify": 4230,
      "consequently": 4231,
      "assuming": 4232,
      "wave": 4233,
      "deduce": 4234,
      "##etical": 4235,
      "needed": 4236,
      "iden": 4237,
      "list": 4238,
      "alternative": 4239,
      "null": 4240,
      "##tr": 4241,
      "rew": 4242,
      "itself": 4243,
      "abelian": 4244,
      "straightforward": 4245,
      "piec": 4246,
      "explicitly": 4247,
      "##uctive": 4248,
      "band": 4249,
      "absolute": 4250,
      "experiments": 4251,
      "dir": 4252,
      "principle": 4253,
      "##tingu": 4254,
      "proceed": 4255,
      "imply": 4256,
      "sphere": 4257,
      "##plec": 4258,
      "immediately": 4259,
      "##unction": 4260,
      "##tinguish": 4261,
      "permutation": 4262,
      "cre": 4263,
      "criter": 4264,
      "including": 4265,
      "gap": 4266,
      "##iting": 4267,
      "actually": 4268,
      "199": 4269,
      "defines": 4270,
      "##jection": 4271,
      "during": 4272,
      "##eli": 4273,
      "pois": 4274,
      "caus": 4275,
      "##puts": 4276,
      "aw": 4277,
      "update": 4278,
      "training": 4279,
      "2i": 4280,
      "necessarily": 4281,
      "39": 4282,
      "##ledge": 4283,
      "volume": 4284,
      "jo": 4285,
      "##ission": 4286,
      "area": 4287,
      "individual": 4288,
      "##plectic": 4289,
      "##wards": 4290,
      "onto": 4291,
      "evolution": 4292,
      "rig": 4293,
      "##≥0": 4294,
      "sparse": 4295,
      "pric": 4296,
      "j∈": 4297,
      "compati": 4298,
      "##ucing": 4299,
      "##stein": 4300,
      "generating": 4301,
      "##hip": 4302,
      "empir": 4303,
      "situation": 4304,
      "formulation": 4305,
      "##ucts": 4306,
      "n→∞": 4307,
      "decision": 4308,
      "alloc": 4309,
      "dµ": 4310,
      "##ink": 4311,
      "admits": 4312,
      "##zed": 4313,
      "bit": 4314,
      "##ames": 4315,
      "ones": 4316,
      "schemes": 4317,
      "−3": 4318,
      "##cludes": 4319,
      "counter": 4320,
      "conveni": 4321,
      "prof": 4322,
      "want": 4323,
      "interior": 4324,
      "suitable": 4325,
      "−α": 4326,
      "compare": 4327,
      "poisson": 4328,
      "recover": 4329,
      "concern": 4330,
      "restricted": 4331,
      "card": 4332,
      "agents": 4333,
      "ps": 4334,
      "measurement": 4335,
      "face": 4336,
      "euc": 4337,
      "41": 4338,
      "look": 4339,
      "lies": 4340,
      "arr": 4341,
      "dimensions": 4342,
      "authors": 4343,
      "theoretical": 4344,
      "match": 4345,
      "##iding": 4346,
      "fut": 4347,
      "increases": 4348,
      "mechanism": 4349,
      "kl": 4350,
      "##ash": 4351,
      "2p": 4352,
      "consistent": 4353,
      "layer": 4354,
      "##con": 4355,
      "dev": 4356,
      "∂ω": 4357,
      "approaches": 4358,
      "1≤": 4359,
      "##ude": 4360,
      "double": 4361,
      "finding": 4362,
      "priv": 4363,
      "eucl": 4364,
      "covariance": 4365,
      "specifically": 4366,
      "df": 4367,
      "homology": 4368,
      "symplectic": 4369,
      "perfect": 4370,
      "var": 4371,
      "##rie": 4372,
      "automorphism": 4373,
      "squar": 4374,
      "threshold": 4375,
      "move": 4376,
      "elliptic": 4377,
      "task": 4378,
      "##art": 4379,
      "##11": 4380,
      "termin": 4381,
      "reader": 4382,
      "ear": 4383,
      "codes": 4384,
      "belongs": 4385,
      "##let": 4386,
      "slight": 4387,
      "unitary": 4388,
      "pic": 4389,
      "knowledge": 4390,
      "dp": 4391,
      "−c": 4392,
      "formulas": 4393,
      "subgraph": 4394,
      "atom": 4395,
      "42": 4396,
      "proves": 4397,
      "defining": 4398,
      "admis": 4399,
      "np": 4400,
      "rates": 4401,
      "dv": 4402,
      "tangent": 4403,
      "accuracy": 4404,
      "##ormal": 4405,
      "appropriate": 4406,
      "success": 4407,
      "##ural": 4408,
      "marg": 4409,
      "##ract": 4410,
      "classification": 4411,
      "dense": 4412,
      "##mod": 4413,
      "##idence": 4414,
      "fou": 4415,
      "##print": 4416,
      "##−−": 4417,
      "induces": 4418,
      "holomorphic": 4419,
      "exec": 4420,
      "decreasing": 4421,
      "∥v": 4422,
      "bre": 4423,
      "box": 4424,
      "derivatives": 4425,
      "expectation": 4426,
      "lapl": 4427,
      "−x": 4428,
      "mut": 4429,
      "##iver": 4430,
      "##pled": 4431,
      "combinator": 4432,
      "om": 4433,
      "mentioned": 4434,
      "future": 4435,
      "spati": 4436,
      "conclusion": 4437,
      "expressed": 4438,
      "stabil": 4439,
      "##idean": 4440,
      "achieve": 4441,
      "gain": 4442,
      "euclidean": 4443,
      "identify": 4444,
      "gal": 4445,
      "selection": 4446,
      "distinguish": 4447,
      "fourier": 4448,
      "arri": 4449,
      "cohomology": 4450,
      "bal": 4451,
      "blocks": 4452,
      "infinity": 4453,
      "circle": 4454,
      "torus": 4455,
      "acts": 4456,
      "filter": 4457,
      "diver": 4458,
      "ann": 4459,
      "##ili": 4460,
      "understand": 4461,
      "−a": 4462,
      "receiv": 4463,
      "completely": 4464,
      "purpo": 4465,
      "bott": 4466,
      "inside": 4467,
      "##enting": 4468,
      "##idd": 4469,
      "avoid": 4470,
      "aff": 4471,
      "propose": 4472,
      "bs": 4473,
      "treat": 4474,
      "role": 4475,
      "never": 4476,
      "cour": 4477,
      "lemmas": 4478,
      "pa": 4479,
      "##li": 4480,
      "essentially": 4481,
      "developed": 4482,
      "discre": 4483,
      "##uler": 4484,
      "chap": 4485,
      "dependent": 4486,
      "##izations": 4487,
      "intervals": 4488,
      "include": 4489,
      "preprint": 4490,
      "stated": 4491,
      "cycles": 4492,
      "adjacent": 4493,
      "said": 4494,
      "directed": 4495,
      "##uit": 4496,
      "45": 4497,
      "p−1": 4498,
      "iss": 4499,
      "scaling": 4500,
      "##ded": 4501,
      "rad": 4502,
      "observations": 4503,
      "few": 4504,
      "recent": 4505,
      "smallest": 4506,
      "entang": 4507,
      "risk": 4508,
      "##known": 4509,
      "admissible": 4510,
      "43": 4511,
      "generally": 4512,
      "env": 4513,
      "reduce": 4514,
      "columns": 4515,
      "throughout": 4516,
      "dri": 4517,
      "##ki": 4518,
      "motion": 4519,
      "query": 4520,
      "physical": 4521,
      "regularity": 4522,
      "asser": 4523,
      "##olation": 4524,
      "##ially": 4525,
      "mer": 4526,
      "indices": 4527,
      "gau": 4528,
      "combination": 4529,
      "empirical": 4530,
      "##ah": 4531,
      "##gies": 4532,
      "remo": 4533,
      "subject": 4534,
      "##com": 4535,
      "conform": 4536,
      "relevant": 4537,
      "frequency": 4538,
      "2s": 4539,
      "mis": 4540,
      "memory": 4541,
      "particle": 4542,
      "spher": 4543,
      "pd": 4544,
      "−s": 4545,
      "generalization": 4546,
      "si": 4547,
      "opp": 4548,
      "##ased": 4549,
      "pt": 4550,
      "feasible": 4551,
      "string": 4552,
      "intern": 4553,
      "xi": 4554,
      "closure": 4555,
      "tool": 4556,
      "##12": 4557,
      "fa": 4558,
      "##ming": 4559,
      "vir": 4560,
      "walk": 4561,
      "black": 4562,
      "unb": 4563,
      "transmission": 4564,
      "##reg": 4565,
      "language": 4566,
      "segment": 4567,
      "largest": 4568,
      "appears": 4569,
      "nonz": 4570,
      "princip": 4571,
      "equivalently": 4572,
      "unknown": 4573,
      "player": 4574,
      "roots": 4575,
      "anti": 4576,
      "generate": 4577,
      "mn": 4578,
      "inclusion": 4579,
      "mar": 4580,
      "intu": 4581,
      "correlation": 4582,
      "features": 4583,
      "relax": 4584,
      "genus": 4585,
      "cyclic": 4586,
      "answer": 4587,
      "magn": 4588,
      "deal": 4589,
      "##lo": 4590,
      "cn": 4591,
      "entire": 4592,
      "classif": 4593,
      "dg": 4594,
      "dependence": 4595,
      "generators": 4596,
      "44": 4597,
      "##ests": 4598,
      "ordered": 4599,
      "##pped": 4600,
      "qubit": 4601,
      "account": 4602,
      "analogous": 4603,
      "estimated": 4604,
      "jac": 4605,
      "weakly": 4606,
      "nonzero": 4607,
      "emplo": 4608,
      "home": 4609,
      "aim": 4610,
      "increase": 4611,
      "spann": 4612,
      "probabilities": 4613,
      "grid": 4614,
      "2c": 4615,
      "a1": 4616,
      "2α": 4617,
      "mc": 4618,
      "bc": 4619,
      "px": 4620,
      "actions": 4621,
      "−λ": 4622,
      "oriented": 4623,
      "choosing": 4624,
      "technical": 4625,
      "adjoint": 4626,
      "∥a": 4627,
      "changes": 4628,
      "met": 4629,
      "compos": 4630,
      "##vable": 4631,
      "iff": 4632,
      "showed": 4633,
      "pen": 4634,
      "possibly": 4635,
      "errors": 4636,
      "polyt": 4637,
      "proving": 4638,
      "attack": 4639,
      "commutative": 4640,
      "jum": 4641,
      "outc": 4642,
      "n−2": 4643,
      "continuity": 4644,
      "∥∇": 4645,
      "recently": 4646,
      "converse": 4647,
      "span": 4648,
      "regression": 4649,
      "dynamic": 4650,
      "∇u": 4651,
      "cs": 4652,
      "iterations": 4653,
      "##tif": 4654,
      "−m": 4655,
      "##oli": 4656,
      "reconstr": 4657,
      "pseudo": 4658,
      "##ises": 4659,
      "whereas": 4660,
      "ik": 4661,
      "bro": 4662,
      "##arities": 4663,
      "reference": 4664,
      "euler": 4665,
      "lagrang": 4666,
      "##unc": 4667,
      "message": 4668,
      "##arithm": 4669,
      "axis": 4670,
      "##ured": 4671,
      "rewr": 4672,
      "equivari": 4673,
      "principal": 4674,
      "forward": 4675,
      "consisting": 4676,
      "##ints": 4677,
      "speed": 4678,
      "keep": 4679,
      "##ont": 4680,
      "##isation": 4681,
      "adding": 4682,
      "cells": 4683,
      "multiplication": 4684,
      "greater": 4685,
      "##dp": 4686,
      "p1": 4687,
      "too": 4688,
      "##isted": 4689,
      "2a": 4690,
      "price": 4691,
      "until": 4692,
      "fully": 4693,
      "measurements": 4694,
      "##time": 4695,
      "regions": 4696,
      "##ia": 4697,
      "vertical": 4698,
      "orientation": 4699,
      "##iom": 4700,
      "ep": 4701,
      "abstr": 4702,
      "technique": 4703,
      "i1": 4704,
      "feature": 4705,
      "replaced": 4706,
      "2t": 4707,
      "k−": 4708,
      "happ": 4709,
      "transl": 4710,
      "summar": 4711,
      "##imension": 4712,
      "interested": 4713,
      "measurable": 4714,
      "vary": 4715,
      "normalized": 4716,
      "asymptotically": 4717,
      "elementary": 4718,
      "t−": 4719,
      "his": 4720,
      "products": 4721,
      "splitting": 4722,
      "jk": 4723,
      "achieved": 4724,
      "##10": 4725,
      "coher": 4726,
      "leading": 4727,
      "elect": 4728,
      "piece": 4729,
      "ground": 4730,
      "covering": 4731,
      "##ues": 4732,
      "48": 4733,
      "established": 4734,
      "devi": 4735,
      "help": 4736,
      "completes": 4737,
      "simplicity": 4738,
      "disk": 4739,
      "converge": 4740,
      "lik": 4741,
      "generator": 4742,
      "##know": 4743,
      "rows": 4744,
      "gauge": 4745,
      "diffe": 4746,
      "##lu": 4747,
      "planar": 4748,
      "equals": 4749,
      "occurs": 4750,
      "##eter": 4751,
      "correl": 4752,
      "axiom": 4753,
      "place": 4754,
      "±1": 4755,
      "##elihood": 4756,
      "embedded": 4757,
      "course": 4758,
      "stage": 4759,
      "concept": 4760,
      "whole": 4761,
      "contrast": 4762,
      "acknow": 4763,
      "cd": 4764,
      "concent": 4765,
      "showing": 4766,
      "replace": 4767,
      "∆t": 4768,
      "decay": 4769,
      "knot": 4770,
      "variation": 4771,
      "sched": 4772,
      "preserving": 4773,
      "##point": 4774,
      "spatial": 4775,
      "fast": 4776,
      "##esian": 4777,
      "invariants": 4778,
      "shape": 4779,
      "graded": 4780,
      "identified": 4781,
      "slightly": 4782,
      "compatible": 4783,
      "categories": 4784,
      "−d": 4785,
      "bar": 4786,
      "##ik": 4787,
      "harm": 4788,
      "##iron": 4789,
      "##itt": 4790,
      "tight": 4791,
      "likelihood": 4792,
      "needs": 4793,
      "explo": 4794,
      "##ipar": 4795,
      "##ident": 4796,
      "equivariant": 4797,
      "ce": 4798,
      "usually": 4799,
      "lagrangian": 4800,
      "horizontal": 4801,
      "bits": 4802,
      "hop": 4803,
      "guarantee": 4804,
      "ss": 4805,
      "orbits": 4806,
      "tem": 4807,
      "##ime": 4808,
      "chapter": 4809,
      "##ging": 4810,
      "sure": 4811,
      "implementation": 4812,
      "naturally": 4813,
      "te": 4814,
      "machine": 4815,
      "report": 4816,
      "stor": 4817,
      "leaves": 4818,
      "##gan": 4819,
      "−r": 4820,
      "access": 4821,
      "neighbour": 4822,
      "##atical": 4823,
      "vel": 4824,
      "channels": 4825,
      "difficult": 4826,
      "regard": 4827,
      "pc": 4828,
      "´1": 4829,
      "##tite": 4830,
      "statistical": 4831,
      "environ": 4832,
      "##ensive": 4833,
      "##ody": 4834,
      "##anced": 4835,
      "46": 4836,
      "recursive": 4837,
      "symbols": 4838,
      "big": 4839,
      "expand": 4840,
      "uniqu": 4841,
      "definite": 4842,
      "##ling": 4843,
      "##vity": 4844,
      "feed": 4845,
      "##eless": 4846,
      "angle": 4847,
      "evaluation": 4848,
      "mixed": 4849,
      "degenerate": 4850,
      "delay": 4851,
      "##neg": 4852,
      "maj": 4853,
      "swit": 4854,
      "reduces": 4855,
      "mor": 4856,
      "logarithm": 4857,
      "dynamical": 4858,
      "ren": 4859,
      "monotone": 4860,
      "uniqueness": 4861,
      "cand": 4862,
      "tail": 4863,
      "resolution": 4864,
      "guarantees": 4865,
      "quantity": 4866,
      "exh": 4867,
      "##tically": 4868,
      "ensure": 4869,
      "pay": 4870,
      "active": 4871,
      "##val": 4872,
      "combinatorial": 4873,
      "##berg": 4874,
      "criterion": 4875,
      "integration": 4876,
      "expressions": 4877,
      "translation": 4878,
      "outside": 4879,
      "mathematical": 4880,
      "linearly": 4881,
      "##pping": 4882,
      "nonneg": 4883,
      "cau": 4884,
      "cond": 4885,
      "##face": 4886,
      "running": 4887,
      "##roid": 4888,
      "bin": 4889,
      "depth": 4890,
      "solved": 4891,
      "learn": 4892,
      "transformations": 4893,
      "degrees": 4894,
      "interpretation": 4895,
      "ra": 4896,
      "##tane": 4897,
      "diverg": 4898,
      "t∈": 4899,
      "quite": 4900,
      "artic": 4901,
      "meaning": 4902,
      "become": 4903,
      "exce": 4904,
      "x1": 4905,
      "proportion": 4906,
      "growth": 4907,
      "##ci": 4908,
      "conser": 4909,
      "fit": 4910,
      "##fficiency": 4911,
      "additive": 4912,
      "essential": 4913,
      "performed": 4914,
      "##atter": 4915,
      "replacing": 4916,
      "simultane": 4917,
      "aug": 4918,
      "discreti": 4919,
      "modified": 4920,
      "logic": 4921,
      "interference": 4922,
      "review": 4923,
      "divisor": 4924,
      "mes": 4925,
      "plot": 4926,
      "choices": 4927,
      "##bs": 4928,
      "pick": 4929,
      "pp": 4930,
      "−4": 4931,
      "opt": 4932,
      "strategies": 4933,
      "virt": 4934,
      "advant": 4935,
      "links": 4936,
      "respon": 4937,
      "dataset": 4938,
      "##erior": 4939,
      "identical": 4940,
      "acknowled": 4941,
      "scenario": 4942,
      "##chy": 4943,
      "riemannian": 4944,
      "relationship": 4945,
      "ul": 4946,
      "##ources": 4947,
      "practice": 4948,
      "propag": 4949,
      "dm": 4950,
      "comes": 4951,
      "calculate": 4952,
      "monoid": 4953,
      "refin": 4954,
      "existing": 4955,
      "ordering": 4956,
      "##ton": 4957,
      "contact": 4958,
      "calculation": 4959,
      "omit": 4960,
      "injective": 4961,
      "##ectors": 4962,
      "mac": 4963,
      "47": 4964,
      "bra": 4965,
      "formally": 4966,
      "##ited": 4967,
      "sides": 4968,
      "particles": 4969,
      "##rob": 4970,
      "diffusion": 4971,
      "bay": 4972,
      "##algeb": 4973,
      "selected": 4974,
      "core": 4975,
      "cauchy": 4976,
      "mas": 4977,
      "jacob": 4978,
      "∇f": 4979,
      "incom": 4980,
      "dw": 4981,
      "amount": 4982,
      "perturbation": 4983,
      "domains": 4984,
      "making": 4985,
      "shift": 4986,
      "borel": 4987,
      "nonnegative": 4988,
      "##etries": 4989,
      "##aps": 4990,
      "candid": 4991,
      "da": 4992,
      "∂t": 4993,
      "turns": 4994,
      "allocation": 4995,
      "applies": 4996,
      "detailed": 4997,
      "arbitrarily": 4998,
      "bottom": 4999,
      "uncertain": 5000,
      "experiment": 5001,
      "brow": 5002,
      "extends": 5003,
      "##ading": 5004,
      "##cy": 5005,
      "bipar": 5006,
      "famil": 5007,
      "leaf": 5008,
      "independently": 5009,
      "specified": 5010,
      "convention": 5011,
      "simplicial": 5012,
      "author": 5013,
      "major": 5014,
      "dn": 5015,
      "##iti": 5016,
      "images": 5017,
      "uniquely": 5018,
      "pull": 5019,
      "automat": 5020,
      "vanishes": 5021,
      "db": 5022,
      "seman": 5023,
      "labeled": 5024,
      "labels": 5025,
      "##atch": 5026,
      "conjugate": 5027,
      "morphisms": 5028,
      "aux": 5029,
      "moduli": 5030,
      "address": 5031,
      "##rief": 5032,
      "comple": 5033,
      "##ipped": 5034,
      "belie": 5035,
      "adaptive": 5036,
      "##ametric": 5037,
      "##br": 5038,
      "transfer": 5039,
      "##tri": 5040,
      "##cluded": 5041,
      "##→0": 5042,
      "prel": 5043,
      "goes": 5044,
      "practical": 5045,
      "invertible": 5046,
      "brief": 5047,
      "cc": 5048,
      "analyze": 5049,
      "entry": 5050,
      "herm": 5051,
      "duality": 5052,
      "simulations": 5053,
      "trunc": 5054,
      "wa": 5055,
      "##lic": 5056,
      "modulo": 5057,
      "vanishing": 5058,
      "posterior": 5059,
      "ban": 5060,
      "i∈i": 5061,
      "∥w": 5062,
      "yield": 5063,
      "inser": 5064,
      "conformal": 5065,
      "##acting": 5066,
      "utility": 5067,
      "zer": 5068,
      "cm": 5069,
      "##ifold": 5070,
      "light": 5071,
      "advers": 5072,
      "osc": 5073,
      "join": 5074,
      "pn": 5075,
      "arx": 5076,
      "49": 5077,
      "lp": 5078,
      "characterization": 5079,
      "population": 5080,
      "les": 5081,
      "leg": 5082,
      "2j": 5083,
      "2l": 5084,
      "k∈": 5085,
      "extensions": 5086,
      "differentiable": 5087,
      "stack": 5088,
      "internal": 5089,
      "til": 5090,
      "##chron": 5091,
      "##cep": 5092,
      "rs": 5093,
      "brown": 5094,
      "arxiv": 5095,
      "##ending": 5096,
      "acknowledg": 5097,
      "oppos": 5098,
      "families": 5099,
      "##lier": 5100,
      "xx": 5101,
      "correspondence": 5102,
      "across": 5103,
      "coupling": 5104,
      "assignment": 5105,
      "r−1": 5106,
      "∥x∥": 5107,
      "nor": 5108,
      "##ring": 5109,
      "##utive": 5110,
      "##inear": 5111,
      "implicit": 5112,
      "faces": 5113,
      "il": 5114,
      "##ularities": 5115,
      "theoretic": 5116,
      "∥p": 5117,
      "sugges": 5118,
      "na": 5119,
      "had": 5120,
      "rect": 5121,
      "computations": 5122,
      "##acle": 5123,
      "instances": 5124,
      "##ake": 5125,
      "hist": 5126,
      "subc": 5127,
      "dig": 5128,
      "ow": 5129,
      "erg": 5130,
      "2b": 5131,
      "article": 5132,
      "parab": 5133,
      "marked": 5134,
      "polar": 5135,
      "une": 5136,
      "trajectory": 5137,
      "##ush": 5138,
      "2q": 5139,
      "000": 5140,
      "feedback": 5141,
      "item": 5142,
      "coding": 5143,
      "coincides": 5144,
      "efficiency": 5145,
      "statistics": 5146,
      "arcs": 5147,
      "ram": 5148,
      "notations": 5149,
      "rotation": 5150,
      "immediate": 5151,
      "wide": 5152,
      "height": 5153,
      "diagrams": 5154,
      "2−": 5155,
      "##≥1": 5156,
      "sv": 5157,
      "chall": 5158,
      "##port": 5159,
      "penal": 5160,
      "nontri": 5161,
      "configurations": 5162,
      "exch": 5163,
      "subt": 5164,
      "##ocity": 5165,
      "relatively": 5166,
      "partitions": 5167,
      "−β": 5168,
      "##get": 5169,
      "online": 5170,
      "velocity": 5171,
      "fal": 5172,
      "demand": 5173,
      "blow": 5174,
      "harmonic": 5175,
      "cardin": 5176,
      "pm": 5177,
      "##atically": 5178,
      "bijection": 5179,
      "##sitivity": 5180,
      "employ": 5181,
      "2g": 5182,
      "fractional": 5183,
      "gh": 5184,
      "##yl": 5185,
      "∥g": 5186,
      "##olated": 5187,
      "rectang": 5188,
      "integrable": 5189,
      "##ta": 5190,
      "inductive": 5191,
      "hyperpl": 5192,
      "l−1": 5193,
      "derivation": 5194,
      "displ": 5195,
      "estimators": 5196,
      "crossing": 5197,
      "blue": 5198,
      "##odic": 5199,
      "##mann": 5200,
      "upon": 5201,
      "esp": 5202,
      "effects": 5203,
      "limits": 5204,
      "##ibility": 5205,
      "singularities": 5206,
      "diffeomorphism": 5207,
      "presence": 5208,
      "location": 5209,
      "detection": 5210,
      "64": 5211,
      "away": 5212,
      "typical": 5213,
      "##ites": 5214,
      "torsion": 5215,
      "mode": 5216,
      "quantities": 5217,
      "uv": 5218,
      "organ": 5219,
      "mm": 5220,
      "monomial": 5221,
      "αβ": 5222,
      "events": 5223,
      "##onom": 5224,
      "##overy": 5225,
      "##where": 5226,
      "who": 5227,
      "entanglement": 5228,
      "##×n": 5229,
      "bipartite": 5230,
      "investigate": 5231,
      "elimin": 5232,
      "proven": 5233,
      "monotonic": 5234,
      "behaviour": 5235,
      "typically": 5236,
      "testing": 5237,
      "evaluate": 5238,
      "pq": 5239,
      "directions": 5240,
      "kind": 5241,
      "bes": 5242,
      "outer": 5243,
      "##otent": 5244,
      "##ev": 5245,
      "influ": 5246,
      "arrow": 5247,
      "nontrivial": 5248,
      "overall": 5249,
      "environment": 5250,
      "yet": 5251,
      "purpose": 5252,
      "ergodic": 5253,
      "squares": 5254,
      "inference": 5255,
      "atten": 5256,
      "tot": 5257,
      "##utes": 5258,
      "##otrop": 5259,
      "iterative": 5260,
      "cruc": 5261,
      "agg": 5262,
      "ct": 5263,
      "##pro": 5264,
      "hier": 5265,
      "abstract": 5266,
      "qq": 5267,
      "regime": 5268,
      "exc": 5269,
      "rough": 5270,
      "parametri": 5271,
      "pairwise": 5272,
      "##13": 5273,
      "exception": 5274,
      "##riting": 5275,
      "##ground": 5276,
      "subd": 5277,
      "break": 5278,
      "going": 5279,
      "##ows": 5280,
      "##times": 5281,
      "##ient": 5282,
      "exponent": 5283,
      "clustering": 5284,
      "extreme": 5285,
      "ensem": 5286,
      "green": 5287,
      "towards": 5288,
      "##points": 5289,
      "vers": 5290,
      "##umer": 5291,
      "tuple": 5292,
      "polyg": 5293,
      "##ectivity": 5294,
      "ef": 5295,
      "pour": 5296,
      "##ounded": 5297,
      "filt": 5298,
      "preserves": 5299,
      "equipped": 5300,
      "metrics": 5301,
      "subgroups": 5302,
      "seems": 5303,
      "soc": 5304,
      "52": 5305,
      "−j": 5306,
      "mapp": 5307,
      "added": 5308,
      "her": 5309,
      "randomly": 5310,
      "discon": 5311,
      "games": 5312,
      "hierarch": 5313,
      "adv": 5314,
      "obviously": 5315,
      "bundles": 5316,
      "−p": 5317,
      "prefer": 5318,
      "##ines": 5319,
      "cart": 5320,
      "levels": 5321,
      "51": 5322,
      "produce": 5323,
      "adop": 5324,
      "circuit": 5325,
      "cat": 5326,
      "probabilistic": 5327,
      "##igroup": 5328,
      "width": 5329,
      "60": 5330,
      "##sur": 5331,
      "a2": 5332,
      "##rence": 5333,
      "##oper": 5334,
      "##≤n": 5335,
      "sci": 5336,
      "win": 5337,
      "copies": 5338,
      "##omen": 5339,
      "##eties": 5340,
      "queries": 5341,
      "∥u∥": 5342,
      "zeros": 5343,
      "brownian": 5344,
      "##∈s": 5345,
      "received": 5346,
      "##ley": 5347,
      "exponentially": 5348,
      "illustrate": 5349,
      "phen": 5350,
      "background": 5351,
      "ht": 5352,
      "##max": 5353,
      "sens": 5354,
      "significantly": 5355,
      "marginal": 5356,
      "track": 5357,
      "response": 5358,
      "ns": 5359,
      "##mand": 5360,
      "against": 5361,
      "moves": 5362,
      "allowed": 5363,
      "previously": 5364,
      "divergence": 5365,
      "∥y": 5366,
      "##ograph": 5367,
      "thank": 5368,
      "cardinality": 5369,
      "##hn": 5370,
      "serv": 5371,
      "modular": 5372,
      "body": 5373,
      "earlier": 5374,
      "approximations": 5375,
      "mesh": 5376,
      "decoding": 5377,
      "runs": 5378,
      "overl": 5379,
      "else": 5380,
      "parabolic": 5381,
      "##oting": 5382,
      "ensures": 5383,
      "ba": 5384,
      "temper": 5385,
      "##−k": 5386,
      "##ream": 5387,
      "##ibit": 5388,
      "ve": 5389,
      "bob": 5390,
      "neighbors": 5391,
      "member": 5392,
      "prediction": 5393,
      "ai": 5394,
      "oscill": 5395,
      "sums": 5396,
      "pub": 5397,
      "inputs": 5398,
      "integrals": 5399,
      "repres": 5400,
      "determinant": 5401,
      "alice": 5402,
      "suggest": 5403,
      "rh": 5404,
      "laplac": 5405,
      "dirich": 5406,
      "infinitely": 5407,
      "care": 5408,
      "##encies": 5409,
      "coincide": 5410,
      "dirichlet": 5411,
      "ly": 5412,
      "##14": 5413,
      "triple": 5414,
      "fair": 5415,
      "sd": 5416,
      "multiplicity": 5417,
      "##edy": 5418,
      "consistency": 5419,
      "auxili": 5420,
      "snr": 5421,
      "bias": 5422,
      "statements": 5423,
      "##ifies": 5424,
      "extra": 5425,
      "gp": 5426,
      "##fully": 5427,
      "ske": 5428,
      "limited": 5429,
      "isotop": 5430,
      "fill": 5431,
      "−b": 5432,
      "primitive": 5433,
      "processing": 5434,
      "representing": 5435,
      "auxiliary": 5436,
      "worst": 5437,
      "##bes": 5438,
      "sizes": 5439,
      "complic": 5440,
      "demonstrate": 5441,
      "quantif": 5442,
      "simplify": 5443,
      "##cd": 5444,
      "restrict": 5445,
      "advantage": 5446,
      "acting": 5447,
      "settings": 5448,
      "2x": 5449,
      "c1": 5450,
      "contraction": 5451,
      "nature": 5452,
      "viewed": 5453,
      "handle": 5454,
      "54": 5455,
      "false": 5456,
      "interpre": 5457,
      "##wh": 5458,
      "singularity": 5459,
      "involved": 5460,
      "optimality": 5461,
      "##bo": 5462,
      "descent": 5463,
      "receiver": 5464,
      "−l": 5465,
      "ip": 5466,
      "invariance": 5467,
      "sr": 5468,
      "##fs": 5469,
      "53": 5470,
      "##function": 5471,
      "ji": 5472,
      "determines": 5473,
      "indicates": 5474,
      "ways": 5475,
      "deformation": 5476,
      "signals": 5477,
      "intuitive": 5478,
      "thanks": 5479,
      "extern": 5480,
      "##´1": 5481,
      "dans": 5482,
      "giving": 5483,
      "##ee": 5484,
      "counting": 5485,
      "includes": 5486,
      "moments": 5487,
      "involving": 5488,
      "execution": 5489,
      "varying": 5490,
      "trajectories": 5491,
      "##cles": 5492,
      "convenient": 5493,
      "privacy": 5494,
      "colour": 5495,
      "ms": 5496,
      "≥0": 5497,
      "s1": 5498,
      "depic": 5499,
      "temp": 5500,
      "semigroup": 5501,
      "polytope": 5502,
      "xn": 5503,
      "attention": 5504,
      "coloring": 5505,
      "conserv": 5506,
      "##ameter": 5507,
      "##ilinear": 5508,
      "attach": 5509,
      "sket": 5510,
      "rigid": 5511,
      "rise": 5512,
      "56": 5513,
      "##by": 5514,
      "phenomen": 5515,
      "reflection": 5516,
      "admit": 5517,
      "##ls": 5518,
      "55": 5519,
      "explained": 5520,
      "stronger": 5521,
      "##idden": 5522,
      "aggreg": 5523,
      "incident": 5524,
      "simplex": 5525,
      "regret": 5526,
      "infer": 5527,
      "lift": 5528,
      "construc": 5529,
      "insp": 5530,
      "rn": 5531,
      "##algebra": 5532,
      "accept": 5533,
      "combined": 5534,
      "tends": 5535,
      "mp": 5536,
      "child": 5537,
      "why": 5538,
      "n∈n": 5539,
      "constrained": 5540,
      "arch": 5541,
      "minimization": 5542,
      "improved": 5543,
      "mr": 5544,
      "manner": 5545,
      "cus": 5546,
      "p2": 5547,
      "explor": 5548,
      "ci": 5549,
      "bir": 5550,
      "crucial": 5551,
      "sg": 5552,
      "##yn": 5553,
      "identification": 5554,
      "intersect": 5555,
      "letting": 5556,
      "pu": 5557,
      "##stable": 5558,
      "piecewise": 5559,
      "##15": 5560,
      "surjective": 5561,
      "calculus": 5562,
      "programming": 5563,
      "198": 5564,
      "resol": 5565,
      "rk": 5566,
      "##arding": 5567,
      "presentation": 5568,
      "regularization": 5569,
      "ho": 5570,
      "##fort": 5571,
      "complexes": 5572,
      "foli": 5573,
      "jump": 5574,
      "asp": 5575,
      "separable": 5576,
      "boole": 5577,
      "arithm": 5578,
      "ben": 5579,
      "∀i": 5580,
      "subsequence": 5581,
      "connecting": 5582,
      "partially": 5583,
      "studies": 5584,
      "laplacian": 5585,
      "world": 5586,
      "unbounded": 5587,
      "##uing": 5588,
      "centered": 5589,
      "unless": 5590,
      "##16": 5591,
      "clusters": 5592,
      "ends": 5593,
      "sof": 5594,
      "repeated": 5595,
      "ber": 5596,
      "surely": 5597,
      "##width": 5598,
      "##uth": 5599,
      "references": 5600,
      "issue": 5601,
      "tn": 5602,
      "positions": 5603,
      "treatment": 5604,
      "varieties": 5605,
      "items": 5606,
      "quadr": 5607,
      "mic": 5608,
      "2λ": 5609,
      "##like": 5610,
      "referred": 5611,
      "convolution": 5612,
      "exhibit": 5613,
      "initi": 5614,
      "requirement": 5615,
      "averag": 5616,
      "scatter": 5617,
      "permutations": 5618,
      "simultaneously": 5619,
      "##ativity": 5620,
      "semantics": 5621,
      "finish": 5622,
      "ordinary": 5623,
      "limiting": 5624,
      "causal": 5625,
      "outcome": 5626,
      "assertion": 5627,
      "##add": 5628,
      "##iable": 5629,
      "neural": 5630,
      "##que": 5631,
      "brack": 5632,
      "theories": 5633,
      "multiplicative": 5634,
      "##qq": 5635,
      "white": 5636,
      "##ois": 5637,
      "dθ": 5638,
      "boolean": 5639,
      "bern": 5640,
      "buil": 5641,
      "assigned": 5642,
      "##ript": 5643,
      "additionally": 5644,
      "saf": 5645,
      "∂f": 5646,
      "##position": 5647,
      "sent": 5648,
      "tasks": 5649,
      "substituting": 5650,
      "independence": 5651,
      "reconstruction": 5652,
      "select": 5653,
      "facts": 5654,
      "pg": 5655,
      "involves": 5656,
      "∂d": 5657,
      "##cent": 5658,
      "##itian": 5659,
      "questions": 5660,
      "variational": 5661,
      "##rip": 5662,
      "noting": 5663,
      "##finite": 5664,
      "players": 5665,
      "nois": 5666,
      "calculated": 5667,
      "spherical": 5668,
      "tan": 5669,
      "interm": 5670,
      "relay": 5671,
      "##erial": 5672,
      "transport": 5673,
      "alph": 5674,
      "slow": 5675,
      "ask": 5676,
      "uncertainty": 5677,
      "minimizing": 5678,
      "##min": 5679,
      "ray": 5680,
      "tests": 5681,
      "enumer": 5682,
      "momentum": 5683,
      "attain": 5684,
      "longer": 5685,
      "copy": 5686,
      "##orts": 5687,
      "external": 5688,
      "##irect": 5689,
      "x0": 5690,
      "n−k": 5691,
      "−∆": 5692,
      "messages": 5693,
      "subspaces": 5694,
      "rp": 5695,
      "ideas": 5696,
      "filtration": 5697,
      "##gue": 5698,
      "dl": 5699,
      "experimental": 5700,
      "outputs": 5701,
      "subm": 5702,
      "passing": 5703,
      "∥h": 5704,
      "encoding": 5705,
      "t1": 5706,
      "##iers": 5707,
      "hermitian": 5708,
      "implemented": 5709,
      "##sist": 5710,
      "dh": 5711,
      "0≤": 5712,
      "residual": 5713,
      "plus": 5714,
      "opposite": 5715,
      "patterns": 5716,
      "illustrated": 5717,
      "diam": 5718,
      "−γ": 5719,
      "ca": 5720,
      "∂u": 5721,
      "##metric": 5722,
      "dτ": 5723,
      "profile": 5724,
      "−q": 5725,
      "rewrite": 5726,
      "strength": 5727,
      "##unct": 5728,
      "sketch": 5729,
      "drawn": 5730,
      "ls": 5731,
      "remainder": 5732,
      "countable": 5733,
      "solid": 5734,
      "schwar": 5735,
      "##elled": 5736,
      "sheaf": 5737,
      "don": 5738,
      "load": 5739,
      "jus": 5740,
      "##tz": 5741,
      "hopf": 5742,
      "ic": 5743,
      "##go": 5744,
      "homeomorphism": 5745,
      "1≤i": 5746,
      "spl": 5747,
      "push": 5748,
      "recovery": 5749,
      "maintain": 5750,
      "spe": 5751,
      "resource": 5752,
      "segments": 5753,
      "##gs": 5754,
      "##umul": 5755,
      "nm": 5756,
      "amplit": 5757,
      "##tingale": 5758,
      "hypersur": 5759,
      "nil": 5760,
      "etc": 5761,
      "##tima": 5762,
      "unstable": 5763,
      "difficul": 5764,
      "##vially": 5765,
      "arithmetic": 5766,
      "orthon": 5767,
      "##22": 5768,
      "pf": 5769,
      "discr": 5770,
      "mob": 5771,
      "compe": 5772,
      "measured": 5773,
      "cach": 5774,
      "ric": 5775,
      "completion": 5776,
      "57": 5777,
      "dc": 5778,
      "approximately": 5779,
      "norms": 5780,
      "##ressed": 5781,
      "v∈": 5782,
      "mi": 5783,
      "efficiently": 5784,
      "bid": 5785,
      "banach": 5786,
      "µν": 5787,
      "market": 5788,
      "tempor": 5789,
      "quality": 5790,
      "implic": 5791,
      "coherent": 5792,
      "las": 5793,
      "loops": 5794,
      "others": 5795,
      "comparing": 5796,
      "characterized": 5797,
      "job": 5798,
      "describes": 5799,
      "n1": 5800,
      "candidate": 5801,
      "lebes": 5802,
      "decreases": 5803,
      "broad": 5804,
      "consum": 5805,
      "actual": 5806,
      "##−i": 5807,
      "neighbourhood": 5808,
      "ts": 5809,
      "espec": 5810,
      "hypotheses": 5811,
      "pow": 5812,
      "factorization": 5813,
      "skew": 5814,
      "coar": 5815,
      "minimize": 5816,
      "connections": 5817,
      "included": 5818,
      "achievable": 5819,
      "amb": 5820,
      "haus": 5821,
      "∥z": 5822,
      "##ittle": 5823,
      "deviation": 5824,
      "predict": 5825,
      "projections": 5826,
      "polyhed": 5827,
      "##aster": 5828,
      "lebesgue": 5829,
      "especially": 5830,
      "−δ": 5831,
      "synchron": 5832,
      "lm": 5833,
      "transitive": 5834,
      "au": 5835,
      "material": 5836,
      "datasets": 5837,
      "stream": 5838,
      "cas": 5839,
      "##urity": 5840,
      "##hol": 5841,
      "##ven": 5842,
      "frob": 5843,
      "∀x": 5844,
      "discrimin": 5845,
      "2e": 5846,
      "anten": 5847,
      "antenn": 5848,
      "synth": 5849,
      "convexity": 5850,
      "briefly": 5851,
      "##dor": 5852,
      "ml": 5853,
      "oracle": 5854,
      "s−1": 5855,
      "proportional": 5856,
      "##imod": 5857,
      "##active": 5858,
      "##uristic": 5859,
      "pref": 5860,
      "trop": 5861,
      "orthonormal": 5862,
      "returns": 5863,
      "bp": 5864,
      "c2": 5865,
      "virtual": 5866,
      "##17": 5867,
      "##ried": 5868,
      "evaluated": 5869,
      "##kin": 5870,
      "bayesian": 5871,
      "bd": 5872,
      "contributions": 5873,
      "2δ": 5874,
      "soft": 5875,
      "notions": 5876,
      "nt": 5877,
      "conversely": 5878,
      "triangles": 5879,
      "queue": 5880,
      "beginning": 5881,
      "greedy": 5882,
      "incor": 5883,
      "rou": 5884,
      "orders": 5885,
      "heuristic": 5886,
      "ensemble": 5887,
      "come": 5888,
      "##eb": 5889,
      "2h": 5890,
      "##ker": 5891,
      "interpreted": 5892,
      "gets": 5893,
      "wi": 5894,
      "net": 5895,
      "subman": 5896,
      "deep": 5897,
      "intermedi": 5898,
      "logarithmic": 5899,
      "fold": 5900,
      "∥d": 5901,
      "regarding": 5902,
      "sob": 5903,
      "imag": 5904,
      "adapted": 5905,
      "moving": 5906,
      "highest": 5907,
      "trivially": 5908,
      "newton": 5909,
      "plac": 5910,
      "variant": 5911,
      "matter": 5912,
      "chains": 5913,
      "##sities": 5914,
      "preced": 5915,
      "sends": 5916,
      "##care": 5917,
      "x2": 5918,
      "achieves": 5919,
      "setup": 5920,
      "happens": 5921,
      "wish": 5922,
      "own": 5923,
      "concave": 5924,
      "freed": 5925,
      "flows": 5926,
      "multiply": 5927,
      "priori": 5928,
      "trade": 5929,
      "cance": 5930,
      "##ulations": 5931,
      "deform": 5932,
      "overlap": 5933,
      "share": 5934,
      "generation": 5935,
      "remove": 5936,
      "##dorff": 5937,
      "endpoints": 5938,
      "concerning": 5939,
      "balanced": 5940,
      "resid": 5941,
      "##olev": 5942,
      "lc": 5943,
      "service": 5944,
      "correction": 5945,
      "schedul": 5946,
      "substitution": 5947,
      "##ky": 5948,
      "##itude": 5949,
      "indicate": 5950,
      "neither": 5951,
      "exchange": 5952,
      "hausdorff": 5953,
      "bad": 5954,
      "ther": 5955,
      "particularly": 5956,
      "##ogen": 5957,
      "generates": 5958,
      "clique": 5959,
      "2017": 5960,
      "##20": 5961,
      "q−1": 5962,
      "computer": 5963,
      "isolated": 5964,
      "##ested": 5965,
      "realization": 5966,
      "ins": 5967,
      "2πi": 5968,
      "interpolation": 5969,
      "signature": 5970,
      "adapt": 5971,
      "##ists": 5972,
      "calculations": 5973,
      "reve": 5974,
      "verified": 5975,
      "little": 5976,
      "eigenfunction": 5977,
      "unlike": 5978,
      "sharp": 5979,
      "##timating": 5980,
      "58": 5981,
      "b1": 5982,
      "poincare": 5983,
      "think": 5984,
      "build": 5985,
      "##otropic": 5986,
      "involution": 5987,
      "analogue": 5988,
      "completeness": 5989,
      "content": 5990,
      "complicated": 5991,
      "social": 5992,
      "orb": 5993,
      "nonemp": 5994,
      "confidence": 5995,
      "−e": 5996,
      "ferm": 5997,
      "negl": 5998,
      "arise": 5999,
      "2016": 6000,
      "holder": 6001,
      "wind": 6002,
      "thm": 6003,
      "characterize": 6004,
      "prog": 6005,
      "∥e": 6006,
      "4π": 6007,
      "units": 6008,
      "convenience": 6009,
      "differences": 6010,
      "formed": 6011,
      "xt": 6012,
      "guaranteed": 6013,
      "bene": 6014,
      "##ged": 6015,
      "nr": 6016,
      "##lor": 6017,
      "tay": 6018,
      "matroid": 6019,
      "##ians": 6020,
      "weyl": 6021,
      "2β": 6022,
      "express": 6023,
      "impact": 6024,
      "estimating": 6025,
      "nonempty": 6026,
      "bb": 6027,
      "consec": 6028,
      "k1": 6029,
      "med": 6030,
      "neverth": 6031,
      "thesis": 6032,
      "understood": 6033,
      "transverse": 6034,
      "sometimes": 6035,
      "i2": 6036,
      "nevertheless": 6037,
      "constructing": 6038,
      "##cepts": 6039,
      "−h": 6040,
      "approximated": 6041,
      "##linder": 6042,
      "##umann": 6043,
      "intr": 6044,
      "switch": 6045,
      "distances": 6046,
      "closely": 6047,
      "concludes": 6048,
      "wise": 6049,
      "2γ": 6050,
      "ni": 6051,
      "nn": 6052,
      "2015": 6053,
      "sparsity": 6054,
      "ta": 6055,
      "year": 6056,
      "consecutive": 6057,
      "eventually": 6058,
      "flo": 6059,
      "intersects": 6060,
      "five": 6061,
      "parity": 6062,
      "balls": 6063,
      "rm": 6064,
      "indexed": 6065,
      "alphab": 6066,
      "−−−": 6067,
      "accurate": 6068,
      "score": 6069,
      "mim": 6070,
      "##be": 6071,
      "micro": 6072,
      "shortest": 6073,
      "monotonicity": 6074,
      "lengths": 6075,
      "sort": 6076,
      "powers": 6077,
      "kr": 6078,
      "##enius": 6079,
      "taylor": 6080,
      "intermediate": 6081,
      "cylinder": 6082,
      "faster": 6083,
      "ki": 6084,
      "##avity": 6085,
      "transitions": 6086,
      "→∞": 6087,
      "influence": 6088,
      "generalize": 6089,
      "∂b": 6090,
      "freedom": 6091,
      "2013": 6092,
      "twisted": 6093,
      "3d": 6094,
      "simpler": 6095,
      "2014": 6096,
      "impos": 6097,
      "mixing": 6098,
      "solves": 6099,
      "##unov": 6100,
      "sobolev": 6101,
      "costs": 6102,
      "submod": 6103,
      "separation": 6104,
      "##omin": 6105,
      "reward": 6106,
      "##anged": 6107,
      "randomized": 6108,
      "locus": 6109,
      "##ords": 6110,
      "page": 6111,
      "understanding": 6112,
      "dξ": 6113,
      "beam": 6114,
      "eng": 6115,
      "tools": 6116,
      "ign": 6117,
      "suggests": 6118,
      "mathematic": 6119,
      "frobenius": 6120,
      "terminal": 6121,
      "produces": 6122,
      "appearing": 6123,
      "figures": 6124,
      "doub": 6125,
      "km": 6126,
      "neumann": 6127,
      "motivated": 6128,
      "##phas": 6129,
      "bis": 6130,
      "separated": 6131,
      "∂m": 6132,
      "sampled": 6133,
      "##mark": 6134,
      "ti": 6135,
      "noted": 6136,
      "##elling": 6137,
      "covers": 6138,
      "##icon": 6139,
      "constructions": 6140,
      "ste": 6141,
      "scenarios": 6142,
      "bey": 6143,
      "modes": 6144,
      "interactions": 6145,
      "precision": 6146,
      "alg": 6147,
      "changing": 6148,
      "extract": 6149,
      "y∈": 6150,
      "tun": 6151,
      "emphas": 6152,
      "boundaries": 6153,
      "rever": 6154,
      "cube": 6155,
      "diameter": 6156,
      "says": 6157,
      "relies": 6158,
      "nc": 6159,
      "alternating": 6160,
      "past": 6161,
      "##mc": 6162,
      "removed": 6163,
      "ℓ−1": 6164,
      "spanning": 6165,
      "##gru": 6166,
      "##izable": 6167,
      "##ious": 6168,
      "writing": 6169,
      "##ank": 6170,
      "beyond": 6171,
      "former": 6172,
      "roughly": 6173,
      "parametric": 6174,
      "remarks": 6175,
      "six": 6176,
      "rf": 6177,
      "cov": 6178,
      "novel": 6179,
      "lyap": 6180,
      "contradicts": 6181,
      "private": 6182,
      "rooted": 6183,
      "programs": 6184,
      "##ns": 6185,
      "augment": 6186,
      "triangulation": 6187,
      "building": 6188,
      "endow": 6189,
      "specify": 6190,
      "static": 6191,
      "controlled": 6192,
      "isometry": 6193,
      "colored": 6194,
      "triangular": 6195,
      "rt": 6196,
      "##roupo": 6197,
      "rescal": 6198,
      "r1": 6199,
      "toric": 6200,
      "##vent": 6201,
      "59": 6202,
      "2σ": 6203,
      "introducing": 6204,
      "bases": 6205,
      "dirac": 6206,
      "forc": 6207,
      "##clic": 6208,
      "multipl": 6209,
      "did": 6210,
      "kernels": 6211,
      "server": 6212,
      "pointwise": 6213,
      "hidden": 6214,
      "text": 6215,
      "ein": 6216,
      "pointed": 6217,
      "propositions": 6218,
      "valuation": 6219,
      "lyapunov": 6220,
      "−z": 6221,
      "##ogn": 6222,
      "hull": 6223,
      "##erc": 6224,
      "cubic": 6225,
      "h1": 6226,
      "−y": 6227,
      "totally": 6228,
      "codimension": 6229,
      "##roupoid": 6230,
      "importance": 6231,
      "temperature": 6232,
      "aa": 6233,
      "##order": 6234,
      "##zing": 6235,
      "normalization": 6236,
      "fibration": 6237,
      "2z": 6238,
      "##ford": 6239,
      "truth": 6240,
      "##sh": 6241,
      "flu": 6242,
      "1000": 6243,
      "fan": 6244,
      "grant": 6245,
      "hyperplane": 6246,
      "hu": 6247,
      "##zz": 6248,
      "possibility": 6249,
      "laplace": 6250,
      "controller": 6251,
      "papers": 6252,
      "sources": 6253,
      "contin": 6254,
      "payoff": 6255,
      "pan": 6256,
      "trad": 6257,
      "decrease": 6258,
      "obtains": 6259,
      "galois": 6260,
      "cooper": 6261,
      "##ffer": 6262,
      "2012": 6263,
      "summand": 6264,
      "dele": 6265,
      "computable": 6266,
      "##18": 6267,
      "##por": 6268,
      "functors": 6269,
      "braid": 6270,
      "representative": 6271,
      "bilinear": 6272,
      "slope": 6273,
      "conclusions": 6274,
      "stopping": 6275,
      "removing": 6276,
      "s2": 6277,
      "speak": 6278,
      "constit": 6279,
      "security": 6280,
      "##versal": 6281,
      "##lli": 6282,
      "bif": 6283,
      "highly": 6284,
      "martingale": 6285,
      "vac": 6286,
      "numerically": 6287,
      "improvement": 6288,
      "das": 6289,
      "congru": 6290,
      "##selves": 6291,
      "noisy": 6292,
      "force": 6293,
      "##ken": 6294,
      "circles": 6295,
      "##opes": 6296,
      "knots": 6297,
      "persp": 6298,
      "75": 6299,
      "fulf": 6300,
      "array": 6301,
      "x−": 6302,
      "arises": 6303,
      "ec": 6304,
      "followed": 6305,
      "−u": 6306,
      "rigor": 6307,
      "restrictions": 6308,
      "wit": 6309,
      "recalling": 6310,
      "starts": 6311,
      "continuously": 6312,
      "structural": 6313,
      "attrib": 6314,
      "t0": 6315,
      "physics": 6316,
      "lam": 6317,
      "hit": 6318,
      "primary": 6319,
      "2011": 6320,
      "recogn": 6321,
      "working": 6322,
      "minor": 6323,
      "temporal": 6324,
      "fails": 6325,
      "discretization": 6326,
      "magnitude": 6327,
      "wire": 6328,
      "satur": 6329,
      "separately": 6330,
      "##∈z": 6331,
      "lev": 6332,
      "topolog": 6333,
      "picture": 6334,
      "##bility": 6335,
      "##ancy": 6336,
      "py": 6337,
      "modeling": 6338,
      "zh": 6339,
      "##ensus": 6340,
      "##use": 6341,
      "gm": 6342,
      "bn": 6343,
      "drop": 6344,
      "collision": 6345,
      "##ening": 6346,
      "symmetries": 6347,
      "63": 6348,
      "charge": 6349,
      "reasonable": 6350,
      "packet": 6351,
      "##imensional": 6352,
      "stead": 6353,
      "lt": 6354,
      "2010": 6355,
      "tx": 6356,
      "isomorphisms": 6357,
      "extremal": 6358,
      "dq": 6359,
      "likely": 6360,
      "##09": 6361,
      "4n": 6362,
      "twist": 6363,
      "concrete": 6364,
      "02": 6365,
      "##unately": 6366,
      "extensive": 6367,
      "##tives": 6368,
      "minimizer": 6369,
      "tv": 6370,
      "##0000": 6371,
      "densities": 6372,
      "sequential": 6373,
      "∥b": 6374,
      "instant": 6375,
      "relaxation": 6376,
      "62": 6377,
      "isometric": 6378,
      "##els": 6379,
      "everywhere": 6380,
      "versions": 6381,
      "65": 6382,
      "exceptional": 6383,
      "similarity": 6384,
      "##aw": 6385,
      "concentr": 6386,
      "computes": 6387,
      "2018": 6388,
      "midd": 6389,
      "m−": 6390,
      "##set": 6391,
      "s−": 6392,
      "−v": 6393,
      "bm": 6394,
      "prefix": 6395,
      "sat": 6396,
      "groupoid": 6397,
      "port": 6398,
      "coupled": 6399,
      "flux": 6400,
      "##hing": 6401,
      "dominated": 6402,
      "d2": 6403,
      "layers": 6404,
      "align": 6405,
      "##omm": 6406,
      "geodesics": 6407,
      "reasoning": 6408,
      "middle": 6409,
      "carry": 6410,
      "1−α": 6411,
      "fp": 6412,
      "propagation": 6413,
      "repeat": 6414,
      "gam": 6415,
      "penalty": 6416,
      "brid": 6417,
      "updates": 6418,
      "cusp": 6419,
      "##iability": 6420,
      "prepar": 6421,
      "lr": 6422,
      "plays": 6423,
      "lg": 6424,
      "slot": 6425,
      "∥v∥": 6426,
      "2ε": 6427,
      "hs": 6428,
      "m1": 6429,
      "coarse": 6430,
      "steady": 6431,
      "nice": 6432,
      "dσ": 6433,
      "commutes": 6434,
      "−π": 6435,
      "##odrom": 6436,
      "conduct": 6437,
      "dic": 6438,
      "prelimin": 6439,
      "formulated": 6440,
      "##ystem": 6441,
      "##sym": 6442,
      "##rag": 6443,
      "impossible": 6444,
      "continue": 6445,
      "rd": 6446,
      "automaton": 6447,
      "globally": 6448,
      "designed": 6449,
      "locations": 6450,
      "offer": 6451,
      "sq": 6452,
      "correlations": 6453,
      "performing": 6454,
      "scales": 6455,
      "⊗n": 6456,
      "colors": 6457,
      "obtaining": 6458,
      "##99": 6459,
      "insi": 6460,
      "cv": 6461,
      "pk": 6462,
      "spacetime": 6463,
      "site": 6464,
      "chern": 6465,
      "extending": 6466,
      "cocy": 6467,
      "dλ": 6468,
      "medi": 6469,
      "sensor": 6470,
      "##ering": 6471,
      "##tific": 6472,
      "discussions": 6473,
      "challen": 6474,
      "identically": 6475,
      "properly": 6476,
      "subst": 6477,
      "modify": 6478,
      "punct": 6479,
      "ou": 6480,
      "fibers": 6481,
      "depicted": 6482,
      "reverse": 6483,
      "##imal": 6484,
      "spanned": 6485,
      "wall": 6486,
      "branching": 6487,
      "denoting": 6488,
      "identities": 6489,
      "kj": 6490,
      "eigenvectors": 6491,
      "reads": 6492,
      "summary": 6493,
      "traffic": 6494,
      "fluid": 6495,
      "arm": 6496,
      "preliminaries": 6497,
      "mt": 6498,
      "##ulated": 6499,
      "vii": 6500,
      "attr": 6501,
      "rr": 6502,
      "popular": 6503,
      "rounds": 6504,
      "investigated": 6505,
      "extr": 6506,
      "##oted": 6507,
      "bandwidth": 6508,
      "posed": 6509,
      "cosh": 6510,
      "consensus": 6511,
      "##ions": 6512,
      "kk": 6513,
      "nom": 6514,
      "land": 6515,
      "##tine": 6516,
      "##ounts": 6517,
      "checking": 6518,
      "rc": 6519,
      "performs": 6520,
      "modification": 6521,
      "##acts": 6522,
      "alphabet": 6523,
      "members": 6524,
      "situations": 6525,
      "p0": 6526,
      "mixture": 6527,
      "qp": 6528,
      "argue": 6529,
      "witness": 6530,
      "separate": 6531,
      "atoms": 6532,
      "twice": 6533,
      "##brid": 6534,
      "absolutely": 6535,
      "c∥": 6536,
      "concentration": 6537,
      "contour": 6538,
      "⇐⇒": 6539,
      "vs": 6540,
      "##izers": 6541,
      "multivari": 6542,
      "cob": 6543,
      "lattices": 6544,
      "treated": 6545,
      "scattering": 6546,
      "worth": 6547,
      "fulfill": 6548,
      "##da": 6549,
      "##hic": 6550,
      "##yclic": 6551,
      "61": 6552,
      "fo": 6553,
      "##08": 6554,
      "inher": 6555,
      "codew": 6556,
      "##co": 6557,
      "squared": 6558,
      "kh": 6559,
      "eg": 6560,
      "requirements": 6561,
      "##oring": 6562,
      "arrive": 6563,
      "public": 6564,
      "qubits": 6565,
      "dominant": 6566,
      "sadd": 6567,
      "embeddings": 6568,
      "create": 6569,
      "activ": 6570,
      "tp": 6571,
      "##urc": 6572,
      "tell": 6573,
      "datab": 6574,
      "3n": 6575,
      "parent": 6576,
      "discontinu": 6577,
      "hod": 6578,
      "organized": 6579,
      "hypergraph": 6580,
      "subdiv": 6581,
      "competi": 6582,
      "##ondition": 6583,
      "heat": 6584,
      "##orting": 6585,
      "covered": 6586,
      "80": 6587,
      "vehic": 6588,
      "##eg": 6589,
      "perturbations": 6590,
      "intuitively": 6591,
      "##ij": 6592,
      "rings": 6593,
      "succes": 6594,
      "##opic": 6595,
      "##ensity": 6596,
      "pas": 6597,
      "para": 6598,
      "sgn": 6599,
      "mir": 6600,
      "2009": 6601,
      "justif": 6602,
      "−f": 6603,
      "annul": 6604,
      "##ilities": 6605,
      "adversary": 6606,
      "∆x": 6607,
      "##arity": 6608,
      "seem": 6609,
      "rang": 6610,
      "convergent": 6611,
      "bell": 6612,
      "∇v": 6613,
      "##bre": 6614,
      "##loc": 6615,
      "collap": 6616,
      "leave": 6617,
      "incorpor": 6618,
      "strat": 6619,
      "##owski": 6620,
      "weaker": 6621,
      "ideals": 6622,
      "tt": 6623,
      "tropical": 6624,
      "coverage": 6625,
      "combinations": 6626,
      "policies": 6627,
      "shared": 6628,
      "great": 6629,
      "confir": 6630,
      "batch": 6631,
      "schwarz": 6632,
      "##tures": 6633,
      "cb": 6634,
      "lasso": 6635,
      "##ram": 6636,
      "∂y": 6637,
      "project": 6638,
      "bifurc": 6639,
      "grows": 6640,
      "flag": 6641,
      "benef": 6642,
      "iθ": 6643,
      "monte": 6644,
      "quantization": 6645,
      "fourth": 6646,
      "bounding": 6647,
      "##ahler": 6648,
      "none": 6649,
      "insigh": 6650,
      "studying": 6651,
      "pb": 6652,
      "197": 6653,
      "legend": 6654,
      "prom": 6655,
      "multivariate": 6656,
      "surpr": 6657,
      "allowing": 6658,
      "tuples": 6659,
      "describing": 6660,
      "##deg": 6661,
      "perspective": 6662,
      "associate": 6663,
      "analytical": 6664,
      "monoidal": 6665,
      "strings": 6666,
      "adjust": 6667,
      "throughput": 6668,
      "##head": 6669,
      "infinites": 6670,
      "backward": 6671,
      "heter": 6672,
      "66": 6673,
      "subsequent": 6674,
      "archit": 6675,
      "jacobi": 6676,
      "##perform": 6677,
      "hf": 6678,
      "dashed": 6679,
      "initially": 6680,
      "head": 6681,
      "fu": 6682,
      "realized": 6683,
      "stands": 6684,
      "architect": 6685,
      "carlo": 6686,
      "analogously": 6687,
      "##iss": 6688,
      "labelled": 6689,
      "##tification": 6690,
      "evol": 6691,
      "05": 6692,
      "simulated": 6693,
      "imaginary": 6694,
      "70": 6695,
      "bv": 6696,
      "counterpar": 6697,
      "##mer": 6698,
      "##∈a": 6699,
      "statistic": 6700,
      "cumul": 6701,
      "simplified": 6702,
      "##−3": 6703,
      "conjugacy": 6704,
      "j1": 6705,
      "illustration": 6706,
      "carried": 6707,
      "67": 6708,
      "axioms": 6709,
      "wireless": 6710,
      "connectivity": 6711,
      "verification": 6712,
      "refinement": 6713,
      "kp": 6714,
      "∥q": 6715,
      "distortion": 6716,
      "attract": 6717,
      "##ape": 6718,
      "smoothness": 6719,
      "##aten": 6720,
      "k−2": 6721,
      "dot": 6722,
      "providing": 6723,
      "nash": 6724,
      "−0": 6725,
      "angles": 6726,
      "exceed": 6727,
      "##cript": 6728,
      "corner": 6729,
      "−µ": 6730,
      "##sure": 6731,
      "sb": 6732,
      "correlated": 6733,
      "purely": 6734,
      "sake": 6735,
      "cof": 6736,
      "scheduling": 6737,
      "dω": 6738,
      "reported": 6739,
      "outperform": 6740,
      "##ored": 6741,
      "recursion": 6742,
      "rely": 6743,
      "failure": 6744,
      "tradition": 6745,
      "pullback": 6746,
      "##bles": 6747,
      "presents": 6748,
      "storage": 6749,
      "asymptotics": 6750,
      "besides": 6751,
      "shr": 6752,
      "hybrid": 6753,
      "hp": 6754,
      "dk": 6755,
      "clock": 6756,
      "missing": 6757,
      "##raph": 6758,
      "replic": 6759,
      "spread": 6760,
      "gate": 6761,
      "preserve": 6762,
      "coming": 6763,
      "truncated": 6764,
      "years": 6765,
      "reaction": 6766,
      "vor": 6767,
      "∥φ": 6768,
      "kin": 6769,
      "robustness": 6770,
      "∂s": 6771,
      "##amed": 6772,
      "applicable": 6773,
      "outcomes": 6774,
      "reasons": 6775,
      "amplitude": 6776,
      "composite": 6777,
      "criteria": 6778,
      "automorphisms": 6779,
      "foliation": 6780,
      "##ital": 6781,
      "reprod": 6782,
      "sided": 6783,
      "youn": 6784,
      "guess": 6785,
      "saddle": 6786,
      "##enberg": 6787,
      "bg": 6788,
      "mutual": 6789,
      "bracket": 6790,
      "nd": 6791,
      "ll": 6792,
      "##we": 6793,
      "2ϵ": 6794,
      "##rent": 6795,
      "conditioned": 6796,
      "my": 6797,
      "purposes": 6798,
      "localization": 6799,
      "produced": 6800,
      "divide": 6801,
      "stein": 6802,
      "nilp": 6803,
      "concepts": 6804,
      "maximize": 6805,
      "intuition": 6806,
      "##04": 6807,
      "mathematics": 6808,
      "summation": 6809,
      "mapped": 6810,
      "transformed": 6811,
      "subalgebra": 6812,
      "##ware": 6813,
      "einstein": 6814,
      "observable": 6815,
      "surve": 6816,
      "primal": 6817,
      "##log": 6818,
      "formulate": 6819,
      "##06": 6820,
      "inform": 6821,
      "arising": 6822,
      "##∈r": 6823,
      "eigenvector": 6824,
      "exclu": 6825,
      "option": 6826,
      "anc": 6827,
      "determining": 6828,
      "nearest": 6829,
      "##ren": 6830,
      "difficulty": 6831,
      "acyclic": 6832,
      "pairing": 6833,
      "r2": 6834,
      "cha": 6835,
      "combine": 6836,
      "flex": 6837,
      "characters": 6838,
      "cg": 6839,
      "∥t": 6840,
      "successive": 6841,
      "sinh": 6842,
      "atomic": 6843,
      "arrang": 6844,
      "monodrom": 6845,
      "rich": 6846,
      "b2": 6847,
      "rb": 6848,
      "display": 6849,
      "ready": 6850,
      "fluct": 6851,
      "−ε": 6852,
      "##−j": 6853,
      "t≥0": 6854,
      "ith": 6855,
      "built": 6856,
      "commute": 6857,
      "plug": 6858,
      "wt": 6859,
      "##dt": 6860,
      "polygon": 6861,
      "##cs": 6862,
      "fluctu": 6863,
      "consideration": 6864,
      "95": 6865,
      "development": 6866,
      "72": 6867,
      "bf": 6868,
      "##irected": 6869,
      "poss": 6870,
      "young": 6871,
      "##he": 6872,
      "pv": 6873,
      "science": 6874,
      "morse": 6875,
      "ks": 6876,
      "faith": 6877,
      "sheaves": 6878,
      "identifying": 6879,
      "cer": 6880,
      "accordingly": 6881,
      "spheres": 6882,
      "letters": 6883,
      "##sable": 6884,
      "concaten": 6885,
      "##01": 6886,
      "margin": 6887,
      "waves": 6888,
      "4k": 6889,
      "md": 6890,
      "bud": 6891,
      "hodge": 6892,
      "switching": 6893,
      "##sip": 6894,
      "therein": 6895,
      "seed": 6896,
      "##amp": 6897,
      "##abor": 6898,
      "divided": 6899,
      "##05": 6900,
      "lk": 6901,
      "preceding": 6902,
      "##ivari": 6903,
      "##olding": 6904,
      "hypersurface": 6905,
      "uns": 6906,
      "protocols": 6907,
      "acce": 6908,
      "##ermin": 6909,
      "poset": 6910,
      "exploit": 6911,
      "unfort": 6912,
      "viol": 6913,
      "logical": 6914,
      "##king": 6915,
      "shad": 6916,
      "l2": 6917,
      "hes": 6918,
      "l1": 6919,
      "dd": 6920,
      "fn": 6921,
      "walks": 6922,
      "∥a∥": 6923,
      "radial": 6924,
      "integrating": 6925,
      "tur": 6926,
      "submanifold": 6927,
      "disks": 6928,
      "automata": 6929,
      "speaking": 6930,
      "quick": 6931,
      "phenomenon": 6932,
      "preserved": 6933,
      "endowed": 6934,
      "acceler": 6935,
      "68": 6936,
      "issues": 6937,
      "reson": 6938,
      "##hs": 6939,
      "history": 6940,
      "intrins": 6941,
      "readily": 6942,
      "lor": 6943,
      "considers": 6944,
      "##ands": 6945,
      "n2": 6946,
      "##ores": 6947,
      "##03": 6948,
      "resources": 6949,
      "fall": 6950,
      "tens": 6951,
      "bernou": 6952,
      "capture": 6953,
      "ko": 6954,
      "adic": 6955,
      "arrival": 6956,
      "lagrange": 6957,
      "hn": 6958,
      "presc": 6959,
      "primes": 6960,
      "fibre": 6961,
      "∥s": 6962,
      "gn": 6963,
      "affect": 6964,
      "##anes": 6965,
      "fixing": 6966,
      "k2": 6967,
      "∂v": 6968,
      "wavel": 6969,
      "m2": 6970,
      "##ifications": 6971,
      "rewritten": 6972,
      "happen": 6973,
      "##igu": 6974,
      "possess": 6975,
      "##07": 6976,
      "species": 6977,
      "##tor": 6978,
      "letter": 6979,
      "phot": 6980,
      "involve": 6981,
      "formulae": 6982,
      "bench": 6983,
      "interface": 6984,
      "renormal": 6985,
      "electric": 6986,
      "composed": 6987,
      "helpful": 6988,
      "coh": 6989,
      "macro": 6990,
      "slice": 6991,
      "gauss": 6992,
      "cust": 6993,
      "redund": 6994,
      "edition": 6995,
      "##kes": 6996,
      "∥r": 6997,
      "##oks": 6998,
      "dν": 6999,
      "scaled": 7000,
      "laws": 7001,
      "ijk": 7002,
      "unfortunately": 7003,
      "computationally": 7004,
      "drift": 7005,
      "i0": 7006,
      "bernoulli": 7007,
      "finds": 7008,
      "d1": 7009,
      "endpoint": 7010,
      "surger": 7011,
      "phases": 7012,
      "thin": 7013,
      "##igible": 7014,
      "e∈": 7015,
      "trig": 7016,
      "benchmark": 7017,
      "distinguished": 7018,
      "tableau": 7019,
      "vacu": 7020,
      "transforms": 7021,
      "−θ": 7022,
      "compactness": 7023,
      "kahler": 7024,
      "subsystem": 7025,
      "##atory": 7026,
      "∂z": 7027,
      "looking": 7028,
      "agree": 7029,
      "intersections": 7030,
      "gs": 7031,
      "establishes": 7032,
      "gram": 7033,
      "surprising": 7034,
      "widely": 7035,
      "##ued": 7036,
      "easier": 7037,
      "located": 7038,
      "hole": 7039,
      "##uits": 7040,
      "arrows": 7041,
      "custom": 7042,
      "##02": 7043,
      "suprem": 7044,
      "solit": 7045,
      "automatically": 7046,
      "employed": 7047,
      "recurrence": 7048,
      "sensing": 7049,
      "n×n": 7050,
      "dil": 7051,
      "sharing": 7052,
      "exter": 7053,
      "bt": 7054,
      "mainly": 7055,
      "parameterized": 7056,
      "jacobian": 7057,
      "boot": 7058,
      "−−": 7059,
      "reform": 7060,
      "stop": 7061,
      "desp": 7062,
      "2ℓ": 7063,
      "gi": 7064,
      "undirected": 7065,
      "##plex": 7066,
      "peak": 7067,
      "##ynam": 7068,
      "potentials": 7069,
      "fading": 7070,
      "gluing": 7071,
      "vot": 7072,
      "motivation": 7073,
      "##ales": 7074,
      "##ones": 7075,
      "terminology": 7076,
      "magnetic": 7077,
      "hierarchy": 7078,
      "tm": 7079,
      "##19": 7080,
      "tub": 7081,
      "fd": 7082,
      "meet": 7083,
      "spectra": 7084,
      "checked": 7085,
      "stress": 7086,
      "contract": 7087,
      "occup": 7088,
      "qui": 7089,
      "evidence": 7090,
      "monodromy": 7091,
      "99": 7092,
      "nothing": 7093,
      "latent": 7094,
      "heav": 7095,
      "##going": 7096,
      "##ru": 7097,
      "cox": 7098,
      "paragraph": 7099,
      "cones": 7100,
      "mirr": 7101,
      "broadc": 7102,
      "t2": 7103,
      "##what": 7104,
      "##elet": 7105,
      "packets": 7106,
      "unity": 7107,
      "gcd": 7108,
      "##view": 7109,
      "somewhat": 7110,
      "despite": 7111,
      "mimo": 7112,
      "toler": 7113,
      "equilibria": 7114,
      "##etermin": 7115,
      "divisors": 7116,
      "compac": 7117,
      "−ϵ": 7118,
      "##chain": 7119,
      "indicated": 7120,
      "2µ": 7121,
      "analyzed": 7122,
      "cellular": 7123,
      "2008": 7124,
      "decompose": 7125,
      "variants": 7126,
      "##arr": 7127,
      "reducing": 7128,
      "−τ": 7129,
      "u∥": 7130,
      "sf": 7131,
      "kill": 7132,
      "##ination": 7133,
      "u∈": 7134,
      "##ival": 7135,
      "receive": 7136,
      "−5": 7137,
      "summarized": 7138,
      "characteristics": 7139,
      "cot": 7140,
      "indicator": 7141,
      "specification": 7142,
      "infinitesimal": 7143,
      "claimed": 7144,
      "intensity": 7145,
      "comments": 7146,
      "definable": 7147,
      "safe": 7148,
      "##ai": 7149,
      "500": 7150,
      "labeling": 7151,
      "stabilizer": 7152,
      "adjacency": 7153,
      "tract": 7154,
      "summing": 7155,
      "conjugation": 7156,
      "inspired": 7157,
      "spac": 7158,
      "randomness": 7159,
      "effectively": 7160,
      "lack": 7161,
      "persist": 7162,
      "gro": 7163,
      "thick": 7164,
      "tensors": 7165,
      "69": 7166,
      "circular": 7167,
      "languages": 7168,
      "cw": 7169,
      "exterior": 7170,
      "prelim": 7171,
      "##sibility": 7172,
      "##ille": 7173,
      "flip": 7174,
      "tet": 7175,
      "poles": 7176,
      "isotropic": 7177,
      "nl": 7178,
      "basel": 7179,
      "rectangle": 7180,
      "von": 7181,
      "##rations": 7182,
      "v1": 7183,
      "isotopy": 7184,
      "modeled": 7185,
      "sound": 7186,
      "emer": 7187,
      "residue": 7188,
      "structured": 7189,
      "bootstr": 7190,
      "lifting": 7191,
      "tend": 7192,
      "##ert": 7193,
      "denomin": 7194,
      "##oles": 7195,
      "##pher": 7196,
      "lex": 7197,
      "k→∞": 7198,
      "nearly": 7199,
      "transmitter": 7200,
      "visual": 7201,
      "individuals": 7202,
      "try": 7203,
      "decoder": 7204,
      "obstr": 7205,
      "beh": 7206,
      "##faces": 7207,
      "boundedness": 7208,
      "multiplying": 7209,
      "coherence": 7210,
      "##kh": 7211,
      "lowest": 7212,
      "ur": 7213,
      "clause": 7214,
      "gib": 7215,
      "decompositions": 7216,
      "acknowledgements": 7217,
      "procedures": 7218,
      "send": 7219,
      "nilpotent": 7220,
      "record": 7221,
      "nested": 7222,
      "supremum": 7223,
      "preliminary": 7224,
      "expansions": 7225,
      "##ryst": 7226,
      "mechanics": 7227,
      "appar": 7228,
      "impose": 7229,
      "##onds": 7230,
      "##ectives": 7231,
      "gf": 7232,
      "summarize": 7233,
      "formalism": 7234,
      "##≤t": 7235,
      "##ey": 7236,
      "simplest": 7237,
      "alternatively": 7238,
      "##ordan": 7239,
      "maximization": 7240,
      "recursively": 7241,
      "explan": 7242,
      "##kowski": 7243,
      "##nected": 7244,
      "absor": 7245,
      "∥ψ": 7246,
      "abc": 7247,
      "angular": 7248,
      "##ister": 7249,
      "##gredi": 7250,
      "inj": 7251,
      "##lab": 7252,
      "omitted": 7253,
      "plots": 7254,
      "devoted": 7255,
      "aspects": 7256,
      "frag": 7257,
      "90": 7258,
      "strip": 7259,
      "sites": 7260,
      "crossings": 7261,
      "##ih": 7262,
      "λx": 7263,
      "α−1": 7264,
      "qual": 7265,
      "##ads": 7266,
      "pieces": 7267,
      "reached": 7268,
      "suggested": 7269,
      "bur": 7270,
      "hm": 7271,
      "gover": 7272,
      "levy": 7273,
      "approximating": 7274,
      "outline": 7275,
      "separating": 7276,
      "observables": 7277,
      "belonging": 7278,
      "versus": 7279,
      "##reement": 7280,
      "accom": 7281,
      "neut": 7282,
      "functionals": 7283,
      "t→∞": 7284,
      "inversion": 7285,
      "cartesian": 7286,
      "encoded": 7287,
      "detect": 7288,
      "hum": 7289,
      "consumption": 7290,
      "##ategory": 7291,
      "potentially": 7292,
      "completed": 7293,
      "examine": 7294,
      "kle": 7295,
      "jumps": 7296,
      "circuits": 7297,
      "frequencies": 7298,
      "traditional": 7299,
      "regarded": 7300,
      "art": 7301,
      "compression": 7302,
      "complementary": 7303,
      "irre": 7304,
      "mutually": 7305,
      "reveal": 7306,
      "rl": 7307,
      "##ained": 7308,
      "adopt": 7309,
      "proxim": 7310,
      "forest": 7311,
      "rigorous": 7312,
      "naive": 7313,
      "manip": 7314,
      "illustrates": 7315,
      "##ivariate": 7316,
      "hessian": 7317,
      "schur": 7318,
      "solvable": 7319,
      "updated": 7320,
      "∂h": 7321,
      "window": 7322,
      "kt": 7323,
      "database": 7324,
      "mil": 7325,
      "lu": 7326,
      "prices": 7327,
      "##ode": 7328,
      "optimum": 7329,
      "rx": 7330,
      "ix": 7331,
      "##idel": 7332,
      "immer": 7333,
      "gamma": 7334,
      "smoothing": 7335,
      "az": 7336,
      "pz": 7337,
      "robot": 7338,
      "dro": 7339,
      "expanding": 7340,
      "pressure": 7341,
      "conservation": 7342,
      "bootstrap": 7343,
      "schro": 7344,
      "negligible": 7345,
      "compactly": 7346,
      "highl": 7347,
      "chord": 7348,
      "∀t": 7349,
      "ingredi": 7350,
      "mol": 7351,
      "particip": 7352,
      "cartan": 7353,
      "transmitted": 7354,
      "−g": 7355,
      "boxes": 7356,
      "community": 7357,
      "bic": 7358,
      "cocycle": 7359,
      "branches": 7360,
      "eigenfunctions": 7361,
      "explore": 7362,
      "sensitivity": 7363,
      "obst": 7364,
      "correctness": 7365,
      "challeng": 7366,
      "holonom": 7367,
      "putting": 7368,
      "singlet": 7369,
      "averaging": 7370,
      "##arm": 7371,
      "ib": 7372,
      "##och": 7373,
      "sending": 7374,
      "nond": 7375,
      "rap": 7376,
      "bul": 7377,
      "correctly": 7378,
      "adversari": 7379,
      "##ribed": 7380,
      "thought": 7381,
      "believe": 7382,
      "induce": 7383,
      "##ifolds": 7384,
      "delet": 7385,
      "book": 7386,
      "exponents": 7387,
      "perturbed": 7388,
      "pde": 7389,
      "sequel": 7390,
      "semide": 7391,
      "entangled": 7392,
      "##ean": 7393,
      "ui": 7394,
      "digraph": 7395,
      "2000": 7396,
      "tc": 7397,
      "ck": 7398,
      "enables": 7399,
      "store": 7400,
      "driven": 7401,
      "qn": 7402,
      "##etri": 7403,
      "h2": 7404,
      "ru": 7405,
      "gates": 7406,
      "travel": 7407,
      "bus": 7408,
      "contrary": 7409,
      "etale": 7410,
      "supplement": 7411,
      "reconstruct": 7412,
      "cuts": 7413,
      "vec": 7414,
      "patch": 7415,
      "hd": 7416,
      "bos": 7417,
      "##ulate": 7418,
      "shrink": 7419,
      "tables": 7420,
      "discover": 7421,
      "possibilities": 7422,
      "73": 7423,
      "panel": 7424,
      "xj": 7425,
      "classifier": 7426,
      "x∥": 7427,
      "forcing": 7428,
      "overview": 7429,
      "lying": 7430,
      "planes": 7431,
      "##bl": 7432,
      "2006": 7433,
      "od": 7434,
      "destin": 7435,
      "mappings": 7436,
      "enh": 7437,
      "u1": 7438,
      "##ners": 7439,
      "increment": 7440,
      "intersecting": 7441,
      "binomial": 7442,
      "median": 7443,
      "##dinger": 7444,
      "r0": 7445,
      "decide": 7446,
      "grading": 7447,
      "orientable": 7448,
      "##romatic": 7449,
      "leader": 7450,
      "λi": 7451,
      "pole": 7452,
      "hi": 7453,
      "dissip": 7454,
      "##edge": 7455,
      "budget": 7456,
      "##scopic": 7457,
      "heavy": 7458,
      "firstly": 7459,
      "successful": 7460,
      "endomorphism": 7461,
      "−ω": 7462,
      "quantit": 7463,
      "variations": 7464,
      "2ρ": 7465,
      "unf": 7466,
      "observing": 7467,
      "e1": 7468,
      "idemp": 7469,
      "perc": 7470,
      "attached": 7471,
      "bh": 7472,
      "generalizes": 7473,
      "a3": 7474,
      "skelet": 7475,
      "nk": 7476,
      "∂p": 7477,
      "intrinsic": 7478,
      "covariant": 7479,
      "transaction": 7480,
      "children": 7481,
      "enfor": 7482,
      "obstruction": 7483,
      "engine": 7484,
      "##ders": 7485,
      "regularized": 7486,
      "hh": 7487,
      "fash": 7488,
      "quantitative": 7489,
      "bridge": 7490,
      "fine": 7491,
      "decomposed": 7492,
      "eqs": 7493,
      "doc": 7494,
      "##ini": 7495,
      "hope": 7496,
      "monomials": 7497,
      "ga": 7498,
      "fashion": 7499,
      "created": 7500,
      "amounts": 7501,
      "packing": 7502,
      "ei": 7503,
      "graphical": 7504,
      "shor": 7505,
      "αn": 7506,
      "dur": 7507,
      "predicate": 7508,
      "semidefinite": 7509,
      "minkowski": 7510,
      "##plete": 7511,
      "progress": 7512,
      "s∈": 7513,
      "ae": 7514,
      "conventional": 7515,
      "##grad": 7516,
      "apart": 7517,
      "colim": 7518,
      "annulus": 7519,
      "##uck": 7520,
      "##ordism": 7521,
      "−σ": 7522,
      "connect": 7523,
      "polytopes": 7524,
      "##−n": 7525,
      "evaluating": 7526,
      "continuation": 7527,
      "refers": 7528,
      "2007": 7529,
      "balance": 7530,
      "j∈j": 7531,
      "faithful": 7532,
      "concerned": 7533,
      "mill": 7534,
      "pdf": 7535,
      "##px": 7536,
      "device": 7537,
      "bk": 7538,
      "gibbs": 7539,
      "##oi": 7540,
      "jordan": 7541,
      "synt": 7542,
      "subgraphs": 7543,
      "secure": 7544,
      "∥m": 7545,
      "74": 7546,
      "##net": 7547,
      "swap": 7548,
      "qc": 7549,
      "##uli": 7550,
      "front": 7551,
      "123": 7552,
      "signed": 7553,
      "forces": 7554,
      "−w": 7555,
      "sensitive": 7556,
      "hk": 7557,
      "division": 7558,
      "cryst": 7559,
      "##iles": 7560,
      "subdivision": 7561,
      "emphasize": 7562,
      "adversarial": 7563,
      "∀k": 7564,
      "implication": 7565,
      "mechanisms": 7566,
      "dividing": 7567,
      "visc": 7568,
      "∥θ": 7569,
      "absence": 7570,
      "challenging": 7571,
      "topic": 7572,
      "university": 7573,
      "f1": 7574,
      "equivalences": 7575,
      "gt": 7576,
      "##entz": 7577,
      "splits": 7578,
      "##haps": 7579,
      "shifted": 7580,
      "##atz": 7581,
      "76": 7582,
      "noncon": 7583,
      "perhaps": 7584,
      "demonstrated": 7585,
      "spir": 7586,
      "orbifold": 7587,
      "considerations": 7588,
      "##empt": 7589,
      "tells": 7590,
      "thereby": 7591,
      "##ogram": 7592,
      "yi": 7593,
      "doing": 7594,
      "subtree": 7595,
      "ka": 7596,
      "survey": 7597,
      "consequences": 7598,
      "positivity": 7599,
      "synthes": 7600,
      "##urs": 7601,
      "buy": 7602,
      "divisible": 7603,
      "supports": 7604,
      "disper": 7605,
      "entirely": 7606,
      "compatibility": 7607,
      "keeping": 7608,
      "homeomorphic": 7609,
      "q1": 7610,
      "subtr": 7611,
      "solver": 7612,
      "relate": 7613,
      "listed": 7614,
      "##changed": 7615,
      "validity": 7616,
      "jointly": 7617,
      "mind": 7618,
      "parametrized": 7619,
      "td": 7620,
      "geometrically": 7621,
      "mf": 7622,
      "recovered": 7623,
      "controls": 7624,
      "behind": 7625,
      "early": 7626,
      "##rel": 7627,
      "eh": 7628,
      "pxq": 7629,
      "gave": 7630,
      "sector": 7631,
      "bifurcation": 7632,
      "78": 7633,
      "eu": 7634,
      "comparable": 7635,
      "algebraically": 7636,
      "03": 7637,
      "likewise": 7638,
      "maximizing": 7639,
      "germ": 7640,
      "elastic": 7641,
      "schrodinger": 7642,
      "∥g∥": 7643,
      "algorithmic": 7644,
      "##aly": 7645,
      "thom": 7646,
      "##space": 7647,
      "##ault": 7648,
      "##iased": 7649,
      "71": 7650,
      "neur": 7651,
      "places": 7652,
      "vacuum": 7653,
      "implying": 7654,
      "monoton": 7655,
      "mirror": 7656,
      "surgery": 7657,
      "simplices": 7658,
      "closer": 7659,
      "∥∂": 7660,
      "ia": 7661,
      "##ended": 7662,
      "stored": 7663,
      "##udes": 7664,
      "##ider": 7665,
      "##irable": 7666,
      "2η": 7667,
      "modulus": 7668,
      "areas": 7669,
      "mse": 7670,
      "machines": 7671,
      "xs": 7672,
      "averaged": 7673,
      "tetra": 7674,
      "enter": 7675,
      "×r": 7676,
      "ode": 7677,
      "##dy": 7678,
      "fs": 7679,
      "relaxed": 7680,
      "implicitly": 7681,
      "rays": 7682,
      "grom": 7683,
      "increased": 7684,
      "y1": 7685,
      "econ": 7686,
      "##96": 7687,
      "n≥0": 7688,
      "ak": 7689,
      "hash": 7690,
      "##ecompo": 7691,
      "cay": 7692,
      "attempt": 7693,
      "##ryp": 7694,
      "propos": 7695,
      "##llation": 7696,
      "qr": 7697,
      "rg": 7698,
      "1d": 7699,
      "confirm": 7700,
      "plann": 7701,
      "receives": 7702,
      "multic": 7703,
      "conservative": 7704,
      "signs": 7705,
      "##ced": 7706,
      "strati": 7707,
      "∥ϕ": 7708,
      "devices": 7709,
      "x∈x": 7710,
      "recip": 7711,
      "contrac": 7712,
      "##atil": 7713,
      "##ita": 7714,
      "noncom": 7715,
      "cache": 7716,
      "gad": 7717,
      "##elle": 7718,
      "augmented": 7719,
      "counts": 7720,
      "antenna": 7721,
      "lifts": 7722,
      "tetrahed": 7723,
      "qi": 7724,
      "econom": 7725,
      "d−": 7726,
      "∂a": 7727,
      "soit": 7728,
      "agreement": 7729,
      "2u": 7730,
      "gromov": 7731,
      "##98": 7732,
      "cro": 7733,
      "i∈n": 7734,
      "##tw": 7735,
      "commonly": 7736,
      "prem": 7737,
      "closest": 7738,
      "competitive": 7739,
      "belief": 7740,
      "introduces": 7741,
      "##rian": 7742,
      "reaches": 7743,
      "occurrence": 7744,
      "##ographic": 7745,
      "rv": 7746,
      "bulk": 7747,
      "winning": 7748,
      "fusion": 7749,
      "nuc": 7750,
      "converging": 7751,
      "differs": 7752,
      "77": 7753,
      "led": 7754,
      "##fined": 7755,
      "fav": 7756,
      "implied": 7757,
      "filtered": 7758,
      "ricci": 7759,
      "semis": 7760,
      "requiring": 7761,
      "mu": 7762,
      "3k": 7763,
      "powerful": 7764,
      "file": 7765,
      "incomp": 7766,
      "##ouv": 7767,
      "minimizes": 7768,
      "k3": 7769,
      "congruence": 7770,
      "chooses": 7771,
      "λn": 7772,
      "##wers": 7773,
      "grass": 7774,
      "iterated": 7775,
      "truncation": 7776,
      "reducible": 7777,
      "##exam": 7778,
      "lorentz": 7779,
      "antennas": 7780,
      "attacks": 7781,
      "rapid": 7782,
      "ah": 7783,
      "−6": 7784,
      "improves": 7785,
      "mal": 7786,
      "##osity": 7787,
      "routing": 7788,
      "molec": 7789,
      "n0": 7790,
      "initialization": 7791,
      "architecture": 7792,
      "multiplier": 7793,
      "r−": 7794,
      "validation": 7795,
      "assumes": 7796,
      "exerc": 7797,
      "yn": 7798,
      "n×": 7799,
      "cause": 7800,
      "cx": 7801,
      "##imple": 7802,
      "joining": 7803,
      "∂g": 7804,
      "unbiased": 7805,
      "precondition": 7806,
      "jn": 7807,
      "##ander": 7808,
      "##ung": 7809,
      "exploration": 7810,
      "old": 7811,
      "orthogon": 7812,
      "quiver": 7813,
      "conflic": 7814,
      "96": 7815,
      "zi": 7816,
      "ku": 7817,
      "##tured": 7818,
      "##ba": 7819,
      "∇φ": 7820,
      "gk": 7821,
      "cumulative": 7822,
      "imposed": 7823,
      "matched": 7824,
      "matches": 7825,
      "##pact": 7826,
      "volatil": 7827,
      "sensors": 7828,
      "n≥1": 7829,
      "mid": 7830,
      "refined": 7831,
      "yielding": 7832,
      "2019": 7833,
      "∂w": 7834,
      "##ressive": 7835,
      "−ρ": 7836,
      "##entioned": 7837,
      "##anging": 7838,
      "ih": 7839,
      "alex": 7840,
      "stokes": 7841,
      "mk": 7842,
      "vn": 7843,
      "##dx": 7844,
      "homomorphisms": 7845,
      "dφ": 7846,
      "##cess": 7847,
      "diction": 7848,
      "lever": 7849,
      "##iteness": 7850,
      "∂θ": 7851,
      "request": 7852,
      "frames": 7853,
      "continuum": 7854,
      "denominator": 7855,
      "k∈n": 7856,
      "2022": 7857,
      "htt": 7858,
      "hierarchical": 7859,
      "destination": 7860,
      "gravity": 7861,
      "pw": 7862,
      "formation": 7863,
      "lf": 7864,
      "learned": 7865,
      "subcategory": 7866,
      "drawing": 7867,
      "stri": 7868,
      "##exts": 7869,
      "realizations": 7870,
      "##eme": 7871,
      "inductively": 7872,
      "ability": 7873,
      "baseline": 7874,
      "challenge": 7875,
      "##97": 7876,
      "##itted": 7877,
      "∈s": 7878,
      "hc": 7879,
      "traces": 7880,
      "ld": 7881,
      "envelop": 7882,
      "##ecks": 7883,
      "1q": 7884,
      "##local": 7885,
      "fish": 7886,
      "afor": 7887,
      "gc": 7888,
      "interpol": 7889,
      "g1": 7890,
      "uc": 7891,
      "dealing": 7892,
      "ambigu": 7893,
      "##95": 7894,
      "curl": 7895,
      "85": 7896,
      "##ogeneity": 7897,
      "claims": 7898,
      "auction": 7899,
      "counterexam": 7900,
      "pj": 7901,
      "##thing": 7902,
      "jj": 7903,
      "ranges": 7904,
      "##ivers": 7905,
      "v2": 7906,
      "alors": 7907,
      "zar": 7908,
      "##tition": 7909,
      "epo": 7910,
      "homotopic": 7911,
      "themselves": 7912,
      "##enue": 7913,
      "##iffer": 7914,
      "##load": 7915,
      "##ars": 7916,
      "dα": 7917,
      "claus": 7918,
      "nucle": 7919,
      "currently": 7920,
      "lot": 7921,
      "1−2": 7922,
      "gains": 7923,
      "hyperplanes": 7924,
      "restricting": 7925,
      "α1": 7926,
      "##ementioned": 7927,
      "ft": 7928,
      "2θ": 7929,
      "##zy": 7930,
      "quickly": 7931,
      "cu": 7932,
      "floer": 7933,
      "preim": 7934,
      "deformations": 7935,
      "##aving": 7936,
      "aforementioned": 7937,
      "fm": 7938,
      "##atrix": 7939,
      "agrees": 7940,
      "mild": 7941,
      "symbolic": 7942,
      "gradients": 7943,
      "equally": 7944,
      "predicted": 7945,
      "jobs": 7946,
      "##eas": 7947,
      "−η": 7948,
      "∂r": 7949,
      "pin": 7950,
      "regardless": 7951,
      "xk": 7952,
      "rearr": 7953,
      "schm": 7954,
      "×n": 7955,
      "triples": 7956,
      "broadcast": 7957,
      "suff": 7958,
      "epoch": 7959,
      "placed": 7960,
      "candidates": 7961,
      "unchanged": 7962,
      "pricing": 7963,
      "anom": 7964,
      "ie": 7965,
      "establishing": 7966,
      "dag": 7967,
      "tq": 7968,
      "filling": 7969,
      "commuting": 7970,
      "##eto": 7971,
      "saturated": 7972,
      "##jo": 7973,
      "discriminant": 7974,
      "hex": 7975,
      "sont": 7976,
      "∥c": 7977,
      "ol": 7978,
      "##pose": 7979,
      "linearized": 7980,
      "##pos": 7981,
      "pet": 7982,
      "2005": 7983,
      "analytically": 7984,
      "periods": 7985,
      "divides": 7986,
      "##elike": 7987,
      "simulate": 7988,
      "stab": 7989,
      "##mut": 7990,
      "synthetic": 7991,
      "assess": 7992,
      "4m": 7993,
      "nondeg": 7994,
      "sig": 7995,
      "retrie": 7996,
      "kine": 7997,
      "ee": 7998,
      "cyl": 7999,
      "minimax": 8000,
      "3a": 8001,
      "##ecke": 8002,
      "cq": 8003,
      "nous": 8004,
      "foundation": 8005,
      "1i": 8006,
      "σ2": 8007,
      "projected": 8008,
      "arrangement": 8009,
      "##kov": 8010,
      "um": 8011,
      "3r": 8012,
      "bijective": 8013,
      "ut": 8014,
      "##yi": 8015,
      "elimination": 8016,
      "acknowledgments": 8017,
      "attained": 8018,
      "bayes": 8019,
      "196": 8020,
      "analyzing": 8021,
      "overc": 8022,
      "rhs": 8023,
      "submodular": 8024,
      "d−2": 8025,
      "noether": 8026,
      "##ield": 8027,
      "lb": 8028,
      "∥w∥": 8029,
      "##ometric": 8030,
      "nondegener": 8031,
      "##∈p": 8032,
      "equalities": 8033,
      "suppos": 8034,
      "cobordism": 8035,
      "##onym": 8036,
      "81": 8037,
      "counterpart": 8038,
      "unimod": 8039,
      "dη": 8040,
      "infim": 8041,
      "concur": 8042,
      "unital": 8043,
      "84": 8044,
      "##itative": 8045,
      "encoun": 8046,
      "bx": 8047,
      "selecting": 8048,
      "2y": 8049,
      "coxeter": 8050,
      "skeleton": 8051,
      "volatility": 8052,
      "buffer": 8053,
      "subsequently": 8054,
      "contractible": 8055,
      "##ards": 8056,
      "tiling": 8057,
      "extremely": 8058,
      "2v": 8059,
      "csi": 8060,
      "##menting": 8061,
      "tracking": 8062,
      "tori": 8063,
      "preference": 8064,
      "2τ": 8065,
      "trained": 8066,
      "bimod": 8067,
      "abuse": 8068,
      "secret": 8069,
      "##ateral": 8070,
      "rib": 8071,
      "parametrization": 8072,
      "##oso": 8073,
      "wel": 8074,
      "replacement": 8075,
      "contribute": 8076,
      "##tiveness": 8077,
      "∂q": 8078,
      "fon": 8079,
      "monotonically": 8080,
      "prox": 8081,
      "dρ": 8082,
      "varies": 8083,
      "outgoing": 8084,
      "##oud": 8085,
      "##apped": 8086,
      "maximally": 8087,
      "electron": 8088,
      "ult": 8089,
      "mobile": 8090,
      "delta": 8091,
      "∥∆": 8092,
      "##aneous": 8093,
      "yang": 8094,
      "eras": 8095,
      "ranking": 8096,
      "##way": 8097,
      "august": 8098,
      "successfully": 8099,
      "originally": 8100,
      "default": 8101,
      "killing": 8102,
      "carries": 8103,
      "chart": 8104,
      "vo": 8105,
      "tile": 8106,
      "modifications": 8107,
      "qualitative": 8108,
      "versa": 8109,
      "sell": 8110,
      "compr": 8111,
      "##xx": 8112,
      "sus": 8113,
      "verif": 8114,
      "recomm": 8115,
      "##len": 8116,
      "simultaneous": 8117,
      "desirable": 8118,
      "linearity": 8119,
      "therm": 8120,
      "##otyp": 8121,
      "fewer": 8122,
      "##rog": 8123,
      "secre": 8124,
      "vice": 8125,
      "schedule": 8126,
      "majority": 8127,
      "y∥": 8128,
      "clif": 8129,
      "localized": 8130,
      "prescribed": 8131,
      "sinr": 8132,
      "reachable": 8133,
      "##symmetric": 8134,
      "p−": 8135,
      "liouv": 8136,
      "w1": 8137,
      "tout": 8138,
      "che": 8139,
      "aq": 8140,
      "subf": 8141,
      "4a": 8142,
      "2004": 8143,
      "##∈c": 8144,
      "2f": 8145,
      "notic": 8146,
      "−ν": 8147,
      "tractable": 8148,
      "##pa": 8149,
      "centers": 8150,
      "##singular": 8151,
      "preparation": 8152,
      "circum": 8153,
      "transversal": 8154,
      "j2": 8155,
      "semisimple": 8156,
      "fixes": 8157,
      "hardness": 8158,
      "##alth": 8159,
      "t−s": 8160,
      "sdp": 8161,
      "dependency": 8162,
      "∇ϕ": 8163,
      "codeword": 8164,
      "##ihil": 8165,
      "incoming": 8166,
      "quat": 8167,
      "dominating": 8168,
      "robots": 8169,
      "soon": 8170,
      "associative": 8171,
      "thermod": 8172,
      "designs": 8173,
      "82": 8174,
      "v∈v": 8175,
      "thermodynam": 8176,
      "grassmann": 8177,
      "changed": 8178,
      "linked": 8179,
      "exercise": 8180,
      "outperforms": 8181,
      "superv": 8182,
      "uav": 8183,
      "clauses": 8184,
      "partitioning": 8185,
      "conditioning": 8186,
      "annihil": 8187,
      "79": 8188,
      "##rich": 8189,
      "kq": 8190,
      "insight": 8191,
      "os": 8192,
      "amen": 8193,
      "immersion": 8194,
      "adaptation": 8195,
      "hig": 8196,
      "analogy": 8197,
      "reflex": 8198,
      "2n−1": 8199,
      "rout": 8200,
      "appeared": 8201,
      "predictions": 8202,
      "whence": 8203,
      "a0": 8204,
      "##icontinu": 8205,
      "kd": 8206,
      "runtime": 8207,
      "fat": 8208,
      "fermion": 8209,
      "topologically": 8210,
      "draft": 8211,
      "quotients": 8212,
      "aj": 8213,
      "83": 8214,
      "##agn": 8215,
      "k0": 8216,
      "human": 8217,
      "grav": 8218,
      "indecompo": 8219,
      "sgd": 8220,
      "##ighted": 8221,
      "subpro": 8222,
      "p−2": 8223,
      "schmid": 8224,
      "##¨¨": 8225,
      "nh": 8226,
      "calls": 8227,
      "##∥x": 8228,
      "entail": 8229,
      "##well": 8230,
      "checks": 8231,
      "##link": 8232,
      "infimum": 8233,
      "tag": 8234,
      "4c": 8235,
      "e2": 8236,
      "eigens": 8237,
      "optimize": 8238,
      "##ressible": 8239,
      "docum": 8240,
      "decou": 8241,
      "tuning": 8242,
      "scores": 8243,
      "gas": 8244,
      "abbre": 8245,
      "∂e": 8246,
      "massive": 8247,
      "benefit": 8248,
      "partitioned": 8249,
      "hecke": 8250,
      "s0": 8251,
      "fluctuations": 8252,
      "gd": 8253,
      "representatives": 8254,
      "calculating": 8255,
      "viscosity": 8256,
      "##homogeneous": 8257,
      "minus": 8258,
      "##entions": 8259,
      "##≤k": 8260,
      "−ℓ": 8261,
      "jl": 8262,
      "deviations": 8263,
      "##ened": 8264,
      "v∥": 8265,
      "abbrevi": 8266,
      "repair": 8267,
      "filtering": 8268,
      "achieving": 8269,
      "##inter": 8270,
      "corners": 8271,
      "4d": 8272,
      "ses": 8273,
      "addressed": 8274,
      "deplo": 8275,
      "reductions": 8276,
      "passes": 8277,
      "discrep": 8278,
      "ff": 8279,
      "klein": 8280,
      "certainly": 8281,
      "web": 8282,
      "diffeomorphisms": 8283,
      "1a": 8284,
      "lists": 8285,
      "sz": 8286,
      "displac": 8287,
      "reversible": 8288,
      "observer": 8289,
      "distur": 8290,
      "cayley": 8291,
      "##anov": 8292,
      "servers": 8293,
      "dγ": 8294,
      "recurrent": 8295,
      "iterate": 8296,
      "##uller": 8297,
      "quatern": 8298,
      "prun": 8299,
      "abstraction": 8300,
      "asymmetric": 8301,
      "contradicting": 8302,
      "explanation": 8303,
      "##abi": 8304,
      "secondary": 8305,
      "fract": 8306,
      "##94": 8307,
      "feasibility": 8308,
      "overhead": 8309,
      "va": 8310,
      "##exp": 8311,
      "parad": 8312,
      "mb": 8313,
      "investigation": 8314,
      "tj": 8315,
      "##∈b": 8316,
      "js": 8317,
      "implications": 8318,
      "percolation": 8319,
      "nar": 8320,
      "vc": 8321,
      "##ams": 8322,
      "coin": 8323,
      "mere": 8324,
      "cham": 8325,
      "mv": 8326,
      "party": 8327,
      "##foli": 8328,
      "manag": 8329,
      "captures": 8330,
      "piv": 8331,
      "sie": 8332,
      "thread": 8333,
      "yau": 8334,
      "ue": 8335,
      "couple": 8336,
      "serve": 8337,
      "liouville": 8338,
      "cofib": 8339,
      "λ1": 8340,
      "calib": 8341,
      "iterates": 8342,
      "breaking": 8343,
      "concerns": 8344,
      "##versity": 8345,
      "methodology": 8346,
      "conjunction": 8347,
      "quantile": 8348,
      "incon": 8349,
      "exploiting": 8350,
      "instr": 8351,
      "singleton": 8352,
      "##ned": 8353,
      "revenue": 8354,
      "n−i": 8355,
      "##idable": 8356,
      "##−m": 8357,
      "association": 8358,
      "integrated": 8359,
      "ample": 8360,
      "dϕ": 8361,
      "encode": 8362,
      "activation": 8363,
      "you": 8364,
      "shifts": 8365,
      "xu": 8366,
      "cam": 8367,
      "master": 8368,
      "bol": 8369,
      "orthogonality": 8370,
      "monit": 8371,
      "reser": 8372,
      "αi": 8373,
      "04": 8374,
      "worse": 8375,
      "universe": 8376,
      "assem": 8377,
      "optimized": 8378,
      "careful": 8379,
      "outage": 8380,
      "air": 8381,
      "occurring": 8382,
      "fisher": 8383,
      "zf": 8384,
      "meets": 8385,
      "qs": 8386,
      "θn": 8387,
      "quadrature": 8388,
      "mostly": 8389,
      "zarisk": 8390,
      "dotted": 8391,
      "u2": 8392,
      "j∈n": 8393,
      "##itary": 8394,
      "decl": 8395,
      "##asser": 8396,
      "portfoli": 8397,
      "surv": 8398,
      "cardinal": 8399,
      "qt": 8400,
      "1≤j": 8401,
      "secrecy": 8402,
      "##bon": 8403,
      "##isc": 8404,
      "realistic": 8405,
      "dictionary": 8406,
      "life": 8407,
      "2nd": 8408,
      "parties": 8409,
      "pointing": 8410,
      "plugging": 8411,
      "suc": 8412,
      "##idal": 8413,
      "##rences": 8414,
      "concentrated": 8415,
      "chem": 8416,
      "appropriately": 8417,
      "##ighting": 8418,
      "pix": 8419,
      "xz": 8420,
      "beamform": 8421,
      "age": 8422,
      "##ense": 8423,
      "86": 8424,
      "conjectured": 8425,
      "##ining": 8426,
      "##ember": 8427,
      "##ani": 8428,
      "haar": 8429,
      "ig": 8430,
      "2ν": 8431,
      "remov": 8432,
      "zariski": 8433,
      "nodal": 8434,
      "freely": 8435,
      "ancest": 8436,
      "effort": 8437,
      "inn": 8438,
      "software": 8439,
      "gravit": 8440,
      "concatenation": 8441,
      "covariates": 8442,
      "antic": 8443,
      "production": 8444,
      "##path": 8445,
      "schmidt": 8446,
      "vehicle": 8447,
      "substr": 8448,
      "98": 8449,
      "susp": 8450,
      "contexts": 8451,
      "##rov": 8452,
      "avoiding": 8453,
      "iy": 8454,
      "dam": 8455,
      "##∈g": 8456,
      "injection": 8457,
      "2003": 8458,
      "aware": 8459,
      "polyhedral": 8460,
      "phd": 8461,
      "generalizations": 8462,
      "##eta": 8463,
      "profiles": 8464,
      "##emic": 8465,
      "##eal": 8466,
      "##las": 8467,
      "decor": 8468,
      "filters": 8469,
      "finishes": 8470,
      "##enstein": 8471,
      "adopted": 8472,
      "kron": 8473,
      "##timate": 8474,
      "cooperative": 8475,
      "ration": 8476,
      "phenomena": 8477,
      "ratios": 8478,
      "128": 8479,
      "rw": 8480,
      "##uff": 8481,
      "##mative": 8482,
      "##ega": 8483,
      "enumeration": 8484,
      "broken": 8485,
      "##tier": 8486,
      "trac": 8487,
      "answers": 8488,
      "experi": 8489,
      "kinetic": 8490,
      "translations": 8491,
      "−κ": 8492,
      "plotted": 8493,
      "started": 8494,
      "∆u": 8495,
      "∀j": 8496,
      "##93": 8497,
      "##×d": 8498,
      "reading": 8499,
      "grate": 8500,
      "acqu": 8501,
      "stay": 8502,
      "forget": 8503,
      "holes": 8504,
      "invest": 8505,
      "##mo": 8506,
      "##ote": 8507,
      "restricts": 8508,
      "nj": 8509,
      "proceeds": 8510,
      "87": 8511,
      "h−1": 8512,
      "growing": 8513,
      "2κ": 8514,
      "disturb": 8515,
      "kol": 8516,
      "##optim": 8517,
      "cros": 8518,
      "encoder": 8519,
      "decisions": 8520,
      "97": 8521,
      "ambient": 8522,
      "holonomy": 8523,
      "wavelet": 8524,
      "88": 8525,
      "z1": 8526,
      "##class": 8527,
      "termination": 8528,
      "nu": 8529,
      "financ": 8530,
      "descend": 8531,
      "triangulations": 8532,
      "portion": 8533,
      "pool": 8534,
      "collect": 8535,
      "##ata": 8536,
      "medium": 8537,
      "fc": 8538,
      "encryp": 8539,
      "hur": 8540,
      "meromorphic": 8541,
      "barrier": 8542,
      "lq": 8543,
      "iteratively": 8544,
      "assigns": 8545,
      "clifford": 8546,
      "ele": 8547,
      "y2": 8548,
      "##lov": 8549,
      "precod": 8550,
      "∂n": 8551,
      "priority": 8552,
      "##indric": 8553,
      "diversity": 8554,
      "extensively": 8555,
      "vide": 8556,
      "scope": 8557,
      "ˆr": 8558,
      "∥σ": 8559,
      "indecomposable": 8560,
      "neighborhoods": 8561,
      "rescaling": 8562,
      "isometries": 8563,
      "interch": 8564,
      "##ula": 8565,
      "facet": 8566,
      "instit": 8567,
      "really": 8568,
      "updating": 8569,
      "disconnected": 8570,
      "##chet": 8571,
      "##ius": 8572,
      "##mar": 8573,
      "rewriting": 8574,
      "anonym": 8575,
      "##otom": 8576,
      "quar": 8577,
      "zhang": 8578,
      "orientations": 8579,
      "expectations": 8580,
      "encounter": 8581,
      "##vability": 8582,
      "##osp": 8583,
      "sect": 8584,
      "secondly": 8585,
      "histor": 8586,
      "kinds": 8587,
      "ub": 8588,
      "compactification": 8589,
      "frequently": 8590,
      "##aming": 8591,
      "rotations": 8592,
      "poor": 8593,
      "##clos": 8594,
      "exhibits": 8595,
      "cosm": 8596,
      "fairness": 8597,
      "plat": 8598,
      "synchronization": 8599,
      "##amard": 8600,
      "polyhedron": 8601,
      "meta": 8602,
      "##process": 8603,
      "aggregation": 8604,
      "##ney": 8605,
      "##isting": 8606,
      "##oidal": 8607,
      "acces": 8608,
      "isotopic": 8609,
      "overcome": 8610,
      "lef": 8611,
      "iso": 8612,
      "interacting": 8613,
      "2002": 8614,
      "thermal": 8615,
      "nondegenerate": 8616,
      "integrability": 8617,
      "generalised": 8618,
      "argmin": 8619,
      "facets": 8620,
      "##24": 8621,
      "exit": 8622,
      "seek": 8623,
      "##ativ": 8624,
      "ourselves": 8625,
      "##mutative": 8626,
      "##the": 8627,
      "inserting": 8628,
      "purs": 8629,
      "client": 8630,
      "dimensionality": 8631,
      "simplifies": 8632,
      "categorical": 8633,
      "hadamard": 8634,
      "tiles": 8635,
      "safety": 8636,
      "##reasing": 8637,
      "##ette": 8638,
      "homogen": 8639,
      "bj": 8640,
      "##ynchron": 8641,
      "systematic": 8642,
      "assignments": 8643,
      "tradeoff": 8644,
      "nf": 8645,
      "deploy": 8646,
      "iω": 8647,
      "bq": 8648,
      "idempotent": 8649,
      "bisim": 8650,
      "nb": 8651,
      "tested": 8652,
      "1b": 8653,
      "xq": 8654,
      "##lished": 8655,
      "nonpar": 8656,
      "##pler": 8657,
      "tame": 8658,
      "##ka": 8659,
      "sous": 8660,
      "##000": 8661,
      "gri": 8662,
      "subproblem": 8663,
      "##atest": 8664,
      "tel": 8665,
      "overlapping": 8666,
      "attractor": 8667,
      "α∈": 8668,
      "hexag": 8669,
      "1−p": 8670,
      "legendrian": 8671,
      "##ecker": 8672,
      "logistic": 8673,
      "deduced": 8674,
      "mh": 8675,
      "fragment": 8676,
      "hamiltonians": 8677,
      "∥h∥": 8678,
      "z2": 8679,
      "degeneracy": 8680,
      "integrand": 8681,
      "seif": 8682,
      "iq": 8683,
      "fred": 8684,
      "##di": 8685,
      "gw": 8686,
      "recipro": 8687,
      "wil": 8688,
      "incomplete": 8689,
      "translate": 8690,
      "i−": 8691,
      "perfectly": 8692,
      "γn": 8693,
      "##ats": 8694,
      "##period": 8695,
      "options": 8696,
      "ww": 8697,
      "semist": 8698,
      "eigensp": 8699,
      "rq": 8700,
      "preferred": 8701,
      "##book": 8702,
      "jm": 8703,
      "planning": 8704,
      "cloud": 8705,
      "hj": 8706,
      "dof": 8707,
      "maximizes": 8708,
      "iner": 8709,
      "pul": 8710,
      "##lined": 8711,
      "mdp": 8712,
      "lexic": 8713,
      "94": 8714,
      "iid": 8715,
      "predictive": 8716,
      "cubes": 8717,
      "proximal": 8718,
      "integrate": 8719,
      "hr": 8720,
      "f2": 8721,
      "doubly": 8722,
      "yes": 8723,
      "neutral": 8724,
      "stages": 8725,
      "collected": 8726,
      "repeatedly": 8727,
      "derivations": 8728,
      "hitting": 8729,
      "amenable": 8730,
      "redundant": 8731,
      "##92": 8732,
      "sink": 8733,
      "requests": 8734,
      "tf": 8735,
      "alt": 8736,
      "##rupt": 8737,
      "rectangles": 8738,
      "wang": 8739,
      "cz": 8740,
      "##bing": 8741,
      "neighboring": 8742,
      "obl": 8743,
      "anis": 8744,
      "classified": 8745,
      "fitting": 8746,
      "shell": 8747,
      "gg": 8748,
      "hypersurfaces": 8749,
      "ws": 8750,
      "discrepancy": 8751,
      "svd": 8752,
      "differentials": 8753,
      "continued": 8754,
      "pauli": 8755,
      "slots": 8756,
      "chen": 8757,
      "turing": 8758,
      "##84": 8759,
      "c3": 8760,
      "beta": 8761,
      "##ko": 8762,
      "cryp": 8763,
      "positively": 8764,
      "higgs": 8765,
      "generically": 8766,
      "carefully": 8767,
      "alone": 8768,
      "g2": 8769,
      "gb": 8770,
      "substitute": 8771,
      "3b": 8772,
      "accepted": 8773,
      "##rating": 8774,
      "seifert": 8775,
      "retr": 8776,
      "∈f": 8777,
      "duration": 8778,
      "qm": 8779,
      "q2": 8780,
      "engineering": 8781,
      "rid": 8782,
      "behaves": 8783,
      "lag": 8784,
      "deletion": 8785,
      "calabi": 8786,
      "affected": 8787,
      "##ancing": 8788,
      "preferences": 8789,
      "branched": 8790,
      "prev": 8791,
      "##vian": 8792,
      "sj": 8793,
      "aspect": 8794,
      "δt": 8795,
      "tanh": 8796,
      "ultra": 8797,
      "comparisons": 8798,
      "pal": 8799,
      "nq": 8800,
      "demonstrates": 8801,
      "sle": 8802,
      "reveals": 8803,
      "john": 8804,
      "communications": 8805,
      "theoretically": 8806,
      "profit": 8807,
      "εn": 8808,
      "opin": 8809,
      "≤n": 8810,
      "##ca": 8811,
      "##ologies": 8812,
      "compressed": 8813,
      "##87": 8814,
      "##fare": 8815,
      "commit": 8816,
      "obstacle": 8817,
      "92": 8818,
      "∈t": 8819,
      "chamber": 8820,
      "suffix": 8821,
      "##u∥": 8822,
      "terminates": 8823,
      "classic": 8824,
      "verifies": 8825,
      "##aire": 8826,
      "∀n": 8827,
      "2∥": 8828,
      "subvari": 8829,
      "semic": 8830,
      "water": 8831,
      "bss": 8832,
      "∂k": 8833,
      "bill": 8834,
      "forb": 8835,
      "dav": 8836,
      "pati": 8837,
      "ot": 8838,
      "shadow": 8839,
      "dead": 8840,
      "famili": 8841,
      "linking": 8842,
      "mag": 8843,
      "dominates": 8844,
      "leib": 8845,
      "translates": 8846,
      "93": 8847,
      "principles": 8848,
      "superposition": 8849,
      "eliminate": 8850,
      "commutator": 8851,
      "bub": 8852,
      "∂c": 8853,
      "rescaled": 8854,
      "##regular": 8855,
      "advantages": 8856,
      "iw": 8857,
      "n−m": 8858,
      "alignment": 8859,
      "eight": 8860,
      "##orn": 8861,
      "transvers": 8862,
      "##hedral": 8863,
      "violation": 8864,
      "e∈e": 8865,
      "operational": 8866,
      "wn": 8867,
      "rectangular": 8868,
      "cheb": 8869,
      "valuations": 8870,
      "aggregate": 8871,
      "coded": 8872,
      "heterogeneous": 8873,
      "resolvent": 8874,
      "bon": 8875,
      "financial": 8876,
      "exhaus": 8877,
      "welfare": 8878,
      "witten": 8879,
      "##oher": 8880,
      "identifies": 8881,
      "nonparametric": 8882,
      "dj": 8883,
      "flexible": 8884,
      "##dimensional": 8885,
      "dehn": 8886,
      "ending": 8887,
      "##algebras": 8888,
      "ads": 8889,
      "∇ψ": 8890,
      "pil": 8891,
      "border": 8892,
      "detected": 8893,
      "##oo": 8894,
      "2001": 8895,
      "subscript": 8896,
      "photon": 8897,
      "punctured": 8898,
      "receivers": 8899,
      "4r": 8900,
      "##uer": 8901,
      "biased": 8902,
      "##dro": 8903,
      "∥z∥": 8904,
      "attributes": 8905,
      "nonlocal": 8906,
      "leak": 8907,
      "lax": 8908,
      "stabilization": 8909,
      "synthesis": 8910,
      "inclusions": 8911,
      "pca": 8912,
      "proposal": 8913,
      "asc": 8914,
      "##asserstein": 8915,
      "renyi": 8916,
      "a−1": 8917,
      "contracting": 8918,
      "ay": 8919,
      "trick": 8920,
      "effec": 8921,
      "evident": 8922,
      "##metry": 8923,
      "exposition": 8924,
      "wasserstein": 8925,
      "##hev": 8926,
      "##che": 8927,
      "operad": 8928,
      "cutting": 8929,
      "bw": 8930,
      "expensive": 8931,
      "pareto": 8932,
      "##≤m": 8933,
      "artin": 8934,
      "polygons": 8935,
      "occurrences": 8936,
      "coal": 8937,
      "connects": 8938,
      "visible": 8939,
      "merge": 8940,
      "rej": 8941,
      "liv": 8942,
      "kronecker": 8943,
      "caused": 8944,
      "fidel": 8945,
      "spirit": 8946,
      "transi": 8947,
      "caching": 8948,
      "tal": 8949,
      "date": 8950,
      "101": 8951,
      "stratum": 8952,
      "##me": 8953,
      "zeta": 8954,
      "optimizing": 8955,
      "multipliers": 8956,
      "vt": 8957,
      "laur": 8958,
      "##etz": 8959,
      "m−2": 8960,
      "som": 8961,
      "relates": 8962,
      "kg": 8963,
      "repeating": 8964,
      "asynchron": 8965,
      "3m": 8966,
      "##versing": 8967,
      "rare": 8968,
      "∂σ": 8969,
      "relationships": 8970,
      "heega": 8971,
      "heegaard": 8972,
      "explored": 8973,
      "rigidity": 8974,
      "executed": 8975,
      "difficulties": 8976,
      "##arded": 8977,
      "constructive": 8978,
      "##cale": 8979,
      "succeed": 8980,
      "linearization": 8981,
      "ger": 8982,
      "hon": 8983,
      "names": 8984,
      "##fied": 8985,
      "uu": 8986,
      "##sm": 8987,
      "nominal": 8988,
      "ten": 8989,
      "λt": 8990,
      "seconds": 8991,
      "knows": 8992,
      "oct": 8993,
      "sal": 8994,
      "minima": 8995,
      "xp": 8996,
      "##ovian": 8997,
      "##issions": 8998,
      "compan": 8999,
      "##rant": 9000,
      "##verses": 9001,
      "coset": 9002,
      "deriving": 9003,
      "restrictive": 9004,
      "heis": 9005,
      "discontinuous": 9006,
      "##itation": 9007,
      "focused": 9008,
      "polarization": 9009,
      "sou": 9010,
      "conic": 9011,
      "2w": 9012,
      "cε": 9013,
      "##imes": 9014,
      "brackets": 9015,
      "−2π": 9016,
      "##pass": 9017,
      "invok": 9018,
      "causes": 9019,
      "##holm": 9020,
      "mutation": 9021,
      "admm": 9022,
      "conditionally": 9023,
      "gaps": 9024,
      "theta": 9025,
      "w∈": 9026,
      "bigger": 9027,
      "interestingly": 9028,
      "theoreme": 9029,
      "ito": 9030,
      "ribbon": 9031,
      "ea": 9032,
      "univariate": 9033,
      "formulations": 9034,
      "tolerance": 9035,
      "activity": 9036,
      "moder": 9037,
      "membership": 9038,
      "a−": 9039,
      "locality": 9040,
      "ple": 9041,
      "##ck": 9042,
      "##eting": 9043,
      "z∈": 9044,
      "die": 9045,
      "war": 9046,
      "modern": 9047,
      "supplementary": 9048,
      "portfolio": 9049,
      "tower": 9050,
      "∥ξ": 9051,
      "weil": 9052,
      "##fel": 9053,
      "##roduct": 9054,
      "matchings": 9055,
      "voron": 9056,
      "concluding": 9057,
      "fulfilled": 9058,
      "##ami": 9059,
      "dispersion": 9060,
      "init": 9061,
      "120": 9062,
      "fron": 9063,
      "∇g": 9064,
      "leaving": 9065,
      "tate": 9066,
      "n−3": 9067,
      "##vm": 9068,
      "teich": 9069,
      "##posed": 9070,
      "nonsingular": 9071,
      "attemp": 9072,
      "##ris": 9073,
      "##88": 9074,
      "markovian": 9075,
      "percent": 9076,
      "effectiveness": 9077,
      "chir": 9078,
      "summands": 9079,
      "suitably": 9080,
      "kth": 9081,
      "merely": 9082,
      "characterizes": 9083,
      "cliques": 9084,
      "measuring": 9085,
      "donc": 9086,
      "3c": 9087,
      "levi": 9088,
      "birational": 9089,
      "cri": 9090,
      "minimizers": 9091,
      "yy": 9092,
      "##agnetic": 9093,
      "##avi": 9094,
      "gray": 9095,
      "incidence": 9096,
      "##inger": 9097,
      "nx": 9098,
      "hamming": 9099,
      "relational": 9100,
      "suffer": 9101,
      "2k−1": 9102,
      "−ξ": 9103,
      "trust": 9104,
      "clean": 9105,
      "insertion": 9106,
      "employing": 9107,
      "yu": 9108,
      "dar": 9109,
      "ampl": 9110,
      "ising": 9111,
      "##encil": 9112,
      "yt": 9113,
      "decent": 9114,
      "centre": 9115,
      "##periodic": 9116,
      "lj": 9117,
      "c0": 9118,
      "register": 9119,
      "∥k": 9120,
      "transpose": 9121,
      "ease": 9122,
      "enjo": 9123,
      "extent": 9124,
      "∥π": 9125,
      "casc": 9126,
      "fairly": 9127,
      "esc": 9128,
      "1s": 9129,
      "maxwell": 9130,
      "multiplicities": 9131,
      "relating": 9132,
      "inconsist": 9133,
      "4t": 9134,
      "wf": 9135,
      "gold": 9136,
      "##adj": 9137,
      "fault": 9138,
      "obe": 9139,
      "##ensen": 9140,
      "initialize": 9141,
      "##zen": 9142,
      "hl": 9143,
      "beamforming": 9144,
      "appeal": 9145,
      "aims": 9146,
      "enab": 9147,
      "##eff": 9148,
      "compens": 9149,
      "attacker": 9150,
      "w2": 9151,
      "##−s": 9152,
      "smoothly": 9153,
      "zn": 9154,
      "sees": 9155,
      "sorted": 9156,
      "things": 9157,
      "##ampling": 9158,
      "ze": 9159,
      "89": 9160,
      "codewords": 9161,
      "∂l": 9162,
      "fer": 9163,
      "hg": 9164,
      "##att": 9165,
      "soliton": 9166,
      "package": 9167,
      "played": 9168,
      "supporting": 9169,
      "detector": 9170,
      "∇w": 9171,
      "##schild": 9172,
      "noncommutative": 9173,
      "##endi": 9174,
      "amplitudes": 9175,
      "comme": 9176,
      "clar": 9177,
      "autonom": 9178,
      "whit": 9179,
      "suboptim": 9180,
      "gene": 9181,
      "##omb": 9182,
      "4b": 9183,
      "mg": 9184,
      "rein": 9185,
      "shapes": 9186,
      "instantaneous": 9187,
      "expanded": 9188,
      "energies": 9189,
      "thresholds": 9190,
      "dest": 9191,
      "displayed": 9192,
      "certific": 9193,
      "looks": 9194,
      "mobius": 9195,
      "trigger": 9196,
      "##−α": 9197,
      "day": 9198,
      "frechet": 9199,
      "##ched": 9200,
      "evaluations": 9201,
      "avec": 9202,
      "selects": 9203,
      "csp": 9204,
      "fidelity": 9205,
      "forec": 9206,
      "tb": 9207,
      "translated": 9208,
      "γ1": 9209,
      "##ordance": 9210,
      "gir": 9211,
      "toward": 9212,
      "framed": 9213,
      "tes": 9214,
      "##ilit": 9215,
      "xa": 9216,
      "enable": 9217,
      "##acles": 9218,
      "serves": 9219,
      "ordinal": 9220,
      "s∈s": 9221,
      "losses": 9222,
      "voronoi": 9223,
      "##vation": 9224,
      "wiener": 9225,
      "##kl": 9226,
      "xm": 9227,
      "gadget": 9228,
      "##86": 9229,
      "obs": 9230,
      "b−1": 9231,
      "enl": 9232,
      "counterexample": 9233,
      "ambiguity": 9234,
      "implementations": 9235,
      "improving": 9236,
      "behave": 9237,
      "collapse": 9238,
      "111": 9239,
      "heisenberg": 9240,
      "∥l": 9241,
      "captured": 9242,
      "##23": 9243,
      "diagon": 9244,
      "multis": 9245,
      "##flow": 9246,
      "crosses": 9247,
      "classify": 9248,
      "ingredient": 9249,
      "centralized": 9250,
      "latency": 9251,
      "e∥": 9252,
      "##ril": 9253,
      "reliability": 9254,
      "minimality": 9255,
      "stret": 9256,
      "##liers": 9257,
      "##forth": 9258,
      "##yshev": 9259,
      "volt": 9260,
      "notational": 9261,
      "groth": 9262,
      "##while": 9263,
      "meaningful": 9264,
      "developing": 9265,
      "cylindric": 9266,
      "longest": 9267,
      "a∈": 9268,
      "mos": 9269,
      "i∈s": 9270,
      "por": 9271,
      "∥ρ": 9272,
      "significance": 9273,
      "δn": 9274,
      "##vals": 9275,
      "p3": 9276,
      "saw": 9277,
      "ty": 9278,
      "conjectures": 9279,
      "uh": 9280,
      "regimes": 9281,
      "fv": 9282,
      "k∈z": 9283,
      "ary": 9284,
      "physically": 9285,
      "adds": 9286,
      "##ifferential": 9287,
      "##ques": 9288,
      "−∇": 9289,
      "bond": 9290,
      "attribute": 9291,
      "mw": 9292,
      "##aul": 9293,
      "erd": 9294,
      "ng": 9295,
      "annot": 9296,
      "h0": 9297,
      "insert": 9298,
      "birth": 9299,
      "ignore": 9300,
      "datum": 9301,
      "##matic": 9302,
      "imper": 9303,
      "bold": 9304,
      "clockwise": 9305,
      "##rs": 9306,
      "quaternion": 9307,
      "familiar": 9308,
      "shann": 9309,
      "##abel": 9310,
      "##endieck": 9311,
      "comment": 9312,
      "mathematically": 9313,
      "∈e": 9314,
      "legendre": 9315,
      "irrele": 9316,
      "kar": 9317,
      "discovered": 9318,
      "∇h": 9319,
      "##reh": 9320,
      "artific": 9321,
      "allocated": 9322,
      "##oclin": 9323,
      "βn": 9324,
      "91": 9325,
      "ny": 9326,
      "instrum": 9327,
      "u0": 9328,
      "grothendieck": 9329,
      "preimage": 9330,
      "submanifolds": 9331,
      "bernstein": 9332,
      "deleting": 9333,
      "sx": 9334,
      "conflict": 9335,
      "##56": 9336,
      "defect": 9337,
      "−∂": 9338,
      "differentiation": 9339,
      "interfer": 9340,
      "##romagnetic": 9341,
      "possesses": 9342,
      "finiteness": 9343,
      "chebyshev": 9344,
      "opposed": 9345,
      "sentence": 9346,
      "lifted": 9347,
      "shannon": 9348,
      "environments": 9349,
      "remarkable": 9350,
      "macroscopic": 9351,
      "reachability": 9352,
      "a∈a": 9353,
      "named": 9354,
      "##aff": 9355,
      "posedness": 9356,
      "accumul": 9357,
      "status": 9358,
      "hen": 9359,
      "henceforth": 9360,
      "oc": 9361,
      "substanti": 9362,
      "rj": 9363,
      "##odies": 9364,
      "unn": 9365,
      "displacement": 9366,
      "2ω": 9367,
      "facilit": 9368,
      "fredholm": 9369,
      "##antine": 9370,
      "forming": 9371,
      "geometrical": 9372,
      "##ski": 9373,
      "decays": 9374,
      "importantly": 9375,
      "fibrations": 9376,
      "nonconvex": 9377,
      "##ades": 9378,
      "plant": 9379,
      "bag": 9380,
      "ldp": 9381,
      "##ston": 9382,
      "gravitational": 9383,
      "returned": 9384,
      "´2": 9385,
      "##complex": 9386,
      "##omain": 9387,
      "bessel": 9388,
      "gx": 9389,
      "##spec": 9390,
      "vehicles": 9391,
      "constructs": 9392,
      "wat": 9393,
      "fell": 9394,
      "alexander": 9395,
      "indicating": 9396,
      "grateful": 9397,
      "glue": 9398,
      "placement": 9399,
      "reliable": 9400,
      "brevity": 9401,
      "##itivity": 9402,
      "strata": 9403,
      "rapidly": 9404,
      "fif": 9405,
      "a4": 9406,
      "excess": 9407,
      "accessible": 9408,
      "justified": 9409,
      "coalition": 9410,
      "cpu": 9411,
      "mle": 9412,
      "verifying": 9413,
      "libr": 9414,
      "favor": 9415,
      "laurent": 9416,
      "realize": 9417,
      "predicates": 9418,
      "reflected": 9419,
      "j0": 9420,
      "##acher": 9421,
      "challenges": 9422,
      "##pn": 9423,
      "##rect": 9424,
      "¨¨¨": 9425,
      "chromatic": 9426,
      "##thand": 9427,
      "hz": 9428,
      "##cher": 9429,
      "##den": 9430,
      "eaves": 9431,
      "##wal": 9432,
      "apparent": 9433,
      "mcmc": 9434,
      "picard": 9435,
      "zz": 9436,
      "explains": 9437,
      "##nik": 9438,
      "insights": 9439,
      "edu": 9440,
      "λ∈": 9441,
      "boltz": 9442,
      "sole": 9443,
      "∥y∥": 9444,
      "stating": 9445,
      "##pc": 9446,
      "quantify": 9447,
      "distributional": 9448,
      "separates": 9449,
      "cred": 9450,
      "upl": 9451,
[...]
