[PAD]
[UNK]
[CLS]
[SEP]
[MASK]
!
"
#
$
%
&
'
(
)
*
+
,
-
.
/
0
1
2
3
4
5
6
7
8
9
:
;
<
=
>
?
@
[
\
]
^
_
`
a
b
c
d
e
f
g
h
i
j
k
l
m
n
o
p
q
r
s
t
u
v
w
x
y
z
{
|
}
~
¡
¢
£
¤
¥
¦
§
¨
©
ª
«
¬
®
¯
°
±
²
³
´
µ
¶
¸
¹
º
»
¼
½
¾
¿
×
ß
ð
÷
ø
þ
đ
ħ
ı
ĳ
ł
ŋ
ƌ
ƒ
ƚ
ƶ
ȷ
ɖ
ɛ
ˆ
ˇ
˓
˘
˙
˚
˛
˜
˝
˲
ͳ
α
β
γ
δ
ε
ζ
η
θ
ι
κ
λ
μ
ν
ξ
ο
π
ρ
ς
σ
τ
υ
φ
χ
ψ
ω
ϑ
ϒ
ϕ
ϖ
ϙ
ϝ
ϟ
ϭ
ϯ
ϰ
ϱ
ϳ
ϵ
϶
а
б
в
г
д
е
ж
з
и
к
л
м
н
о
п
р
с
т
у
ф
х
ц
ч
ш
щ
ъ
ы
ь
э
ю
я
ր
ց
א
ב
ג
ה
י
ש
ଵ
ଶ
െ
ൗ
ᵀ
‖
‚
†
‡
•
…
‰
′
‵
‹
›
⁄
⁅
⁆
⁞
₁
₂
€
⃝
ℂ
ℋ
ℌ
ℍ
ℎ
ℏ
ℐ
ℑ
ℒ
ℓ
ℕ
№
℘
ℙ
ℚ
ℛ
ℜ
ℝ
™
ℤ
℧
ℬ
ℭ
ℰ
ℱ
ℳ
ℵ
ℶ
ℸ
⅁
ⅈ
←
↑
→
↓
↔
↕
↖
↗
↘
↙
↝
↞
↠
↢
↣
↦
↩
↪
↬
↭
↰
↱
↵
↶
↷
↺
↼
↽
↾
↿
⇀
⇁
⇂
⇃
⇄
⇆
⇈
⇉
⇊
⇋
⇌
⇐
⇑
⇒
⇓
⇔
⇕
⇚
⇛
⇝
⇠
⇡
⇢
⇣
⇤
⇥
⇧
∀
∁
∂
∃
∅
∆
∇
∈
∋
∎
∏
∐
∑
−
∓
∔
∕
∖
∘
√
∝
∞
∠
∡
∢
∣
∥
∧
∨
∩
∪
∫
∬
∮
∱
∳
∴
∵
∶
∼
∽
≀
≂
≃
≅
≈
≊
≍
≎
≏
≐
≑
≒
≔
≜
≡
≤
≥
≦
≧
≨
≩
≪
≫
≬
≲
≳
≶
≷
≺
≻
≼
≽
≾
≿
⊂
⊃
⊆
⊇
⊊
⊋
⊍
⊎
⊏
⊐
⊑
⊒
⊓
⊔
⊕
⊖
⊗
⊘
⊙
⊚
⊛
⊜
⊞
⊟
⊠
⊡
⊢
⊣
⊤
⊥
⊧
⊨
⊩
⊪
⊫
⊲
⊳
⊴
⊵
⊸
⊺
⊻
⊼
⋀
⋁
⋂
⋃
⋄
⋅
⋆
⋇
⋉
⋊
⋋
⋌
⋍
⋎
⋏
⋐
⋑
⋒
⋓
⋔
⋖
⋗
⋚
⋛
⋞
⋟
⋨
⋮
⋯
⋰
⋱
⌃
⌄
⌅
⌈
⌉
⌊
⌋
⌘
⌜
⌝
⌞
⌟
⌢
⌣
⌥
⌦
⌧
⌫
⍟
⎛
⎜
⎝
⎞
⎟
⎠
⎡
⎢
⎣
⎤
⎥
⎦
⎧
⎨
⎩
⎪
⎫
⎬
⎭
⎷
⏐
⏞
⏟
␣
①
②
③
④
⑤
ⓢ
■
□
▲
△
▶
▷
▸
▼
▽
◀
◁
◆
◇
◊
○
◗
◯
◻
◼
☀
★
☆
☎
☛
☞
♀
♂
♠
♡
♢
♣
♥
♦
♭
♮
♯
✁
✂
✄
✅
✆
✉
✌
✍
✎
✏
✐
✑
✒
✓
✔
✕
✖
✗
✘
✙
✚
✛
✜
✝
✞
✟
✠
✡
✢
✣
✤
✥
✦
✧
✩
✫
✭
✮
✯
✰
✲
✳
✵
✶
✷
✸
✹
✺
✻
❀
❂
❃
❄
❅
❆
❇
❈
❌
❍
❏
❑
❖
❙
❚
❛
❜
❝
❞
❡
❤
❦
❯
❳
❴
❶
➀
➁
➂
➃
➄
➊
➋
➌
➢
➤
➺
⟂
⟐
⟦
⟧
⟨
⟩
⟪
⟫
⟲
⟳
⟶
⟹
⦃
⦄
⧈
⧵
⧸
⧹
⨁
⨂
⨆
⨉
⨏
⨻
⨼
⨿
⩔
⩕
⩽
⩾
⪅
⪆
⪇
⪈
⪋
⪌
⪕
⪯
⪰
⪵
⫅
⫋
⫌
⫝
⫯
⫰
⬔
⬕
⬠
〈
〉
〚
〛
か
こ
し
す
て
と
に
の
は
よ
ら
る
れ
を
・
下
以
価
天
定
山
式
攊
攨
攩
攬
攮
攰
攱
攲
攳
攽
敡
敤
敥
敩
敬
敮
敯
数
敲
敳
整
評
関
ꓥ
，
．
０
𝐀
𝐃
𝐄
𝐅
𝐇
𝐌
𝐏
𝐖
𝐗
𝐚
𝐠
𝐩
𝐫
𝐮
𝐯
𝐰
𝐱
𝐲
𝐳
𝐴
𝐵
𝐶
𝐷
𝐸
𝐹
𝐺
𝐻
𝐼
𝐽
𝐾
𝐿
𝑀
𝑁
𝑂
𝑃
𝑄
𝑅
𝑆
𝑇
𝑈
𝑉
𝑊
𝑋
𝑌
𝑍
𝑎
𝑏
𝑐
𝑑
𝑒
𝑓
𝑔
𝑖
𝑗
𝑘
𝑙
𝑚
𝑛
𝑜
𝑝
𝑞
𝑟
𝑠
𝑡
𝑢
𝑣
𝑤
𝑥
𝑦
𝑧
𝑨
𝑩
𝑪
𝑭
𝑮
𝑯
𝑰
𝑲
𝑳
𝑴
𝑷
𝑸
𝑹
𝑺
𝑻
𝑼
𝑽
𝑾
𝑿
𝒀
𝒁
𝒂
𝒃
𝒄
𝒅
𝒆
𝒇
𝒈
𝒉
𝒊
𝒋
𝒌
𝒎
𝒏
𝒑
𝒒
𝒓
𝒔
𝒕
𝒖
𝒗
𝒘
𝒙
𝒚
𝒛
𝒜
𝒞
𝒟
𝒢
𝒥
𝒦
𝒩
𝒪
𝒫
𝒮
𝒯
𝒰
𝒱
𝒲
𝒳
𝒴
𝓁
𝓇
𝔇
𝔉
𝔎
𝔏
𝔐
𝔖
𝔗
𝔛
𝔜
𝔞
𝔟
𝔠
𝔡
𝔢
𝔣
𝔤
𝔥
𝔦
𝔪
𝔫
𝔭
𝔯
𝔰
𝔲
𝔳
𝔴
𝔶
𝔸
𝔼
𝔽
𝕊
𝕋
𝖲
𝖳
𝖶
𝖷
𝖺
𝖼
𝖽
𝖾
𝗂
𝗅
𝗆
𝗇
𝗈
𝗉
𝗋
𝗌
𝗍
𝗎
𝗏
𝗐
𝚤
𝚪
𝚫
𝚯
𝚲
𝚷
𝚺
𝚽
𝚿
𝛀
𝛤
𝛥
𝛴
𝛷
𝛹
𝛺
𝛼
𝛽
𝛾
𝛿
𝜀
𝜁
𝜂
𝜃
𝜄
𝜅
𝜆
𝜇
𝜈
𝜉
𝜋
𝜌
𝜍
𝜎
𝜏
𝜐
𝜑
𝜒
𝜓
𝜔
𝜕
𝜖
𝜗
𝜙
𝜚
𝜛
𝜶
𝜷
𝜸
𝜹
𝜺
𝜻
𝜼
𝜽
𝝀
𝝁
𝝂
𝝃
𝝅
𝝆
𝝈
𝝉
𝝋
𝝌
𝝍
𝝎
𝝓
𝟎
𝟏
𝟐
𝟑
𝟙
𝟣
𝟤
𝟥
𭟋
##w
##h
##1
##8
##e
##q
##f
##d
##a
##m
##p
##l
##i
##n
##g
##c
##␣
##5
##∩
##t
##ξ
##6
##3
##7
##9
##0
##4
##2
##s
##∈
##k
##b
##u
##y
##r
##o
##η
##j
##𝑆
##x
##β
##−
##∆
##λ
##γ
##v
##√
##𝑸
##α
##δ
##ω
##○
##σ
##˚
##z
##ˇ
##π
##≀
##ψ
##→
##♦
##ℓ
##↘
##µ
##𝒑
##𝒎
##ı
##υ
##ϕ
##б
##ъ
##е
##д
##и
##н
##×
##ϵ
##∞
##θ
##´
##⊆
##↓
##≤
##∇
##¨
##∂
##τ
##𝑖
##ℏ
##𝑔
##˘
##ρ
##φ
##∧
##≥
##κ
##ϑ
##∃
##а
##ж
##о
##с
##т
##ь
##⊎
##ˆ
##≪
##𝑚
##∼
##˝
##ℂ
##ε
##˙
##≜
##↔
##ζ
##∥
##≺
##∪
##μ
##⋄
##у
##л
##в
##з
##ч
##ν
##⊔
##ℎ
##χ
##□
##⊂
##⊥
##к
##ы
##х
##𝑛
##𝑠
##𝜂
##≃
##𝑢
##𝜙
##♣
##⩽
##⋆
##≡
##ς
##⊗
##𝛾
##𝑣
##𝑅
##𝑁
##𝐺
##↾
##𝛽
##𝑎
##⌟
##≈
##𝑝
##∀
##∡
##ß
##∨
##↵
##ϱ
##∓
##п
##р
##я
##⇝
##±
##ι
##♭
##←
##⧹
##⊖
##ϖ
##⊃
##𝑥
##♯
##∕
##𝛿
##¬
##♮
##ℑ
##ο
##⊙
##∅
##≊
##𝑑
##𝑒
##𝑐
##𝑜
##𝑏
##𝑙
##△
##⊕
##𝑘
##⪯
##⋯
##г
##𝚯
##↑
##𝐶
##♢
##⇒
##⊢
##ю
##⊊
##⇓
##𝛼
##✆
##✣
##✤
##☎
##★
##∣
##⌞
##ℵ
##𝑋
##⩾
##⌧
##⇂
##𝑦
##𝑟
##˜
##⋅
##¢
##≻
##ƌ
##∶
##⊇
##◁
##⊣
##▲
##ш
##⌣
##ℜ
##¯
##℘
##𝜋
##𝑮
##⊴
##𝐿
##®
##⋊
##¸
##⇀
##✓
##∖
##𝑞
##∋
##↗
##𝐾
##м
##⪰
##⌝
##щ
##⊩
##ц
##≲
##⌦
##°
##≫
##𝑡
##˛
##⌥
##𝑀
##𝐽
##⊤
##𝛥
##𝜔
##𝜈
##𝐴
##𝐵
##⊺
##↖
##𝜕
##↠
##¥
##¦
##𝜉
##⇐
##■
##▷
##⌜
##≅
##£
##∑
##𝜑
##⇥
##𝑤
##▽
##⃝
##⊓
##𝜇
##⊘
##𝜎
##◊
##𝒥
##⫯
##✝
##✞
##✟
##ƚ
##ƶ
##ø
##⋐
##∠
##€
##𝔖
##✁
##÷
##✖
##✌
##✗
##☛
##✡
##✕
##⇋
##⟲
##𝔯
##ф
##⋖
##⏞
##⏟
##⊞
##∔
##∢
##∏
##ð
##⇌
##⇁
##𝐷
##▶
##𝜏
##𝜖
##𝐹
##𝐼
##𝗍
##𝖽
##𝑲
##ŋ
##𝐸
##¾
##≳
##ℙ
##⊵
##☞
##𝒀
##𝚤
##①
##𝜃
##ℝ
##⊑
##𝑃
##𝔛
##𝐲
##∝
##𝒔
##𝑧
##𝑌
##⇃
##♠
##𝐻
##𝒇
##𝑊
##⋉
##𝑄
##↶
##⇕
##ȷ
##⊠
##𝐮
##⇔
##⧸
##は
##≼
##𝜓
##©
##∁
##る
##⋗
##𝔞
##↙
##✠
##þ
##𝑍
##𝑂
##⨿
##ł
##⫅
##↷
##⊛
##ϳ
##𝟙
##ϯ
##⊻
##𝜆
##𝑗
##✔
##𝜄
##𝓁
##↕
##¼
##⇑
##に
##º
##⌫
##ⅈ
##⋏
##𝜛
##ℒ
##⧵
##⟳
##✂
##✄
##❞
##𝖺
##𝗅
##𝜌
##⇡
##≍
##≦
##𝒢
##ϰ
##𝔤
##ℳ
##đ
##𝜁
##ℐ
##⋔
##𝜅
##ϒ
##０
##𝑇
##𝑉
##⊋
##⌢
##𝑓
##ɛ
##⋌
##⊡
##𝒗
##½
##▼
##❝
##⇧
##ℕ
##𝔼
##✍
##⇣
##ℭ
##𝗆
##𝑳
##¤
##𝔣
##ℤ
##∽
##∫
##⇤
##♡
##⊼
##𝒏
##✚
##✺
##✵
##𝐃
##𝜶
##✎
##𝒈
##𝜐
##𝜀
##⊏
##𭟋
##₂
##𝑈
##ĳ
##𝒮
##𝗇
##™
##э
##𝒰
##⊐
##か
##⋎
##ש
##י
##ה
##⊸
##≧
##⧈
##𝜗
##◆
##𝒫
##𝒙
##℧
##◀
##𝑩
##⊟
##𝟏
##ꓥ
##≽
##✑
##𝒱
##✶
##ℋ
##⊨
##𝛷
##よ
##✸
##↿
##こ
##と
##↦
##✛
##✦
##✻
##𝐠
##⊧
##𝜒
##₁
##𝒁
##の
##⋀
##✳
##✹
##ϝ
##𝝍
##𝝂
##◻
##²
##𝝎
##𝒚
##⊒
##⪵
##𝝓
##ଵ
##✐
##❛
##𝐚
##¹
##⇄
##て
##⇠
##𝐗
##𝑼
##❀
##∐
##𝝁
##✢
##♥
##𝒄
##≿
##✏
##⊚
##⁄
##𝑨
##𝖾
##𝗂
##↣
##𝑿
##②
##⇉
##𝒳
##⎷
##れ
##𝒛
##✭
##❂
##ħ
##⇢
##ℶ
##𝕊
##𝒞
##𝔭
##✥
##✧
##∘
##⫋
##𝔟
##𝒴
##✷
##⋁
##⇛
##𝜷
##𝔽
##𝔗
##⎤
##ℰ
##ℚ
##≷
##↝
##𝗋
##⊲
##𝒯
##✘
##𝝆
##𝒋
##❤
##≨
##𝜹
##⋓
##❙
##⋇
##𝒓
##𝒜
##𝔉
##❏
##を
##☀
##𝒖
##𝓇
##ב
##𝗏
##✙
##ƒ
##∳
##ɖ
##↬
##ଶ
##𝒦
##❇
##✮
##⌘
##✩
##✫
##✲
##≾
##𝒂
##≬
##϶
##✒
##𝜚
##³
##↼
##≐
##𝐱
##𝛺
##ᵀ
##𝟐
##𝔥
##ら
##𝐫
##𝒃
##❜
##א
##𝝅
##ℬ
##𝒒
##✉
##ג
##𝚪
##ϭ
##⪇
##𝛤
##𝐌
##✜
##❅
##𝒆
##𝔳
##𝑽
##⨼
##⨏
##⎛
##⌄
##⋋
##𝗈
##↭
##𝒩
##𝑾
##𝐄
##↞
##𝑭
##𝑻
##⨆
##ͳ
##◇
##𝑷
##𝟥
##𝚽
##𝑴
##𝚲
##𝛴
##ℸ
##≶
##◯
##✯
##𝑯
##𝜍
##↪
##❡
##∱
##ª
##⋮
##⋃
##❄
##❆
##❖
##❦
##⎧
##∎
##⩔
##ϟ
##𝔢
##𝐳
##𝗎
##𝖼
##𝔫
##≩
##ℛ
##ϙ
##𝒲
##𝒌
##𝑺
##⌃
##𝔪
##𝐅
##𝒪
##𝖲
##𝒟
##𝚫
##⇊
##𝔴
##𝒉
##し
##⊳
##ⓢ
##𝗉
##⎠
##⪕
##𝗌
##𝚿
##𝜻
##⪈
##⫰
##◼
##𝒊
##𝝈
##𝔰
##⫌
##ℱ
##➃
##𝚺
##す
##⅁
##▸
##𝐏
##𝔎
##𝗐
##∴
##⇈
##𝐇
##⨁
##𝔲
##ൗ
##↱
##𝒕
##𝜸
##𝐯
##⋑
##⊫
##⊪
##⎫
##𝑰
##𝐀
##𝒘
##𝔏
##③
##④
##⑤
##𝝉
##𝝀
##⨻
##♂
##⇆
##𝑪
##𝖷
##➂
##≏
##𝔐
##𝟤
##𝜼
##⋒
##𝝋
##𝕋
##⨉
##˲
##➋
##⋂
##𝝃
##𝚷
##𝑹
##⇚
##𝖳
##⟂
##𝜽
##↰
##↢
##↺
##❚
##𝐰
##⩕
##𝒅
##𝐩
##☆
##∵
##𝔦
##𝔡
##⋞
##➄
##⎞
##❍
##ℍ
##➀
##𝜺
##✰
##𝟣
##𝟑
##≑
##ℌ
##➁
##⊍
##𝟎
##⎪
##⟹
##𝔸
##⏐
##❈
##≂
##ց
##𝔠
##❃
##⎦
##𝛀
##⌅
##𝖶
th
the
##on
##ti
##er
##or
##in
##en
##es
of
##nd
##at
##tion
in
##al
##ed
and
is
##ro
##it
##ar
##re
##an
##is
to
##et
##ing
##ic
for
we
##ec
that
##om
##le
##as
con
##ly
##ve
pro
##ation
##ll
##ent
##ac
##ow
on
##em
##ith
##im
##st
wh
##si
su
as
##ot
##ce
##ou
be
an
by
with
##ul
st
re
ex
##ol
##se
##am
de
##ver
##qu
##ur
##ig
##ts
##od
this
##um
##ch
are
##ri
com
al
##ut
##ab
##ain
##pl
##ity
po
##ap
##el
##tic
##il
##ate
##tin
##ter
if
##ir
##ction
##ere
res
##fin
##iv
can
it
##ect
##if
ha
##pp
or
##oll
then
not
comp
##ge
##res
##tive
##rom
##un
##ure
sp
##ence
let
##ich
from
se
defin
##ting
all
##id
theor
which
##th
ch
##uc
sh
par
##iz
##der
lo
at
have
us
##per
dis
where
set
##us
##ollow
follow
there
##ition
−1
##ay
##for
tr
##sion
##ble
un
##ad
cl
##ach
##ection
##ant
co
##ari
equ
theorem
fun
such
##ma
##ally
ob
ne
##of
##ound
##ations
int
function
##ess
##tain
##po
##igh
##−1
##ase
##all
mod
le
##ution
##able
ass
proof
##ary
one
sub
##erm
##ies
##ment
##ated
##act
##ds
app
gen
ind
##ric
lem
sy
giv
##ple
qu
bound
im
fin
const
##fer
##ite
gener
form
lemma
##ace
sim
sin
##tim
tw
en
cor
ma
##rou
any
##ati
ad
##ine
has
##ber
##ill
ver
##sition
poin
##end
each
##and
resul
show
ab
##alu
gr
two
ar
case
inter
den
##ore
##ome
##dition
##ous
str
mat
##so
exp
given
since
num
so
assum
non
me
##gor
##ose
##ff
##ular
fi
##ial
following
##rib
sol
also
will
##ree
##uct
##form
##enti
##ding
##ame
##oth
section
ac
##sider
tim
consider
fig
##ther
fir
dif
##oc
##ans
log
some
##gr
first
propo
see
##ical
only
our
##aph
di
##ator
min
##os
op
##ep
##ithm
##og
no
##ates
dist
##ight
number
##blem
##ak
##abil
##etw
exis
vari
10
cont
problem
more
##ph
##ance
when
##ud
max
##ass
rec
##resent
model
##atis
per
valu
condition
rel
##ork
time
##gorithm
##ra
algorithm
denot
es
##orm
follows
obtain
##ension
##est
##ust
##eth
map
id
using
resp
##cl
##roup
constr
differ
##ative
pre
sm
order
other
##ers
##ong
##ents
rep
over
appro
line
graph
##ex
these
definition
##ard
##ector
des
##plic
##stem
pr
##ang
##orph
##atisf
##ability
satisf
##ves
##yp
system
##ality
dim
##ise
det
ev
##ties
space
point
proposition
term
reg
thus
its
##very
defined
##ective
now
solution
mo
##lement
rem
##ffic
##op
supp
bas
figure
trans
do
##ty
##pon
20
und
##ast
##ie
hol
exam
fact
pl
use
every
##etric
##ue
##fore
dec
##cal
##ct
##ism
##gh
oper
##uction
proper
out
ext
12
##ort
general
same
note
##respon
correspon
under
lim
class
ed
estim
##ied
group
comput
##ges
subs
11
prov
finite
disc
but
distrib
##ark
##omorph
inte
kn
##rix
##vi
##ion
dimension
##ld
##ffici
##een
anal
prob
meas
##ser
vector
##ack
proc
##etween
between
man
matrix
element
how
define
##ove
##sis
hence
##our
results
##amet
##ization
##au
dat
than
##ption
result
partic
##les
sec
sequ
sym
optim
typ
assume
represent
above
##ign
##ide
##ould
linear
poly
denote
mul
exists
##geb
inv
cur
##ize
paramet
meth
##enc
##ected
method
contain
therefore
dep
##ip
##ath
##iqu
example
ii
##age
equiv
##andom
multi
lar
fix
conver
distribution
random
tak
##ian
##out
##ized
norm
may
##lex
state
em
##ond
tri
##ke
##pt
bec
algeb
obser
functions
struct
cho
spec
deg
know
##ilar
minim
##ential
points
small
probability
##ag
equation
operator
##ish
conn
similar
both
##ann
red
##ower
##rod
##sitive
##tical
##ever
acc
ag
ap
##rr
##sed
into
equival
##air
data
##low
analy
##vel
sch
##ors
##ual
##olog
prove
desc
##ently
used
process
imp
complex
call
step
##plies
inc
##tinu
##bit
hom
particular
13
##xim
constant
formul
pos
nod
##ero
second
up
##ating
dire
sum
ro
comm
introd
work
sing
well
value
##omial
pap
approxim
prod
der
##ures
here
##ted
assumption
##over
maxim
positive
##ord
##ail
corresponding
sequence
##sible
continu
sur
##oun
##ving
measure
##omorphism
different
##uced
ij
##aces
inst
##ss
holds
implies
et
real
##equ
need
however
paper
ph
##tial
pair
##formation
19
##plet
##int
most
14
##ile
algebra
path
fur
suppose
char
their
does
requ
bounded
type
inequ
##ique
zero
was
la
bl
fiel
##tices
polyn
sign
stud
16
fr
determ
##epend
wr
col
integr
##ens
compon
##ved
15
##ases
remark
clos
##ific
##ause
based
##ix
independ
terms
##ice
ran
polynomial
##ive
##ough
##tex
##eng
local
identi
respective
large
they
structure
##are
complet
dy
af
present
##ft
dom
exist
end
vertex
lat
##ood
aut
arg
##etwork
##als
##old
get
##put
network
high
ge
fe
##ger
vertices
n−1
satisfy
values
sam
hand
rest
err
##gy
##uce
obtained
boundary
##ry
##ables
symm
because
##ks
##oci
##ern
##ily
mon
li
##gram
conditions
respectively
##ength
fixed
edge
perform
##ret
optimal
invari
associ
##wise
am
##clud
new
##its
top
−2
##acter
ent
depend
##ell
proj
##ech
dx
##ays
coroll
right
##und
dimensional
deriv
hy
##vious
been
##ear
##ature
apply
theory
##ten
approach
##istic
describ
sc
least
character
##ull
size
eig
while
main
loc
##ational
satisfies
corollary
moreover
simple
contr
gl
sl
sets
inequality
ini
respect
cy
##ob
continuous
stand
action
unif
##vers
called
exact
##cc
lin
even
cod
##tice
sel
vi
##ym
##xt
determin
##ples
sup
eigen
##par
property
part
consis
##ooth
constrain
recall
##ule
comb
scal
17
##ness
next
##action
##vex
independent
must
edges
sem
expres
length
##rough
##eed
subset
##ov
regular
parameter
2n
uniform
smooth
limit
properties
degree
left
##aus
##ject
infin
unique
##atur
##00
incre
##ether
field
18
through
shown
elements
variables
##ement
converg
contro
direct
fl
possible
known
three
hyper
##fic
##ology
error
find
eas
convex
initial
##sequ
21
ser
connected
normal
star
discus
closed
##str
##ning
##fficient
schem
##ences
##ful
##ib
standard
information
##clu
would
shows
gives
combin
201
addition
equivalent
associated
product
prec
##olic
way
##onal
complete
rate
formula
restric
many
##ral
construction
states
##gn
he
##ects
mean
free
metric
manif
##ible
equal
##ities
##ither
refer
lower
##nam
cal
natur
##oint
fam
##ompo
construct
quant
##iel
pres
setting
compact
22
parti
##tern
allow
argum
##ends
inf
rank
analysis
equations
##−2
corre
k−1
quantum
ide
coe
##ist
surf
##anc
invariant
cle
##inc
##ics
##ides
eigenv
##ategor
cent
br
unit
##ulation
##ire
level
##tal
##ired
remain
##adi
asym
contains
##tiv
wor
iter
finally
##ighb
##ically
cases
convergence
dt
est
conc
weight
##ants
neighb
ima
strong
eff
after
decompo
div
##ane
applic
solutions
##otic
conf
write
##inal
tree
##urn
##anti
node
interv
estimate
##pper
whose
1−
previous
without
study
##iew
##ock
##vial
compar
dynam
arbit
open
clear
weak
cr
##rop
domain
##rices
graphs
##ments
coll
##tions
either
neg
cla
further
##annel
representation
models
##ub
power
##ordin
23
arbitr
##ange
##ward
parameters
ener
upper
yiel
factor
##plicit
##de
channel
cos
systems
claim
asympt
##ings
add
##ency
go
##bed
distance
spect
categor
lab
##clude
##ier
due
calc
##omorphic
last
below
geom
say
asymptotic
mark
inters
coun
coordin
##etry
##row
eq
##ost
take
expl
give
extend
##cle
24
like
support
nodes
variable
single
quanti
energy
sen
##eck
el
orig
tech
approximation
again
root
table
index
symmetric
techn
basis
##asing
##sity
generated
indeed
observ
25
cost
means
##ecess
true
##one
methods
##ually
##ner
gu
matrices
##sive
numer
##ha
2π
ach
notation
component
prim
natural
lead
##olution
expon
maps
##ording
##edi
av
##ertain
spaces
problems
achie
proposed
control
##iod
bounds
eigenvalu
according
att
##ately
about
bi
infinite
inver
consequ
pri
cir
##not
compute
adm
curve
##sions
relation
##ug
cover
##hood
them
necess
ds
choice
separ
very
side
along
region
##ead
input
bel
aver
ke
strate
extension
conv
squ
detail
modul
stat
family
lear
total
tre
##ets
diag
adj
trivial
embed
choose
obj
cap
##rete
##line
##round
##tit
scheme
algorithms
indic
period
bo
##sian
car
triang
transform
appear
##ided
##ross
denotes
classical
observe
components
##ified
those
import
repl
tran
##ilt
−→
2k
iii
groups
integer
specific
ln
##agram
##ene
##led
sto
emp
explicit
satisfying
similarly
density
label
decomposition
special
exper
beha
##ify
gaus
ax
isomorphism
##iter
arbitrary
diagram
##ision
occ
##lish
argument
##ute
##arg
otherwise
being
loss
gre
manifold
negative
operators
maximum
run
##most
##sp
append
should
##graph
flow
surface
tor
via
du
##plit
lie
performance
calcul
##inary
##cept
##ernel
i−1
super
##ention
pred
##atic
proved
##ave
before
furth
relative
identif
##ermore
direction
precise
furthermore
cell
considered
cannot
check
##uces
partition
integral
instance
kernel
described
existence
##fficients
coefficients
##ys
projection
bund
dual
frame
related
interval
200
##other
back
interp
val
appendix
##orphism
denoted
yields
exactly
##ways
subg
##ons
minimal
##adic
stric
##ries
stable
were
##her
discrete
##fficiently
##astic
another
enough
hyp
view
hold
vectors
sense
orth
##oid
##→∞
glob
sti
long
##vari
strict
always
found
evalu
transm
##ablish
perm
differential
relations
establish
##uting
complexity
block
##velop
chain
##av
quad
##own
ret
singular
##ply
26
test
row
computation
pot
certain
imm
vol
##ensor
##ior
subgroup
important
##af
##ext
experim
clust
##umn
gaussian
del
make
image
27
examples
analog
column
fre
##acy
almost
conclude
maximal
tra
numerical
##til
ori
##ators
times
##read
neighbor
taking
behavi
morphism
##plied
30
##ole
##izing
##pling
##ching
introduce
proced
##ps
occur
orient
28
##ok
ques
design
change
provide
play
category
simul
predic
ens
princ
##ental
32
##ping
##osen
##esting
tog
multiplic
name
code
hypoth
program
##fication
equivalence
inclu
act
##uch
##ological
classes
sever
together
average
close
induced
##itten
i∈
van
preser
##onstr
require
phase
identity
sample
contradic
prop
##ility
full
##eness
hypothes
impro
enc
##otop
ref
develop
just
applying
estimates
what
ill
dem
assumptions
##ind
instead
chosen
numbers
##uted
##itive
##assi
could
##entially
quas
still
four
uniformly
##pr
statement
mom
bu
##arily
orbit
##dd
guar
curves
summ
cycl
conject
version
##igur
n−
output
reas
##omes
cf
optimization
minimum
##ade
belong
diff
##izes
imple
several
strategy
ham
##etic
invol
31
easy
simpl
##ras
consist
assi
series
##son
corresponds
∥x
interest
##ration
constraints
introduced
decre
learning
position
guarant
intersection
##arch
commun
turn
configur
##ource
mak
rece
global
rob
subsp
transition
cross
geometric
uni
notice
symb
##chastic
irr
rule
upd
low
ess
noise
##tur
29
cons
procedure
potential
stochastic
correspond
##ogene
disj
expression
##ritical
color
##sel
split
##ick
classi
sufficiently
contained
##sib
near
##man
abs
constraint
conj
less
##odes
##kn
##ron
altern
illust
diagonal
words
difference
algebraic
expected
##ances
gradi
within
link
loop
assign
sit
good
##lation
whether
statis
easily
##vant
locally
higher
canon
##side
introduction
bundle
vanish
lattice
applied
tensor
##here
common
clearly
2m
valid
auth
prot
mix
simply
implement
original
increasing
depends
replac
pairs
##ount
ri
module
plane
##war
commut
context
##olds
adap
namely
expan
##tivity
cluster
connection
##work
##ucible
allows
generalized
##rid
−i
simplic
pi
odd
mem
partial
required
immedi
orthog
embedding
reduction
critical
distin
expect
cycle
##ax
##ilton
short
event
read
dynamics
coordinates
square
funct
##sc
self
satisfied
##ference
distributions
spectral
steps
multiple
additional
fund
networks
polynomials
math
disjoint
permut
pat
hamilton
bet
presented
framework
sw
−n
##ages
shall
symbol
computed
determined
##ener
question
iv
33
reason
recur
equil
##sch
paths
spar
sa
prior
curr
eigenvalues
precisely
provided
contrib
much
converges
##less
reduced
key
##ecting
necessary
hor
user
equality
##ory
consists
##ne
irred
inverse
##onic
base
law
written
equilib
canonical
univers
conjecture
covari
distributed
##tig
ded
hyperb
gradient
monot
34
##aves
strictly
lines
hal
sufficient
##ready
union
already
∥u
becomes
foc
equilibri
##ress
##uring
polic
directly
##fine
forms
requir
estimation
neighborhood
studied
among
##ceed
##itz
accur
periodic
seen
ball
##ein
characteristic
larger
##hom
measures
hypothesis
sk
details
##alle
bran
radi
train
rational
entrop
distinct
##idual
##ogeneous
quer
constants
communic
phys
notion
induction
applications
prac
geodes
focus
cut
conjug
cou
best
##bert
formal
##ety
seg
arc
##uts
##ights
fundam
consequence
possib
##jective
conclu
pertur
tas
empty
range
ideal
describe
def
cop
##ather
center
hyperbolic
##gest
application
##emp
##eni
dr
analytic
guarante
resulting
fields
provides
##rem
extended
chang
circ
reach
having
remains
mapping
orthogonal
start
exponential
##hed
##ratic
basic
desired
containing
off
symmetry
##ild
signal
##ules
dou
irreducible
tang
##lying
dra
useful
estimator
ang
correct
lay
moment
##imin
sn
frequ
fundamental
probabil
smaller
behavior
transformation
hard
succ
sequences
quasi
##echan
2d
interesting
##ler
homotop
##oti
lip
processes
mechan
grow
paralle
approximate
lif
##linear
source
constructed
stra
35
stability
##gin
isomorphic
types
##to
unc
quadratic
situ
post
return
##resh
##ope
ring
subspace
collection
straight
valued
domin
latter
parallel
affine
liter
har
leads
##llip
restriction
algebras
fil
##ots
station
observation
grad
##ader
contradiction
36
derived
expansion
entropy
solve
starting
##ater
hil
er
##rum
functional
inves
topological
variance
mention
##emann
suffic
##ription
scale
illustr
entries
obvious
iteration
plan
underst
weights
rot
pass
binary
investig
derivative
structures
topology
rati
−∞
##up
requires
##ird
signific
spin
targ
que
pur
##iques
begin
mess
comparis
done
##app
##red
##atives
mathem
quoti
##ying
half
##ably
measur
rev
takes
fiber
##lin
t−1
##tics
better
##though
markov
util
riemann
although
hamiltonian
∥f
derive
round
wal
shar
##ocol
j−1
suit
##ses
syn
coinc
fraction
##ux
computing
various
definitions
third
central
coordinate
hel
##wer
fac
divis
later
origin
rather
−t
game
pe
m−1
depending
equilibrium
##sing
proofs
curv
##ification
functor
sampling
mass
protocol
pse
−k
description
pattern
explain
current
ellip
vis
pseud
configuration
thresh
lang
horiz
##ult
once
objects
##gers
##∈n
##rier
eigenvalue
generic
agent
capac
princi
##ze
controll
40
##ortion
shif
perturb
##ices
semi
##ression
effective
hilbert
theorems
down
##ised
idea
sections
supported
observed
##ters
∂x
she
avail
x∈
diffic
pack
around
pop
pure
xy
repe
objective
representations
policy
suffices
sug
ful
object
uses
subsection
pol
horizon
encod
conditional
##ously
effect
final
discussion
bor
adjac
autom
transmit
considering
often
draw
ans
scalar
trees
37
target
fail
##alities
projective
coefficient
substit
##verse
cone
discussed
samples
##back
determine
##ems
flat
contribution
subsets
d−1
##schitz
rele
2r
assumed
##zation
weighted
significant
fib
parts
dz
ir
##jector
spectrum
search
##aries
shap
integers
datas
computational
##pri
##ements
homogeneous
finitely
##forward
##off
trajector
cp
##osition
##ising
operations
indiv
strongly
comparison
volum
100
made
differenti
##isk
curvature
appropri
taken
01
communication
ratio
lipschitz
langu
trace
complement
solving
impo
##ture
cub
goal
represented
decod
##atures
motiv
manifolds
degener
subsequ
literature
prime
##ins
ker
available
arguments
abel
operation
inner
scen
cohom
rules
tu
##ces
far
interpret
stationary
composition
lagr
robust
deterministic
put
nonlinear
works
scenari
##te
inequalities
ord
##self
matching
homomorphism
whenever
users
quotient
joint
##usion
radius
makes
demonstr
represents
00
efficient
count
capacity
##ocks
surfaces
modules
##rees
universal
extrem
word
factors
usual
variety
might
techniques
geodesic
38
branch
##ms
improve
50
triangle
mach
##earch
##ott
interaction
remaining
generality
homotopy
though
research
simulation
combining
choos
lemm
geometry
##fect
underlying
enti
discuss
##ale
##idth
##plo
absol
##tible
able
compared
##izer
except
isom
feas
refl
verify
consequently
assuming
wave
deduce
##etical
needed
iden
list
alternative
null
##tr
rew
itself
abelian
straightforward
piec
explicitly
##uctive
band
absolute
experiments
dir
principle
##tingu
proceed
imply
sphere
##plec
immediately
##unction
##tinguish
permutation
cre
criter
including
gap
##iting
actually
199
defines
##jection
during
##eli
pois
caus
##puts
aw
update
training
2i
necessarily
39
##ledge
volume
jo
##ission
area
individual
##plectic
##wards
onto
evolution
rig
##≥0
sparse
pric
j∈
compati
##ucing
##stein
generating
##hip
empir
situation
formulation
##ucts
n→∞
decision
alloc
dµ
##ink
admits
##zed
bit
##ames
ones
schemes
−3
##cludes
counter
conveni
prof
want
interior
suitable
−α
compare
poisson
recover
concern
restricted
card
agents
ps
measurement
face
euc
41
look
lies
arr
dimensions
authors
theoretical
match
##iding
fut
increases
mechanism
kl
##ash
2p
consistent
layer
##con
dev
∂ω
approaches
1≤
##ude
double
finding
priv
eucl
covariance
specifically
df
homology
symplectic
perfect
var
##rie
automorphism
squar
threshold
move
elliptic
task
##art
##11
termin
reader
ear
codes
belongs
##let
slight
unitary
pic
knowledge
dp
−c
formulas
subgraph
atom
42
proves
defining
admis
np
rates
dv
tangent
accuracy
##ormal
appropriate
success
##ural
marg
##ract
classification
dense
##mod
##idence
fou
##print
##−−
induces
holomorphic
exec
decreasing
∥v
bre
box
derivatives
expectation
lapl
−x
mut
##iver
##pled
combinator
om
mentioned
future
spati
conclusion
expressed
stabil
##idean
achieve
gain
euclidean
identify
gal
selection
distinguish
fourier
arri
cohomology
bal
blocks
infinity
circle
torus
acts
filter
diver
ann
##ili
understand
−a
receiv
completely
purpo
bott
inside
##enting
##idd
avoid
aff
propose
bs
treat
role
never
cour
lemmas
pa
##li
essentially
developed
discre
##uler
chap
dependent
##izations
intervals
include
preprint
stated
cycles
adjacent
said
directed
##uit
45
p−1
iss
scaling
##ded
rad
observations
few
recent
smallest
entang
risk
##known
admissible
43
generally
env
reduce
columns
throughout
dri
##ki
motion
query
physical
regularity
asser
##olation
##ially
mer
indices
gau
combination
empirical
##ah
##gies
remo
subject
##com
conform
relevant
frequency
2s
mis
memory
particle
spher
pd
−s
generalization
si
opp
##ased
pt
feasible
string
intern
xi
closure
tool
##12
fa
##ming
vir
walk
black
unb
transmission
##reg
language
segment
largest
appears
nonz
princip
equivalently
unknown
player
roots
anti
generate
mn
inclusion
mar
intu
correlation
features
relax
genus
cyclic
answer
magn
deal
##lo
cn
entire
classif
dg
dependence
generators
44
##ests
ordered
##pped
qubit
account
analogous
estimated
jac
weakly
nonzero
emplo
home
aim
increase
spann
probabilities
grid
2c
a1
2α
mc
bc
px
actions
−λ
oriented
choosing
technical
adjoint
∥a
changes
met
compos
##vable
iff
showed
pen
possibly
errors
polyt
proving
attack
commutative
jum
outc
n−2
continuity
∥∇
recently
converse
span
regression
dynamic
∇u
cs
iterations
##tif
−m
##oli
reconstr
pseudo
##ises
whereas
ik
bro
##arities
reference
euler
lagrang
##unc
message
##arithm
axis
##ured
rewr
equivari
principal
forward
consisting
##ints
speed
keep
##ont
##isation
adding
cells
multiplication
greater
##dp
p1
too
##isted
2a
price
until
fully
measurements
##time
regions
##ia
vertical
orientation
##iom
ep
abstr
technique
i1
feature
replaced
2t
k−
happ
transl
summar
##imension
interested
measurable
vary
normalized
asymptotically
elementary
t−
his
products
splitting
jk
achieved
##10
coher
leading
elect
piece
ground
covering
##ues
48
established
devi
help
completes
simplicity
disk
converge
lik
generator
##know
rows
gauge
diffe
##lu
planar
equals
occurs
##eter
correl
axiom
place
±1
##elihood
embedded
course
stage
concept
whole
contrast
acknow
cd
concent
showing
replace
∆t
decay
knot
variation
sched
preserving
##point
spatial
fast
##esian
invariants
shape
graded
identified
slightly
compatible
categories
−d
bar
##ik
harm
##iron
##itt
tight
likelihood
needs
explo
##ipar
##ident
equivariant
ce
usually
lagrangian
horizontal
bits
hop
guarantee
ss
orbits
tem
##ime
chapter
##ging
sure
implementation
naturally
te
machine
report
stor
leaves
##gan
−r
access
neighbour
##atical
vel
channels
difficult
regard
pc
´1
##tite
statistical
environ
##ensive
##ody
##anced
46
recursive
symbols
big
expand
uniqu
definite
##ling
##vity
feed
##eless
angle
evaluation
mixed
degenerate
delay
##neg
maj
swit
reduces
mor
logarithm
dynamical
ren
monotone
uniqueness
cand
tail
resolution
guarantees
quantity
exh
##tically
ensure
pay
active
##val
combinatorial
##berg
criterion
integration
expressions
translation
outside
mathematical
linearly
##pping
nonneg
cau
cond
##face
running
##roid
bin
depth
solved
learn
transformations
degrees
interpretation
ra
##tane
diverg
t∈
quite
artic
meaning
become
exce
x1
proportion
growth
##ci
conser
fit
##fficiency
additive
essential
performed
##atter
replacing
simultane
aug
discreti
modified
logic
interference
review
divisor
mes
plot
choices
##bs
pick
pp
−4
opt
strategies
virt
advant
links
respon
dataset
##erior
identical
acknowled
scenario
##chy
riemannian
relationship
ul
##ources
practice
propag
dm
comes
calculate
monoid
refin
existing
ordering
##ton
contact
calculation
omit
injective
##ectors
mac
47
bra
formally
##ited
sides
particles
##rob
diffusion
bay
##algeb
selected
core
cauchy
mas
jacob
∇f
incom
dw
amount
perturbation
domains
making
shift
borel
nonnegative
##etries
##aps
candid
da
∂t
turns
allocation
applies
detailed
arbitrarily
bottom
uncertain
experiment
brow
extends
##ading
##cy
bipar
famil
leaf
independently
specified
convention
simplicial
author
major
dn
##iti
images
uniquely
pull
automat
vanishes
db
seman
labeled
labels
##atch
conjugate
morphisms
aux
moduli
address
##rief
comple
##ipped
belie
adaptive
##ametric
##br
transfer
##tri
##cluded
##→0
prel
goes
practical
invertible
brief
cc
analyze
entry
herm
duality
simulations
trunc
wa
##lic
modulo
vanishing
posterior
ban
i∈i
∥w
yield
inser
conformal
##acting
utility
zer
cm
##ifold
light
advers
osc
join
pn
arx
49
lp
characterization
population
les
leg
2j
2l
k∈
extensions
differentiable
stack
internal
til
##chron
##cep
rs
brown
arxiv
##ending
acknowledg
oppos
families
##lier
xx
correspondence
across
coupling
assignment
r−1
∥x∥
nor
##ring
##utive
##inear
implicit
faces
il
##ularities
theoretic
∥p
sugges
na
had
rect
computations
##acle
instances
##ake
hist
subc
dig
ow
erg
2b
article
parab
marked
polar
une
trajectory
##ush
2q
000
feedback
item
coding
coincides
efficiency
statistics
arcs
ram
notations
rotation
immediate
wide
height
diagrams
2−
##≥1
sv
chall
##port
penal
nontri
configurations
exch
subt
##ocity
relatively
partitions
−β
##get
online
velocity
fal
demand
blow
harmonic
cardin
pm
##atically
bijection
##sitivity
employ
2g
fractional
gh
##yl
∥g
##olated
rectang
integrable
##ta
inductive
hyperpl
l−1
derivation
displ
estimators
crossing
blue
##odic
##mann
upon
esp
effects
limits
##ibility
singularities
diffeomorphism
presence
location
detection
64
away
typical
##ites
torsion
mode
quantities
uv
organ
mm
monomial
αβ
events
##onom
##overy
##where
who
entanglement
##×n
bipartite
investigate
elimin
proven
monotonic
behaviour
typically
testing
evaluate
pq
directions
kind
bes
outer
##otent
##ev
influ
arrow
nontrivial
overall
environment
yet
purpose
ergodic
squares
inference
atten
tot
##utes
##otrop
iterative
cruc
agg
ct
##pro
hier
abstract
qq
regime
exc
rough
parametri
pairwise
##13
exception
##riting
##ground
subd
break
going
##ows
##times
##ient
exponent
clustering
extreme
ensem
green
towards
##points
vers
##umer
tuple
polyg
##ectivity
ef
pour
##ounded
filt
preserves
equipped
metrics
subgroups
seems
soc
52
−j
mapp
added
her
randomly
discon
games
hierarch
adv
obviously
bundles
−p
prefer
##ines
cart
levels
51
produce
adop
circuit
cat
probabilistic
##igroup
width
60
##sur
a2
##rence
##oper
##≤n
sci
win
copies
##omen
##eties
queries
∥u∥
zeros
brownian
##∈s
received
##ley
exponentially
illustrate
phen
background
ht
##max
sens
significantly
marginal
track
response
ns
##mand
against
moves
allowed
previously
divergence
∥y
##ograph
thank
cardinality
##hn
serv
modular
body
earlier
approximations
mesh
decoding
runs
overl
else
parabolic
##oting
ensures
ba
temper
##−k
##ream
##ibit
ve
bob
neighbors
member
prediction
ai
oscill
sums
pub
inputs
integrals
repres
determinant
alice
suggest
rh
laplac
dirich
infinitely
care
##encies
coincide
dirichlet
ly
##14
triple
fair
sd
multiplicity
##edy
consistency
auxili
snr
bias
statements
##ifies
extra
gp
##fully
ske
limited
isotop
fill
−b
primitive
processing
representing
auxiliary
worst
##bes
sizes
complic
demonstrate
quantif
simplify
##cd
restrict
advantage
acting
settings
2x
c1
contraction
nature
viewed
handle
54
false
interpre
##wh
singularity
involved
optimality
##bo
descent
receiver
−l
ip
invariance
sr
##fs
53
##function
ji
determines
indicates
ways
deformation
signals
intuitive
thanks
extern
##´1
dans
giving
##ee
counting
includes
moments
involving
execution
varying
trajectories
##cles
convenient
privacy
colour
ms
≥0
s1
depic
temp
semigroup
polytope
xn
attention
coloring
conserv
##ameter
##ilinear
attach
sket
rigid
rise
56
##by
phenomen
reflection
admit
##ls
55
explained
stronger
##idden
aggreg
incident
simplex
regret
infer
lift
construc
insp
rn
##algebra
accept
combined
tends
mp
child
why
n∈n
constrained
arch
minimization
improved
mr
manner
cus
p2
explor
ci
bir
crucial
sg
##yn
identification
intersect
letting
pu
##stable
piecewise
##15
surjective
calculus
programming
198
resol
rk
##arding
presentation
regularization
ho
##fort
complexes
foli
jump
asp
separable
boole
arithm
ben
∀i
subsequence
connecting
partially
studies
laplacian
world
unbounded
##uing
centered
unless
##16
clusters
ends
sof
repeated
ber
surely
##width
##uth
references
issue
tn
positions
treatment
varieties
items
quadr
mic
2λ
##like
referred
convolution
exhibit
initi
requirement
averag
scatter
permutations
simultaneously
##ativity
semantics
finish
ordinary
limiting
causal
outcome
assertion
##add
##iable
neural
##que
brack
theories
multiplicative
##qq
white
##ois
dθ
boolean
bern
buil
assigned
##ript
additionally
saf
∂f
##position
sent
tasks
substituting
independence
reconstruction
select
facts
pg
involves
∂d
##cent
##itian
questions
variational
##rip
noting
##finite
players
nois
calculated
spherical
tan
interm
relay
##erial
transport
alph
slow
ask
uncertainty
minimizing
##min
ray
tests
enumer
momentum
attain
longer
copy
##orts
external
##irect
x0
n−k
−∆
messages
subspaces
rp
ideas
filtration
##gue
dl
experimental
outputs
subm
passing
∥h
encoding
t1
##iers
hermitian
implemented
##sist
dh
0≤
residual
plus
opposite
patterns
illustrated
diam
−γ
ca
∂u
##metric
dτ
profile
−q
rewrite
strength
##unct
sketch
drawn
ls
remainder
countable
solid
schwar
##elled
sheaf
don
load
jus
##tz
hopf
ic
##go
homeomorphism
1≤i
spl
push
recovery
maintain
spe
resource
segments
##gs
##umul
nm
amplit
##tingale
hypersur
nil
etc
##tima
unstable
difficul
##vially
arithmetic
orthon
##22
pf
discr
mob
compe
measured
cach
ric
completion
57
dc
approximately
norms
##ressed
v∈
mi
efficiently
bid
banach
µν
market
tempor
quality
implic
coherent
las
loops
others
comparing
characterized
job
describes
n1
candidate
lebes
decreases
broad
consum
actual
##−i
neighbourhood
ts
espec
hypotheses
pow
factorization
skew
coar
minimize
connections
included
achievable
amb
haus
∥z
##ittle
deviation
predict
projections
polyhed
##aster
lebesgue
especially
−δ
synchron
lm
transitive
au
material
datasets
stream
cas
##urity
##hol
##ven
frob
∀x
discrimin
2e
anten
antenn
synth
convexity
briefly
##dor
ml
oracle
s−1
proportional
##imod
##active
##uristic
pref
trop
orthonormal
returns
bp
c2
virtual
##17
##ried
evaluated
##kin
bayesian
bd
contributions
2δ
soft
notions
nt
conversely
triangles
queue
beginning
greedy
incor
rou
orders
heuristic
ensemble
come
##eb
2h
##ker
interpreted
gets
wi
net
subman
deep
intermedi
logarithmic
fold
∥d
regarding
sob
imag
adapted
moving
highest
trivially
newton
plac
variant
matter
chains
##sities
preced
sends
##care
x2
achieves
setup
happens
wish
own
concave
freed
flows
multiply
priori
trade
cance
##ulations
deform
overlap
share
generation
remove
##dorff
endpoints
concerning
balanced
resid
##olev
lc
service
correction
schedul
substitution
##ky
##itude
indicate
neither
exchange
hausdorff
bad
ther
particularly
##ogen
generates
clique
2017
##20
q−1
computer
isolated
##ested
realization
ins
2πi
interpolation
signature
adapt
##ists
calculations
reve
verified
little
eigenfunction
unlike
sharp
##timating
58
b1
poincare
think
build
##otropic
involution
analogue
completeness
content
complicated
social
orb
nonemp
confidence
−e
ferm
negl
arise
2016
holder
wind
thm
characterize
prog
∥e
4π
units
convenience
differences
formed
xt
guaranteed
bene
##ged
nr
##lor
tay
matroid
##ians
weyl
2β
express
impact
estimating
nonempty
bb
consec
k1
med
neverth
thesis
understood
transverse
sometimes
i2
nevertheless
constructing
##cepts
−h
approximated
##linder
##umann
intr
switch
distances
closely
concludes
wise
2γ
ni
nn
2015
sparsity
ta
year
consecutive
eventually
flo
intersects
five
parity
balls
rm
indexed
alphab
−−−
accurate
score
mim
##be
micro
shortest
monotonicity
lengths
sort
powers
kr
##enius
taylor
intermediate
cylinder
faster
ki
##avity
transitions
→∞
influence
generalize
∂b
freedom
2013
twisted
3d
simpler
2014
impos
mixing
solves
##unov
sobolev
costs
submod
separation
##omin
reward
##anged
randomized
locus
##ords
page
understanding
dξ
beam
eng
tools
ign
suggests
mathematic
frobenius
terminal
produces
appearing
figures
doub
km
neumann
motivated
##phas
bis
separated
∂m
sampled
##mark
ti
noted
##elling
covers
##icon
constructions
ste
scenarios
bey
modes
interactions
precision
alg
changing
extract
y∈
tun
emphas
boundaries
rever
cube
diameter
says
relies
nc
alternating
past
##mc
removed
ℓ−1
spanning
##gru
##izable
##ious
writing
##ank
beyond
former
roughly
parametric
remarks
six
rf
cov
novel
lyap
contradicts
private
rooted
programs
##ns
augment
triangulation
building
endow
specify
static
controlled
isometry
colored
triangular
rt
##roupo
rescal
r1
toric
##vent
59
2σ
introducing
bases
dirac
forc
##clic
multipl
did
kernels
server
pointwise
hidden
text
ein
pointed
propositions
valuation
lyapunov
−z
##ogn
hull
##erc
cubic
h1
−y
totally
codimension
##roupoid
importance
temperature
aa
##order
##zing
normalization
fibration
2z
##ford
truth
##sh
flu
1000
fan
grant
hyperplane
hu
##zz
possibility
laplace
controller
papers
sources
contin
payoff
pan
trad
decrease
obtains
galois
cooper
##ffer
2012
summand
dele
computable
##18
##por
functors
braid
representative
bilinear
slope
conclusions
stopping
removing
s2
speak
constit
security
##versal
##lli
bif
highly
martingale
vac
numerically
improvement
das
congru
##selves
noisy
force
##ken
circles
##opes
knots
persp
75
fulf
array
x−
arises
ec
followed
−u
rigor
restrictions
wit
recalling
starts
continuously
structural
attrib
t0
physics
lam
hit
primary
2011
recogn
working
minor
temporal
fails
discretization
magnitude
wire
satur
separately
##∈z
lev
topolog
picture
##bility
##ancy
py
modeling
zh
##ensus
##use
gm
bn
drop
collision
##ening
symmetries
63
charge
reasonable
packet
##imensional
stead
lt
2010
tx
isomorphisms
extremal
dq
likely
##09
4n
twist
concrete
02
##unately
extensive
##tives
minimizer
tv
##0000
densities
sequential
∥b
instant
relaxation
62
isometric
##els
everywhere
versions
65
exceptional
similarity
##aw
concentr
computes
2018
midd
m−
##set
s−
−v
bm
prefix
sat
groupoid
port
coupled
flux
##hing
dominated
d2
layers
align
##omm
geodesics
reasoning
middle
carry
1−α
fp
propagation
repeat
gam
penalty
brid
updates
cusp
##iability
prepar
lr
plays
lg
slot
∥v∥
2ε
hs
m1
coarse
steady
nice
dσ
commutes
−π
##odrom
conduct
dic
prelimin
formulated
##ystem
##sym
##rag
impossible
continue
rd
automaton
globally
designed
locations
offer
sq
correlations
performing
scales
⊗n
colors
obtaining
##99
insi
cv
pk
spacetime
site
chern
extending
cocy
dλ
medi
sensor
##ering
##tific
discussions
challen
identically
properly
subst
modify
punct
ou
fibers
depicted
reverse
##imal
spanned
wall
branching
denoting
identities
kj
eigenvectors
reads
summary
traffic
fluid
arm
preliminaries
mt
##ulated
vii
attr
rr
popular
rounds
investigated
extr
##oted
bandwidth
posed
cosh
consensus
##ions
kk
nom
land
##tine
##ounts
checking
rc
performs
modification
##acts
alphabet
members
situations
p0
mixture
qp
argue
witness
separate
atoms
twice
##brid
absolutely
c∥
concentration
contour
⇐⇒
vs
##izers
multivari
cob
lattices
treated
scattering
worth
fulfill
##da
##hic
##yclic
61
fo
##08
inher
codew
##co
squared
kh
eg
requirements
##oring
arrive
public
qubits
dominant
sadd
embeddings
create
activ
tp
##urc
tell
datab
3n
parent
discontinu
hod
organized
hypergraph
subdiv
competi
##ondition
heat
##orting
covered
80
vehic
##eg
perturbations
intuitively
##ij
rings
succes
##opic
##ensity
pas
para
sgn
mir
2009
justif
−f
annul
##ilities
adversary
∆x
##arity
seem
rang
convergent
bell
∇v
##bre
##loc
collap
leave
incorpor
strat
##owski
weaker
ideals
tt
tropical
coverage
combinations
policies
shared
great
confir
batch
schwarz
##tures
cb
lasso
##ram
∂y
project
bifurc
grows
flag
benef
iθ
monte
quantization
fourth
bounding
##ahler
none
insigh
studying
pb
197
legend
prom
multivariate
surpr
allowing
tuples
describing
##deg
perspective
associate
analytical
monoidal
strings
adjust
throughput
##head
infinites
backward
heter
66
subsequent
archit
jacobi
##perform
hf
dashed
initially
head
fu
realized
stands
architect
carlo
analogously
##iss
labelled
##tification
evol
05
simulated
imaginary
70
bv
counterpar
##mer
##∈a
statistic
cumul
simplified
##−3
conjugacy
j1
illustration
carried
67
axioms
wireless
connectivity
verification
refinement
kp
∥q
distortion
attract
##ape
smoothness
##aten
k−2
dot
providing
nash
−0
angles
exceed
##cript
corner
−µ
##sure
sb
correlated
purely
sake
cof
scheduling
dω
reported
outperform
##ored
recursion
rely
failure
tradition
pullback
##bles
presents
storage
asymptotics
besides
shr
hybrid
hp
dk
clock
missing
##raph
replic
spread
gate
preserve
coming
truncated
years
reaction
vor
∥φ
kin
robustness
∂s
##amed
applicable
outcomes
reasons
amplitude
composite
criteria
automorphisms
foliation
##ital
reprod
sided
youn
guess
saddle
##enberg
bg
mutual
bracket
nd
ll
##we
2ϵ
##rent
conditioned
my
purposes
localization
produced
divide
stein
nilp
concepts
maximize
intuition
##04
mathematics
summation
mapped
transformed
subalgebra
##ware
einstein
observable
surve
primal
##log
formulate
##06
inform
arising
##∈r
eigenvector
exclu
option
anc
determining
nearest
##ren
difficulty
acyclic
pairing
r2
cha
combine
flex
characters
cg
∥t
successive
sinh
atomic
arrang
monodrom
rich
b2
rb
display
ready
fluct
−ε
##−j
t≥0
ith
built
commute
plug
wt
##dt
polygon
##cs
fluctu
consideration
95
development
72
bf
##irected
poss
young
##he
pv
science
morse
ks
faith
sheaves
identifying
cer
accordingly
spheres
letters
##sable
concaten
##01
margin
waves
4k
md
bud
hodge
switching
##sip
therein
seed
##amp
##abor
divided
##05
lk
preceding
##ivari
##olding
hypersurface
uns
protocols
acce
##ermin
poset
exploit
unfort
viol
logical
##king
shad
l2
hes
l1
dd
fn
walks
∥a∥
radial
integrating
tur
submanifold
disks
automata
speaking
quick
phenomenon
preserved
endowed
acceler
68
issues
reson
##hs
history
intrins
readily
lor
considers
##ands
n2
##ores
##03
resources
fall
tens
bernou
capture
ko
adic
arrival
lagrange
hn
presc
primes
fibre
∥s
gn
affect
##anes
fixing
k2
∂v
wavel
m2
##ifications
rewritten
happen
##igu
possess
##07
species
##tor
letter
phot
involve
formulae
bench
interface
renormal
electric
composed
helpful
coh
macro
slice
gauss
cust
redund
edition
##kes
∥r
##oks
dν
scaled
laws
ijk
unfortunately
computationally
drift
i0
bernoulli
finds
d1
endpoint
surger
phases
thin
##igible
e∈
trig
benchmark
distinguished
tableau
vacu
transforms
−θ
compactness
kahler
subsystem
##atory
∂z
looking
agree
intersections
gs
establishes
gram
surprising
widely
##ued
easier
located
hole
##uits
arrows
custom
##02
suprem
solit
automatically
employed
recurrence
sensing
n×n
dil
sharing
exter
bt
mainly
parameterized
jacobian
boot
−−
reform
stop
desp
2ℓ
gi
undirected
##plex
peak
##ynam
potentials
fading
gluing
vot
motivation
##ales
##ones
terminology
magnetic
hierarchy
tm
##19
tub
fd
meet
spectra
checked
stress
contract
occup
qui
evidence
monodromy
99
nothing
latent
heav
##going
##ru
cox
paragraph
cones
mirr
broadc
t2
##what
##elet
packets
unity
gcd
##view
somewhat
despite
mimo
toler
equilibria
##etermin
divisors
compac
−ϵ
##chain
indicated
2µ
analyzed
cellular
2008
decompose
variants
##arr
reducing
−τ
u∥
sf
kill
##ination
u∈
##ival
receive
−5
summarized
characteristics
cot
indicator
specification
infinitesimal
claimed
intensity
comments
definable
safe
##ai
500
labeling
stabilizer
adjacency
tract
summing
conjugation
inspired
spac
randomness
effectively
lack
persist
gro
thick
tensors
69
circular
languages
cw
exterior
prelim
##sibility
##ille
flip
tet
poles
isotropic
nl
basel
rectangle
von
##rations
v1
isotopy
modeled
sound
emer
residue
structured
bootstr
lifting
tend
##ert
denomin
##oles
##pher
lex
k→∞
nearly
transmitter
visual
individuals
try
decoder
obstr
beh
##faces
boundedness
multiplying
coherence
##kh
lowest
ur
clause
gib
decompositions
acknowledgements
procedures
send
nilpotent
record
nested
supremum
preliminary
expansions
##ryst
mechanics
appar
impose
##onds
##ectives
gf
summarize
formalism
##≤t
##ey
simplest
alternatively
##ordan
maximization
recursively
explan
##kowski
##nected
absor
∥ψ
abc
angular
##ister
##gredi
inj
##lab
omitted
plots
devoted
aspects
frag
90
strip
sites
crossings
##ih
λx
α−1
qual
##ads
pieces
reached
suggested
bur
hm
gover
levy
approximating
outline
separating
observables
belonging
versus
##reement
accom
neut
functionals
t→∞
inversion
cartesian
encoded
detect
hum
consumption
##ategory
potentially
completed
examine
kle
jumps
circuits
frequencies
traditional
regarded
art
compression
complementary
irre
mutually
reveal
rl
##ained
adopt
proxim
forest
rigorous
naive
manip
illustrates
##ivariate
hessian
schur
solvable
updated
∂h
window
kt
database
mil
lu
prices
##ode
optimum
rx
ix
##idel
immer
gamma
smoothing
az
pz
robot
dro
expanding
pressure
conservation
bootstrap
schro
negligible
compactly
highl
chord
∀t
ingredi
mol
particip
cartan
transmitted
−g
boxes
community
bic
cocycle
branches
eigenfunctions
explore
sensitivity
obst
correctness
challeng
holonom
putting
singlet
averaging
##arm
ib
##och
sending
nond
rap
bul
correctly
adversari
##ribed
thought
believe
induce
##ifolds
delet
book
exponents
perturbed
pde
sequel
semide
entangled
##ean
ui
digraph
2000
tc
ck
enables
store
driven
qn
##etri
h2
ru
gates
travel
bus
contrary
etale
supplement
reconstruct
cuts
vec
patch
hd
bos
##ulate
shrink
tables
discover
possibilities
73
panel
xj
classifier
x∥
forcing
overview
lying
planes
##bl
2006
od
destin
mappings
enh
u1
##ners
increment
intersecting
binomial
median
##dinger
r0
decide
grading
orientable
##romatic
leader
λi
pole
hi
dissip
##edge
budget
##scopic
heavy
firstly
successful
endomorphism
−ω
quantit
variations
2ρ
unf
observing
e1
idemp
perc
attached
bh
generalizes
a3
skelet
nk
∂p
intrinsic
covariant
transaction
children
enfor
obstruction
engine
##ders
regularized
hh
fash
quantitative
bridge
fine
decomposed
eqs
doc
##ini
hope
monomials
ga
fashion
created
amounts
packing
ei
graphical
shor
αn
dur
predicate
semidefinite
minkowski
##plete
progress
s∈
ae
conventional
##grad
apart
colim
annulus
##uck
##ordism
−σ
connect
polytopes
##−n
evaluating
continuation
refers
2007
balance
j∈j
faithful
concerned
mill
pdf
##px
device
bk
gibbs
##oi
jordan
synt
subgraphs
secure
∥m
74
##net
swap
qc
##uli
front
123
signed
forces
−w
sensitive
hk
division
cryst
##iles
subdivision
emphasize
adversarial
∀k
implication
mechanisms
dividing
visc
∥θ
absence
challenging
topic
university
f1
equivalences
gt
##entz
splits
##haps
shifted
##atz
76
noncon
perhaps
demonstrated
spir
orbifold
considerations
##empt
tells
thereby
##ogram
yi
doing
subtree
ka
survey
consequences
positivity
synthes
##urs
buy
divisible
supports
disper
entirely
compatibility
keeping
homeomorphic
q1
subtr
solver
relate
listed
##changed
validity
jointly
mind
parametrized
td
geometrically
mf
recovered
controls
behind
early
##rel
eh
pxq
gave
sector
bifurcation
78
eu
comparable
algebraically
03
likewise
maximizing
germ
elastic
schrodinger
∥g∥
algorithmic
##aly
thom
##space
##ault
##iased
71
neur
places
vacuum
implying
monoton
mirror
surgery
simplices
closer
∥∂
ia
##ended
stored
##udes
##ider
##irable
2η
modulus
areas
mse
machines
xs
averaged
tetra
enter
×r
ode
##dy
fs
relaxed
implicitly
rays
grom
increased
y1
econ
##96
n≥0
ak
hash
##ecompo
cay
attempt
##ryp
propos
##llation
qr
rg
1d
confirm
plann
receives
multic
conservative
signs
##ced
strati
∥ϕ
devices
x∈x
recip
contrac
##atil
##ita
noncom
cache
gad
##elle
augmented
counts
antenna
lifts
tetrahed
qi
econom
d−
∂a
soit
agreement
2u
gromov
##98
cro
i∈n
##tw
commonly
prem
closest
competitive
belief
introduces
##rian
reaches
occurrence
##ographic
rv
bulk
winning
fusion
nuc
converging
differs
77
led
##fined
fav
implied
filtered
ricci
semis
requiring
mu
3k
powerful
file
incomp
##ouv
minimizes
k3
congruence
chooses
λn
##wers
grass
iterated
truncation
reducible
##exam
lorentz
antennas
attacks
rapid
ah
−6
improves
mal
##osity
routing
molec
n0
initialization
architecture
multiplier
r−
validation
assumes
exerc
yn
n×
cause
cx
##imple
joining
∂g
unbiased
precondition
jn
##ander
##ung
exploration
old
orthogon
quiver
conflic
96
zi
ku
##tured
##ba
∇φ
gk
cumulative
imposed
matched
matches
##pact
volatil
sensors
n≥1
mid
refined
yielding
2019
∂w
##ressive
−ρ
##entioned
##anging
ih
alex
stokes
mk
vn
##dx
homomorphisms
dφ
##cess
diction
lever
##iteness
∂θ
request
frames
continuum
denominator
k∈n
2022
htt
hierarchical
destination
gravity
pw
formation
lf
learned
subcategory
drawing
stri
##exts
realizations
##eme
inductively
ability
baseline
challenge
##97
##itted
∈s
hc
traces
ld
envelop
##ecks
1q
##local
fish
afor
gc
interpol
g1
uc
dealing
ambigu
##95
curl
85
##ogeneity
claims
auction
counterexam
pj
##thing
jj
ranges
##ivers
v2
alors
zar
##tition
epo
homotopic
themselves
##enue
##iffer
##load
##ars
dα
claus
nucle
currently
lot
1−2
gains
hyperplanes
restricting
α1
##ementioned
ft
2θ
##zy
quickly
cu
floer
preim
deformations
##aving
aforementioned
fm
##atrix
agrees
mild
symbolic
gradients
equally
predicted
jobs
##eas
−η
∂r
pin
regardless
xk
rearr
schm
×n
triples
broadcast
suff
epoch
placed
candidates
unchanged
pricing
anom
ie
establishing
dag
tq
filling
commuting
##eto
saturated
##jo
discriminant
hex
sont
∥c
ol
##pose
linearized
##pos
pet
2005
analytically
periods
divides
##elike
simulate
stab
##mut
synthetic
assess
4m
nondeg
sig
retrie
kine
ee
cyl
minimax
3a
##ecke
cq
nous
foundation
1i
σ2
projected
arrangement
##kov
um
3r
bijective
ut
##yi
elimination
acknowledgments
attained
bayes
196
analyzing
overc
rhs
submodular
d−2
noether
##ield
lb
∥w∥
##ometric
nondegener
##∈p
equalities
suppos
cobordism
##onym
81
counterpart
unimod
dη
infim
concur
unital
84
##itative
encoun
bx
selecting
2y
coxeter
skeleton
volatility
buffer
subsequently
contractible
##ards
tiling
extremely
2v
csi
##menting
tracking
tori
preference
2τ
trained
bimod
abuse
secret
##ateral
rib
parametrization
##oso
wel
replacement
contribute
##tiveness
∂q
fon
monotonically
prox
dρ
varies
outgoing
##oud
##apped
maximally
electron
ult
mobile
delta
∥∆
##aneous
yang
eras
ranking
##way
august
successfully
originally
default
killing
carries
chart
vo
tile
modifications
qualitative
versa
sell
compr
##xx
sus
verif
recomm
##len
simultaneous
desirable
linearity
therm
##otyp
fewer
##rog
secre
vice
schedule
majority
y∥
clif
localized
prescribed
sinr
reachable
##symmetric
p−
liouv
w1
tout
che
aq
subf
4a
2004
##∈c
2f
notic
−ν
tractable
##pa
centers
##singular
preparation
circum
transversal
j2
semisimple
fixes
hardness
##alth
t−s
sdp
dependency
∇ϕ
codeword
##ihil
incoming
quat
dominating
robots
soon
associative
thermod
designs
82
v∈v
thermodynam
grassmann
changed
linked
exercise
outperforms
superv
uav
clauses
partitioning
conditioning
annihil
79
##rich
kq
insight
os
amen
immersion
adaptation
hig
analogy
reflex
2n−1
rout
appeared
predictions
whence
a0
##icontinu
kd
runtime
fat
fermion
topologically
draft
quotients
aj
83
##agn
k0
human
grav
indecompo
sgd
##ighted
subpro
p−2
schmid
##¨¨
nh
calls
##∥x
entail
##well
checks
##link
infimum
tag
4c
e2
eigens
optimize
##ressible
docum
decou
tuning
scores
gas
abbre
∂e
massive
benefit
partitioned
hecke
s0
fluctuations
gd
representatives
calculating
viscosity
##homogeneous
minus
##entions
##≤k
−ℓ
jl
deviations
##ened
v∥
abbrevi
repair
filtering
achieving
##inter
corners
4d
ses
addressed
deplo
reductions
passes
discrep
ff
klein
certainly
web
diffeomorphisms
1a
lists
sz
displac
reversible
observer
distur
cayley
##anov
servers
dγ
recurrent
iterate
##uller
quatern
prun
abstraction
asymmetric
contradicting
explanation
##abi
secondary
fract
##94
feasibility
overhead
va
##exp
parad
mb
investigation
tj
##∈b
js
implications
percolation
nar
vc
##ams
coin
mere
cham
mv
party
##foli
manag
captures
piv
sie
thread
yau
ue
couple
serve
liouville
cofib
λ1
calib
iterates
breaking
concerns
##versity
methodology
conjunction
quantile
incon
exploiting
instr
singleton
##ned
revenue
n−i
##idable
##−m
association
integrated
ample
dϕ
encode
activation
you
shifts
xu
cam
master
bol
orthogonality
monit
reser
αi
04
worse
universe
assem
optimized
careful
outage
air
occurring
fisher
zf
meets
qs
θn
quadrature
mostly
zarisk
dotted
u2
j∈n
##itary
decl
##asser
portfoli
surv
cardinal
qt
1≤j
secrecy
##bon
##isc
realistic
dictionary
life
2nd
parties
pointing
plugging
suc
##idal
##rences
concentrated
chem
appropriately
##ighting
pix
xz
beamform
age
##ense
86
conjectured
##ining
##ember
##ani
haar
ig
2ν
remov
zariski
nodal
freely
ancest
effort
inn
software
gravit
concatenation
covariates
antic
production
##path
schmidt
vehicle
substr
98
susp
contexts
##rov
avoiding
iy
dam
##∈g
injection
2003
aware
polyhedral
phd
generalizations
##eta
profiles
##emic
##eal
##las
decor
filters
finishes
##enstein
adopted
kron
##timate
cooperative
ration
phenomena
ratios
128
rw
##uff
##mative
##ega
enumeration
broken
##tier
trac
answers
experi
kinetic
translations
−κ
plotted
started
∆u
∀j
##93
##×d
reading
grate
acqu
stay
forget
holes
invest
##mo
##ote
restricts
nj
proceeds
87
h−1
growing
2κ
disturb
kol
##optim
cros
encoder
decisions
97
ambient
holonomy
wavelet
88
z1
##class
termination
nu
financ
descend
triangulations
portion
pool
collect
##ata
medium
fc
encryp
hur
meromorphic
barrier
lq
iteratively
assigns
clifford
ele
y2
##lov
precod
∂n
priority
##indric
diversity
extensively
vide
scope
ˆr
∥σ
indecomposable
neighborhoods
rescaling
isometries
interch
##ula
facet
instit
really
updating
disconnected
##chet
##ius
##mar
rewriting
anonym
##otom
quar
zhang
orientations
expectations
encounter
##vability
##osp
sect
secondly
histor
kinds
ub
compactification
frequently
##aming
rotations
poor
##clos
exhibits
cosm
fairness
plat
synchronization
##amard
polyhedron
meta
##process
aggregation
##ney
##isting
##oidal
acces
isotopic
overcome
lef
iso
interacting
2002
thermal
nondegenerate
integrability
generalised
argmin
facets
##24
exit
seek
##ativ
ourselves
##mutative
##the
inserting
purs
client
dimensionality
simplifies
categorical
hadamard
tiles
safety
##reasing
##ette
homogen
bj
##ynchron
systematic
assignments
tradeoff
nf
deploy
iω
bq
idempotent
bisim
nb
tested
1b
xq
##lished
nonpar
##pler
tame
##ka
sous
##000
gri
subproblem
##atest
tel
overlapping
attractor
α∈
hexag
1−p
legendrian
##ecker
logistic
deduced
mh
fragment
hamiltonians
∥h∥
z2
degeneracy
integrand
seif
iq
fred
##di
gw
recipro
wil
incomplete
translate
i−
perfectly
γn
##ats
##period
options
ww
semist
eigensp
rq
preferred
##book
jm
planning
cloud
hj
dof
maximizes
iner
pul
##lined
mdp
lexic
94
iid
predictive
cubes
proximal
integrate
hr
f2
doubly
yes
neutral
stages
collected
repeatedly
derivations
hitting
amenable
redundant
##92
sink
requests
tf
alt
##rupt
rectangles
wang
cz
##bing
neighboring
obl
anis
classified
fitting
shell
gg
hypersurfaces
ws
discrepancy
svd
differentials
continued
pauli
slots
chen
turing
##84
c3
beta
##ko
cryp
positively
higgs
generically
carefully
alone
g2
gb
substitute
3b
accepted
##rating
seifert
retr
∈f
duration
qm
q2
engineering
rid
behaves
lag
deletion
calabi
affected
##ancing
preferences
branched
prev
##vian
sj
aspect
δt
tanh
ultra
comparisons
pal
nq
demonstrates
sle
reveals
john
communications
theoretically
profit
εn
opin
≤n
##ca
##ologies
compressed
##87
##fare
commit
obstacle
92
∈t
chamber
suffix
##u∥
terminates
classic
verifies
##aire
∀n
2∥
subvari
semic
water
bss
∂k
bill
forb
dav
pati
ot
shadow
dead
famili
linking
mag
dominates
leib
translates
93
principles
superposition
eliminate
commutator
bub
∂c
rescaled
##regular
advantages
iw
n−m
alignment
eight
##orn
transvers
##hedral
violation
e∈e
operational
wn
rectangular
cheb
valuations
aggregate
coded
heterogeneous
resolvent
bon
financial
exhaus
welfare
witten
##oher
identifies
nonparametric
dj
flexible
##dimensional
dehn
ending
##algebras
ads
∇ψ
pil
border
detected
##oo
2001
subscript
photon
punctured
receivers
4r
##uer
biased
##dro
∥z∥
attributes
nonlocal
leak
lax
stabilization
synthesis
inclusions
pca
proposal
asc
##asserstein
renyi
a−1
contracting
ay
trick
effec
evident
##metry
exposition
wasserstein
##hev
##che
operad
cutting
bw
expensive
pareto
##≤m
artin
polygons
occurrences
coal
connects
visible
merge
rej
liv
kronecker
caused
fidel
spirit
transi
caching
tal
date
101
stratum
##me
zeta
optimizing
multipliers
vt
laur
##etz
m−2
som
relates
kg
repeating
asynchron
3m
##versing
rare
∂σ
relationships
heega
heegaard
explored
rigidity
executed
difficulties
##arded
constructive
##cale
succeed
linearization
ger
hon
names
##fied
uu
##sm
nominal
ten
λt
seconds
knows
oct
sal
minima
xp
##ovian
##issions
compan
##rant
##verses
coset
deriving
restrictive
heis
discontinuous
##itation
focused
polarization
sou
conic
2w
cε
##imes
brackets
−2π
##pass
invok
causes
##holm
mutation
admm
conditionally
gaps
theta
w∈
bigger
interestingly
theoreme
ito
ribbon
ea
univariate
formulations
tolerance
activity
moder
membership
a−
locality
ple
##eting
##ck
z∈
die
war
modern
supplementary
portfolio
tower
∥ξ
weil
##fel
##roduct
matchings
voron
concluding
fulfilled
##ami
dispersion
init
120
fron
∇g
leaving
tate
n−3
##vm
teich
##posed
nonsingular
attemp
##ris
##88
markovian
percent
effectiveness
chir
summands
suitably
kth
merely
characterizes
cliques
measuring
donc
3c
levi
birational
cri
minimizers
yy
##agnetic
##avi
gray
incidence
##inger
nx
hamming
relational
suffer
2k−1
−ξ
trust
clean
insertion
employing
yu
dar
ampl
ising
##encil
yt
decent
centre
##periodic
lj
c0
register
∥k
transpose
ease
enjo
extent
∥π
casc
fairly
esc
1s
maxwell
multiplicities
relating
inconsist
4t
wf
gold
##adj
fault
obe
##ensen
initialize
##zen
hl
beamforming
appeal
aims
enab
##eff
compens
attacker
w2
##−s
smoothly
zn
sees
sorted
things
##ampling
ze
89
codewords
∂l
fer
hg
##att
soliton
package
played
supporting
detector
∇w
##schild
noncommutative
##endi
amplitudes
comme
clar
autonom
whit
suboptim
gene
##omb
4b
mg
rein
shapes
instantaneous
expanded
energies
thresholds
dest
displayed
certific
looks
mobius
trigger
##−α
day
frechet
##ched
evaluations
avec
selects
csp
fidelity
forec
tb
translated
γ1
##ordance
gir
toward
framed
tes
##ilit
xa
enable
##acles
serves
ordinal
s∈s
losses
voronoi
##vation
wiener
##kl
xm
gadget
##86
obs
b−1
enl
counterexample
ambiguity
implementations
improving
behave
collapse
111
heisenberg
∥l
captured
##23
diagon
multis
##flow
crosses
classify
ingredient
centralized
latency
e∥
##ril
reliability
minimality
stret
##liers
##forth
##yshev
volt
notational
groth
##while
meaningful
developing
cylindric
longest
a∈
mos
i∈s
por
∥ρ
significance
δn
##vals
p3
saw
ty
conjectures
uh
regimes
fv
k∈z
ary
physically
adds
##ifferential
##ques
−∇
bond
attribute
mw
##aul
erd
ng
annot
h0
insert
birth
ignore
datum
##matic
imper
bold
clockwise
##rs
quaternion
familiar
shann
##abel
##endieck
comment
mathematically
∈e
legendre
irrele
kar
discovered
∇h
##reh
artific
allocated
##oclin
βn
91
ny
instrum
u0
grothendieck
preimage
submanifolds
bernstein
deleting
sx
conflict
##56
defect
−∂
differentiation
interfer
##romagnetic
possesses
finiteness
chebyshev
opposed
sentence
lifted
shannon
environments
remarkable
macroscopic
reachability
a∈a
named
##aff
posedness
accumul
status
hen
henceforth
oc
substanti
rj
##odies
unn
displacement
2ω
facilit
fredholm
##antine
forming
geometrical
##ski
decays
importantly
fibrations
nonconvex
##ades
plant
bag
ldp
##ston
gravitational
returned
´2
##complex
##omain
bessel
gx
##spec
vehicles
constructs
wat
fell
alexander
indicating
grateful
glue
placement
reliable
brevity
##itivity
strata
rapidly
fif
a4
excess
accessible
justified
coalition
cpu
mle
verifying
libr
favor
laurent
realize
predicates
reflected
j0
##acher
challenges
##pn
##rect
¨¨¨
chromatic
##thand
hz
##cher
##den
eaves
##wal
apparent
mcmc
picard
zz
explains
##nik
insights
edu
λ∈
boltz
sole
∥y∥
stating
##pc
quantify
distributional
separates
cred
upl
solvers
combinatorics
v0
adjunction
limitations
q∈
##after
radon
automatic
histogram
∥µ
kb
indis
tour
g−1
cores
##ery
ansatz
psl
fb
slowly
##ager
chose
##related
irrelevant
##83
unip
persistence
##ined
yx
improvements
1998
##otropy
##geometric
empirically
modal
boltzmann
degrad
schwartz
duplic
##sen
compreh
arms
m×n
downlink
110
outlined
sil
axes
reflexive
vw
m0
##85
kal
instability
accurately
conventions
dyadic
##gorov
noetherian
##ramified
##90
dπ
##imed
utilize
iα
reductive
offline
stays
cutoff
##fl
##oph
perp
1−δ
assertions
decentral
1999
##gning
ε→0
##timately
##lass
submatrix
dark
deli
bands
matroids
feyn
jt
##sey
weighting
crit
pω
unramified
nsf
renormalization
yz
##omially
manus
∥b∥
shock
##ips
n∈z
narrow
##77
canonically
semantic
wedge
##ept
##ube
eavesdro
symmetri
objectives
knowing
cdf
contributes
unimodular
πi
1−β
ellipso
##sky
06
σ1
everything
national
##oclinic
001
honest
priors
tors
##dm
preprocess
outliers
shares
autonomous
averages
α−
triplet
intertw
lv
asynchronous
substan
shuff
processor
semicontinu
##actic
##ura
stacks
technology
##iring
tg
extracted
ranks
cantor
feynman
numerous
submodule
tack
mechanical
lastly
uk
shaped
gon
characterizing
collabor
asserts
diss
##ek
centr
forth
operating
alternatives
workers
confusion
crossed
violated
∥γ
zp
relativ
dψ
approximates
assigning
superc
tangle
sde
nets
numerator
##abilities
inhomogeneous
normally
taut
dependencies
distinction
substantially
diffeomorphic
scho
transc
jth
manuscript
zt
functorial
scre
minimized
spinor
##aux
countably
recommend
cancellation
infected
anch
merid
supply
⊗2
qk
1−γ
targets
document
directional
δx
##osov
##ething
pivot
cocom
video
resist
irreduc
curved
encodes
−8
something
##enced
##pole
dyn
proceeding
fits
##alg
##igner
##−r
##−a
trading
intended
behaviors
demonstration
lens
conserved
doesn
rene
visited
propositional
erdos
##efined
α2
deals
handles
##ortun
templ
kolmo
topologies
teichm
suffice
cohen
bary
surprisingly
groupe
incompressible
triangulated
kx
opportun
∥η
removal
##ete
transposition
γi
shear
diffu
token
##iquid
usage
peo
2∆
decode
fri
jud
delays
cylindrical
rewards
offers
##knot
galer
x∈r
##ift
designing
neighbours
recon
doubling
##ii
##×r
motions
homological
##iser
equid
galerkin
accompl
hep
quantifier
vv
avoids
accomplish
neurons
adequ
fk
bring
completing
∥∇f
scienti
jensen
mj
cancel
corollaries
elabor
refere
people
kolmogorov
turning
superior
discretized
sequentially
≤1
dise
colouring
##nos
enrich
variances
substantial
constitute
transient
##awa
gather
motivates
##angent
qx
fractal
reflects
instruction
##ighter
differently
nonlinearity
##witz
multiplied
rul
won
hyperc
greatest
depart
hall
benefits
roles
##ucture
saying
polynomially
##onstrained
declar
bz
uplink
∀v
tl
asset
##ump
eb
##−x
fed
quadril
eve
shorter
##ounted
imposing
prevent
decentralized
modelling
scalars
exhaustive
twists
teichmuller
envelope
sep
retain
tangential
##vance
generalizing
resem
k≥0
256
lefsch
∥λ
delete
cj
incorporate
differentiating
lefschetz
gor
##imeter
##pe
##yle
##ulating
θi
incur
hb
iπ
commutativity
waiting
len
reeb
##cepting
wigner
charges
continues
##roll
remember
probably
tableaux
http
##easible
1996
predictor
##oke
jones
simplification
fuzz
tails
subsystems
commutation
ensembles
eqn
alter
assemb
aligned
λ2
analyses
projector
spatially
##chi
fano
kℓ
enclos
tom
consistently
matlab
handled
optical
##×m
representable
≥1
kac
##zes
instanti
ˇˇ
considerably
strateg
unipotent
collections
subj
nuclear
supervised
thresholding
suboptimal
rus
1j
##−p
∃x
digital
subtle
unknot
pencil
pdes
producing
quasicon
semistable
deliver
deformed
exclusive
##75
artificial
wu
reaching
vic
alle
3s
contents
cochain
attains
heavi
##ography
∈p
accepting
focusing
##ato
300
d2d
batter
anonymous
##bur
equip
bandit
##25
discovery
resonance
whitney
touch
quantized
ˆt
##leigh
eigenst
conducted
##ections
keys
attempts
quadric
lost
forced
liquid
anosov
rayleigh
exploited
ghz
tube
jp
surrog
##gel
3t
svm
##ripts
affects
q0
∥β
vu
##zations
##coming
trials
##imedean
masses
h∈
basically
forbidden
voltage
##ouse
stock
learner
auto
loose
##igne
##case
ensuring
creates
collective
iu
lh
discs
reflections
kv
195
schu
ek
xe
##89
passage
##icular
anisotropic
successor
route
##icz
tab
n−j
##gradi
paradig
∂φ
periodicity
wol
−φ
infor
kos
gar
##ike
hypergeometric
reconstructed
##ster
implementing
thur
##partite
published
trap
leftmost
passive
kc
##76
1n
lemme
semigroups
erasure
fibres
##unk
##mail
copr
classifiers
rounding
highlight
3x
bimodule
corrections
files
hermite
hx
relevance
mmse
##erson
algebroid
toe
##ivalent
dissipation
≤k
betti
oscillator
unified
customers
hv
αt
fibered
ramified
recovers
dxdy
chiral
liu
##io
leverage
uncondition
##ialgeb
perpend
acceleration
##tes
ter
##−4
death
##used
ramification
controllability
fuzzy
buck
wp
faul
σn
eis
decidable
excluded
normality
marginals
perpendicular
##na
logics
unconstrained
virtue
##mm
recognition
tk
pilot
road
viii
s3
indirect
counted
dms
ellipsoid
##00000000
marking
thor
ont
supersc
hub
bottlen
zone
crystal
chaotic
increments
pα
findings
##asting
foliations
subsch
aus
irregular
thurston
0≤t
1≤i≤n
##cing
meeting
moderate
subcomplex
attractive
chemical
helps
pers
cooperation
##gman
redundancy
subclass
begins
##cement
readers
bodies
demands
decomposable
classifying
##ogenous
lee
##attice
##imorphism
qf
defer
visit
##80
pgl
thermodynamic
transmissions
slower
syntax
chr
##×2
bru
##poly
##gets
##34
alternate
##−t
##erman
##lliptic
deciding
buyer
unary
##down
##ao
##orth
8π
surround
injectivity
reversed
platform
bins
spins
virtually
currents
weier
deux
∥φ∥
##illa
rightmost
##ordered
indistinguish
b0
merging
##umm
excell
ingredients
##variant
crypto
schubert
flexibility
decomposes
communities
d×d
reflect
skip
elsewhere
##vin
coales
respons
surjection
interpretations
hurwitz
##la
mq
parameterization
soundness
subvariety
b3
management
harder
command
initialized
##icity
responses
governed
filled
tetrahedron
##hedron
##uine
trial
β1
synchronous
fg
θt
##ml
delivery
i−2
slopes
reinfor
##quet
exem
informally
αx
projects
##amb
creation
γ∈
host
##tibility
serre
dots
ours
receiving
g0
compositions
b∥
##plitz
##91
k≥1
genuine
analyse
born
focuses
exceeds
sett
worker
##ocation
steiner
dζ
4x
##−d
wk
cylinders
nv
ries
##pan
subtrees
nz
fonction
##elf
hour
attaching
##nor
ω1
meshes
bloch
##era
unlab
reversing
gj
fractions
grids
viewpoint
routine
##iness
vp
dedic
oscillations
copula
##plings
library
arrays
spline
m∈
getting
specifying
considerable
##hes
##ipping
controlling
##oux
##ox
vr
hypere
∥ω
l∈
literal
descriptions
##rot
binding
vj
operate
deleted
convolutional
toeplitz
##izability
t→
extraction
##eled
adjusted
fock
argued
streaming
kur
1997
yq
∇p
pose
iλ
ros
gy
4p
##etheless
k∈k
fro
##rose
102
chance
ever
nonetheless
##word
acceptance
appearance
∆v
coprime
##ano
1−ϵ
augmentation
hyperpar
radical
processed
x−y
perimeter
##ori
×s
riesz
1−ε
barycent
biological
ner
##istrib
∥δ
wrong
rejection
metri
balancing
bivariate
organization
f0
immers
rigorously
terminate
archimedean
ces
##bal
##ender
fried
minors
##valu
literals
##ino
team
##vities
comprehensive
coalgebra
cusps
voting
relu
2−1
concentrate
modulation
reversal
counterparts
falls
3p
pages
driving
112
enters
xr
coerc
records
n→
analogues
valuable
deligne
gv
inducing
incorrect
##ecreasing
##∆t
hw
grassmannian
θ1
unre
robin
diamond
admitting
##ham
greatly
customer
radii
los
noma
simil
anomal
promising
##arching
##adjoint
nat
famous
polym
##az
∂ϕ
⊗k
repar
correc
##−l
xv
negation
rotating
##free
prol
noticing
ej
announ
supposed
immersed
ancestor
spacetimes
pip
specifies
utilized
kir
∀s
##vich
traveling
qa
battery
nondecreasing
##fications
cast
x3
charts
##appear
multiset
sand
cotangent
tax
uj
bil
incremental
fresh
##−−−−
solely
opinion
##zer
##ench
keeps
λp
resolve
cryptograph
shaded
γ−1
fort
relativistic
irrational
##eur
maintaining
##45
maximized
homogeneity
homeomorphisms
l0
ultimately
##ucker
concurrent
##73
y0
ptq
entails
blocking
##rupted
##field
groupoids
controllers
##phere
∈a
style
θ∈
researchers
generative
universality
ry
##asts
ˆω
specifications
##oto
subb
cette
heuristics
##itch
##strass
resolved
perturbative
##edges
discontinuity
respects
geometries
obeys
occupied
σi
capable
peut
hoch
adi
penalized
−7
memoryless
kept
tilings
dihedral
##ires
quadru
thing
martin
##umber
sir
##isations
meanwhile
limitation
preprocessing
percentage
∥α
##size
sampler
institute
1−s
weierstrass
fermionic
∈r
surrogate
signatures
soph
creating
lis
iz
ergodicity
´1q
experience
##82
##ype
swe
subl
##unctive
landau
∂λ
satisfiable
σ∈
105
cad
hypergraphs
subgradi
notes
γ2
##armonic
##entive
wants
student
mel
inserted
´p
developments
##uk
intract
advanced
##aker
hear
utilizing
queues
motivic
cuspidal
billi
encou
plau
walls
searching
interchange
heavily
##gen
posets
capacities
jam
−ϕ
saturation
1≤k
transactions
trying
conformally
unob
##rage
mds
microscopic
nak
absorbing
inspection
justify
##xq
rham
stratification
pent
4α
##ematic
hardware
β−1
timelike
conges
##fold
1995
g∥
−10
j≤n
compress
g∈g
evid
prep
≤t
disturbance
populations
3q
132
defic
chernoff
vm
precoding
schema
exclude
bottleneck
addresses
pseudoc
rectif
survival
framing
disease
w∥
ine
advance
mpc
dedicated
zq
reset
pruning
sorting
##ordon
decaying
mnist
##stand
slices
unp
revealed
satisfaction
##ola
convert
persistent
3π
w0
shrinking
certificate
plain
subsections
converted
##umulation
sciences
coordination
hyperelliptic
125
turned
reformulation
∈n
##urning
clarity
digits
##land
ey
monic
p∈
chordal
excur
lhs
eigenspace
##33
services
4s
grob
timest
drawback
twisting
processors
nw
rain
##ients
europ
semin
hardy
differentiability
calibration
views
concavity
pλ
kra
movement
##74
pain
goals
dilation
∆f
subsc
referring
##enz
dβ
deb
chow
congestion
radio
##hr
a∥
interact
1c
returning
fq
normalizing
controllable
evolves
1l
existe
cohomological
##ew
hosp
suggestions
antip
him
ignoring
fj
lorentzian
corrected
fem
iee
email
##ocities
seven
##ovich
αp
infeasible
arguing
disappear
bun
##apsh
mum
##rec
isotropy
velocities
##sts
ud
##fact
##agonal
polygonal
detecting
mot
##upp
constitutes
affin
compares
correspondingly
∂γ
∥ψ∥
justification
bou
conduc
collisions
accumulation
spans
expressing
yj
ew
holding
pend
excellent
determination
snapsh
e0
reports
##imetric
intercon
incentive
sectional
protein
mini
obey
γt
enumerate
ωt
##mp
pulse
lad
topics
attracting
experimentally
stations
##anck
largely
ordin
polarized
kw
##more
##72
1−1
##ina
∂ψ
north
sophistic
composing
polylog
complements
spt
encountered
fuch
coloured
grobner
polish
emb
colorings
∆p
z0
communicate
ultr
notably
##cp
contracts
1≤i≤
sender
failures
##ante
generalisation
##weighted
grammar
lamination
hered
undec
−2n
##umb
##qp
shifting
λr
innov
subtracting
##vier
ieee
congruent
##ho
chaos
j≤
anomaly
couplings
vect
##gl
payment
sliding
dynamically
##ameters
combines
enhanced
embeds
bps
delayed
tightness
revis
attraction
execute
πn
suiv
phyl
polyhedra
##78
ramsey
400
brane
##kens
optimally
quartic
volumes
stratified
surj
decorated
radiation
##oids
reciprocal
103
treewidth
jr
crow
moved
transd
n∈
##fe
contracted
forests
fitness
critic
##anges
distributive
arity
served
##nel
switches
smart
##arge
capital
1994
labelling
individ
transmitters
accelerated
continuing
##ficial
transitivity
school
satisfiability
150
##ortex
competition
zeroes
compound
accounts
suppress
enforce
##using
accepts
τn
planck
playing
uncor
stationarity
punctures
4q
ux
replaces
dissipative
##db
bosonic
encryption
disti
dynkin
infection
multidimensional
dxdt
epid
acceptable
##harmonic
##esc
##pson
strands
performances
pγ
regul
sectors
##inte
blowup
paradigm
recovering
∈i
##asion
##ga
qb
σt
realizable
##fil
imaging
sweep
gorenstein
sheet
son
newly
resolutions
seminal
n−r
reality
epimorphism
h∥
βi
cδ
nef
verifier
tele
architectures
##feld
##dv
∈c
unfolding
automorphic
ju
vortex
eliminated
simplifying
stic
thorough
glued
causality
∀a
##66
##box
xb
##alan
leibn
genes
terminals
obliv
signaling
contours
##ione
##ichotom
qj
prototyp
relying
submitted
patches
k−j
resili
carrying
uq
104
##tia
##vo
displays
invoke
##cell
modelled
exclusion
interle
rz
necessity
monad
observes
enabled
inde
λ0
sublinear
mult
modifying
qh
wealth
quantified
kan
uw
##tis
##riers
informative
x∼
eulerian
preservation
amalg
gq
electromagnetic
sophisticated
nth
θ0
huge
indexes
tighter
repeti
##ishing
anne
##tivities
hits
relativity
std
cartier
##32
colimits
##≤1
##aya
obstacles
successively
damping
mono
indetermin
sized
##lling
domination
∥∥
covariate
writes
expresses
nondetermin
mus
1k
##ticity
maintains
##icious
applicability
fw
nα
person
λµ
characterizations
media
fub
resonant
γp
maxima
##aj
1−q
cosmological
spacelike
associates
ϵn
impul
τ1
streams
predecess
108
joined
template
fpt
noiseless
syntactic
multilinear
european
rearranging
##aulay
hyperbolicity
##ialgebra
ranging
##parable
materials
retrieval
macaulay
live
−ψ
fubini
iterating
diagonals
i3
−ζ
strand
donne
adiab
pixel
hq
reject
∀y
summarizes
centrality
##iest
hoc
monoids
posi
tubular
ignored
refine
unweighted
probe
individually
reals
moore
inverses
economic
aid
avg
d0
adequate
codebook
rotational
roll
±2
subinter
thomas
transcend
uncount
evolving
reid
practically
##anu
oscillatory
arct
stores
##lands
descending
visits
picking
##une
autoc
confirmed
λu
eavesdropper
beliefs
decided
4l
distinguishing
trend
milnor
specialization
##ht
argmax
amp
inconsistent
kz
demon
shorthand
smoothed
birkh
lw
subpath
validate
##enko
clients
suspension
tau
lx
scientific
##gm
fore
##inski
cif
depicts
bisimulation
106
jq
molecules
lect
monoch
sos
evolutionary
intractable
assembly
fol
##lassical
stabilizing
clarify
reproducing
λq
pσ
βγ
suite
whe
took
##ana
reflecting
##ulti
relays
∥n
##lim
x→
jet
mx
predictors
##36
oblivious
kosz
differentially
##rons
semicontinuous
inherent
evolve
##cer
imperfect
separability
statistically
ell
determinants
entropies
124
isoper
annuli
kkt
rγ
λs
2i−1
fifth
stars
session
##gd
invoking
trigonom
ridge
firm
lexicographic
pac
ok
colours
##−δ
presenting
conversion
##v∥
spik
wilson
##odal
navier
bri
noticed
quand
nearby
incoher
quadrilateral
multiples
suited
amalgam
##ada
collinear
koszul
subscheme
##dr
##ockwise
contractions
charged
tz
ghost
superscript
je
leibniz
junction
∥ϕ∥
k−i
tam
ues
ris
expert
markets
subrou
wins
appealing
sigma
participants
asked
certif
##pxq
behaved
braided
aperiodic
unlabeled
∆s
classically
https
breaks
closures
imposes
hyd
voters
conference
##×k
depar
t∈t
##olar
health
formalize
kum
finer
constell
girth
rand
rod
idle
transportation
gordon
##ils
xor
∀u
fermions
timed
seller
##osh
jul
mism
posteriori
nls
inac
monitoring
zy
actu
xc
substitutions
interactive
t∈r
##tient
examined
accordance
paired
unobser
2ξ
⊗m
vk
factorial
ltl
##ige
hypercube
stops
momenta
##body
pear
seq
randomization
primarily
subgradient
##plan
witnesses
department
povm
inertia
factorizations
arctan
downward
remin
08
boost
espace
j−
zig
tier
antisymmetric
ρn
##ae
reasonably
##ium
neuron
γx
chi
indexing
projecting
dropped
format
corrupted
##track
0i
##rated
##positive
dichotom
flav
inferred
severe
carrier
genetic
edit
motivate
correcting
initiated
##formal
1⩽
gall
pants
entities
indefinite
##lines
excluding
handling
constitu
typed
tru
3α
ultrafil
##agon
peb
decoded
cocycles
cele
mumford
parenthes
##wall
frameworks
homolog
eleg
monochromatic
shot
retraction
perman
pixels
r−2
mov
transmits
transmitting
3g
collecting
##zh
foot
leakage
mitig
contam
##wood
mit
tries
##integr
sun
digit
propagator
arrangements
perron
conjugates
reproduce
##ama
facilitate
indistinguishable
rat
##tization
zw
m→∞
subordin
ldpc
##79
cosets
semiclassical
λa
unions
wl
treating
avo
##omorphically
1−t
zu
sentences
coker
##actor
reinforcement
similarities
hereafter
##xy
tokens
λv
residuals
excit
±∞
j∈s
qd
lind
identifiability
violate
unm
##tingales
birkhoff
##gence
odes
bellman
nowhere
discussing
kf
dict
decides
cascade
proximity
postpon
increasingly
r∈
##aki
##↓0
supers
joins
availability
subdomain
figs
bog
unlikely
stem
cocompact
decades
##rt
infr
##ya
##ups
hilb
lamb
shortly
∈b
proposes
psd
rhom
electrical
separator
utilities
negatively
tackle
meridian
##irection
segmentation
infl
coproduct
enriched
coc
βt
subalgebras
×m
αγ
r3
partite
##elli
adver
subjects
negativity
heap
mobility
prints
##acci
##urm
##ermost
λj
cogn
flips
isoperimetric
c4
winding
arrives
isogen
wait
tape
hess
uniformity
stim
##ethe
personal
cok
##rep
contextual
≤2
standing
truthful
2−2
removes
ranked
afterwards
mismatch
h3
heart
##ourn
i≥1
##ester
##hl
capability
conical
stan
manifest
strategic
ast
enlarg
trigonometric
conceptual
curvatures
##iors
adiabatic
held
asks
##cur
constructible
j−2
ωn
##orient
ωi
arranged
∆w
basepoint
z∥
dominance
wild
isol
ys
∆n
rating
4λ
suscep
transitively
nonc
i∈z
plate
toy
scalable
diagnos
stochastically
##pf
grey
λk
1990
accommod
spreading
ua
##44
zx
07
##−c
adjustment
##valent
evaluates
simons
##des
compil
uncorrelated
adjo
cλ
##van
www
ppp
µn
##aging
##los
hem
christ
ucb
λe
typing
prover
3i
contradict
πx
∂ν
unitaries
##day
scoring
rip
deno
##text
projectors
peer
bank
inherits
vq
dumm
chords
##loading
##zable
please
nav
saving
mont
##ounting
incorporating
##symmetry
gab
legi
historical
tetrahedra
harmon
kalman
normalize
λm
normed
##ptq
concretely
failed
disjunction
fluctuation
proh
preshe
∂ξ
coverings
tut
σx
lock
lap
gin
orbital
##p1
##bc
wm
1993
strain
coul
diverges
epochs
##actory
4e
homoclinic
ℓ1
dram
expressive
offset
builds
julia
rub
##ien
##uper
manipulation
johnson
stretch
xf
zk
suggesting
phylogene
zj
cifar
lus
##pm
##ogether
horn
##cut
scalability
discusses
spike
circul
φn
frequent
bath
hir
dvol
tou
nik
wonder
transversality
idempot
haw
0q
slack
disp
hing
##rase
existential
electronic
115
i−j
additivity
±i
γ0
interfaces
βj
##ipher
αj
mills
abbreviate
##rodynam
qz
degeneration
iϕ
mining
repetition
buch
raw
##acies
j∈i
winner
molecular
bubble
universally
observability
##yer
operads
##bow
##ellow
hereditary
trivialization
escape
sparsi
vl
##boux
##tree
sis
##lem
sturm
t−t
guard
indust
zs
reduc
##itting
−2k
databases
ϵ→0
entity
##valued
talk
investment
strips
reactions
scheduled
resistance
containment
legal
involutions
effor
##eurs
outward
byz
lose
expo
##rative
##64
altogether
darboux
n´1
##illen
##utation
days
wider
endomorphisms
efforts
stair
reformulated
solvability
wc
hed
remind
imagine
##ered
1992
113
witt
acknowledgement
perf
relabel
arrivals
disag
##level
machin
colimit
##ashi
upward
##81
simulating
violates
anything
cris
ups
π1
surviv
107
payoffs
elegant
##ivity
shuffle
##bling
centroid
##etermined
cft
β2
2n−2
φ1
a5
##atrices
p∈p
investigating
##ids
monomorphism
122
θ2
phil
condens
experts
recorded
dela
dealt
judg
variability
uf
##elt
shim
5a
##ison
m−k
´x
squee
schematic
orderings
boson
smith
##based
cτ
inex
##ws
πt
##ressions
picked
unnecess
referee
iγ
fortunately
gan
##ght
examining
∈x
shrinkage
##pi
sequent
prepared
1−k
xw
countercl
residues
cyclically
##ahedron
responsible
στ
3rd
##rad
dummy
121
mixtures
grain
dee
discounted
unknowns
i→∞
brings
interl
implements
##gu
solitons
hochschild
##rit
##lie
dess
wj
114
counterclockwise
fitted
##undle
kim
∥i
extin
harv
j∈z
csit
billiard
room
radem
##igure
##tious
##za
##35
anchor
plausible
c−1
mentioning
6a
subsh
machinery
ql
qe
aud
achievability
affir
epist
←−
legitimate
##yd
house
##−β
unconditional
arn
characterisation
branes
4z
##relation
comprom
fh
brauer
maintained
bian
puncture
puzz
cofibrant
incompati
transforming
layered
hot
raised
##ymmetric
intervention
anticip
lamin
##rg
brain
coulomb
quillen
λ∥
multiscale
divergences
##roph
dyck
##chin
entering
##sim
adapting
inflation
grand
rademacher
##−b
αm
##omp
helm
##exist
beneficial
##ilarity
confirms
144
crystall
authen
iη
prepare
##hat
executing
4i
ρu
parametr
subtract
##emeister
midpoint
##ela
quantification
backtrack
nondeterministic
siegel
contra
intell
09
allocations
exploits
descends
µ1
##ume
−2α
mah
quadrant
lexicograph
vast
##50
promin
##beit
reidemeister
inertial
eigenstates
6n
za
##holomorphic
bear
pad
men
##stra
seminorm
subadd
photons
##oom
release
≤c
fulfills
##⩾0
unable
specialized
scan
stems
compl
gev
forgetful
aggregated
##nikov
mich
spine
delic
mur
harves
##otomic
∂∆
swapping
avoided
epis
##idability
##fa
subproblems
##∇u
rom
##sation
owing
eliminating
haz
multipartite
inherited
nϵ
##jan
mz
competing
south
ascending
α0
hill
##ensed
##oro
celebr
derives
recognized
λy
exposed
phylogenetic
qos
##olis
assisted
students
1−θ
##do
xg
finger
switched
cα
answering
slic
cited
cognitive
multicast
##lag
associativity
##enh
##nn
nλ
landsc
ℓ∈
4g
folding
offsp
vb
unic
pkq
fdr
b∈
p1q
##ambigu
ist
clas
accomplished
hexagon
cϵ
##rome
somm
##isters
##fo
iξ
crucially
massless
extrap
βx
subcase
##tile
##unay
kre
kα
##´2
trapped
##normal
δu
draws
locc
vote
blowing
flags
ties
elaborate
borrow
stepsize
cit
0≤i
pointer
peripher
fatou
panels
termed
decomposing
bidder
digraphs
connectedness
reformulate
##uous
internet
gron
windows
evidently
attracted
109
selective
bow
p4
delaunay
unav
braids
##holtz
##sler
##qs
morita
q∥
116
finished
fuchsian
r→∞
##py
mmw
awgn
a→
relaxations
blind
facility
##ny
##×3
αk
spaced
##clear
iτ
##ceiv
∂α
censor
byzantine
##zzo
##vs
∇l
##va
enjoys
fragments
fermi
advice
deployment
andre
##lds
pµ
render
##iff
authentic
transpar
littlewood
##wr
sate
atlas
unsatisf
labor
##band
wein
invent
subscripts
kinematic
scheduler
1st
ω2
quantifiers
discrimination
approaching
cup
differentiate
rejected
neck
repr
##amer
##ara
cosine
uncertainties
tesse
celebrated
visibility
##burg
employs
remarkably
circulant
bridges
##21
##ategories
registers
λf
gross
wy
straightforwardly
∥e∥
oh
##pd
intensive
semid
δv
protected
−2i
delicate
1−n
resonances
##itable
got
charging
eisenstein
investigations
ols
collapsing
screening
##ankel
malicious
fric
marks
##worth
learns
##sians
stably
##strom
diverse
∥θ∥
##titude
repul
cℓ
complexities
maker
penrose
prolong
1−i
subsequences
1991
predictable
storing
gadgets
1−r
maslov
1−a
steep
concluded
gelf
supersymmetric
##nr
##aracter
##−q
buyers
patients
1−λ
##rest
technically
bax
gsp
activated
proxy
tailed
##≥2
jx
requested
floor
mig
realizes
##ett
meant
bethe
qv
rkhs
deeper
realizing
dropping
permits
hoeff
##ury
proble
albeit
turb
conflu
succeeds
subroutine
transversely
ruled
speedup
drops
##65
elasticity
##ped
oscillation
##berger
submer
pom
gronwall
##key
highlighted
2φ
kull
multin
134
##stream
identifiable
pus
corr
quadrang
1−x
partly
∥ξ∥
u−
hoeffding
∆y
divergent
hospit
queueing
pseudod
##smooth
ped
yk
##hal
αr
ensured
oscillators
5b
tern
##amped
iot
ˆb
8n
defects
##omput
filtrations
provable
helmholtz
splines
formalized
normalised
∈v
0≤t≤t
##ulates
idempotents
io
stiff
##alid
frozen
regularly
##ava
c∈c
u∈u
sitter
eval
rainbow
yellow
∀z
∂i
fruit
enjoy
intellig
sei
q−2
org
4δ
remar
worked
download
forme
selfadjoint
cancell
−it
maximality
sic
centralizer
ρ1
voter
ez
lambda
##nes
##pg
willi
tuned
wheel
obstructions
god
propagate
spent
shed
optimisation
egal
ˆ1
regularizer
viewing
assoc
save
reorder
prevents
recognize
arriving
inh
cokernel
3l
benchmarks
serial
2m−1
circumst
t→0
paq
jack
loci
hook
provably
rotated
mist
meme
threads
decoupling
multigraph
≤m
bregman
∀p
capabilities
##rc
kullback
qud
iβ
ky
schwarzschild
cyclotomic
analyticity
ellipse
satell
resultant
offspring
vorticity
companion
bars
popularity
arcc
##ametri
sze
##dz
incorporated
membr
3e
cnf
stabilizers
denoising
##ovanov
##×1
goods
civ
triggered
##´1q
##agin
minimally
dioph
∥j
##term
anomalous
attractors
decoupled
2×2
δq
126
hankel
eps
unclear
operates
beltr
##jes
incurred
forthcoming
entropic
magic
ψ∥
codim
thompson
##−ε
≤r
ahead
##×s
tournam
manipulations
0j
placing
relaying
αs
rede
∥s∥
∥q∥
russian
2ϕ
descendant
amongst
patient
sar
i→
tempered
tending
lz
loads
violating
bids
transduc
ppt
##pq
cyc
subcar
trim
fire
##ensur
terminating
anymore
tilting
wald
spr
∀m
apparently
contig
##ingly
thickness
exploring
contractive
##ops
φ2
1≤j≤
peters
international
dimin
mun
spot
##70
renormalized
mutations
asymmetry
heterogeneity
inexact
πr
t∧
satisfactory
subqu
fluxes
##onacci
##imir
bruhat
baxter
##resp
##anon
ant
nonun
i≥0
truly
wood
##orti
soci
preimages
uncountable
toroidal
regener
cipher
ug
180
worlds
beltrami
exchangeable
serving
##ception
ja
decreased
t−τ
quantiles
xd
surrounding
extracting
destro
month
essence
translating
spring
yam
problematic
misspec
##cati
fra
maximizer
counterexamples
illustrative
fuk
d3
##bi
speeds
palind
tie
dominate
σ0
qw
##fly
david
progressive
neutr
homogenization
ym
λ∈λ
##aut
systematically
2iπ
cancer
∥χ
##encing
comod
3δ
b∈b
ech
g∈
135
##med
x−1
traversal
##opt
assets
8k
##−ϵ
acknowledge
eth
warm
##group
bijections
bianchi
justifies
##ocal
sib
i∂
assist
##vised
predecessor
absent
bab
αq
faulty
nic
recep
118
informal
##itter
##vas
grants
trape
advances
involutive
hyperparameters
cheap
impr
parse
##istribution
δa
insur
unnecessary
preconditioner
rearrang
philoso
##how
epidemic
βα
φ∥
antichain
##ni
money
observers
semiring
late
invalid
##∥x∥
ye
sine
ternary
z−
backwards
subsolution
notable
∥p∥
φi
workload
centred
presentations
##icks
favorable
inverting
grouping
irreducibility
i∈v
skein
←→
intra
lieb
2j−1
iσ
tension
´t
seeds
##asso
publication
##umin
##orted
−−−−
demonst
##sations
founded
spacing
autocor
##enet
excitation
mcc
##rain
##plus
renewal
##×p
orbifolds
informed
##struct
ecc
amplification
##alog
fonct
wir
zg
clt
s4
harvesting
concise
##67
ain
##upervised
3ε
∈z
repetitions
motivating
multiplications
y∈y
credit
µi
discarded
##mon
isogeny
teleport
j−i
nine
conductor
quot
##inity
diophantine
##oning
internally
∂τ
lst
tangles
##akes
##irectional
θj
remote
intel
ladder
peaks
hours
shallow
twistor
lange
undefined
linkage
synd
election
4ε
##voir
6k
##pu
##→1
morph
germs
tin
dft
lan
quasis
×d
broader
512
λz
hashing
sα
dichotomy
abcd
surjectivity
δm
trapez
equi
announced
predicts
fibonacci
##atched
epistemic
colorable
descendants
∈d
mainten
spur
finsler
tautological
burn
resampling
torsor
riccati
walker
ijkl
##rey
##ectral
qualitatively
governing
x∈s
reciproc
varied
drin
∈m
##ample
leibler
eman
watson
reservoir
p0q
117
remarked
passed
compose
twin
exchanging
supersolution
outlier
##xxxx
encom
ancilla
m−n
cnn
resembles
≤0
leb
kerr
excursion
pyth
semim
fundament
prominent
metrop
identifications
##uation
ω∈
##ony
psq
tolerant
cofin
cubical
departure
demonstrating
timing
lazy
erf
bisection
6b
lifetime
##bas
h∈h
cobound
interpolating
blocked
vx
1−ρ
θ∈θ
iφ
##play
encompass
govern
reph
wq
010
occurred
polymer
poll
han
dnn
rosen
admissibility
annihilation
pθ
discount
apres
lac
##pb
##ucting
gelfand
##48
duals
martingales
rog
zm
auc
determinantal
∆a
n−d
stre
##osting
5n
##ependent
ω0
longit
unambigu
illustrating
summarizing
τi
optimizer
∆h
d∈
summable
##sa
pla
blockchain
##40
3z
philosoph
→0
j→∞
navig
vg
picks
excited
recalled
ν−1
detectors
king
##isor
luc
∃y
eigenspaces
expander
pione
xh
wx
##kq
##increasing
ℓ2
##lock
decoher
regress
kry
##≤x
discontinuities
##pherical
##tifications
zag
imbal
t3
guide
##turing
##leve
arrange
board
##astr
8q
stabilizes
∂j
##−γ
∥c∥
bidders
nδ
histories
8a
paradox
sublattice
wg
multiplex
∥∇u
ideally
mmwave
extinction
exclusively
ηn
2−α
ξ1
immersions
δe
firing
flipping
−2s
conjugated
camp
rmse
xl
invertibility
vd
λc
absorbed
predicting
quadruple
nag
offered
##ought
drive
t−2
##hon
##eric
wd
collapses
prism
hat
##akov
niel
pnq
kau
correspondences
kon
cpt
parents
δf
helper
integrator
valence
noises
permit
interconn
l−
neu
##han
comprises
kdv
monitor
exchanges
##tique
##etes
##ez
gos
##haul
reli
pzq
nonsmooth
##gent
##200
sieve
mask
unordered
kas
mall
##enn
stabilize
articles
auctions
##sest
frontier
##hy
gained
khovanov
0≤s
confined
transcendental
answered
##vd
subsur
latin
##table
##eling
enhance
deployed
3λ
##tiy
compactif
fx
##pertur
π∈
observational
1e
##55
multinomial
xα
dan
spherically
c∈
stabilized
inactive
capturing
east
earth
##aling
wanted
quaternionic
painleve
unsupervised
p∥
conductance
pfaff
recommendation
##abe
1989
nonincreasing
handlebody
heights
casimir
incoherent
tutte
supersymmetry
##sivity
w∈w
clustered
spo
bifurcations
jh
consumer
##lp
disorder
dna
250
##iro
pit
δ1
##beck
het
compressible
unbal
closing
splittings
vul
##osc
##ompact
shimura
documents
ξi
reactive
βs
##ortions
vf
σ∈s
fruitful
4ϵ
permuting
nτ
##words
coincidence
flatness
backhaul
##map
hexagonal
1−c
inverted
langlands
pωq
tangency
morphisme
##71
##iform
adam
floating
constellation
rα
impulse
e3
mst
hasse
pezzo
rapp
abund
kπ
manage
bip
τ2
##figur
degradation
##anonical
##bm
##classi
motif
purch
deferred
aps
scattered
##respective
beau
##bound
kont
landscape
j≥1
epr
pspace
resolving
wavelets
exotic
δs
vision
undergo
▷◁
vicinity
scott
alphabets
affirmative
smale
rationally
transversally
sketched
γr
attachment
m3
deterministically
rao
merged
##oy
##otential
simulator
##twisted
subcritical
wid
preorder
anderson
reuse
##urally
−χ
disturbances
costly
θk
##inct
grained
refinements
##p2
minutes
metropolis
192
protection
concurr
ρi
tac
−9
simon
bucket
10000
forgetting
2ζ
γs
occasion
acknowledgment
unimodal
conductivity
arbitrage
krylov
replication
ultrafilter
frank
fellows
##apsack
fok
##usting
jω
##eltjes
commensur
journ
wz
bfs
n−p
##oni
iε
plur
commutators
influenced
wavelength
peripheral
arccos
nielsen
univ
##athe
diffusive
concordance
pictures
executions
4γ
civita
pseudodifferential
##tings
thermodynamics
pyram
till
λg
##outs
semil
ρ∥
arb
ov
subword
basin
stieltjes
sas
irrespective
pushing
∆r
tomography
steering
absorption
∂ρ
permanent
definiteness
exactness
##ruption
×p
119
knapsack
bonds
hyperedges
refs
λ−
interfering
webs
numbered
caracter
profess
∂β
##utter
pursuit
##≤r
excitations
pushforward
diverge
puts
adaptively
feder
aα
runge
instructions
visualization
##uve
discard
friction
succinct
opportunity
##appro
##63
pec
specialize
cmc
insertions
##eno
acous
##rought
transferred
bimodules
zhu
∥ax
stone
iµ
##rank
qqq
undecidable
adams
##rate
##aged
freeness
δi
ofdm
ψ1
enhanc
##ibiting
##anger
pτ
modularity
##ona
µx
accommodate
##hod
##haus
suffers
##pv
n×m
plas
folded
segal
retract
guessing
exempl
voc
vulner
cramer
ainsi
##itives
reviewed
##eps
l−2
gaussians
amorti
¬x
hyperbol
ids
electrons
##ffman
wv
harmonics
incenti
##hm
αu
monge
nε
profinite
##cu
mand
guarded
stick
exposure
rectifiable
chambers
dilat
wherein
newtonian
brought
gra
##coh
quark
αa
propri
shi
∂η
neighbourhoods
γ∈γ
gol
bez
##auer
ξn
−2t
rac
##eller
hospitality
##du
vand
isometrically
rab
opening
pertain
densely
##board
σ−1
hyperedge
γj
130
west
swaps
µt
##ket
tractability
somehow
confound
tent
νn
duplex
striking
chee
reserve
congruences
##siv
wiret
##tl
zhou
safely
cra
trivalent
proceedings
mad
sufficiency
monograph
δg
langevin
bosons
subbundle
offloading
1980
127
##planar
sympl
kato
sinc
##onald
faithfully
stir
explaining
variate
dimer
γk
##ilst
drastic
##68
xyz
5000
4β
spinors
##alytic
homoth
transparent
fibrant
delivered
instrument
vert
gran
overlaps
renew
4σ
##umbers
wishes
infrastr
ρ2
##tines
antipodal
cardinals
pooling
¬a
camera
neglected
calling
membrane
δp
qg
flatten
tedi
opinions
##43
addressing
##existence
follower
books
cohomolog
pπ
mell
thre
1987
##alling
adopting
kun
##tiyah
##ima
git
plans
parallelogram
affecting
m×m
##bp
##grid
syl
atiyah
conversations
premise
##urer
αe
´r
160
whilst
proposals
mail
appl
san
subsum
undes
retrieve
##diagonal
electricity
##acon
lcm
generalise
##ahn
cryptographic
unbalanced
circumstances
##rased
##oreg
∀f
tracks
kummer
##oming
rationality
##ason
accumulated
h−
stopped
quasiconformal
reparametri
dfs
gradually
catalan
slab
##sid
fastest
votes
propagating
allocate
0000
envy
d−k
german
cheeger
radially
∥ζ
fait
ox
pulling
##zq
##state
pξ
diagonalizable
##iant
robotic
cumulants
##mn
artif
explanations
telesc
##∇f
biology
prq
influences
dub
primitives
tedious
longitud
replica
prototype
snapshot
hydrodynam
sho
bord
living
´q
landmark
estimations
suivant
kut
ler
##aa
conceptually
exits
assert
nul
ao
cγ
##estim
##⩾1
utilization
raises
γg
hemis
cps
##irc
activities
backtracking
unitarily
serious
−iθ
pmf
lusz
##cil
dont
ωx
decoherence
friend
##rossing
folds
environmental
3×3
aside
##ricted
clocks
p´
##eman
chunk
iℓ
g−
exceptions
stanley
xβ
calibrated
sag
σs
teleportation
foliated
∇q
adjusting
##uy
approx
8c
##books
uavs
ℓn
reviews
maybe
whitehead
news
lusztig
wiretap
##eda
##ias
##−∞
forecast
ψn
γv
misclassi
nerve
bypass
4h
magne
moll
tar
irs
appendices
cech
##ito
##ova
deadline
semimar
∆e
##uality
suppressed
spurious
s−2
reporting
provider
scr
##df
susceptible
mdps
sky
−ik
##limited
accounting
∆m
##jk
gz
unobserved
figure1
guaranteeing
committe
∥η∥
symplect
satellite
1−m
turbul
rud
quantifies
##atever
braiding
##folds
offs
acknowledges
transfers
ρt
##forms
kod
foundations
whatever
quandle
##ban
m∈n
incomparable
##win
lagrangians
covariances
pullbacks
noncompact
og
ηt
spanner
fini
alpha
hund
kontse
exchanged
sac
today
trail
##rial
substituted
interlac
−12
qy
contributing
##equal
##ubs
resulted
friends
##isition
subdifferential
stirling
threefold
molecule
expense
axiomati
trou
λb
topos
temperatures
hof
puzzle
emerging
gps
homeo
trapping
φt
attributed
ξ∈
nγ
ya
disjunctive
##advant
−2λ
uhlen
x→∞
fellowship
##ibly
##ja
autocorrelation
quasiconvex
##30
disadvant
collar
encoura
interplay
##69
combinatorially
##siveness
##erner
q∈q
×1
uhlenbeck
tsp
140
indicators
vertically
holonomic
regulation
kontsevich
##ithub
##baum
##ulas
longitudinal
tit
##lich
voir
vh
omitting
github
−2πi
exhibiting
puis
exogenous
miss
3ϵ
ale
tion
##iewicz
pairings
lets
##aste
##a2
pushout
##yal
circumvent
scann
brun
staircase
herein
∥ν
##isible
∀r
closeness
rearrangement
baselines
pret
discretizations
encrypted
145
orn
##pair
tro
##pop
mec
connes
1m
1988
symmetrically
decidability
poorly
incompatible
interpreting
exponenti
hitchin
z∈z
expansive
emphasis
tubes
insu
##degree
pod
counters
connective
lorenz
βq
drinfeld
ε1
constituent
tits
toda
intertwining
×k
##ayer
predefined
##iency
##omon
enabling
couples
integrality
ing
angled
thous
believed
enveloping
dissim
##ulier
##tos
bandits
−−−−−
acquisition
1t
supercritical
chsh
cofibration
arnold
instanton
occupation
∆q
dimensionless
pgq
mso
dramatically
##62
hinge
fly
cavity
##roducts
−iω
sight
##42
conveniently
≥2
corps
searches
nonpositive
avoidance
##ponential
substring
##60
pursue
##length
legs
daily
tracing
##ida
pir
x×
¬p
´s
accompan
bipartition
cobordisms
tap
annular
nonline
nicely
magnit
arcsin
fundamentally
boosting
µ∈
bien
##aking
x−x
print
γa
acad
fixpoint
utilizes
contravariant
β∈
enumerated
quivers
lic
inr
contiguous
augmenting
δh
davis
cadlag
πk
normalisation
##qr
hundred
whereby
semilinear
##istry
λd
ℓm
magnitudes
n−4
denominators
133
3j
surplus
company
thr
ifs
##etti
n3
α∥
ras
respecting
adverti
crystals
whitt
vlas
automated
pon
##open
medical
coercive
##ifier
roc
011
discord
innovation
α∈a
paid
huang
finitary
##olored
##abelian
barycentric
##oss
embedd
highlights
##×q
δr
∥k∥
wb
asking
tunnel
##rema
unrest
submersion
repelling
conforming
parentheses
pulled
oz
orange
sdes
diagonally
nonlinearities
improper
##raction
ρ0
distant
realisation
synchronized
opens
3h
k−l
wrt
β∥
violations
´n
traverse
spiral
3γ
strongest
oracles
reed
subshift
dol
piq
sbs
fokker
richards
##posit
##ublished
metrizable
symmetrization
1986
armed
cσ
l→∞
galax
consumed
deletions
comparative
##vey
seemingly
checker
enforced
journal
zc
vlasov
pier
´y
revisit
characterised
homogenous
unt
reconfigur
cher
losing
biases
matters
−λt
million
##sign
bool
hazard
##channel
progression
λh
visiting
fake
oscillating
prohib
collects
wo
subfield
8b
physic
−2m
##wich
βk
##berts
##onde
uncover
harvested
amortized
dfa
##user
bang
##var
mcm
zr
emanating
heads
##µν
tried
6c
equator
multim
incurs
usefulness
spa
chun
γm
131
ssp
thereof
factorisation
##alley
136
γe
∆z
geo
penalties
muller
sought
bose
i∈a
mab
##unctor
aλ
computers
trip
vortices
comprising
tucker
βm
airy
acoustic
##iere
competit
deduction
lecture
##donald
prefixes
polylogarithm
hedging
##sson
equivariance
2πn
press
nis
tessellation
##illary
surveys
y−
lives
prescription
reproduction
inaccur
σp
##rick
ornstein
##vector
equicontinu
unpublished
7a
pρ
bour
english
qft
∥1
listing
∆g
impossibility
exceeding
129
csc
incorporates
kel
overf
subtraction
montr
zeroth
##represent
ρσ
periodically
annotated
β0
autoreg
tann
softmax
aided
j≥0
jd
mack
##odory
enclosed
unrestricted
jan
collaboration
beams
exhibited
equidist
##arc
deviate
finance
inherently
δk
##omic
quasic
##bach
targeted
002
executes
shocks
trave
seeks
smc
treatments
analysed
expects
schedules
dend
histograms
tick
markings
technologies
viscous
choles
fft
lca
##ensities
propensity
exponentials
homologous
functoriality
seeking
detects
axiomatic
bat
∈u
depict
##perturbed
##nomial
grouped
pathwise
discretize
##dson
αd
nan
infinitesim
##uate
∆φ
≤i
##umor
shapley
distinguishable
loosely
##⩽n
diffusions
##tude
##actical
infrastructure
tournament
##ultiplic
tα
educ
eil
erm
##cence
##atheodory
presheaf
demanding
faults
chev
µs
inefficient
zip
s−t
resilient
inequivalent
kam
brute
ascent
rack
σσ
mathematica
abd
φx
precoder
##ours
counterfact
xxx
optimistic
wolf
componentwise
∥r∥
leveraging
toute
reciprocity
##uss
century
alarm
epi
professor
anr
mort
wrap
##olved
purity
krip
heteroclinic
restate
gerbe
aussi
guid
##w∥
−−−→
associe
aσ
moser
maturity
k→
βp
1−j
enumerating
εt
##hop
completions
resort
jℓ
thinking
##ael
##inted
∀α
comon
commitment
bous
presum
electro
vocab
pseudocode
lexicographically
bare
validated
kripke
##gi
miller
multilevel
##54
caratheodory
λα
k−m
∥∇u∥
insurance
unperturbed
superalgebra
distillation
∩b
##dan
becoming
americ
intrinsically
compressive
2k−2
alexand
perspectives
reordering
γq
≤d
nester
##lemma
##fts
##ields
##lla
quantizer
discriminator
surgeries
∈l
sigm
became
devise
touching
σm
interiors
kutta
pont
guided
valent
##ycle
kirch
600
subvarieties
convolutions
##qqqq
##spaces
ˆs
rubin
##a∥
aba
∥τ
k´1
shadowing
pushed
5d
spont
harris
projec
evenly
∈g
smallness
council
v∈s
##psq
kap
##ˇˇ
zha
##iders
entre
ward
fork
groupes
k−n
consumers
extrins
¬φ
recast
##isable
θx
##ст
besov
kτ
dud
strengthen
5c
ultimate
##rm
investor
ordinals
r×
reminis
##vanishing
unexp
disconn
submatrices
##product
ack
wick
vocabul
l∞
allowable
logarithms
##oric
prohibitive
##1q
matric
−−→
emission
connex
decryp
scc
∇e
css
##lliv
##index
consuming
hint
σv
subring
dε
nons
##gular
rotate
##warding
tol
pivotal
interests
strengths
phy
horizont
leaders
ellipticity
cnot
##zag
ψ2
inherit
##seen
reminiscent
dit
mα
solitary
##inf
chase
sta
preuve
n−l
##≤j
dun
sav
##aira
communicating
counterfactual
maz
colle
inventory
kat
traver
φ0
layout
γδ
kδ
ρe
memor
weinstein
dℓ
firms
ended
laminations
equidistant
kraus
##imer
ν1
pulses
k∈t
b−
emerge
conting
γu
ion
cfl
005
##uerre
∥ε
feller
variete
driver
remarque
1u
∈h
revision
positives
flavor
##onv
declare
##aka
payments
batches
semif
hypo
σr
sex
nonvanishing
develops
dropout
routes
tagged
imped
macdonald
defender
cofibrations
adversaries
collaborative
##x2
1985
kant
obten
sorts
##cr
fab
locate
conjunctive
bubbles
##2n
##leman
x∈z
##standing
bergman
tip
simplifications
##approxim
nσ
slicing
v3
economics
calculates
pβ
compressing
##∥f
contamination
cab
laguerre
soient
##bil
metast
unfold
distinguishes
relaxing
stal
tailored
αc
##ague
came
allevi
##usted
backb
##arian
b4
subinterval
##issible
wishart
pfaffian
##plets
insufficient
roberts
i∈j
##etor
identifier
simulates
sid
encodings
˚q
coboundary
c5
σj
##≥n
lemmata
certificates
inconsistency
012
extrinsic
unexpected
invoked
unification
strengthened
parametrize
a6
##ora
referees
##oul
emergence
apex
coercivity
×t
pipel
richardson
λw
cµ
δ2
ramanu
authentication
π2
enforcing
handed
##empor
smt
κn
eilenberg
kodaira
bump
promise
iϵ
##stone
designated
prescrib
##oriented
regards
assessment
γc
argu
exemple
parking
##pus
##−λ
eigenstate
deck
mellin
devel
##ordant
##ysical
revised
mimic
##igraph
caps
##scribed
interleaving
telle
glass
sys
cryptography
isolation
concatenated
gathering
cholesky
2ψ
##iq
figure2
eliminates
amalgamation
nesterov
uy
strengthening
##31
syndrome
intrig
reducibility
degraded
unmatched
your
dpp
williams
petri
##ira
##odym
##usp
compositional
v−
participate
robinson
guidance
1−η
nπ
ℓi
∇a
submodules
optional
δ→0
rss
m∈m
spectr
notons
palindrom
chand
j−k
interpretable
cρ
αλ
commod
##standard
committee
##implic
argumentation
coq
choi
intend
η1
##ulum
α−2
permuted
##1111
ramanujan
marker
wand
lane
quadratically
subcategories
ε2
traversed
∆θ
##sert
pentagon
smoother
tune
china
paris
suble
##a1
##nc
functionality
preferable
##network
ouver
resnet
guards
subintervals
intriguing
interchanging
reliably
award
quin
parallelism
##enchel
atm
subex
horizons
hensel
categorie
zigzag
0s
city
σa
##hedra
interf
clin
##onomic
enhancement
funding
s→
1−e
publish
θs
##reci
fenchel
oppon
steepest
7b
homotopies
##zburg
schw
##reteness
##kal
willing
d∥
εi
calculi
quantifying
facilities
lors
muk
preconditioned
income
bσ
1984
heuristically
lovas
goodness
intric
decade
attitude
αv
risks
computability
##with
acl
bend
actor
story
##rig
comprised
beauti
##elastic
##ogonal
optics
##conver
##chen
nonloc
snapshots
seiberg
marc
instruments
modulated
##polynomial
∀w
##28
##stant
##chke
##thm
monopole
##ran
mais
##fron
qcoh
ves
remained
invert
##bn
ηi
##emi
causing
iν
jamming
bearing
bull
autoregressive
pruned
resultat
−2r
wav
descript
##aires
∀l
subsurface
∇η
##terra
squarefree
superf
lovasz
rarely
##akis
##entric
barriers
aust
kob
αβγ
dδ
extrapolation
plucker
∈ω
ginzburg
chevalley
crash
chunks
isomorphisme
##g∥
towers
##abo
reversibility
##qc
∀q
coalgebras
dually
##manifold
singletons
×x
coalescent
3−
ubiqu
syzy
1−d
hops
reprint
vocabulary
vietor
##hole
1982
bib
advection
spite
graphic
horizontally
vietoris
πs
ˆrd
nikodym
motivations
zv
renaming
sheets
escap
viable
prefers
disreg
ama
βe
γα
3β
q−
produc
oe
##ait
replicas
pontry
leh
cumbers
fic
univalent
sharper
intensities
destroy
λ−1
bialgebra
alc
emerges
visualize
nuis
quadrics
hyperparameter
novi
##ellar
cumbersome
collocation
outermost
instants
dies
jb
1024
guesses
yr
excludes
society
##pec
2πk
revealing
whittaker
##ches
glu
confid
horos
k−3
compactifications
slide
##dim
##lets
isot
cool
standardized
ωs
##cha
interd
a→b
−o
realizability
µ∥
factorized
phrase
homomorphic
halfspace
sss
pontryagin
ξ2
2020
##enk
axial
reconstructions
intuitionistic
uε
barycenter
intention
anyway
evolutions
novelty
throw
##inated
1970
e−1
cumulant
ω×
intertwin
semicontinuity
6d
pager
##ipl
´k
glm
dispersive
fiberwise
insen
βr
forecasting
dop
##interp
137
##inks
somewhere
##station
vanderm
porous
kost
originating
traced
spikes
θ∥
aoi
volterra
galton
impl
deterior
hierarchies
r∈r
treats
poses
nombre
dipole
compensate
sylow
∥α∥
×i
δy
autre
permitted
µm
goog
tripartite
pyq
pφ
arrived
sandwich
bidding
discretisation
inev
##look
drawings
business
∆τ
−2β
semialgebra
semipar
advantageous
latest
interpolant
kγ
sab
∇ρ
jv
traditionally
##aev
pearson
presentable
camer
postulate
kauffman
traversing
degenerates
##grade
deficiency
rescale
transducer
naturality
obeying
##bf
##enger
cyber
##oney
∆ϕ
subform
backbone
consult
mps
bart
tiss
boch
converged
quarter
disappears
1x
p2q
h4
raise
pagerank
3y
αz
src
cant
fronts
degre
exploitation
pointers
associating
dϵ
r→0
loses
instructive
instrumental
distill
particulier
0≤k
qα
##vive
sier
collapsed
stuck
ωε
subdivisions
defective
##но
vandermonde
×c
##oded
trusted
×l
portra
majorization
restated
nuisance
ϵ1
numbering
blas
spectrally
abbreviated
symmetrized
structurally
triviality
explosion
drastically
qcd
travelling
appreci
indisc
motives
##ji
##tian
portions
aγ
din
##elson
bγ
transpositions
summed
buchi
connectives
0≤j
c∥f
certainty
µ2
wre
concatenating
tags
s⊆
##aq
exha
acquire
spf
repeats
##isant
oi
conormal
##asoro
distribute
unavoid
nonstandard
microlocal
##character
derivable
16π
θm
logarithmically
∩s
lur
##hoff
savings
novikov
##0q
formalization
##top
solomon
integrators
142
##otion
crude
virasoro
##unt
boils
##eu
##kar
definit
zoom
programme
confin
arguably
swar
→l
respond
µr
##ros
corollaire
143
n−s
subcases
##gq
orthant
released
−∥
kλ
coins
δz
jc
erased
reception
138
234
equilateral
´λ
##ceived
##ui
packings
burden
sage
courant
−−−−−−−
symplectomorphism
##i2
sulliv
wavefunction
rσ
chapters
aiming
∥ω∥
specially
beautiful
crystalline
supergr
uz
robber
ost
ξ0
migration
a∇
ago
5k
µp
paul
neglect
∇r
obtient
h→0
montre
##b1
m∈z
cis
pendant
gradings
touches
ψi
monadic
foncteur
fulfilling
instantiation
american
´f
multiplexing
gossip
planted
##ena
algebre
##ulator
secant
dissert
gpu
diagonalization
loading
hjb
0n
n∥
counit
n−n
∥β∥
intercept
harn
fillings
rejects
vars
##owitz
impacts
broadly
ling
decoders
a−b
9a
government
nonlocality
readability
burgers
gil
1983
gmm
sinks
focal
hans
interlea
##ovari
##tiness
institution
##prop
##53
codomain
trait
manin
barg
measurability
causally
hab
killed
##cessive
extractor
k∥
ilp
kantor
bcd
irrever
postponed
##ampled
recording
differing
sixth
##iration
⊗r
greed
##oooo
lda
mou
##aining
ε∥
mitigate
raising
accessed
butter
baire
##omino
divisibility
lub
agnos
richer
semiparametric
sketching
corruption
ari
moody
suppl
##olem
oa
−2a
x∈ω
lqg
ruling
earl
c−
dissertation
disch
quen
##acs
m−i
laboratory
plancher
adel
percept
infinitesimally
factoring
maurer
4j
mcg
rounded
##foil
dash
##wa
1≤j≤n
##edimensional
nonuniform
210
aimed
triplets
imbalance
fluids
hors
##opp
funded
translational
μn
##ared
fukaya
cofinal
traceless
r∥
discipl
emphasized
plancherel
subsampling
##edia
longitude
nesting
superp
semidirect
stiffness
##aley
inward
##odromic
##ekind
##iregular
##≤i
∥µ∥
##ql
realised
illumin
##worthy
biom
parabol
##pw
lossy
##52
forwarding
##×10
removable
π0
bordism
weiss
αα
∆b
logit
##nf
##sv
deser
##afe
dedekind
a⊗
metab
g3
nµ
∩l
expressible
##whel
µ−1
jumping
flipped
##asc
unnormal
gramm
##ingular
##vms
mth
excessive
ambiguous
bω
explic
b−a
l3
##dc
publicly
πa
iδ
146
kσ
ehr
kor
censoring
donal
factored
overwhel
139
n−k−1
busy
stacking
sullivan
##mt
flats
enlarged
s∥
stringent
∇x
donaldson
##iman
seidel
roch
restart
tλ
##uto
ωp
1−µ
f3
coars
fel
urn
enforces
pis
nρ
##≤2
repulsive
##iously
tore
ctr
march
penalization
progressively
omp
∆i
##∩b
##−θ
google
generations
adjoints
×ω
earliest
crosso
magnetization
8m
##enty
bochner
ϕ∥
k×k
´z
asserted
caches
supercond
indirectly
commands
qudit
harnack
5x
wreath
als
12a
labelings
replications
pyramid
wei
unus
confluent
πp
trends
uncont
collectively
koop
lts
hyperk
×2
sbm
clopen
click
recommended
p−q
eventual
##ahl
stepping
clim
##≤s
normals
influential
semimartingale
xσ
righ
##amoto
schre
potts
recipe
destabil
##sil
fibred
r×r
entier
hα
γh
lossless
interconnection
subadditive
##hard
##ols
conflicts
z−1
restar
tied
indication
viz
##ologically
weakening
##pinski
##dn
##holder
ℓk
##elect
gapped
152
##ancies
radar
sparsif
loew
navigation
hydrodynamic
conics
survive
tensoring
bmo
ρa
##inting
activations
ωm
aω
∂µ
∂o
teach
cη
##occ
bsc
relabeling
subdomains
##nov
##ularity
eigenpair
##otype
6m
vanilla
behaviours
##static
markers
×y
αf
resilience
##ircle
bidirectional
semialgebraic
pℓ
suspect
successors
disagreement
characterise
favour
acquired
##insky
3u
incl
baum
3f
4µ
coordinated
−cn
anomalies
formulating
broadcasting
tous
deduces
subcarrier
sensible
vy
drug
hyperkahler
147
pml
∈γ
2−p
fis
j→
##uel
##lev
##usc
euclid
multisets
yp
ρx
σ∥
risky
grade
∥σ∥
qed
accumulate
opportunities
condensed
elle
quasisymmetric
σk
basics
analogs
rim
rankings
x∈v
γ∥
##elman
ontology
tσ
¬b
propagated
0k
parsing
τ0
##plane
##raft
corpus
pseudor
##∈e
##istration
sketches
dod
bicon
tiny
1r
genericity
unambiguous
aper
##100
x∈b
##n−1
##isers
useless
bisimilarity
dessus
dχ
maple
equivariantly
θθ
baker
×v
##amy
bcs
##itous
##aneously
λγ
##ament
excursions
postpone
µq
##sif
converting
hemisphere
desingular
supergravity
2πz
##artz
##entang
−2d
conjugating
centrally
##type
weib
reconstructing
##uq
δϕ
##iance
buildings
tester
affinity
nθ
1981
witnessed
disloc
expands
##leg
kε
python
##omer
usa
##ghz
partie
subnetwork
δ−1
abstractions
proportions
∈j
##57
flight
fonctions
neighbouring
αy
δb
##dθ
propagators
u−1
crowds
convection
regulator
ton
koopman
enclosing
##usive
genome
constructor
inversions
zones
wires
congest
hmm
degenerations
roth
∆ψ
svrg
αg
hart
krein
bα
clo
∈k
hypothetical
unrelated
##2π
networked
param
partner
agnostic
lte
compactified
mss
∇y
4y
ree
blocklength
##invariant
alb
subexponential
##nt
∃i
##edic
##asawa
monop
ρv
##dom
defense
devised
interpolate
∧t
selberg
upwards
blank
settled
complementarity
shrinks
φj
wright
w−1
nich
probing
crossover
ath
##uis
burst
##block
singer
800
##bell
cloning
γγ
ρp
mori
∇s
worthwhile
##wt
thereafter
silver
##iling
multif
∀e
4u
1p
##comp
##lt
##ен
annotation
planner
d4
ultrap
n∆
κ−1
spend
intricate
dens
renders
pδ
discarding
αµ
##atitude
ξt
⊗d
trefoil
ferr
##uchi
inferences
##0000000000000000
εk
##offel
k−k
##37
156
4th
solar
scene
αl
gratefully
clark
unavoidable
141
sierpinski
pε
azum
##oms
rock
monog
ancestors
huber
cantelli
optimizations
shortcut
polyomino
fermat
∆l
veech
u∈v
aτ
figure3
##emes
insensitive
rau
schau
πα
french
155
x∈a
concentrations
manipulate
##anski
##ica
biggest
4ρ
2πt
bach
quasilinear
ici
encoders
999
σq
cai
fans
´c
##ubes
occasionally
mcs
intelligence
9b
caten
christoffel
∇d
2πσ
protect
episode
pes
tik
submodularity
a∪
##sum
robustly
verifie
mayer
club
quadrilater
perverse
unid
##gree
##≤d
multipar
˚p
ν∈
##−y
recomb
αh
overfitting
##separable
proposing
declared
ωj
etre
peers
quaternions
##−ℓ
calder
widths
##zzi
qkd
194
hastings
0≤s≤t
desire
supposing
##alled
pictured
##front
subob
λl
##ishi
participating
skewed
multiuser
0−
tao
naively
indiscern
overd
rotationally
mmd
attainable
conflicting
θr
breakdown
squeezing
##−µ
untr
sust
noncrossing
dκ
1⩽i
##gb
rewe
residually
mrc
friedman
##ync
##pin
zb
∈q
subdivided
kis
##x∥
bim
i≤n
spc
occupancy
##iger
polya
##≤l
conway
bending
##zi
clutter
231
domino
impractical
168
coupon
seu
dispatch
michael
cela
##aussian
discriminative
emerged
injections
movie
ℓ−2
tris
y∈r
##paq
biqu
whp
nonequ
η2
psf
refining
##skii
boun
cahn
seeing
mackey
oblig
perturbing
preconditioning
comprise
4η
213
education
elliptical
proportionality
yao
signalling
querying
music
iκ
##mr
modalities
##ipp
localisation
complications
nut
εx
embeddable
fragmentation
graphon
modest
##gp
cca
γz
refines
pid
cook
stackel
gle
##ycl
revolution
θp
154
concentrates
##pta
golden
##lander
##structure
ccs
datalog
alexandrov
##ahedral
corrector
reproduced
q3
uα
πe
optima
2χ
βa
##iment
supermar
stie
##fr
weakened
coproducts
cancels
peter
z3
∇c
chip
errone
effic
i−k
bicl
coth
race
dates
rπ
⊂⊂
nonconstant
triv
hexagons
γλ
2p−1
lcs
pendulum
newman
´b
lcp
industrial
⊗l
virus
bread
i4
βv
falling
facial
##atroid
##otes
carnot
templates
βc
renewable
##hart
##angular
t∧τ
v−1
parametrix
nmf
ratings
snake
majorana
##pository
james
pige
modality
righthand
subjective
entailment
annotations
occupy
projectively
βu
tilted
mukai
damped
##fall
buckets
terminated
−n−1
δc
lorsque
##aled
σb
isotopies
##oscopic
horob
affinoid
peculi
ϵt
supersingular
classe
bich
stacked
dos
1−b
floquet
teacher
polymorphism
##rp
dags
γβ
laser
σu
lanc
ports
##ayashi
berry
reparameter
thousands
unitarity
reviewers
1234
##61
povms
probes
ave
321
bsde
∆c
∀g
##gt
##iber
##kian
##bard
quadrilaterals
pess
s≤t
zfc
##iler
ahl
erc
pcq
enumerative
subfam
fα
163
horoc
1979
condensation
8d
examination
##ospectral
##ef
−2x
elic
−k−1
r4
accelerate
##nis
doubled
m−j
cel
μi
buses
zhao
##note
rationals
laplacians
αb
gff
abb
10a
unnormalized
syst
ubiquitous
1978
abbreviation
ultrametric
uncontroll
zd
kazh
logically
##artesian
comodule
π∈π
marginally
´α
ϵi
≥n
p¨
numeric
admitted
deduit
##hyper
gmres
hulls
philosophy
texts
substructure
delim
iwasawa
react
setups
plum
normalizer
leray
φp
i×
##orov
permutes
ˆq
clearing
cars
kθ
definitely
∥γ∥
##basis
industry
deconv
##orem
δφ
contributed
kazhdan
purification
lisse
optimizes
horses
∩c
annihilated
πm
bordered
followers
φk
##ifying
neglecting
hawkes
##ball
bdd
≤p
##jam
compensated
eccentric
vague
damage
witnessing
pcp
λσ
##ocated
inhom
−2γ
ˆ∞
αδ
ordre
##ppers
warped
behavioral
overflow
vas
γσ
quote
blur
g×
´m
maintenance
5g
bist
grammars
biv
o1
pron
unconditionally
yon
misclassification
cass
∥d∥
##vester
##ais
alm
##±1
sutured
complexification
undesirable
gabor
multivalued
danger
criticality
vital
wandering
lti
subadditivity
sph
puisque
lew
tcp
fle
##assign
kµ
##through
ωc
≤s
##nq
schauder
cst
uri
##ince
additions
p5
facilitates
jon
x4
reconfiguration
jun
##quer
helling
##quist
11a
sept
unoriented
diffuse
miso
week
commodity
bags
halfspaces
lateral
coarsely
glance
k−ℓ
σw
accounted
berger
sigmoid
kirchhoff
meyer
hellinger
εr
parseval
subreg
accesses
paley
dbm
prune
judgment
δγ
##vol
##itedimensional
ali
cope
∃r
148
##structured
##gener
faced
pseudorandom
3σ
rλ
anisotropy
drag
sales
hoff
retrieved
capacit
forwards
overwhelming
ψt
##asep
∈λ
##rw
162
hahn
accuracies
##orok
δl
symmetrical
halting
##xp
cached
contextuality
equating
coordinator
γf
brou
inscribed
algebri
ε0
blows
stiefel
specializing
∇t
hardly
stretching
threefolds
chan
park
redex
bohr
identifiers
##oping
triggering
##essential
m≥0
##attices
interacts
compromise
correlators
kantorovich
hedge
selector
disadvantage
pun
ongoing
feel
intermitt
##uite
##∂ω
cochains
tilt
claw
semilattice
∈w
nest
shel
probable
fare
recognizing
strich
propagates
λρ
yv
banks
δw
⩾0
copulas
thoroughly
york
##archy
platforms
pertaining
ρm
nℓ
##38
aij
homogenized
##dw
furn
extremes
allen
gender
prolongation
cater
δ0
##weight
##ulis
spd
retained
x∈c
i→j
##ibles
νi
ωq
opf
##λq
##loads
−∆u
sylvester
ψ0
ignores
compensation
finishing
underl
νt
separators
coind
premier
##ectious
frequenti
reproduces
critically
reparametrization
pigeon
entr
physicists
##ountain
frust
easiest
twof
slit
katz
subgaussian
quenched
ℓj
req
##inos
attenuation
gue
planarity
settle
equicontinuous
lps
investigates
##bruch
chaque
jα
##mi
##mers
analysing
strichartz
p×p
originates
loewner
horoball
hin
kink
cardinalities
lengthy
∥ρ∥
waven
βh
##atement
##omplex
##graphs
×h
godel
insightful
240
ice
odds
##oin
breadth
geometri
misspecification
##utable
inert
γ−
topo
2πe
bρ
##kins
##z∥
##asp
permute
integrity
subrepresent
turaev
drawbacks
plasma
unsatisfiable
margins
##implicial
##etary
infectious
##hand
subsem
interchangeably
bot
##irani
2−n
hawking
−2c
s5
multigrid
tridiagonal
tightly
σ−
aµ
subtyp
owner
evolved
sleep
cow
holographic
diagrammatic
hirze
pmq
10b
incentives
contention
##proof
integ
¨q
divid
anticomm
⊗i
nilpot
coexistence
superlinear
makespan
##affected
ampere
µα
assure
ωa
153
honey
##adays
hirzebruch
algebroids
bide
retaining
halt
ρs
∃t
enlarge
##zos
participation
franc
slip
1−σ
##cm
complemented
bringing
4f
ferromagnetic
1≤i≤k
broadcasts
##augh
lib
nowadays
4κ
##φ∥
tqft
ssc
defini
##apo
diminishing
θq
superpotential
4τ
unpr
duplicate
merit
bfgs
househ
cec
reb
movements
kaw
quantitatively
experiences
d−i
tels
##abl
##lb
akin
gα
psh
##expan
toss
##etr
phas
undergoes
unaffected
kak
encaps
precedent
friedrich
##endall
teams
indeterminates
dyson
πj
0001
##fors
strange
cul
nβ
k∆
149
traverses
alive
monads
isolate
interconnected
##mf
u3
##quis
hypers
cβ
door
parameterize
perme
peeling
nonnegativity
horsesho
qam
skewness
##≤p
forever
151
##cyclic
dst
extrema
speech
σg
equational
verba
wals
manually
guidel
promised
opponent
antipode
##seg
ctl
dip
scl
##h∥
twofold
bms
##step
−16
theme
weibull
parametrizing
##akian
k−r
##hausen
forecasts
assures
aic
6x
absur
##≥k
sharpness
##avin
##pace
##oft
participant
economy
##ijn
concurrence
2∂
compart
doug
ρr
y−x
∥df
affinely
neutrino
erasures
##formed
bass
lα
upt
∀1
∩v
stocks
frequentist
gel
##lr
ρk
chines
mathematicians
packages
##complete
sft
##ivalence
##sq
subquoti
##→2
experienced
hopping
∥∆∥
verbatim
helped
etant
quintic
##elles
kuhn
prey
redefine
decodable
⊗p
remedy
hubbard
pseudocon
sλ
unstructured
definie
η∥
abort
benjam
practition
j3
##sification
constantly
chinese
anywhere
screen
##gmund
1∥
##wicz
disjointness
##honov
rhomb
##otherm
covert
inversely
urban
l∈l
α−β
pebble
scanning
downstream
sdr
##ometer
subclasses
arth
grover
wolfe
∆k
chrom
percenti
dictionaries
integrands
paragraphs
blaschke
synap
##coin
html
rabin
una
holomorphically
endof
crt
nlos
localizing
εe
tangents
graduate
ccc
zon
∇j
##uki
cash
timescale
wkb
presheaves
mbs
necessit
purple
disintegr
decodes
i∆
t∈i
fz
providers
truncate
i∞
∇z
walsh
retains
##endre
impedance
skill
strike
bed
joh
deconvolution
distric
0x
parsim
illustrations
surprise
dissimilarity
spatio
inferior
orthogonally
vox
ada
selling
efficacy
##−η
##separ
t−k
rbm
interventions
inp
165
precomput
yielded
sud
jw
outs
∇χ
##abc
cvar
diverging
visualized
stabiliser
σz
sato
tikhonov
##door
separations
sbss
λλ
spontaneous
⊗c
auf
pays
γb
timestamp
##zon
susy
pioneering
puq
m≥1
twe
pessim
n−ℓ
binning
void
##pless
−2δ
uniformization
priorities
drivers
bry
##pheres
premises
java
∀h
clinical
µ0
##cessible
absorb
interlacing
defl
packed
dilations
pending
##emer
sublevel
##odimensional
##ipt
homotopically
unreal
actuator
##omorphe
ciphertext
unequal
θa
trell
unw
coalitions
rψ
δj
a×
graf
1≤k≤n
giant
prioriti
anarchy
dga
sτ
##graded
neckl
kobayashi
inspecting
xτ
##cor
rnn
boldface
abe
gathered
wrons
ruin
temporarily
pvq
yoneda
bigon
ωr
rbf
intersected
##encod
bacter
possessing
approached
##electric
curse
classifies
sha
clou
evans
eα
##anted
registration
supermod
aggregator
##uri
premium
unknotted
posit
sset
attempting
parametrised
aφ
aversion
ppq
rotor
lands
blown
laz
communicated
msr
annihilator
annealing
sps
n−t
certified
vois
innermost
companies
chandra
projectiv
neron
ωk
ν2
motive
##hi
##asi
0⩽
truncating
##associ
##b2
asm
diminish
ϕ1
nord
cds
1−τ
⊗a
ω∈ω
werner
±e
lob
coadjoint
credible
parametrizations
∇ξ
proteins
##tinger
designer
segre
pbq
j∈v
k∈s
survives
clone
provision
tex
∀c
isoc
ancillary
trades
k≤n
unil
catch
##orphic
pulls
precedes
lox
rω
2πx
lookup
µa
wro
montrer
coarsening
consequent
aψ
##asticity
irrep
stretched
bonnet
##rev
convey
1975
##cn
destr
recol
##ellip
pη
originated
divisorial
indiffer
coarser
##ecomposition
butterfly
##tie
apx
delivers
jets
##gg
myopic
syz
generalises
presumably
reduct
song
##wn
valency
##ulus
x∈d
misses
unicast
flaw
equidistribution
cun
∈σ
312
##ado
publications
##58
subchannel
stip
∥2
6t
fid
hγ
rst
phr
sacri
adjustments
εm
supplied
suivante
##requ
charlie
rns
adaptivity
##uctures
scholes
parabola
∇ω
##47
jy
rearrange
mimick
kendall
##dµ
downwards
´e
persis
implementable
hσ
≥k
constitutive
supposons
i´1
×b
unavail
##yman
occupies
deviates
##clust
lynd
workshop
ˆx
1−z
neuro
jap
concurrency
y3
##tini
acyl
coreset
isolating
explores
dualizing
rca
eo
mck
##itaev
##uspidal
δd
regularizing
##oration
idealized
seulement
turbulence
rε
douglas
concordant
displacements
graphically
rer
isotherm
skolem
margulis
september
lll
##aded
schol
cosmic
dss
##sps
produit
dictated
##umping
theorie
157
cvx
1977
morris
##asiewicz
1111
subdivide
sor
lsh
stere
uncoded
deeply
superset
contacts
imprec
##sampling
##oeb
βb
##reser
duplication
weakest
selmer
oo
##atus
composable
2re
fused
crack
office
020
ade
replacements
chron
trs
subdi
interleaved
##ardo
xγ
humans
ℓp
∂π
##encer
003
pipeline
polylogarithmic
##zkin
tendency
rvs
lanczos
subharmonic
frac
kleene
5m
crs
βy
centric
pdfs
severely
4v
##opy
replicated
w3
∀b
overlay
unusual
##ansm
knock
d−3
##hu
lowering
∃n
k∈i
destinations
gγ
1´
η∈
algorithmically
loo
klt
invocation
committed
opportunistic
##illar
rdf
brill
flops
εu
grace
⊗v
##eters
´v
converts
queried
diagnosis
3v
cet
sinus
adopts
ccf
vein
εq
revisited
genera
absc
1974
crowd
mik
sans
gut
selfish
postulates
ahlfors
##elb
bij
sst
##roof
##yt
hair
ope
overload
##ala
obf
manu
emptiness
zl
inflection
´3
skorok
unmark
8r
cω
##∼d
1≤i≤m
recommendations
##то
plateau
magma
γl
dispar
furnish
pearl
βλ
champ
scs
sync
##comb
##oman
bitcoin
o2
##ifts
mistake
dial
robert
misspecified
supermartingale
´d
−tr
δλ
##atif
##licz
sσ
##urve
steer
vz
iψ
cascades
greedily
##riptive
conducting
ouvert
imagenet
164
tetrahedral
##figure
##gle
pomdp
cold
toolbox
4ℓ
dnf
redefin
t∈n
donnee
detectable
≤l
breakthrough
##andard
d∈d
s∪
##↘0
##classical
formule
superim
sesqu
skorokhod
cav
silent
sparsification
kω
##akh
##gain
codebooks
countries
timestep
t≤t
acm
shaping
ξj
alleviate
calderon
temporary
schreier
modifies
−2j
bottle
bst
constituents
lstm
reflective
resh
l∥
spreads
##arn
passi
decoration
jsj
##emy
175
pronoun
##aint
decrement
endogenous
wavefront
##ession
videos
##specified
brouwer
fox
portfolios
springer
hundreds
##toral
halts
hospital
rms
πz
##∼p
##assen
j∈ni
γd
orlicz
dut
s→∞
sea
farey
aρ
##vec
cable
βl
##isse
mari
nonabelian
158
feedforward
inhibit
outerplanar
##analytic
separatrix
cards
pinning
precompact
dfg
manufact
lyndon
μ1
inferring
mirrors
eigend
malli
indeterminate
geodesically
##ardi
confluence
bε
sellers
∇k
reyn
##atten
purchase
sap
##anishi
injected
disentang
siso
subshe
sampl
learners
assembl
kom
perception
lmi
##uated
x∈k
pitch
##klore
autoencod
ρ∈
##romag
envelopes
inaccurate
νx
##uistic
byproduct
facing
kϵ
lut
lions
alon
##lm
##titious
motzkin
##utivity
resemble
folklore
cops
rrt
yd
∪s
equitable
bch
scar
summations
ancestral
170
zo
∩ω
##arski
deadlock
5s
unders
∩u
unifying
raz
incrementally
contaminated
iia
1−ν
fern
φu
##yq
−βh
partners
i2π
confused
pathological
2πr
∇θ
noteworthy
∥ϵ
##ψ∥
knotted
pushdown
realm
attempted
∃c
conjectural
prone
−iπ
hide
rθ
1973
walking
interchanged
integrates
adoption
fingerpr
##46
−11
1976
q−p
fictitious
nir
πv
unlink
abundance
σc
a7
159
supercon
merges
progressions
ϵ∥
untwisted
bλ
∈π
##ifer
jf
##nets
##jee
integrations
cite
##vp
distorted
scalings
loaded
encompasses
clouds
absciss
##ра
##ional
degenerated
absurd
voisin
##urities
determinism
lightlike
##acity
kpz
−1−
moderately
petersson
grounded
##27
annual
conp
##adm
profits
preparations
milp
title
msc
arithmetical
##orthogonal
caterp
aub
hest
mip
ignor
3ℓ
emitted
poster
ξ∥
##wind
211
contag
gag
##terms
x∈λ
portrait
cocartesian
advertis
diffraction
fet
##anese
gans
∇b
##ei
synchronizing
script
inaccessible
matern
e−
σy
##rim
likelihoods
prefactor
eine
hiding
encounters
×u
167
acylindric
ald
gumb
unsafe
κ1
##41
deph
fond
onedimensional
reinterp
##ourcing
accessibility
cooling
∧τ
managed
provers
constrains
organised
##ivariant
fy
##fp
sibling
12b
resolves
##reserving
whom
liveness
εp
concentric
caputo
micros
slater
unobservable
overtwisted
roy
fais
supervisor
##ste
sak
##otz
mcp
n×d
vulnerable
censored
biholomorphic
backprop
c6
schwinger
utilise
tdma
bijectively
wrote
brick
βd
supercom
reviewing
diameters
poi
coaction
krull
relab
recursions
anonymity
arthur
≤j
##bd
⊗t
artinian
erroneous
8s
##∆u
doob
reconc
gree
##enues
pencils
##bits
steinberg
##enthal
figure4
footnote
3µ
transit
≤x
##ermann
bloom
indeg
##−5
##isive
complication
lacks
unreli
inessential
foundational
subcarriers
εv
i∈t
−iλ
lindbl
malliavin
ˆd
∼p
σ3
11b
##ikov
deleg
squeezed
##xxxxxxxx
yo
y→
solen
permissible
dnns
island
squaring
indistinguishability
stackelberg
rna
interpretability
eli
chu
dress
##59
instantiated
pessimistic
wedges
minib
tiled
parametrizes
´i
isp
unspecified
cls
knn
unex
edm
irreversible
x∂
##esis
´δ
η0
∆1
inspiration
##attach
dose
eta
##bb
tumor
##eq
spark
preferential
tropicalization
##dden
innovations
collide
metastable
212
centering
customary
abusing
elaborated
website
imbed
superflu
permet
owners
##har
sofic
spp
##ominant
unmarked
γy
supercuspidal
lms
mγ
σf
##39
3ρ
mσ
predator
doppler
l−k
12n
container
rationale
##multi
pψ
##ticle
heteros
mathemati
gumbel
##∆x
friendly
wlog
unin
properness
happened
maintenant
additively
##≤0
##deriv
subschemes
##ibri
altered
5t
cac
nonclassical
expressiveness
trem
##lund
sech
cry
grassmannians
osp
lectures
waveform
phant
##ultiplication
##ucb
##allow
adapts
superiority
blood
##holonomic
wellknown
extthm
zygmund
bent
harish
constellations
reverses
##ray
nonstation
perceived
mℓ
finie
qudits
colourings
droite
rephrased
competitors
commerc
predetermined
ore
superscripts
france
granted
∃s
161
atmos
pν
j≤k
conley
parametrisation
thir
fifo
admin
carleman
deficit
ges
##pack
quoted
enorm
extremum
ptas
aθ
swarm
##cat
localize
motifs
0u
relied
ζn
older
approximable
nystrom
allocating
##l2
expose
concurrently
downloaded
##reduce
##inson
nondegeneracy
subordinate
bidegree
¬ϕ
1960
##trans
##adratic
ken
worm
##orum
disordered
jσ
hay
analyzes
##mander
bug
msg
##cg
##ropic
x∈f
sγ
##jn
meters
nonexpan
featur
tasep
##manifolds
xλ
compiler
eigenbasis
convinc
uncovered
α3
ℓ0
fpr
cois
##x1
assistance
ϵq
ˆrn
palindromic
yw
assessing
##oot
mλ
dmc
δψ
holm
##lik
yb
itin
apparatus
lun
##ayama
bright
substrings
##uv
blan
##aken
reserved
5q
descriptive
renormalizable
##km
avons
vog
stern
##eced
gons
impair
plumbing
166
6r
##otypic
⊗h
espaces
mlp
δθ
##zers
222
alternately
aggressive
consecutively
pipe
genuinely
yamabe
##ees
flattening
∆d
εj
assort
confirming
##enant
ℓℓ
κt
xµ
jacobians
vcg
##diag
m−3
8t
interpolated
invisible
clever
##v1
##vis
##πi
174
aggregates
albert
##defined
offering
geor
##apping
##ifi
##−6
intelligent
pseudoconvex
ˆm
textbook
disclos
octahedron
bourgain
´a
outdegree
ish
##itat
fram
irreps
parallels
selections
billiards
gent
stencil
−ih
e4
##tism
subfamily
##γq
dijk
αρ
##ucid
thinning
elap
circulation
gevrey
nicol
quel
##imm
##amps
expr
inflow
tempting
extendable
isa
##ulators
ψj
constructors
obfusc
∩h
worry
carp
##enne
ultrafilters
ase
artifacts
backlog
vacc
##ience
jiang
isn
beck
5e
splic
convergences
subordinator
college
depolar
m−r
##men
poli
hτ
cataly
explanatory
anticanonical
fpp
deem
shapiro
naturel
stef
spde
posteriors
effet
##right
closedness
kepler
deforming
pra
##zin
geograph
incorrectly
sod
β−
θe
homfly
##rill
ams
p´1q
tξ
ellipses
nim
2g−2
##cf
prere
crep
δ∥
compete
##kt
bihol
##condition
subjected
anticipated
undert
anteced
##26
brst
jammer
−2p
elucid
travels
schott
hints
kρ
blob
169
sudden
##ourse
−rt
rend
graining
szego
kβ
lit
wik
nullspace
issued
parenthesis
incoherence
repulsion
robotics
retic
weakness
dilatation
substrate
parameterizations
wrapped
hypothese
preconditioners
rips
stark
unrealistic
gns
δρ
landing
pϕ
∀λ
##ometry
transce
powered
afford
∃z
##mse
induit
##uded
univer
κ2
surviving
regressors
loxodromic
i∥
lindblad
ξq
##rn
instabilities
k−s
multiplicatively
##i−1
##ipschitz
indiscernible
##intu
´µ
∃k
parallelization
cθ
##bons
sed
attaining
entrance
##ahedra
pjq
intimately
##olov
torelli
lec
tib
dispro
garch
roof
regularisation
##wara
bruijn
peaked
216
hormander
hλ
horseshoe
6s
μt
φm
##ractal
##yy
##onne
verma
outlook
diamonds
gur
sse
rejecting
##ville
s≥0
tω
##teen
exciting
⊗1
pursued
rρ
ασ
##199
##oon
valeurs
aspherical
wyner
lozen
##vertex
vill
−id
pep
predecessors
dre
##bly
subformula
iℏ
confounding
τj
##acent
##undles
##iliation
pronounced
−15
unavailable
unim
ips
attackers
fractals
tradeoffs
rendering
func
mesure
reynolds
busemann
nullity
kleinian
szabo
quasim
synthesized
artifact
∥m∥
ellipsoids
##aro
176
coinciding
summarise
cusum
fuel
certify
padding
##neth
rolling
##astroph
peq
helly
cave
passivity
transported
−20
##cient
lacking
cake
tµ
360
±x
φa
##aced
suffixes
lexicographical
##dh
doubles
bilateral
expanders
synthesize
rees
##umps
complexified
4ν
zak
##b∥
umbil
vaart
##×t
unify
tissue
5r
sharply
cptp
∂∂
aband
heston
t∥
##×l
vectorial
quadruples
homologically
##ych
##igen
visually
tarski
jeff
nad
aξ
pκ
##dτ
neat
networking
i∈c
cutset
nfa
εa
δε
hmc
171
−αt
eγ
l∈n
ica
≥r
misle
sesquilinear
fixation
postc
cts
queuing
xθ
retransm
prosp
drives
##owicz
tε
auslander
×g
complexe
henselian
lsc
pins
λδ
sturmian
hind
mazur
foreach
escaping
weather
corank
persists
negated
pascal
##fficiencies
permission
x∈t
mortality
→x
knuth
country
##parameter
itiner
∥λ∥
6g
missed
pλq
faisce
fbs
##string
shuffling
decimal
cooperate
instantons
dissem
loos
qma
zα
πy
2−ε
pth
pertin
factorizes
nas
sts
samplers
ηq
⊗s
##vile
lotter
##rin
bisector
conquer
##−τ
##itri
frie
mitt
sham
torsors
ceci
diagonalized
coalescence
laun
polymers
∈y
##vents
rµ
ops
eye
subsemigroup
##bled
beg
##pk
quorum
twitter
1−h
chris
subpop
manifestly
compromised
surrounded
δω
puise
buffers
encourag
healthy
msp
regeneration
peng
##±∞
unlimited
σ∈σ
ble
λβ
keller
submon
backgrounds
jer
sits
brand
verifiable
famille
pqq
nonholonomic
##orf
corrid
maximin
junctions
began
transfinite
preventing
hε
psp
weaken
unreliable
trie
decouple
##49
##sup
toral
resultats
barc
##zym
1972
concreteness
##ibrium
fist
pump
×z
##def
banded
axisymmetric
nirenberg
##dq
bai
##iag
positional
arf
2m−2
∥l∥
commercial
multil
skipped
echo
indifferent
##pz
replicates
kη
##bel
distinguishability
≤δ
##pread
##isms
##selection
confidential
##ubov
wag
adjoining
δσ
##s2
##bridge
n×k
ehrhart
1−κ
substack
dagger
trapezoidal
trellis
threat
##antes
film
badly
budgets
petersen
βz
##αβ
upcoming
corrob
2d−1
galaxies
looked
aε
waste
##module
intensively
∩a
holonomies
##≤τ
##ressibility
pebbles
1−2s
phrases
minibatch
puiseux
shadows
assemble
ϕ∈
constraining
bind
restore
subgame
clarified
##gren
schematically
cosmology
pill
##bar
smash
promote
libraries
ν∥
##tas
##ifference
y∈x
mimicking
bloss
cact
recombination
phantom
oce
ρc
kinetics
repetitive
unpredic
16a
turan
schottky
repro
agre
lesser
catastroph
tγ
d∆
henon
realisations
snrs
mahler
kms
##rf
pushes
zonotop
isos
beforehand
gdof
episodes
subtyping
oma
##ulin
suffit
backpropag
retracts
##imi
explicite
teaching
ρq
allocates
##apes
##titions
poa
t∈z
γw
##riv
phq
##atile
pdq
mistakes
interfere
γτ
repository
##rame
kamp
##card
insist
##athan
peg
ηk
failing
tackled
##rd
hdg
subcomplexes
τm
exchangeability
polymatroid
172
penet
##rooted
##ctive
psnr
aβ
bac
pps
zγ
mimics
⊕2
##rol
regularizers
privile
accessing
precedence
4∥
conserving
nontrivially
xo
θ−
staying
##lings
ull
##estimate
semicon
hosts
analyst
accompanied
lγ
πu
2−δ
compliance
t≥
##nick
isospectral
bigrad
mord
flood
recognizable
annihilates
##∇v
learnable
dct
amoeb
b5
hong
αw
##ims
∥∇v
reply
2s−1
pseudol
kuranishi
##ϕ∥
kohn
hirsch
8e
pcf
syzygy
##tiles
recap
objet
traded
n×p
prerequis
##list
##ios
taxa
1≤l
εs
motor
∃v
nec
##elve
nucleus
yf
degrades
##argeting
conceiv
snow
rauzy
yan
×a
ρh
i∈b
dramatic
peculiar
symp
qλ
−2h
##phase
engel
µλ
ψk
saddles
sant
t∆
ruelle
anchored
fills
y∈b
encourage
semistandard
decryption
mother
##c1
scientists
##dis
bandwidths
betweenness
bandlimited
dμ
transducers
permeability
jz
182
amenability
phrased
alternation
##scatter
t−i
advisor
mpi
##ife
exten
πq
hey
tand
curious
consume
##uz
forall
cosimplicial
gale
energe
nnz
−2l
skoro
twelve
commensurable
sequents
hetero
¬c
router
##oulos
##kovich
austral
dust
semantically
hω
13a
seminorms
galaxy
skorohod
janu
schatten
gem
wides
bert
##ricks
##wald
hyperboloid
pigeonhole
ρ−1
fbm
##urewicz
summaries
m∥
pseudometric
severi
alo
multiclass
relator
supplemental
##sability
feu
splitter
dmt
scratch
pink
atl
ˇˇˇ
electrostatic
nω
interchanges
gerbes
pedest
mω
pretty
suggestion
⊗b
finest
multipath
##iten
immune
2r−1
contrasts
cosp
crepant
3000
pade
##seq
replicate
∇µ
adc
minimising
griff
##thaul
t−r
mountain
r→
halves
stemming
celle
##−h
##ria
guo
cancellations
qut
reiss
wer
pinned
liquidity
regulatory
triad
valley
θ−1
pertinent
0t
arose
gauged
##αq
bicategory
εδ
##brand
fingerprint
corrobor
##physical
bowen
mms
azim
borne
monogamy
##oor
##chev
##actors
lineaire
##istributed
##ilibrium
sop
173
inseparable
retro
initiate
conjunctions
yosh
clearer
practitioners
tall
consid
contient
quart
10k
##51
z→
⊗e
prototypical
8x
n´
##bq
stro
trains
formalisms
fronthaul
j∈a
##close
attacked
enzym
i∈ω
sql
months
3η
socle
irreductible
figure5
tukey
locking
subpaths
trot
φf
##thern
probabilistically
governs
##otypes
infrared
rogue
maass
∥t∥
shorten
2−q
##lett
liftings
adp
buc
negatives
meridians
bohm
∼d
##tn
simpson
fog
##uses
depths
descriptor
ϵ2
spencer
overestim
gσ
βg
assessed
##silon
r∂
##grand
bratt
aδ
transposed
native
⊗3
subdividing
bezout
food
##illet
llr
2ab
lof
swapped
faithfulness
landmarks
##hp
quasip
e∥x
uσ
sut
comultiplication
bootstrapping
lφ
sad
##angle
##ifferenti
subrepresentation
r−s
psfrag
##aper
arz
10c
hopefully
warping
eligible
rls
generalisations
nyquist
adher
memories
##bolic
pam
µe
principally
vae
vap
widespread
azimuth
##cq
isab
street
subdiagram
##agger
pleas
6q
mam
14a
closes
lou
r−k
z∈r
workflow
bibli
trapezoid
redsh
posted
profitable
mε
transformer
m4
tid
##array
cohes
exhaust
wronskian
gao
##etrie
apartment
ambiguities
##oe
evader
friedrichs
tian
λψ
##nels
##ξq
mutant
eccentricity
t4
##ocolim
cκ
nij
coisotropic
##arev
galile
lσ
βδ
tric
##−z
suppression
bdf
subtracted
nonexpansive
imputation
jkl
trimmed
crem
advertising
qπ
##dξ
##odesic
bcc
introduct
econometric
2−ϵ
actively
checkerboard
i7
ρb
##wan
kunneth
##craft
abnormal
chois
##ffler
9c
regge
stimulating
σe
cryptos
guiding
principled
percentile
shah
editor
μ2
minimisation
descents
lump
shatter
πγ
##phq
6e
ℓq
smir
fixe
carl
sectorial
uncountably
´u
spends
wλ
anim
contempor
184
academic
##eks
##actically
##quette
##athers
##ullen
ulam
extracts
##bauer
adelic
targeting
##tp
unlabelled
nonsymmetric
subsample
opened
1971
chemistry
january
##−ν
riv
truncations
wavenumber
vα
buying
σh
##bin
##opal
elevation
collector
straton
pilots
##pnq
ηx
λτ
##conv
ϵr
##sizes
transferring
dϑ
##uctor
ηp
##pers
twodimensional
schemas
cheng
compartment
kampen
psi
θh
tτ
##dg
##plots
acute
##loop
´σ
rhp
hocolim
dxds
illum
midpoints
sold
dix
mτ
rτ
##c2
geneal
p2p
##atomic
3τ
manual
hun
nonin
rng
promotion
crn
granularity
unexpl
−ct
whittle
−14
approximants
##quement
pathway
detour
consumes
william
νp
⋆⋆
##jq
aggregating
informa
νq
suboptimality
genealog
subcon
wavegu
tanner
introductory
lth
##no
holim
greek
heaps
dephasing
∆ω
−ix
subshifts
bπ
bak
∥∇v∥
droplet
manager
caractere
##prq
ascoli
susceptibility
homothetic
canada
sommer
uncon
facebook
medial
##loss
rez
πλ
propriete
lϕ
pseudoin
bigraded
twenty
rotates
tibsh
j≥
k≥
##pleteness
meanings
carles
trader
summarised
##stell
blu
restatement
mediator
##ет
finitedimensional
ross
p−3
ϵx
##ungen
tibshirani
underestim
noticeable
manipulating
qγ
λε
physi
##ppq
icos
uplo
informations
βf
appending
θd
incid
himself
¬ψ
ατ
εd
##norm
##ico
##thest
header
θu
nonstationary
shelf
##ieu
subsheaf
women
discretely
aperture
jose
unrooted
deficient
amazon
jθ
pss
differentiated
##fem
systeme
regularize
centres
acquires
a∞
widom
mittag
##airs
interpolates
annealed
bears
fee
cryptosystem
gms
dydx
steen
±n
##oretic
b→
jin
∆α
##ln
cnns
routines
##col
##isp
circularly
bivector
leffler
abelianization
2l−1
reminder
##v2
∆j
##−ρ
qmc
δµ
ω∥
functionally
palm
bhattach
lse
specializes
commutant
##ienne
##ele
spor
massey
origins
degeneracies
−log
encouragement
fst
δα
wet
lept
3θ
kah
mhd
preparing
raref
monomorphisms
##aber
2−k
##acc
ought
bogom
linearizable
petrov
mart
bead
##shitz
##urch
ξk
listen
enlarging
##states
welldefined
pds
dispos
iρ
ritz
##ickel
altitude
shen
leon
presently
reflexivity
##−e
##rogen
nakayama
enormous
πσ
smirnov
±a
ϵe
stu
entered
sessions
recurrences
ψp
##omorphy
−2q
paying
lambert
kostant
admission
perceptron
p−k
α∈r
2−d
andrews
factorize
4θ
vin
wired
∂ℓ
##nder
forti
locating
epsrc
p∆
cascading
rogers
stratonovich
boll
7c
mµ
mapreduce
mmp
rdr
5π
positioned
t⩾0
casson
θf
liber
considere
regressions
##ymplectic
parameterizing
gard
orbitals
emergent
sℓ
x→0
γε
iib
aes
∈θ
beat
cfg
csps
dal
adjointness
investors
axiomatization
εy
##quanti
backscatter
##elliptic
##agons
177
fℓ
##hen
u∂
xε
originate
declaring
indefinitely
locked
bratteli
rφ
≤h
semir
hydro
εz
thirdly
lewis
stall
technicalities
satake
discharg
cms
−2b
fuchs
a8
##aign
cubics
λθ
##vq
verones
220
ξξ
approval
stellar
##axis
helic
farthest
##pip
proportionally
rϕ
elementwise
##versals
contingency
9n
numerics
metabol
rol
φs
##ocking
nlp
terme
μk
quasige
happy
imprecise
##cave
associations
scatterers
degrade
spanners
##node
##eriv
dislocation
mri
unseen
ikx
congested
disintegration
bilipschitz
discretizing
collateral
sustain
pictor
abstractly
berkovich
condensate
802
wan
µh
##≤q
tφ
##kawa
specializations
supervision
proprietes
arma
basins
transcript
s−r
##akr
mtl
durations
llo
leverages
holant
##jug
affor
fortiori
##itably
178
shells
jg
incentiv
##pted
movies
infinitary
##khorn
connexe
10n
15a
apt
stub
nonco
−div
abbreviations
∂ζ
classifications
##y∥
summability
gradual
∩t
ace
dgp
mδ
ˆn
##ponent
scram
griffith
phi
laid
millions
eavesdroppers
##ollar
indeb
scad
epsilon
centroids
linguistic
recomput
goe
hyperbola
y∈s
##cuts
anchors
r−i
turbulent
hoffman
misleading
##kp
glues
robertson
beil
255
abundant
helicity
lame
ϵs
##m2
##born
futures
crypt
veronese
sca
canceled
cancelled
nes
∀τ
coeff
mosa
biholomorphism
##doc
##riques
clones
edg
xij
srb
gij
temporally
prescribe
mckay
astr
##kf
neyman
##md
1−3
c∥u∥
##heim
ment
##ady
a∆
tθ
exiting
1⊗
nos
ash
pert
berge
##aware
##sat
canceling
trotter
rarefaction
γµ
monopoles
kemp
∪v
##tiques
daniel
carleson
ˆbr
##rell
caterpillar
interferers
symplectically
sandp
indebted
ζ1
##plot
jπ
resorting
snd
##ushin
lqr
##ubic
thickened
##fit
subterm
corpor
2α−1
mfg
willmore
honeycomb
iζ
localised
mcke
pls
encouraging
4w
185
16b
borrowed
183
illumination
189
x∈m
q×q
##pov
organize
disposal
pleth
##neighb
germany
deuts
invisc
unambiguously
∀ξ
aer
cν
candes
unused
detach
multiplies
13b
##kk
cres
fuj
kinematics
inviscid
4ω
img
socp
institut
laced
morgan
font
##zo
ramp
pϵ
πc
rebal
correlator
rephrase
slp
bie
lich
##preserving
unpro
nonexistence
##heimer
thickening
subwords
texture
dann
δ∈
##tilinear
acknowledged
απ
αε
renormalisation
tessell
fdp
rds
flower
k−t
∃u
hos
tad
×f
substructures
cactus
##ifie
plants
pcs
versh
diseases
∇ℓ
##ypical
searched
##ariness
distributivity
prohibit
пр
##ctl
##ota
spider
supplemented
voltages
tremend
##cz
##epr
tensorial
outperformed
hµ
##i1
##anson
orderable
metrique
jar
pts
lod
wis
unra
shooting
πl
##iscrete
hansen
##romagne
1−l
psych
biconnected
´h
##tail
##pgq
abandon
c∆
male
trib
arcl
currency
ford
movable
tracial
−iα
enon
νµ
syntactically
gerst
##illes
courbe
discriminants
qualification
bhattachary
β−α
##will
##kel
i∈m
aircraft
µu
beads
tpr
spiked
jackson
crowdsourcing
3w
1×
wake
##dma
overly
##ahead
u∈s
uncolored
cofiber
varietes
methodologies
confinement
uci
##ochastic
dividend
kitaev
−2µ
basepoints
attacking
∥δ∥
impulsive
compilation
rach
πf
##adap
derandom
##ramm
imit
averse
α∈i
bornological
chromos
expp
snps
isabelle
outstanding
integro
salient
ons
rests
ceiling
shortening
competitor
µv
φq
ministry
sequencing
stalk
ηj
plq
##iral
stimulus
∃a
guidelines
##nier
##nan
2−β
krus
ϵ0
##eer
microc
intermittent
εf
eigenm
incompatibility
##uire
weigh
i1i2
θv
guessed
##aba
miner
indegree
wα
bish
ℓt
cφ
pand
νj
ate
190
##new
k4
κr
νk
multifractal
pmod
plaquette
deemed
##enta
sevent
##ideal
gateaux
raf
##ikh
cuntz
##undy
##sibly
replicator
undecidability
decorations
16c
snap
personalized
mordell
multiplicativity
stochasticity
⊕r
lieu
×e
localement
##ovic
sitting
e5
##ares
visco
authority
⊕n
stepsizes
disagree
∩d
schramm
positioning
dwell
##lyi
beilinson
utilisant
vacua
##eser
eigendecomposition
ℓr
combing
coincident
σα
slo
historically
rodrig
bialgeb
intertwiner
aϕ
mcl
extensional
hinges
wifi
288
locale
routed
mate
##t0
rook
cpd
instantaneously
refutation
provenance
ocean
##rl
minute
standards
imagin
aπ
cfr
a∩
hiv
xφ
##olevo
gallery
arclength
capped
hφ
sld
algo
discovering
∩e
skeletons
ordinate
ˆ∂
scroll
rappel
∆2
distortions
inevitable
nuts
µc
##burger
anneau
##lot
225
asd
mcd
linden
extendible
n−q
##posi
∥ζ∥
##connected
bµ
holevo
lig
##−u
telescoping
d×n
mission
−is
−ith
##uil
cheaper
n⩾1
κλ
×q
blum
acyclicity
yuan
berg
justifying
isi
dielectric
definability
##zig
schoen
deserves
pie
dsdt
ravi
025
##odyne
plausibility
6j
uλ
λφ
torque
saturates
µg
λπ
±α
ρj
∇n
caution
lots
msts
##iction
sensi
abscissa
µj
2−γ
externally
sif
smear
prym
semicircle
discrepancies
biquand
14b
succession
algebrique
benjamini
pach
yl
gratitude
serie
delocal
luck
##rous
179
bisimilar
federated
islands
canonique
sφ
grah
##ixed
glau
learnt
zeh
monographs
yc
scat
levine
##¨¨¨
maniere
subobject
kruskal
##entiality
inefficiency
somme
lloyd
adequately
qσ
181
gases
εh
##lang
malle
##ago
freezing
##effective
##activity
cameras
palindrome
sparsest
necklace
¬¬
knockoff
f4
1500
##onian
##sek
leap
2πλ
sweeping
##agi
´β
λ→∞
vectoriel
heading
n−2k
µf
⊗q
confer
ctmc
contagion
rsp
##inating
foam
desingularization
∈∆
##itarian
wells
erfc
∃p
summer
unfolded
parac
##rett
wrapping
superconformal
regulated
inspect
unsolved
efficiencies
enumerable
##integrable
brace
retail
testable
inclusive
mdl
superimposed
ϕi
api
defe
δξ
##ali
shelah
arzela
mts
v4
´γ
releg
kumar
∀φ
rectilinear
12c
monetary
lookahead
µy
˘1
∇ζ
sbp
bτ
ρλ
institutions
##urable
##place
##gler
abrupt
constante
united
mcf
deliber
##emporal
∩n
toutes
onset
textbooks
underline
dressing
subsumes
3κ
##activ
highlighting
4∆
λω
mtm
bonus
3−i
##non
##idis
##partition
0011
alcove
hurst
15b
saito
ω−1
##ussen
ccr
eξ
##−w
bβ
hollow
pere
temperley
emphasise
m−l
contingent
dijkstra
elapsed
ηr
##tc
rewrites
kij
census
sds
segreg
pseudoholomorphic
octon
nguy
standpoint
quasiperiodic
##onious
biration
rician
syll
exponentiation
a∇u
cities
⊗f
replay
amalgamated
aar
chess
tolerate
n≥
−ϑ
##vous
reedy
βµ
immig
mises
λν
ϵm
##rogram
##cycle
msd
≤λ
##journ
dae
##yproof
exhaustion
3−2
##olet
##cells
ϵv
sher
offload
k−d
rℓ
θc
##ief
2n−3
oversampling
221
qps
##×4
wherever
bullet
gramian
ozsv
trilinear
224
indivisible
recoverable
##terminal
bsp
wed
psc
communicates
kuz
eik
quest
sinkhorn
categorification
εb
miners
xxz
duplicator
2∇
bpp
j≤m
##symm
enrichment
duham
traits
omega
##tered
##atural
normalizes
girs
rice
∀θ
typicality
waldhausen
1h
nomin
2πm
thh
trχ
designe
##ansky
##cet
flowing
lindel
γ−2
agit
##gner
2πik
premiere
relators
emphasizes
triggers
maximizers
##tik
glueing
surveill
##oop
##isec
ffi
parameterised
dilaton
supermodular
∩r
##ahori
pinched
cocirc
i5
##agrand
##ultimate
saved
202
complementation
duhamel
##rodynamics
pseudoinverse
∪b
minimise
gauche
dangerous
4000
##arwal
nonis
pasting
plaintext
campaign
indifference
approximant
appended
##theast
bogoli
heyting
φr
mrf
##khin
stressed
unfair
´ω
quantize
021
postnikov
concatenate
tat
linearizing
deflation
c∞
##dl
eich
ions
εc
gig
lη
´ε
warning
backpropagation
nguyen
ete
ozsvath
yh
##ifiers
preval
##zyk
anticipate
implique
situated
x∼p
lω
wig
##axial
formalizes
chirality
hous
rth
##j2
##immer
xeon
ρ∥σ
##qqqqqqqq
angel
inad
grig
waterm
researcher
perfectoid
artificially
synaptic
femto
φ∈
ness
unst
t−j
catalog
gpd
strategyproof
##roux
immun
itemsets
church
oq
∀σ
resembl
nach
µw
ˆσ
∪c
≤e
trivializations
microstructure
quandles
accompanying
surveillance
nκ
invasion
ante
spars
##dps
##atively
penultimate
188
gupta
manageable
systemic
##ags
coarsest
parsimonious
dog
tant
186
dirty
j∈c
reissner
##r1
equidimensional
cocompactly
x1x2
lss
##owers
superalgebras
morley
symplec
##wor
intertwines
redshift
##eland
nonsepar
discriminate
actuators
qµ
vassi
integrally
##unctors
reputation
##allel
enumerates
∥ax∥
inevitably
subquotient
polarity
iwahori
##west
##001
azumaya
tum
2kπ
alignments
pinching
mcmullen
pst
isogenous
##oka
doubt
nuclei
##aracteristic
multilayer
political
##29
joints
phon
graham
σd
##root
intertwiners
##iam
subtl
lλ
ρd
##itzer
loadings
aldous
##k2
runtimes
##ashed
bogoliubov
##ectrum
senders
##undant
patching
pgd
mine
cohomologies
resides
##ppe
jour
tricky
bargaining
ϵp
1→
##align
homotopical
contradictory
prohibitively
pinsker
restoration
##chine
##obas
suppressing
sacrific
frieze
a11
representability
transduction
∀ε
carriers
erasing
plotting
efron
##16b
girsanov
benign
∩w
substitutes
omn
fraisse
genie
calg
posts
remembering
##sn
##umar
waits
1967
regressor
##agent
altering
kν
##err
dofs
indeterminacy
eigenpairs
##olvable
−−−−−−
sω
πh
forg
ontological
existed
hψ
##mb
preemp
entangling
compiled
16n
talagrand
sheeted
¬q
uniformizer
burnside
relabelling
rumor
bytes
spending
##ocations
amplify
hypercubes
instantiate
reweighted
ˆy
βw
∀ℓ
##urance
##atable
mesoscopic
##onomy
certification
##wright
endofunctor
##bodies
subtlety
nin
termes
decomp
direc
nonequilibrium
ρα
##asim
##celes
unphysical
##enses
defaul
oblique
karp
griffiths
copying
##contr
##romagnetism
##js
##ppa
tangencies
rrh
a∪b
upto
##atching
∇m
arena
opa
##wart
connector
scatterer
##din
prolog
koh
fibrewise
stanford
p→∞
bunch
zie
csma
leveraged
allele
ding
ital
grasp
∇λ
continuations
##orial
##omplete
parallele
entrywise
xml
pγq
wing
arbitrariness
quadrants
##diff
shir
realise
sporadic
lindelof
s→0
##orientable
hus
menger
ϕ2
##allis
accre
voisinage
##bor
versal
roman
sandpile
β−2
##uccess
restored
singly
minority
succeeded
spm
prin
linearize
herbrand
mend
µk
##tec
imb
password
##part
electrod
ℓ∈l
s∩
##101
szemer
λξ
193
tmf
dictates
nordstrom
##opoulos
superpositions
zehnder
ϕn
valle
vehicular
multigraphs
considerons
##14a
preceded
mgf
shearlet
debt
crystallographic
1f
undet
upstream
dualities
##aison
dmd
awar
##oupled
##rik
parities
timeout
furst
examines
##area
activate
vacuous
unsh
excision
##qn
destroyed
qτ
##olo
propre
mckean
ωg
calif
srs
terrain
##amble
´4
≥t
chaining
nulle
φh
acted
187
nou
##dη
mrt
unilateral
v∈r
##∈i
seam
cremona
szemeredi
##sie
balances
enlight
infeas
##14b
##orean
##uda
comprehension
##iagonal
swiss
chatter
blowups
supposer
##chuk
lognormal
pbw
3sat
sdd
##fields
aϵ
oversh
πd
funds
isomon
isothermal
##otonic
##olid
demonstrations
##hyperbolic
7n
underlies
stefan
californ
cum
settles
distillable
χ1
gaussianity
deadlines
audit
matrice
##flex
monitored
aster
y−1
alse
1≤n
submonoid
glauber
existentially
viral
goldman
delimited
vertexes
encore
alluded
logs
minimiser
agency
hands
slackness
descriptors
polytopal
pξq
maneu
computably
extractors
coequal
symposi
backs
diagonalize
##riel
epimorphisms
developer
untrusted
##rice
subbundles
##nelle
homologies
peano
mhz
eavesdropping
##onge
##continu
inferential
diagnostic
quadrangulation
zagier
gom
myster
craw
enriques
##convex
lottery
##hor
optimizers
ils
antecedent
steenrod
it∆
schl
projectives
siblings
π∥
##ensable
pivots
ics
underd
circl
kirby
chung
##conf
forbid
california
invokes
aec
exhaustively
obtainable
ferrers
##aug
c∥u
1969
##groups
diagramme
homothety
a−2
mπ
##2q
discriminating
outflow
flavour
quarks
progresses
hofer
rδ
equity
##functions
encloses
aerial
ρg
##uyama
offsets
knew
bqp
jim
jacquet
imperative
recr
enhancing
daw
resemblance
validates
gyro
euclidian
j´1
##odynam
erase
happening
beamformer
µσ
##fi
##sos
separatrices
pebbling
##lan
cns
hierarchically
νa
fran
divise
12k
roads
memo
farther
confirmation
8α
tsi
##−σ
##øl
##homotop
senses
cocharacter
capping
tdd
1−y
quadratures
bgl
ibm
prolifer
crys
h5
##andez
colon
∆λ
##imil
linearised
posses
stabilizable
imperf
operateur
densest
skin
ipw
agr
stepwise
∥ν∥
kirill
s−s
##associative
gφ
tard
zou
undesired
fista
minmax
##portant
∩k
emphasizing
egalite
6p
vε
##imoto
##roni
deductive
ballot
gilbert
anders
##sov
magnus
watermark
245
diffusivity
trisection
kad
reconciliation
bϵ
gλ
isra
alongside
phenomenological
shellable
slep
precompo
gun
trin
−2e
recalls
deviating
hnn
succinctly
roe
##ports
191
obsc
flop
##ungs
##convergent
##−v
como
x∈g
##ented
boyd
spoiler
subregion
fiduc
geographical
postprocess
household
demanded
rie
ν0
richard
fellow
prevalence
dwork
y∼
##ycles
t→t
φd
experimentation
cheating
kernelization
##nett
yukawa
kuramoto
tandem
yα
ρf
∥∞
##πq
##amental
chips
crb
luo
##hell
seas
phill
traps
twins
kingman
frustration
1968
##hlmann
8l
frog
retarded
##15a
cpp
anyons
##isub
prf
θl
medic
superspace
osculating
##operator
covector
xii
comodules
kras
wong
##ptotic
##ωq
scp
ωe
##enb
##poset
winners
bing
##jasiewicz
##resolution
initializations
s−k
##fn
reiter
##oding
loe
rhombus
##16a
schedulers
stereographic
isosceles
lid
ptime
##aposition
pathways
gln
aloha
vms
##iy
##ila
multimodal
##zel
##orus
1≤m
pσq
x→y
ron
t∂
slocc
remainders
1965
tournaments
disciplines
incidentally
mlmc
tacit
dps
##ukov
borders
ait
λ→0
##σq
upwind
discoveries
furstenberg
goto
hann
##olve
contrapo
subfactor
wilf
kirillov
lψ
adhes
meridional
lµ
reis
abstracted
jean
xψ
kinem
ˇˇˇˇ
arbores
saga
hell
ηa
poids
##sight
−13
cofinite
isotoped
pock
heavier
unimportant
##piped
320
##iard
endemic
isotope
±k
conditionals
004
trois
##vr
##avg
successes
amplifier
semirings
father
##mes
##bank
parser
multiplet
adjacencies
##d1
stp
slides
copied
believes
accumulates
δβ
∥κ
##iton
tracked
campbell
u∈r
dilemma
corridor
λmax
##j−1
transcendence
culmin
σγ
everyone
mann
##arelli
lowercase
inhab
σl
exptime
pushouts
discreteness
unknotting
seventh
→b
##ece
esti
lcc
sip
##yb
##rk
determinacy
ensuing
eck
percol
##parov
inl
204
baseband
x∞
πb
##isch
animal
localizations
nakag
reparameterization
gft
##otone
neutron
drifts
ipm
amplified
aab
##sted
polyd
bousfield
wikip
senti
kasparov
grs
ais
wen
wagner
p6
stagger
verd
1−4
n∈ω
1−u
λη
∪t
##n2
##ucted
17b
caustic
−γt
nns
saturate
cherry
εg
##aud
toff
adverse
cocomplete
gentle
objets
recognizes
instantiations
mandelb
xν
zipf
necessitates
reside
impression
bartlett
ηλ
##model
barb
harvest
fasc
compacts
##usa
##tosis
##∧τ
demaz
ψq
freedman
autoencoder
r´
2−s
simplexes
demazure
##ificant
##110
##written
transceiver
∆µ
conifold
regional
bezier
##ени
xξ
##kell
boundedly
17a
discipline
levin
transcription
0e
ξη
resistant
transversals
по
##cla
wikipedia
αη
##otti
moy
bvp
σρ
##q∥
gls
polarizations
##isubharmonic
##np
spear
graphics
operated
iht
ψm
##oh
simples
rho
cohomologie
1y
chore
distributing
1≤j≤m
¬f
ϵh
ket
zeno
ppr
##porting
informational
responds
distributionally
235
unidirectional
era
##atom
june
△t
##d2
assembled
quadrangle
rubinstein
−im
##ng
bracketing
pel
##lc
fracture
moreau
ββ
γρ
##≤u
linearisation
lau
vulnerability
bouss
randomised
##yon
spots
occuring
2xy
ζ2
thue
##olour
kmax
αϵ
##theoretic
##cia
##plac
mars
aca
coherently
nν
μ0
robb
intru
##egal
minusc
fiducial
mandelbrot
sale
crank
rapport
ηm
##det
corrupt
symbolically
nutshell
gabriel
lρ
figure6
##j1
emd
sinusoidal
subtleties
wirtinger
bollobas
##extend
caff
depolarizing
oil
αθ
βη
ξx
requesting
divisions
climate
dmax
hug
ˆz
duplicated
plurisubharmonic
±λ
∃j
##ieri
parallelepiped
##araj
##aman
##epth
tamely
shal
intact
laminar
tracy
assimil
disjunct
skyline
##gc
assured
grun
−2u
2πj
1964
∈φ
distinctive
quasiis
hartree
##extension
reservation
l∈z
θy
cmp
induct
cpm
female
conceivable
eµ
ηs
∩f
kaste
m×
∪a
pmp
caracteris
a⊆
quasimorphism
rename
2g−1
contrapositive
18a
243
admet
heavis
antichains
tδ
grp
noncontext
multicurve
rendez
##phy
semimod
backlund
stripe
unexplored
##maps
limite
δτ
npn
indisp
ddp
universes
clp
cnt
sdps
distributes
rearranged
ordinates
imprim
symposium
c7
possed
workloads
´8
π∈s
≤a
suz
##illing
masks
fischer
ηe
preemptive
s∈r
ηu
##acion
eλ
tρ
∩p
##≤b
shortcom
cancelling
narasim
wes
funk
µl
ετ
##organ
demographic
cpa
grounds
wheeler
trimming
##nm
##∈t
operadic
infeasibility
minuscule
a∂
##iso
uncontrolled
hij
kri
subroutines
elev
shortcomings
rbs
##bro
intense
slave
metrized
inflated
feld
føl
##rings
##itre
petit
slotted
´w
undetermined
submodel
duplicates
borrowing
h∞
x∈e
∆σ
table1
orthogonalization
engendre
sliced
atypical
stabilisation
##kii
∩z
onwards
mather
##ibre
submit
##klov
abst
prevalent
supplies
quantisation
composante
exhausted
cmb
fulfils
egalement
ℓ−k
initializing
info
𝑘−1
beside
intermediary
##apy
winter
jou
µb
flash
hung
n⩾0
sojourn
scans
πg
lags
γ3
##leyn
extrapol
syzygies
verb
vectorized
atomistic
vacant
slim
metam
moran
payload
accelerating
colliding
insign
nonseparating
tres
fires
adjunctions
ineq
bishop
##uity
##itoric
meter
´ϵ
dodec
heterotic
yin
foregoing
sensitivities
haj
disjunctions
foncteurs
kelly
contemporary
rν
##vt
addend
sommerfeld
bickel
t≥1
paras
apoll
privately
−4π
d−r
nilpotency
∆ρ
pda
##car
nonre
##break
##pheric
##amples
supere
yg
##asis
i∈λ
narasimhan
nelson
##urin
imitation
liang
quantizers
synchronize
blackwell
y∈z
h∂
weno
##vectors
supercompact
følner
θα
208
##inesq
cusped
declares
cplex
εξ
writh
∇σ
syner
##bertian
inset
a12
ργ
##ва
subanalytic
##texts
8λ
−in
##nak
traders
##ozh
##xs
peres
designate
makers
kurtosis
audio
x×y
##mas
resolvents
adaptations
superfluous
rappelons
1g
grafting
transpo
##serc
##iley
cifar10
nah
##queue
burk
manipulated
schools
##convergence
cous
remarking
asserting
θb
##ensatz
rβ
manifestation
theirs
placements
pioneered
recourse
1⩽j
boussinesq
5th
𝑛−1
basket
uncoupled
helping
cubature
pythag
bounce
suprema
##111
bδ
##dra
overdetermined
cξ
##ль
normalizations
##robi
discontinuously
evac
bacteria
isomorphically
convince
##ны
schne
unsuccess
regenerating
phillips
unroll
comparatively
unpredictable
op1q
##adjacent
pitman
fug
##eding
outlines
apri
parallelized
patience
kasteleyn
indoor
##ocusing
tilde
spiking
scholars
lpp
##ectif
krig
s⊂
ηl
##aterial
relaxes
exer
−2ε
##ymptotic
awareness
ϵk
decomposability
varifold
metad
r´1
idios
##ellings
manifests
envision
circumference
gasket
subgradients
heterosced
16k
∀γ
reiten
pxqq
##r2
##esten
plates
detectability
inhomogeneity
dad
nserc
κi
heaviside
gcc
xω
downs
##p0
##∧t
gkm
##∈x
spok
i∈k
satz
ωα
−ı
##bsch
##dω
205
1100
workspace
metal
α∈∆
ℓ∈n
paragraphe
bwt
j2π
1950
rendezvous
∀ω
∇i
xiao
##15b
ecrit
recruit
trav
noninter
carbon
epstein
gcn
geer
recommender
precoders
##honest
##ем
##legal
2ℜ
##ache
ims
##grading
sera
curvilinear
##pre
##∥u
todd
colorful
±t
x⊗
εl
unir
handlebodies
fulfil
##blatt
sθ
##tibles
eigenform
infers
##relations
eliash
biquandle
0a
900
medians
pros
246
socalled
mildly
tunneling
district
##vertices
whichever
recoll
sµ
u∈n
##gas
reused
entiers
enzyme
##ked
##orb
##acks
##ourced
eliashberg
sε
klo
inject
##ede
##reduced
j∈b
marri
n×r
##onov
algebro
##segment
amoeba
oss
confine
##ovariance
r5
##emical
203
steklov
preconditions
rps
fool
bere
tη
spam
mae
∪e
≤ℓ
##burn
inegal
monodromies
punish
ˆγ
##sified
##oglu
decisive
encir
timestamps
idiosync
##epar
masur
##dual
vessel
unres
##additive
b−2
penetration
insignificant
lond
##ums
sextic
##assigned
i≥
formes
##obis
j∈t
eτ
isotonic
slepian
cpl
pag
bipolar
2mn
rail
α∈n
ρl
ωv
##m−1
##orsion
partir
automation
darcy
spill
##ymour
bigons
monitors
nφ
##char
−2ρ
equalizer
technological
meaningless
bonfer
wonderful
tannakian
indispensable
coco
isogenies
hilliard
x∈i
neurosc
caveat
sidel
zelev
finetti
formality
curie
birman
##ye
##emax
##adius
universite
erlang
2p−2
imbedding
kriging
aη
βσ
λ3
##elon
datat
##cont
privileged
stit
##imp
seymour
a1a2
pαq
t´1
ˆa
nonmon
##17a
##ozhukov
cen
foll
ϵδ
hut
##jects
correspondent
licensed
θz
ϵd
backup
shortcuts
bird
inapproxim
r−r
confounders
faisceau
pythagorean
keywords
eikonal
solids
quadrangulations
adically
223
dcs
stoich
−iξ
complicates
azuma
toffoli
−2ϵ
maruyama
agm
snc
nam
whith
discern
braces
footprint
umbilic
lru
equidistributed
f∞
g4
700
##s1
##−ξ
##ensors
##lining
fim
##core
##yz
##formative
gegen
strengthens
##oma
generalising
menu
nip
##osystem
dudv
kesten
2048
choix
3ω
j∈m
τs
pcr
hoare
stoichiom
naming
augmentations
inadequ
explicitely
##ifferentiable
genotype
signifies
gagli
joseph
´ρ
##ilp
10d
snp
prepares
multiparty
mysterious
6π
hurewicz
##independent
d´1
∩x
ωτ
##zar
impressive
marketing
##afa
qpt
232
consolid
antisymmetry
−λx
##optimal
mosaic
tmax
haken
pools
warr
×w
buhlmann
meh
prs
−2θ
antifer
moral
−βt
resume
neuronal
ϵa
qualities
bsdes
itinerary
postdoc
pseudos
breather
incompleteness
epidemi
equatorial
toll
haager
##osph
underlined
##variants
dass
2d−2
korn
crc
actors
lawson
stresses
july
mock
##eny
dow
season
categorized
haagerup
tν
ψψ
spaw
undo
d−j
πρ
k−p
##world
φv
unaware
pooled
magenta
friendship
semiflow
abram
bubbling
hydrogen
hρ
polystable
thresholded
accumulating
discharging
b6
xπ
##fc
##quel
adult
etud
kashi
∩m
##ixing
hyperfinite
consisted
pij
spinning
appreciate
gτ
λϕ
##oz
##overed
benn
cocommutative
enlargement
advertiser
reinterpret
s6
tℓ
bonferroni
transv
ringed
photo
collaborators
dumb
probleme
csa
tremendous
genomic
facon
≥i
composites
m5
isotypic
majorant
dqn
earthqu
belyi
t−h
cdc
bifurcating
truthfulness
##soci
##ormality
annihilate
−∇f
##∂x
discounting
−−−−→
mϵ
rasm
disregard
schwarzian
σ∆
##ieur
sl2
radiative
merits
ula
apriori
´π
subposet
grains
palindromes
dishonest
doi
precede
imbalanced
avenue
ziv
ωy
##eau
timer
sublattices
demontr
voxel
κp
agarwal
×j
∥o
rij
svms
reconsider
mahalan
ψ∈
##vere
tgds
documented
appliqu
bφ
−△
##easure
kov
lighter
θg
surpass
214
sparser
##−κ
##stad
followings
confident
2tr
alf
##aga
flech
caption
##symplectic
coined
##ontre
bℓ
##nings
intuitions
18b
mixes
keyword
ωu
##arten
comparability
pollution
unwanted
bends
##bers
##phone
lineage
##17b
dang
p´1
ηη
##equivalence
metro
ti−1
´g
outputting
donn
lτ
##ella
n−i−1
nondeterminism
pmax
εη
##trees
meg
nur
##θ∥
subarc
alternates
mahalanobis
telling
river
garside
σπ
collu
prize
breakpoints
mbr
notre
precis
252
trouble
5δ
ϵc
##div
i∈d
berke
japan
citation
##ict
nonorientable
schul
asympto
−iϕ
i≤k
mβ
##θq
formulates
##enson
2o
ψs
∩γ
sheds
unsur
chernozhukov
libre
judgments
quasigeodesic
metadata
##tm
##quier
uϵ
ζi
reshe
graphons
talking
κx
φl
bargmann
a9
##ieme
expos
highway
supplier
epp
g−2
##oho
##asm
dissemination
dream
went
##stage
##cales
x∈p
coalescing
mond
uτ
φφ
newform
##123
aν
wain
ℓz
##∥∇
thousand
w∈r
φψ
##special
##↑∞
d−d
subsurfaces
δη
referenced
literally
equipment
bluepr
kde
ranged
clebsch
longue
1−2α
cord
1≤t
berkeley
lπ
loan
modele
jain
ωz
ϵu
∀d
doa
valeur
catenoid
acs
##ocate
manipulator
±0
∓1
constancy
fomin
opn
gagliardo
uφ
wellner
microcanonical
1963
gε
raph
##igs
lacun
∃m
##00000
gµ
xℓ
∃w
harmless
participates
liquidation
semifield
horocycle
robbins
idiosyncratic
annihilating
2ϑ
i−n
m´1
pseudof
ribbons
lean
##equin
5p
qφ
reversion
lapse
bod
biologically
peu
ellipsoidal
ε∂
##bt
##llular
##alev
securely
nakagami
eigenpro
t∈s
compliant
viv
simp
ivp
energetic
grop
nη
masking
aod
sϕ
∪i
##ectic
autres
qutrit
7j
containers
metabolic
c→
kond
##wing
kashiwara
truthfully
volatilities
pivoting
hides
rdp
i∈f
tacitly
##sia
forwarded
weld
engin
ccp
pisot
writhe
5i
wiring
opl
##bres
phone
surjections
bb84
mediated
koch
coinductive
sau
##strauss
asymptotical
heck
clipping
swipt
synonym
downloading
ϕϕ
##sev
##∆q
##ounkov
outbreak
hopkins
zheng
##identi
validating
encourages
oval
diacon
dualizable
clarke
dls
gated
ελ
##oise
##esh
metrically
oscillates
disadvantages
yor
νs
∀ϕ
bea
cdga
l4
featuring
tβ
linux
donoho
synchronisation
mitigation
judgement
cameron
d5
lε
s×
provability
incurring
garb
staggered
∂δ
israel
d→∞
##prising
eσ
##sal
geographic
i∪
kit
⊗x
seth
binomials
repairs
##stellensatz
x⊤
##overing
halving
comonad
redefinition
duty
##eld
##opar
233
ssa
ultras
dolbe
disclosure
fε
##tikhin
##ema
215
upperbound
okounkov
precomputed
0m
plastic
pathwidth
z∈c
cong
##idity
shv
topmost
1−f
exemplified
0≤n
##alc
345
extremals
waveforms
berlin
6z
k∞
fillable
declarative
##approximation
rachford
dai
khint
´l
subexp
variates
producer
engines
jsps
coexist
approximability
sccs
muni
##aur
##ropy
z4
##ald
oscillate
astroph
##etlin
##nevich
clarifies
mρ
ghosh
bbm
microsc
bennequin
##sub
unan
##ribe
cohomologous
bibliography
d×
splittable
destructive
cpr
gpc
tϕ
concl
spatiot
pfa
mlr
covol
r≥0
ballistic
hubs
carpet
rasmussen
##ioni
atkin
ijl
ascertain
ocp
fas
tactic
##hz
##fd
##jours
meager
suslin
gluon
blossom
tss
z∂
→a
##omorphisms
##18a
cleaning
y∈v
##escu
polyominoes
fingerprints
bψ
pile
ηγ
ofdma
bioch
384
constituting
p¨q
dcc
##rids
nevan
pretz
constituted
unsuccessful
∆ξ
continua
´1p
zπ
i−m
pav
##ractive
nevanlin
endows
topologie
telec
##reted
##umi
abox
##parse
breast
stripes
puzzles
##им
semip
relegated
cic
θλ
##iveau
toujours
k×
fuller
displaying
unsurprising
s∞
µγ
νr
ωh
fragile
petal
faber
nevanlinna
illuminating
pζ
##∆n
haskell
##modules
falsif
interpolants
1≤i≤d
##aton
mint
dieud
##cap
trunk
##ausal
sasaki
burkholder
6α
tψ
##theorem
confining
biclique
lindenstrauss
q∈p
##zler
##forming
negoti
x−z
ϕt
∀ϵ
∇γ
spell
holed
url
declaration
¬s
patter
ssr
adversarially
thrust
lsp
ptr
z∈s
hiro
irreducibles
tessellations
wainwright
asep
cole
c∥∇
##eries
mex
##tility
drone
µz
ϕp
##ese
dobr
i∈g
boxplots
kφ
tours
shep
itemset
touched
3ν
ℑz
weber
abord
##ysics
zur
##house
w∈s
ingoing
skeletal
bost
tbox
definitive
etr
inserts
vil
x5
ωb
nonhomogeneous
##ogarithm
shortened
##signed
rell
monol
##ropri
hss
timely
sobol
uncontrollable
sentiment
lrr
exacte
executable
rsa
gateway
zelevinsky
lds
σµ
saa
1≤j≤k
melonic
philosophical
θw
cycling
##11a
temps
##2016
familiarity
qβ
paradigms
rsk
london
bah
bricks
##lein
owned
##khlin
diaconis
µρ
ε∈
ρz
χ2
2πiz
cfk
rgb
debate
pretzel
rises
wast
##aped
6λ
##hash
##strong
cardi
depiction
pentagons
cofinality
##chon
schneider
kul
isomorphe
##acial
prm
subsampled
−ta
lmmse
gravitation
x∼d
conce
vectorization
##glotz
∩q
intent
reticulation
rebalancing
dieudonne
ˆu
##iation
negations
i∈p
hindsight
∂ε
##pyq
estimand
n∆t
ˆ2
weeks
delone
dolbeault
pce
rav
coalesce
ρρ
incremented
##elov
esseen
murphy
traction
anytime
suivantes
gior
##aria
##osis
framings
ω−
powerset
hubble
##antin
236
behavioural
gnn
ηg
ψa
cancellative
enonce
##quant
wellposed
sticky
neutrinos
##ulty
rokhlin
illegal
penalizes
kann
sark
´j
usd
idx
stake
argues
reste
sparsifier
waveguide
gru
associee
eψ
gauß
suggestive
##sistent
dilated
restarts
φ−1
anton
ars
##aired
ortho
ehren
cambridge
##value
timesteps
##uble
dissipativity
strang
smp
##ibration
skel
maxwellian
dissection
τt
##hd
nov
decim
elusive
morphismes
parallelizable
discharge
vσ
crlb
defocusing
##boost
rising
plenty
kpp
η−1
##rup
≤4
##attan
⊗w
spdes
enfin
malware
vaz
##pcq
jav
μj
lowered
harq
n4
xρ
speedups
disconnect
multiagent
rrhs
##⩽t
december
saturating
promoting
breaker
k×n
∇π
##itability
compelling
syt
quit
conjunct
herglotz
γη
##eler
innoc
##chard
µνρ
benchmarking
brunn
redisc
sensed
fascinating
cem
ξp
multiplets
highdimensional
readable
fost
ηv
##ogeneities
nn8
sympt
yule
elbo
irration
tn−1
debug
khintchine
ε↓0
##tu
−m−1
fct
kot
´η
πw
scm
gaining
ssm
rectified
rin
##sell
imex
corn
dgm
arranging
grou
dtdx
8p
cyclicity
feldman
mermin
##atum
##icki
u→
##olec
##09a
invented
kub
vib
treed
animals
ose
parah
equivalents
εµ
labellings
##otarev
backoff
##homology
rellich
weing
cbs
206
grown
projectivization
≤∥
withdra
##indler
z∼
##lane
walkers
2018a
primed
lozenge
belt
fpc
foreign
##auty
disparity
vassilie
ωω
unite
scf
sgld
nisnevich
##ea
enhances
tions
wors
productive
tev
bem
lsi
ωl
deactiv
transience
install
xia
decouples
×σ
##k1
##tise
willie
elections
##ieure
unifies
thermost
reisner
viter
≥3
dism
enforcement
φα
##atto
kn−1
plurality
spatiotemporal
¬r
resulte
n−5
chapitre
subcoll
polarisation
tonelli
quartet
ipi
maximise
postulated
##2015
advertisers
h−2
ψx
tho
##arcs
ancient
nonadjacent
2πit
karush
subobjects
aber
rsc
##from
##kd
strag
kneser
refrain
tsallis
chordless
almgren
gamb
lct
resum
##lia
lfp
hanging
tϵ
##child
multipole
≥m
207
cfd
tamper
ego
uber
acf
conjecturally
bθ
periodogram
registered
rue
ginibre
##ativeness
surrogates
tentative
suzuki
ω3
##urves
respectivement
tautology
unresolved
n≤x
β∈r
edf
##ello
departures
bicharacteristic
##continuous
queen
choquet
tanaka
doctoral
reshetikhin
8δ
nematic
rϵ
zτ
##zil
spons
limsup
##12a
cohomologically
expend
respected
superpolynomial
favors
declarations
##nen
##c∥
associahedron
clusterings
cliff
##ircular
agreed
holl
##pherson
deploying
##puq
##mel
##page
flor
cψ
±π
##mv
##13a
equicontinuity
oj
##abs
antiholomorphic
kisin
∇∇
dyer
composantes
routers
auctioneer
ωσ
converter
strictement
boosted
##ateur
vassiliev
jag
kick
230
skipping
ctx
lucas
##wq
manh
impurity
lop
deletes
avalan
valiant
αν
colourable
gers
ℓ−
##founded
##unic
timings
collider
preparatory
developp
6l
7d
proph
corona
exploratory
ontologies
lθ
riem
pcg
weingarten
##s∥
##jer
−100
nek
##kson
tightening
x⋆
∂ϵ
10m
normalising
convol
σ∈sn
caracteristique
σλ
φe
##rire
##pert
unsigned
##ogs
quasiregular
drs
##aboost
νλ
asymptote
unbiasedness
20a
bio
ppm
cobar
fluctuating
c×
forgets
##idi
##adhan
##strand
2500
##ominated
spacings
crisis
definiss
pwq
gies
##projective
concisely
##pbq
##admissible
##hou
profound
academy
⊗id
howard
uvw
##beha
fwer
pso
µτ
galilean
##llc
2πin
gegenbauer
6δ
εw
garbage
##kaya
##onen
clair
overconvergent
sparql
phylogen
8σ
##rb
carter
2018b
prevision
capacitated
mise
ηh
k≤
prag
xϕ
δϵ
recher
superconducting
νm
##random
jaccard
lexical
dac
uγ
##nit
epigraph
subsumed
p−i
ℓ→∞
##any
stagn
qualified
1962
p∈s
##rq
##asymptotic
adaption
deteriorates
9d
nsp
−2ν
aliasing
##ер
unmod
straightening
advocated
planned
spontaneously
grigor
kort
−2σ
feng
rmax
wie
##usi
##uster
standardization
x∈u
θσ
##arri
nulls
jacobson
cograph
posons
−2κ
globular
tameness
unravel
postprocessing
eφ
milgram
##t2
1010
conjugations
conductances
manhattan
µµ
comparator
crm
postcondition
1966
equiprob
##adaptive
ect
##olor
feuillet
sη
trivialisation
##tran
unpaired
hau
##achable
noy
3∆
d6
σω
∆γ
##2s
1−ℓ
##ici
##uez
quasipar
fondamental
dtn
electrodynamics
penalize
mubs
##ед
19a
dsm
faculty
neuroscience
woman
zam
##fm
readings
practic
monthly
rnd
plog
carto
concentrating
aℓ
tsetlin
−δt
ias
wσ
adink
pren
bertr
##ishnan
accid
spines
mθ
shelling
21a
##tified
tabular
##fted
##kan
±m
##gre
pars
coex
2∆t
nahm
gpt
φg
openness
##ybakov
dau
szeg
γθ
abp
mutand
resc
##iev
i∈e
formalizing
stimuli
xvi
condor
0≤t≤1
gne
n≥n
νρ
inspiring
incidences
upp
reel
mink
infini
blockage
sarnak
hypertree
##avor
n−a
aztec
arbor
contribut
ibid
022
##3q
##enna
sorte
∩g
##ξ∥
firstorder
devote
iis
subgo
macpherson
##forma
analytics
conserve
w∈v
elli
τx
cdfs
unreason
stoichiometric
##gom
##isen
##quare
##ticles
polyak
##ajima
gly
##¨q
dilogarithm
gρ
gpr
bicomplex
−at
luk
hypersphere
##artes
kinematical
xη
γν
biorthogonal
rado
birationally
minsky
overlook
appearances
quadro
swallow
dislocations
##intuitive
2it
pig
recycl
factorizable
##13b
richness
rcc
##oa
##ohedron
11c
217
##easured
laptop
ρw
clicks
##oldt
protecting
octahedral
genetics
±3
dissoci
someone
filipp
−j−1
tackling
χn
##spectral
quadtree
kram
extinct
undertaken
ρµ
##wi
##hari
styl
##rians
∀0
adaboost
polynome
mutatis
prevail
bialgebras
accident
socially
phenotype
##attle
favorite
dor
r≥
comply
billion
encouraged
να
ϵη
definir
ator
quasist
davies
q4
∂χ
lei
hee
predominant
2ik
##center
2ℏ
##can
l−m
##m1
learnability
pastur
inria
##oked
tolerances
scarce
marriage
5α
##vf
sinai
zonotope
ξa
##iner
antim
resur
rigged
lenses
a⊗b
schut
##p1q
##ua
coleman
##ypes
##annier
interprets
williamson
csis
⊥⊥
##eaf
wideband
v∈t
seemed
horospherical
bnd
tips
µ−
seism
tightest
semimartingales
hypoelliptic
##e∥
##ipal
horosphere
reall
moyal
victim
##oriously
ℵ0
denotational
roadmap
celui
bogomolov
ping
t−u
thermodynamical
ηd
ωf
superd
solv
gpus
tsybakov
corrects
innovative
montes
0≤i≤n
ησ
209
cdma
staff
oram
xiii
ecological
cesaro
i≤
##itarily
arora
dpc
##closed
vgg
barely
j→i
##∇φ
##reys
subp
fss
jost
director
0l
a∈s
→i
∆−1
##emics
##ecki
ppa
announcement
tπ
comfort
abilities
350
mismatched
unsatisfied
atmospheric
∪d
productions
ecl
x∪
##eton
tricks
verifiant
##endor
rech
ende
##under
schroder
spn
brad
judge
dant
##oloring
10x
monom
singularly
whitham
fσ
lasser
##tsp
nonterminal
pico
adcs
gallai
jβ
mant
##uctible
denser
heating
vastly
disconnects
κs
shu
formats
dup
poissonian
slowest
##oooooooo
##cone
grounding
2q−1
constructively
adequacy
subformulas
##termin
fleming
chronological
kang
##irr
restaur
actuation
australian
opaque
bns
σε
257
ust
##gling
preperiodic
needing
locks
glasso
tunable
p→
arq
saves
0101
##uncts
m−p
assembling
garcia
fad
gha
⊗ℓ
sga
konig
szegedy
prokh
##iche
subterms
glp
moins
schar
conventionally
assistant
reservoirs
##во
leur
freeze
parameterizes
−α−1
agreeing
hessenberg
spearman
quasigroup
foreground
sν
βω
landscapes
5ϵ
hap
p8
p×q
##plq
##opf
installed
n×1
mutandis
m→
semistability
interferences
hβ
forking
sperner
coag
sparsely
##gradient
##hammer
−ip
##nu
shortcoming
cπ
lumin
zin
unlic
characterises
selfin
origami
bennett
anova
shaf
unac
∥n∥
permittivity
voxels
enlightening
##≤y
parikh
##aturated
1001
stacky
0d
cgs
##stab
shaw
dpg
##qqq
d−m
alem
qθ
polling
kacz
bottlenecks
morphological
pem
statically
liminf
redistribution
vibr
##heet
fmri
qbf
inapproximability
unlicensed
nomen
##search
∥∇φ
2∥f
qϵ
##mq
latitude
popov
replicating
nonzer
2017a
bimodal
sgs
occupying
##enhuis
subnetworks
ail
##cost
##abic
4096
operationally
misalign
masked
horoballs
rη
##korn
24a
arnoldi
i⊆
ϵf
x∈l
justifications
tij
wpt
calibrate
sne
##dist
notoriously
secondorder
numerators
##onsker
xn−1
eigh
gys
owns
padded
junta
apollonian
cog
contrasted
##t1
condorcet
##zione
caffarelli
bη
fps
qℓ
##xi
##pern
##count
ise
adler
abac
##dσ
quasif
ivanov
immigration
rose
sρ
singh
1≤ℓ
##11b
τa
##caled
multip
semior
4πt
excellence
defaults
uo
δ−
strassen
characterising
predictability
incompressibility
φc
inqu
biharmonic
injects
supervis
alleles
disregarding
5ε
##maxim
halfplane
informs
##tt
270
i∈l
lrc
8z
ℓth
→y
beats
##ario
biot
∩i
lrs
paracompact
s∆
mating
−tl
pedestrian
fois
##emia
chances
subregions
microsoft
bout
ride
β∈b
doctor
gkz
2→2
##fork
##iano
geometrie
##10a
households
handy
−2η
sasakian
dobrushin
𝑖−1
##bery
1200
systolic
lasserre
donsker
##lessly
ert
##bury
±j
phosph
##appropri
metabelian
seeded
autocovariance
favourable
tiers
##uled
##amment
##uminal
mathieu
bcp
x−a
gapless
shadowed
polymorphic
nomencl
schout
exercises
assemblies
ovals
∀δ
equivocation
##structed
cue
triads
quantizing
##lasso
lichner
c8
peps
≤ε
usable
manufacturing
sacrificing
graphe
dpi
prokhorov
uppercase
claiming
∥f∥
bbs
gop
rans
ρπ
an−1
joy
##ovitch
submission
octagon
solenoid
bock
rfs
∆η
literatures
satellites
fτ
tver
brs
secretary
postdoctoral
rum
≤ϵ
thatp
probit
stricter
leaky
acylindrical
##check
probed
identifie
3gpp
bush
invited
requis
multicut
overcomes
salem
bouquet
→h
elaboration
##wick
δℓ
thate
seriously
robins
proton
crisp
hθ
monomer
280
lowers
strategically
lichnerowicz
specker
cao
dantzig
##cki
usc
acp
symetri
wavefunctions
3∥
pnc
ρε
##bra
shp
##ocs
severity
##rophy
pieri
manages
##defin
dlt
pcc
diab
ced
dressed
orm
−1−α
batteries
fλ
##achs
elim
##gra
normalise
22a
i∈x
unicity
igusa
##emption
ven
merton
macla
0000000000000000000
aging
pseudot
explosive
kong
−iz
##eak
aren
carre
maclane
##rystals
≤q
20b
remarqu
underlay
obfuscation
5z
oy
##gem
##eping
furthest
sns
ipc
unde
fen
kil
sot
σβ
##mier
maximising
scanned
sandwiched
volumetric
p∞
αφ
##tized
aka
##atti
chair
opacity
analogies
bers
wul
##unen
##acking
magnet
telles
millisec
eleven
αω
logspace
subgroupoid
democ
chek
4−
bds
selectivity
viro
irregularity
##flexive
ineffective
trivialized
##marz
zλ
≤α
inelastic
appartient
kleinberg
maclaurin
β3
##dec
##artingale
rota
miy
##winding
diminishes
morrison
ϵg
##∩s
##ref
stash
overt
##issance
plugged
peakon
silverman
nomenclature
λϵ
descartes
cyan
##18b
unobstructed
juxt
##plement
##assa
##ijk
promoted
shrunk
##attr
betting
cowe
giorgi
v→
##cast
2ℓ−1
zσ
ξs
lineages
lsm
platoon
qε
rop
∪γ
flrw
##ller
homo
##ynski
echelon
##ouad
pmc
license
possede
vλ
allons
undergoing
choosable
∀ψ
compile
fourfold
palais
n∈i
clasp
incorporation
pumping
quota
nutri
±r
ϵz
sutton
unanim
nats
ωϵ
##∈f
##bounded
##illas
spanish
melnikov
evap
april
viewpoints
cϕ
daf
hν
##appy
mkl
≤3
moon
roz
dlp
birthday
##piq
intension
relint
presburger
refresh
welded
k≥2
rξ
19b
imperfections
l−i
##lmann
metaplectic
strains
administ
interim
preamble
figure7
reconn
∈o
⊗g
##chenko
##elength
enclose
facteur
dsp
pierre
e∞
##veni
coda
backdoor
r−3
sβ
tst
εν
##inations
sind
paste
bonn
organizing
##2017
nombres
telescope
tverberg
pion
´θ
##nl
programmer
pqr
neglig
forgot
plasticity
precurs
subtorus
marginalization
granular
9x
hein
neighborly
harness
deepest
certifying
bries
q−r
assouad
smok
analytique
hereby
##overs
career
ferme
seeding
##entiel
regularizations
looping
halo
dessin
1w
##u2
##y2
equipar
##ande
frontal
vγ
ρν
stl
##onomous
fcfs
θτ
inexp
##which
##hardt
ξm
0110
renumber
collapsible
ˆr2
vecteurs
9k
ict
j⩽
rts
yout
##cv
##µq
##odular
limiter
2πix
thankful
dixmier
pictorial
4ξ
i⊂
litt
coa
##oots
##analy
##llo
228
tangentially
κ∥
inappropri
invocations
bgk
2ϱ
fired
kall
hypercontr
prerequisite
stallings
sard
##⊢n
##agen
tensored
wheels
bruno
brieskorn
##ranov
viability
2πh
rudin
##∼π
##oment
conclusive
α∈φ
shuffles
unicyclic
##g2
##η∥
##ende
spirals
nem
∩∂
writer
i∈σ
symmetrizable
stamp
##iry
tempted
helpers
overloaded
kaczmarz
schae
prompt
commensurability
kite
biasing
2−i
mandatory
inegalite
6i
fence
j−n
x≥0
±s
χi
##uctors
creative
synchrony
attribution
ˆk
##gf
denois
emulate
achievement
summarization
ncp
mosqu
subsumption
stalks
daugh
regularised
specificity
##iao
disparate
##xn
swing
lrt
oxford
##wl
##на
##sez
rankin
##argues
ontic
##affine
omnis
yoshida
foster
mub
´τ
##qi
432
mno
tractor
inconveni
##energy
hsi
pdp
criticism
boosts
cohesive
c∆t
m×d
##gorin
schn
districts
circled
j−m
vinc
##tq
##iveness
accord
p−r
e∆
≤b
##rivial
subsi
varifolds
spacec
unmeasured
bistable
ξr
##alm
emissions
etude
indicial
conduction
photonic
sweeps
h∆
##uniform
−18
upgrade
218
##atoire
8g
##iliated
reviewer
medicine
generous
conten
linearizations
brw
ers
mobiles
displaced
##12b
complicate
orthonormality
multicasting
tripod
patterson
##zant
sublem
anyon
coframe
cohort
##enhaber
dunkl
##odsky
tunnels
olig
νc
mala
adagrad
inadequate
wend
reins
##post
nicht
rodriguez
∥ℓ
##enes
generique
precludes
psk
sdn
##logy
flavors
parahoric
covectors
valleys
gdp
tms
∂κ
hastie
irredundant
ccm
faltings
doublet
ages
w−
##fig
nucleoti
rooms
viscoelastic
mers
ππ
gerstenhaber
tcl
βτ
##abled
subpopulation
mitch
q∈s
i∈q
persu
##pvq
bomb
multiway
264
skills
##attern
exp3
##agawa
turbo
delivering
dds
gini
−st
apg
##ordonne
rendered
inpain
evs
−2τ
prioritized
cocircuit
levelwise
1961
coinvariants
johans
elucidate
nakajima
l≥0
nand
fring
covariantly
1×n
⊗j
##zt
1≤j≤p
embeddability
gou
−2y
cev
cooperad
s−i
##rust
dxdv
eigenmodes
b×
##qubit
226
−iφ
exceeded
goldberg
misclassified
ultrapower
malleable
handwritten
pseudosp
destroys
positroid
gθ
icc
ϵb
lobe
##itsky
versatile
injecting
iet
nonaut
redefined
frenet
bitwise
responsibility
##ecc
##ieder
precip
microw
2016a
j−l
nac
ηc
##lyan
tamari
underdetermined
scholarship
qδ
−⊤
lojasiewicz
atp
n−α
a×b
##arajan
u→∞
monotones
cbf
ερ
##afellar
fom
sδ
editing
umbre
##derivative
vapnik
thu
matematic
endo
semib
fraud
parallelograms
populated
myerson
nonconforming
thomason
v∈n
ϕ0
##eder
monster
crime
−iτ
advanc
overheads
intractability
biochemical
##aid
admitt
ω×r
stb
deline
expressivity
avenues
symplectomorphisms
sparseness
720
mhs
##l1
1−o
237
timescales
∥∇w
bridging
hsu
settling
∇∂
−ax
interpreter
mij
dissimilar
maneuver
proliferation
∪p
##anabe
nexp
bren
pinch
expendit
rcd
ξe
config
rpca
subquadratic
f−
κm
obt
separably
equilibration
−th
##comm
gambles
anticl
coalg
unfoldings
##y1
tox
anyone
faible
cotorsion
hashes
ownership
barcode
12d
courses
εα
possibil
compatibly
cij
##theory
mosquito
sξ
νσ
0010
owl
hfk
tong
xix
conve
stm
hapl
funnel
##udh
mallows
##enkel
7k
indep
configured
encrypt
productivity
wher
emit
escapes
cma
canard
coplanar
mev
scher
eqns
quasipolynomial
subfigure
##amma
subtas
vacuously
compensator
portraits
e6
opposing
lδ
nel
inception
##peq
α→0
smol
lars
pathloss
quadrotor
asian
wsp
distinctions
fabric
rockafellar
lux
##estr
locom
21b
defeasible
feeding
##ogenic
kapranov
isomonodromic
θ∈r
##rojective
infections
fptas
conforms
xϵ
##inv
12m
hyster
hypercyclic
−dt
1≤k≤k
hou
t5
vafa
algebres
##ished
centralizers
harmful
interdepend
timel
##pez
##engers
horv
majorized
berezin
jλ
uts
correctors
fooo
##extendible
pbs
##gency
##sar
##bour
alco
elast
experimenter
resistances
##agh
##→7
michel
unsatisfactory
aoa
extensible
1v
v∂
∀µ
##1s
##uma
##equivariant
##incipal
##10b
thumb
desk
securities
mollifier
eε
minimisers
supersolutions
5λ
pause
confron
subsequential
sij
antilinear
furnishes
ury
##asive
##sep
indice
00000
##locally
cbc
lett
dispose
invested
##robability
##eyer
synthesizing
soup
z∈b
gmail
consci
parametrically
hereditarily
bpsk
rks
∈∂
##axos
u−v
schouten
κd
σϵ
necessaire
i∈u
didn
dilute
watanabe
handlesl
crux
−i−1
correctable
reformulations
tetrad
1959
positif
inheritance
lra
τr
deducing
nmse
suspensions
mses
ψu
resets
swed
requisite
comma
permis
xxxx
splice
nonautonomous
pell
r∞
κ0
##base
##onson
releasing
030
longueur
simo
sbv
salesman
ˆi
underpin
surge
catalyst
lends
2h−1
∥π∥
tosses
vine
equate
peterson
r∆
hooks
jeffreys
∧n
beur
theorists
kelvin
gϵ
xie
diagonalizing
quotienting
006
fkg
hξ
jitter
±p
∇∆
##inst
contenant
quantizations
roughness
flooding
w4
ϵy
isf
genomes
acquiring
g∞
##odin
elm
formalise
succeeding
gysin
lβ
##emment
##ourt
adjusts
cornerstone
pµq
semidiscrete
hysteresis
ftr
ρy
→r
##yan
##vc
entirety
trailing
dangling
sce
∀ρ
##osi
granger
pris
hospitals
##hw
sluts
##ebe
deliberately
assimilation
##star
extremality
aubin
assortment
flocking
reverting
investments
routinely
dendri
l−l
##2r
lopez
pras
generalities
dessins
bryant
hsp
n≥2
##ouin
´1u
bidirected
ibp
retrieving
convincing
fcc
mentions
prest
##−2k
irrot
##omatic
subun
commits
1−g
secrets
nijenhuis
eπ
quil
laf
##hai
epidemics
r−j
propres
gott
a10
prisms
obligations
trough
−ι
−2g
##ovsky
219
overlapped
##shot
rosenberg
kuznet
eeg
fpl
lfs
z×
proactive
reich
25b
obtenir
eur
1−v
eichler
marsh
ghs
organisation
##proj
breakpoint
ultravi
restarting
sre
janson
ζq
##see
23a
k∈j
interferer
pertains
nϕ
trp
presymplectic
penalizing
adherence
fω
gss
ϕq
ℓ∞
multivariable
proxies
percentages
slutsky
##iliar
stratifications
alteration
fand
¬e
##wski
##2013
worthy
linde
4×4
ipr
tth
αξ
ωd
##tino
coordonne
urllc
ffl
b∆
ρτ
∃b
speculate
superl
subleading
tardos
fos
ψα
##asions
##agues
##angles
##yped
1−w
unlinked
chromosome
bhs
2kn
researches
reconstructs
cpo
gordan
giroux
20000
κq
##−f
qca
sπ
##su
j∈d
##operative
positiv
enjoyed
αβγδ
superoperator
x∈γ
y∈c
salam
southern
raviart
λκ
reorgan
##ulton
extremities
cofactor
voev
atmosphere
uψ
klm
koz
jor
l−j
elicitation
j4
1±
s×s
ℏω
deforms
lacunary
##cev
demod
quasipositive
stealth
deflection
haven
##thy
utiliser
submultiplic
tolerable
loopless
ultraviolet
lϵ
→v
lefthand
##flies
noun
∪f
##iquement
1600
dice
zor
γω
##rality
stabilizations
monopol
j−j
tone
forecaster
seasonal
forgotten
l≥1
lmax
ˆf
ϵj
supermanifold
archive
hϵ
definedness
227
electrow
##2012
##overl
i∈r
xi−1
behr
##imentary
onsager
i−3
muc
⊗u
1−ξ
##2014
eds
φy
→t
##0t
barab
tpm
xδ
copyright
relabeled
∨∨
warp
mitchell
ζt
νz
##w17
##≤α
poch
324
shortfall
karou
∆0
clf
wij
subsolutions
inappropriate
sublemma
beurling
0r
aro
kem
−2f
subpopulations
recherche
kore
≤τ
multidegree
employment
subquotients
stubborn
subvector
begun
α∆
invariante
##eweg
evacuation
rated
specialisation
unreachable
borda
equiprobable
jung
κa
∆π
##cover
##icher
nontermin
maxmin
discards
n1×n
##siot
##sohn
rnns
−ρt
gone
zonal
±q
α∇
paraf
secs
dtw
authorized
pouv
x∈n
ˆp
−re
##ulative
shalev
contest
1≤s
bdg
##2010
surjects
confidentiality
kuznetsov
##tech
chasing
##particle
organisms
berk
cloaking
zω
##dk
##iseness
minimises
015
gω
ˆe
##aday
incumb
##span
t−l
##holders
##quettes
##sr
##amata
outd
1956
v∈c
tagging
montrons
jγ
duf
dfas
pursuing
prevented
rearrangements
0≤k≤n
dini
##even
repaired
##zsa
248
orienting
farrell
detections
##ynin
−qt
##blocks
subchannels
redefining
gϕ
##parallel
##ibition
collusion
hardest
gauges
cobordant
outset
##bol
zeil
bϕ
fulton
reindex
bla
carr
buf
electroweak
hls
##unate
nove
scaff
injectively
pursuer
ellis
racks
vit
##fels
##thetic
decep
1536
passenger
pfq
dispersal
wsn
grope
mld
lai
2πα
##ulescu
economical
tutorial
##2vec
2017b
petals
##pecial
unreasonable
official
1728
t−n
puncturing
hetnet
montesinos
hsc
wε
##gar
##zano
##entropy
nonex
11n
slits
breuil
segmented
counterparty
quartics
shuffled
persons
stabilizability
dispersed
hotsp
exemplify
−−−−−−−−−−−
fingerprinting
korteweg
cep
cde
##ucci
overestimate
dimers
dominator
lotka
spacecraft
##α∥
dij
behaving
∥∇ϕ
subfiles
nicolson
x≥
φz
clay
orientability
##ikawa
m−m
suspended
taxi
pitchfork
colluding
forks
unlock
adique
∥∇g
gaud
leaked
crown
fade
t⋆
##lers
unaccept
jak
pne
rah
watch
ρ∂
mature
gonz
albanese
demontrer
kahn
vra
##osterman
oseled
voevodsky
γo
regularities
attend
pist
##opically
pseudoman
x→x
##ugal
k∈m
endowment
g×g
27a
attaches
##armid
neutrality
vτ
zum
ϵλ
##2d
clipped
´2q
fores
241
displace
contractivity
stride
ciphertexts
cooperating
−πi
tracer
raphson
##gemein
inpainting
aide
eld
##ismooth
tj−1
deserve
heegner
1z
∃q
confusing
##adeh
degenerating
k−4
kid
trips
colony
starlike
courbes
inconsistencies
##structures
##neighbor
##ilpotent
filippov
subnormal
axially
27b
attracts
##yaev
ℓs
##го
239
j∈k
pdmp
kloosterman
νe
##pts
##φq
##antic
wels
conceived
convective
dlog
##shows
kills
whitening
wolff
producers
bertrand
beng
givental
perfor
superharmonic
−i∂
∀η
##ober
intro
##ogical
notices
fractionally
pipes
##xxxxxxxxxxxxxxxx
hungarian
knight
brock
ssd
coalgebraic
deteriorate
bν
iron
n≤n
sfs
##ecure
unh
microlocally
##walk
j≤d
pomdps
p−n
ηα
ξv
transformers
lhc
shamir
##hler
##urr
preemption
reformulating
##illeurs
montgom
renewed
obligation
8β
cip
##enter
japanese
φε
sev
uninter
conciseness
nullhomotop
hitters
catastrophic
montgomery
stol
−24
ern
vessiot
##lear
yetter
hessians
cmax
d−n
hδ
±ϵ
##inen
hurd
regenerative
wavelengths
##oulou
genre
##assem
##oven
247
superstring
bgp
gluings
fso
##´k
##idulin
elong
−αn
gph
ζ∈
alp
spind
ship
coev
andrew
polymorphisms
intruder
r∪
plethora
antiferromagnetic
βρ
##´p
nonadaptive
##roken
##iller
recipient
revisiting
vaccination
coch
gee
quasil
oldest
fwf
byte
alar
fees
pθq
inexpensive
κh
hyperco
untou
interfacial
fang
hst
q→∞
242
013
bertini
narrowing
enhancements
microwave
bau
##rates
transporting
##bru
mrs
streamline
elem
developers
##ло
##sio
enf
methodological
333
ndimensional
codazzi
b∩
hπ
tamed
defend
dns
kaplan
γϵ
νf
##omics
##irl
triply
nonb
prg
ppv
unsat
subcollection
∀β
⩽1
##vili
shwar
##arden
instantly
managing
cdp
qρ
κρ
##mooth
proto
centraliser
∂xi
translationally
aaa
gabidulin
i×j
acylindrically
∃f
##eker
##rets
linearizability
253
mcdi
qfi
6ϵ
b7
forsch
edn
interpolations
##isli
howe
4πi
imbens
wellposedness
ether
→c
##frequ
tmp
ˆg
seminar
trails
6u
qss
u4
∪l
##matrix
fied
symmetr
complementing
nrd
huffman
πν
##tan
outwards
spectro
##mode
droplets
francis
marie
y∂
##nodes
alias
unbroken
v∈b
enclosure
hida
∆β
##iana
devising
d−s
strikes
intertwined
z−z
sharpe
##ativistic
gallager
beauville
ero
pab
⊗z
##rif
kalai
5l
dcl
##atowski
slc
blueprint
λ→
∇α
##aver
25a
plaquettes
applique
inability
assez
initialisation
borcher
100k
ledger
prescribes
qψ
whisk
diversification
##sett
pendent
rei
260
advent
bindings
##orientation
oeis
adh
##ardt
amg
linkages
siam
microb
ailleurs
blk
irl
fsm
joyal
##cox
kaz
vershynin
##k∥
lawvere
m−ℓ
engineer
durch
reserves
umbrella
vie
λmin
2πf
perpet
lehmann
iϑ
sriv
˚is
##∇ϕ
conserves
ahar
hog
µd
×γ
##oub
##oku
browser
##brun
rescalings
mismatches
7x
hac
l−n
##oda
##ifman
setwise
dubbed
corruptions
atoroidal
a00
vass
θγ
replies
##ublic
helix
releases
cqs
weis
##sided
disallow
unfor
charles
interdependent
0b
nog
niveau
sϵ
𝑑𝑥
##1t
##vary
combiner
adjustable
challenger
##enhaus
srw
authenticated
systole
##udhuri
0th
ϕx
ϵl
princeton
raj
murray
icosahedral
o3
−ϱ
italy
##matically
##likelihood
mν
##β∥
##λn
planet
2015a
mitigated
unnecessarily
pressures
ultraproduct
mcdiarmid
βε
⊕v
244
demontre
epic
bendix
dialog
8ε
hunt
##kumar
tod
##omorphes
derivator
cautious
bridgel
entailed
pleasure
chatterjee
borcherds
hℓ
wage
##inskii
##arrival
soluble
mincut
uniformizing
##aterally
periphery
##≤a
externalities
transparency
bridgeland
ηf
ω×s
##cel
havee
specht
##inkel
liftable
ancillas
delzant
crease
membranes
dum
sich
catalytic
auer
bridg
rods
nie
unve
##taine
narrower
intentionally
sleeping
8ϵ
µβ
φ−
repeller
overcomplete
rindler
∪x
reversals
representer
factorizing
inverter
electromagnetism
mots
∥au
##illi
preclude
−iγ
dealer
metall
coassociative
matsum
totality
citations
disprove
9e
bumps
##asz
homos
royal
discretised
stratif
1980s
experimented
kochen
##easurable
bowd
fernandez
nonzeros
fγ
ˆc
##finiteness
clip
associator
filament
interlace
irrotational
sift
##hunen
##imo
chief
meson
lmis
lifetimes
appell
psu
aligning
freshness
σ∈e
0h
nab
##qv
remed
254
subscri
untouched
a∈r
gilt
##rement
denotation
moh
251
subdirect
weih
wrink
gurobi
##ika
salv
goldstone
destabilizing
jµ
shwartz
##sin
##jm
definably
mrna
microgrid
pochhammer
kow
qν
νl
norme
universitat
nichols
##cluster
brillouin
rediscovered
dry
vries
##u1
pnp
deployments
tabulated
uninformed
εγ
##rij
outlying
singap
frw
simplement
##conn
##proper
sincere
spi
##angu
enumerator
polyfold
##ccs
hilbertian
csiszar
bowditch
domaine
orbite
vlc
7e
c∂
##911
upshot
##remark
##125
cdh
borderline
hirota
dere
δν
tht
umd
metastability
##kr
##serv
multiresolution
categorization
dcm
vlad
dth
jϕ
wkl
##ро
22b
kuper
bhattacharyya
mles
pcl
##etter
##auss
##graphic
mtc
hinder
lindeberg
dap
mpp
rut
ϵ↓0
revel
worldsheet
ziegler
lud
##q1
##sequence
bona
induite
acd
acb
feff
249
submartingale
tach
vectorfield
14c
1≤r
##withstanding
pleasant
singapore
r≥1
##lomer
##ли
−2z
##weber
macrocell
deutsch
overlooked
6h
6th
gathers
blo
layering
resembling
##sekas
jε
papad
signing
burning
facilitated
precedente
≤y
northern
2016b
opponents
equipartition
lanes
mls
r6
πµ
notwithstanding
##adri
##astava
restr
−iβ
##rystal
evidences
##emirov
ξu
resis
smi
probab
infrequ
formalised
χu
##±0
alam
nonrandom
##itis
uϕ
πθ
χ∈
##anda
logp
holomorphy
ghg
kleisli
youtube
ψd
≤µ
##edon
moons
greene
colleagues
##umo
huy
##quantum
obtuse
mans
p∈n
σδ
india
detrim
480
sturmfels
circumstance
lurie
λ∈r
23b
kinks
fds
kenn
##sables
decrypt
george
arboricity
s≥
##supp
enth
leftover
hypermulti
bisem
f5
κu
rtt
debugging
flying
krie
wφ
νb
reti
##iled
odometer
kasner
bursty
bertsekas
fefferman
##pj
shop
nonarch
prototi
agglomer
iωt
regulier
ged
⩽n
stuff
##rauch
integrale
counterintuitive
kingma
µ∈m
transports
12x
##annes
##titudes
krause
prototypes
tadpole
θε
##etal
deh
entou
t↓0
hyb
changepoint
2i−2
prophet
detrimental
j∆
jν
roi
permett
parabolique
i≤j
##cases
grades
2−m
4πr
4−2
gowers
mce
nemirov
nonres
putative
1⩽i⩽
subsamples
−2v
breiman
northeast
fontaine
econometrics
gov
gundy
applicative
momentarily
receptive
kempe
mental
wass
κe
##oton
bigr
continous
reprinted
glasses
vig
poc
chop
valuative
229
##kle
##≤ℓ
asg
cortex
aligns
reweighting
overshoot
tighten
voit
darker
##oshi
##volume
##ispaced
afforded
weihrauch
##ля
carroll
contractibility
wulff
kou
o∈
⩾1
orch
##keeping
initiates
irreducibly
1952
pou
##wc
##rv
##atique
dob
raison
bdm
marsden
m∆
ℓ∈z
##p∥
subpoly
insulators
##initial
dart
tds
gras
timeslot
psa
barrett
z→∞
cheat
¬y
obdd
##arevich
0100
gmp
graviton
hydra
benjamin
elliott
nose
sons
wad
##sten
equalization
##w16
inliers
ags
2t−1
##ankar
reinforced
n´2
≤u
occasions
mln
##ijo
burger
zeit
encircl
618
8γ
##omi
fij
reducts
flattened
stylized
φσ
24b
bigraph
hsic
x×x
jφ
##fas
bipartitions
admittance
##∂b
##utz
bioin
duff
clarifying
segregation
##lav
resumm
graphene
cosines
immaterial
siv
##e2
##rite
−λτ
typo
ono
subnet
pretr
connectors
varadhan
retransmission
nonisomorphic
nish
s∼
τp
##ories
nonce
symplectomorphic
anticlockwise
jay
rκ
´ξ
⊗4
leq
chained
##pring
mtd
cannon
initializes
cyclical
equiangular
x∆
ψr
ϵσ
##pointed
pseudovari
ramifie
organizers
initiation
ϕψ
0005
##formatics
##2t
##econ
curvel
correspondance
restaurant
##h1
0000000
2−3
##paths
pyramids
federal
upload
veto
##ˆn
cointegr
1−ζ
commutatif
egale
ρω
##etization
qξ
s∼d
##2k
mathematiques
beacon
tweed
−λs
subtype
guideline
quelques
snowfl
lpo
lights
love
dia
hinton
immunity
2×
prou
invalu
##itzen
csm
rxs
leaks
interferometer
spoof
sssp
bugs
q→
##lat
##cos
usp
liouvill
tomographic
monomers
verifications
quanta
hooft
promotes
nonclassicality
3ξ
ζk
printing
ramond
0≤r
macaulay2
shiryaev
andersen
##uctivity
##soever
##aks
proces
##actions
elk
ecs
mkdv
terr
##vina
rosenthal
prerequisites
rous
ρδ
##x3
shut
−1−2
multitude
bootstrapped
liberal
eager
fdt
zε
pru
lipshitz
unboundedness
−πλ
retractions
pedag
horospheres
hatch
##iciously
quintu
phism
dependences
indicative
paw
##issant
egalitarian
parisi
invaluable
vev
κc
##´n
satisfa
lifshitz
compositionality
irreductibles
noyau
##fir
##aft
##erjee
meander
multistage
convexe
238
tpc
monotonous
##join
lived
prescribing
lepton
noncooperative
conscious
resident
newforms
2013a
ζ∥
movi
##encia
disjo
##ridge
correlate
bbbr
quies
conversation
elected
icm
coalitional
2∥x
gδ
kab
qω
±v
sche
cnrs
##09b
evidenced
monolith
φθ
spoke
prison
subsubs
##occup
coagulation
6ε
e7
eϕ
uρ
τk
##amura
interarrival
endoscopic
##trial
promises
##perturb
gη
ϕ∂
##f1
##nard
##∩ω
envis
sensory
preprocessed
h∈g
δ−2
##entropic
nonlinearly
matricial
werden
hav
nonrel
##echn
##ommunic
##igraphic
superselection
inaccuracy
##ando
´1s
recapit
eρ
g−i
ρ−
−kn
leurs
16d
crp
supergroup
##ysh
blocker
passengers
−t∆
cll
##fq
##enders
regulate
emulation
sls
infinitedimensional
lifes
droop
fvs
instantiating
sphero
lozenges
##fice
##a3
##ben
perv
258
avalanche
apsp
lawrence
##octa
wavepack
interchangeable
3g−3
pillow
##rasing
geoph
315
hmms
semicircular
collinearity
tactics
slabs
hydrodynamics
earthquake
b11
##permut
whatsoever
6γ
ℓa
∥≤
suf
##unitary
multihop
v∈u
injectives
remarquons
iit
ωµ
##fg
nonn
figure8
dsr
programm
gβ
told
confuse
brazil
salt
fsc
##i3
##cb
isor
##planes
smod
homodyne
correspondant
landweber
voic
isotrivial
looser
uδ
##fting
nonoverl
arithmetically
footing
1≤i≤j
fppf
φλ
##´s
ambro
surveyed
bribery
paraboloid
fetch
##tors
##z2
curry
noticeably
binds
##rophic
##pecified
7s
##iticity
2pq
cadre
interconnections
nonarchimedean
kld
ζp
πτ
##fish
##⊗1
dell
trigonal
screw
octonion
bξ
d∞
knead
nmi
mathematician
hazan
qpsk
doll
αψ
##i∥
##tv
##ircles
10r
−2ℓ
daha
favored
ˆr3
novem
dah
πδ
unwinding
enkf
1−ω
insulator
occlu
fuse
wenz
⊕m
esn
k−τ
thermalization
lend
на
approximator
disjointly
2−r
cgm
1958
naked
a∩b
ηb
##economic
havep
10t
loeve
##mal
t0u
intensional
nlo
sψ
##don
gravi
##onda
trainable
subcubic
subordination
gic
vem
shao
##pletion
noncent
prong
xyx
welch
n−m−1
journey
∂2
##forest
barnes
shattered
2𝑛
##atal
expec
uninformative
verdier
expenditure
phili
unsuit
tissues
##apoints
bpr
reif
v∈a
descendent
iqp
testbed
375
compromising
heteroscedastic
noc
smo
hyperspectral
008
cancelation
ecosystem
azimuthal
jτ
∪r
##that
##proposition
fpf
−µt
corroborate
##lar
incarn
2019a
rejections
phylogeny
kϕ
lcl
ση
methode
ssl
influencing
lmo
hugh
deuxieme
offloaded
kneading
˚px
πε
blockwise
banerjee
naturelle
milliseconds
b∂
∇δ
scd
2iθ
ttt
tense
yah
σν
ϵα
sybil
analytification
cpc
chemot
markovianity
j≤i
7q
kott
⊗π
##olver
##admm
##itsche
adhesion
ˆ∂ω
dblp
thinks
commented
taubes
arborescence
##lob
##ometers
receding
##trj
bisectors
insurer
##olecular
0p
mog
stines
ηβ
κb
##´i
##ри
##agg
ijt
##tersecting
caustics
t−d
##joy
monopoly
departs
trouve
wasted
daughter
lays
##b0
overcoming
2019b
crashes
edmonds
clamped
parametre
topologique
subfactors
plato
confounder
1970s
telecommunic
qo
ψφ
##kit
transg
polyhomogeneous
##prit
j∈g
cournot
fluent
telescopic
comoving
hypercohomology
##olsky
spare
aborts
etabl
engineers
cleaner
cutoffs
deaths
encompassing
5h
p7
##dam
##ко
ite
##ostatic
2015b
stinespring
gis
π∈p
sty
##ilty
maturities
scripts
##bran
##brech
t→−∞
z→0
in−1
equispaced
maxt
##estone
cran
2πl
−iy
etern
##pps
decline
sdca
wzw
##igt
adhere
pr0
knu
bestvina
binar
k∈a
coroot
refractive
suspicious
submersions
biregular
conception
##ilevel
quasitri
cpus
spinorial
seismic
a⊂
λ≥0
∃e
##bu
##locks
shil
undist
biometric
mutants
hopital
rmt
1−2δ
kurtz
cdd
x6
etend
asymptotes
revet
suites
unnatural
##f2
atr
harvey
faut
t−m
urysohn
mang
nau
±c
##code
reusing
solov
classicality
##principal
voa
feuilletage
recognised
engineered
woodin
addendum
lak
qϕ
−ie
##aml
unis
grh
datapoints
competitiveness
untyped
recession
2k−3
##linde
coresets
∥j∥
gπ
gψ
i≥2
∂1
16t
2014a
threedimensional
sacrifice
rights
sma
rege
quasin
pseudog
forschungs
tweedie
gch
ned
unint
concatenations
bicategories
forbids
dividends
tweets
jδ
ℜz
∥μ
shading
downside
aids
eij
zφ
##vn
multivector
amd
chapman
mcts
2j−2
insure
y∈a
ghosts
healthcare
shafarevich
##ωt
ober
eigenforms
duchi
fourfolds
tarjan
5f
p−j
ρθ
insis
desider
locales
supercharacter
28a
besic
taxon
axiomatis
fmm
##istor
##whe
##uliere
reprove
ψf
##thogonal
commission
stoch
reflector
srt
millimeter
##3d
polycyclic
quasimod
polarised
lobatto
lumped
¬∃
##dependent
##reich
##pple
optimised
establishment
007
##artner
ikj
ppx
625
biomed
encapsulated
cacci
jmax
##ectiv
clash
enum
uncomm
borodin
##2011
¨¨¨a
i∇
xos
##lis
regroup
ncs
p3q
ekf
s7
□a
##qt
##achev
quench
##enda
##acket
bicolored
bubeck
castel
bichromatic
##oloured
e×
v∼
##erb
##utani
verlinde
minded
identite
calog
eric
zil
isotrop
unreduced
newt
worstcase
koebe
fringe
kψ
k⩾1
vent
α→
geod
2np
terminologies
slowdown
vecteur
necklaces
ϵγ
##mid
orbitally
obstructed
fronti
coil
roh
homeomorphically
restarted
parsimony
7t
ere
∩σ
contrasting
−ia
flagged
departing
calogero
∆∥
ldl
1957
273
paving
redundancies
russell
##gupta
inhibitory
2≤i
r∈n
schon
cables
restoring
nilmanifold
sortable
activating
##amente
heckman
¬l
##ku
##kiewicz
##iden
entrain
supertile
eθ
##ollary
##restrial
strictness
mathematis
gauging
intrusion
southwest
inhomogeneities
yorke
luckily
±z
##ived
virial
covolume
nonoverlapping
1α
bess
nph
voi
##vert
simulators
ragh
missingness
1⩽i⩽n
y→x
outdated
bioinformatics
##∈d
##ρq
disambigu
linial
permitting
pcm
sieving
october
girard
arities
biomedical
gℓ
shin
##lements
skep
watts
lhv
irreversibility
pau
ϕu
##isateur
bike
organizations
operateurs
bilevel
fec
wτ
iris
2πiθ
ακ
antid
marcus
sherman
matthe
textual
friedmann
exemplary
november
mpl
γ∞
ξ−
##asse
asy
storm
##derson
superconvergence
elliptically
authorization
svp
576
##ambu
kuratowski
splicing
eft
singles
##gne
notationally
uncomp
lyons
paramount
c−2
µδ
πω
∼n
##sl
appele
##alez
rabinowitz
moviel
eso
tpp
##oco
outperforming
karhunen
ξ∈ξ
projectif
incumbent
λ∆
##pointing
2nt
monotonously
financing
##eor
##lles
##amo
smoothings
coef
guarding
inclined
k∩
i∈h
tensorflow
##appa
greenberg
prasad
##varying
aχ
hη
rrr
sonic
uid
haute
desires
sustained
q×
schnor
normalizable
swept
−rτ
jsq
pioneer
ticket
b12
kie
nmax
pdd
handful
##cca
omits
leafs
##bek
dickson
ggm
testers
trapezoids
uct
λ∂
##ilb
quo
lpv
barycenters
elles
gst
gest
characterisations
boxed
dilution
exponentiated
graceful
fµ
##slag
12t
extensionality
feedbacks
reinsurance
##enport
grays
underestimate
crns
triviale
baumslag
convinced
chered
##rowski
##variance
subcode
emery
multimedia
villani
precisement
εσ
##mw
ard
##gory
traversals
functorially
fov
r12
ψ−
##mond
x∈q
coupons
ccdf
mbqc
##0u
##zek
pentagram
##charov
perez
tsc
##w1
##aser
biset
emergency
dinv
##ustin
275
##2018
activates
biomass
8u
lite
##applic
⊗σ
haut
optimise
rigidly
henri
undeformed
rtr
arak
preprojective
projectivity
halpern
radix
##−k−1
tank
bifurcate
d−p
davenport
rhombic
rag
αϕ
δπ
csr
reproductive
multicom
mollification
∥ε∥
gonzalez
1→2
bought
##member
reseau
subsegment
coordinatewise
2αβ
indecomposables
##occupied
visibly
drawdown
slows
laman
commitments
uhlmann
schnorr
fitz
nambu
ζj
∀π
##present
##manian
cuboid
advocate
budgeted
lucky
suppliers
eigenproblem
flush
j∈e
jacod
taub
tsirel
15c
feeds
1σ
fdd
gbs
n∈s
νu
△x
chv
cfts
winds
sfc
matsumoto
cherednik
censors
##stability
chab
rost
closable
##itization
##beau
barcodes
то
##0x
secular
00000000000
v2v
redexes
##task
unsurprisingly
tft
##fun
porosity
pontrj
bgs
lon
µκ
##quin
handover
affiliated
bcf
##ketch
prospect
gieseker
krr
nse
compressibility
##alli
x∈σ
matematica
8h
##lle
stoc
geost
associahedra
lightweight
subcubes
stewart
radicals
eω
tec
ℓ≥0
##h2
1324
lien
caltech
262
consul
j∈λ
ruan
stretches
shedding
coordonnees
supermulti
−iq
##roidal
terrestrial
embod
autrement
gleich
heterosked
desktop
vue
→n
⊗λ
resting
shub
16m
shifters
releve
dlm
camassa
##zenberger
coequalizer
spain
neb
pram
calligraphic
armijo
golay
##odynamic
cig
ich
qth
sati
##roc
attachments
beamformers
##iii
##ка
dean
##ologists
superintegrable
2−j
∥div
dendrogram
movielens
pontrjagin
ηε
∥ϱ
##press
apple
undergrad
issuing
steel
##kovic
buffering
hern
##0∥
##emost
compet
sht
requester
laver
##ovo
capillary
permutative
iga
austrian
fiedler
besicovitch
fide
ко
##utations
coarea
blog
##indices
x∈h
dca
purchasing
m∞
α4
presupp
##cience
d×m
l→
preordered
2πc
covariation
downloads
extrapolated
kalu
α∈s
βπ
##real
##aine
##entional
sait
mcn
ceases
μx
quicks
diagonalizes
dodecahedron
dks
mech
askey
table2
gui
ensuite
1951
jeu
troubles
featured
c11
##light
subarray
volatile
−iσ
450
surrounds
diagnoses
appreciated
launch
minkows
φb
##lam
spiel
enroll
koen
lutz
##e1
unassigned
washing
glr
interview
toggle
refract
stackon
credits
lensing
judgements
resample
##oport
crf
duo
##links
faire
spacial
quelcon
##akrishnan
tps
→1
antisymm
ddimensional
renormalised
electrodes
ℜe
nonseparable
invitation
1≤a
−2iπ
##−y∥
nullstellensatz
omission
noncomm
cabling
kuperberg
gmc
εω
##water
##algorithm
proet
##ivas
rsd
macros
##jugate
audience
publishing
precursor
quilted
vµ
alike
##uter
notera
cru
douady
coincid
unfam
kimura
aκ
pong
ℓ−j
stutter
neq
##orkin
hypercomplex
splay
vnf
βϕ
##izu
pervas
##harov
267
travers
hadron
##she
donnees
θµ
##power
##gon
##γn
20c
blockchains
wpc
##sw
##this
8i
##pur
##⊗id
loh
−1∂
maf
petite
dictators
barabasi
##bruary
ω∩
##alone
adjective
bsm
456
∥∇l
polylogarithms
fgs
κα
##omor
##ianalytic
##variate
kirwan
sudakov
recompute
schutzenberger
rent
⊕e
##trace
hurt
kramers
i∩
mud
tive
mats
transpl
apa
revenues
ayant
baby
oxy
±b
γφ
##uple
2n−4
modulations
−i2π
powell
insecure
benefited
resetting
sll
##kv
deceler
lui
cofibrantly
spinal
multisymplectic
fixpoints
february
baths
vulnerabilities
phonon
##hara
##gap
##emplo
plabic
−2ω
perturbatively
liouvillian
kund
wannier
php
heath
psw
fewest
nmr
burs
nisan
quitte
k5
mary
##osch
papr
sla
unitar
272
32a
−nr
m−s
oja
expertise
rewiring
768
##mmse
jur
qoe
##anan
265
leafwise
ecology
taxonomy
n1×n2
p∈z
θ3
ρϵ
expository
##ifs
##eversa
transitioning
purified
∂x∂
sqrt
sfb
favorably
avoir
##omputable
quasiconvexity
oseledets
χ0
∼q
##grids
##union
addr
cfs
##120
torsionfree
cert
dating
tso
inhibition
gµν
uθ
µη
norming
13c
y∈ω
##00014
srivastava
ηz
##full
regressive
n−h
snark
##leton
kauf
affirmatively
aubry
pragmatic
unfamiliar
bauer
kξ
##lemann
##berian
11d
accr
refraction
fuji
bisimulations
asynchronously
houses
tsirelson
coderiv
guides
riordan
christian
nonrelativistic
gat
newey
explode
301
bhattacharya
lace
ppo
##jt
pmfs
depicting
mbm
viceversa
solenoidal
e∈s
pχ
qη
ape
manifested
investing
mercer
2h−2
endowing
mitigating
hemispheres
bridgeless
dong
dick
resolvable
therapy
semilattices
λ−µ
theses
corep
nont
conjugaison
0123
hermiticity
milstein
platonic
hourly
##oniot
eβ
qsym
anatom
altr
arte
2πs
selfdual
planners
lug
unoccupied
cleared
defn
∥∇ψ
manipulators
##blur
kakutani
chekanov
qin
ηw
##amen
chakr
##ucibility
approved
realism
n−c
pn−1
lund
existent
inverts
rapoport
hydrostatic
symplectization
dumbbell
≤ρ
dyds
nae
subcover
compactify
hϕ
ψe
##pel
##tss
##mag
−iht
floyd
2013b
a∈f
hugoniot
gds
p≤x
φ3
hopes
caught
ghp
−ln
babai
lifespan
dew
bracketed
vogt
ξf
##alk
adder
##objective
crd
modulator
c∥g∥
1≤i≤p
##niere
bard
eos
qoi
π−
neigh
perelman
##iani
750
gnns
jackkn
##grange
homoph
quasir
coherences
silva
announce
wavenumbers
dbs
h⊗
ψv
↑↓
randomize
monro
priced
##anskii
imprimitive
accidental
0y
mpo
p×n
ℓx
formations
##plicial
specifics
##tify
territ
dollars
battle
sist
##kb
enst
310
##221
disturbing
z∈d
zorn
##r∥
##˚p
rear
259
yangian
##enza
pace
##aru
sms
combinators
gotten
ignorance
gersh
aqu
vϵ
´φ
##charge
10e
stabilisers
barron
goncharov
hazards
throwing
grigorchuk
2𝜋
##cents
##ни
##illon
##ologous
−30
uloc
gbm
solovay
j−3
mouse
genotypes
realizer
misbeha
tightened
kindly
beno
cotype
ucq
johnstone
drinfel
mathematik
##asters
##iances
postselection
merlin
cgl
diviseur
6v
##irs
meier
multiindex
squashed
supermanifolds
enumerations
undecided
abacus
unsuitable
→u
##illed
traveled
mbps
rebu
4ζ
γϕ
##ronal
##βq
merger
ptqq
trapdoor
j≤p
bengio
kaluza
cin
∂br
##tle
##zis
##quad
regrets
optimism
voice
foremost
scru
functionalities
aggregators
1⩽k
turbine
##−8
lampl
retrosp
´ℓ
##adial
einer
dasgupta
autoencoders
transference
colinear
##bychev
architectural
subfields
ridges
##11111111
dipoles
steerable
eighth
censorship
π−1
that∥
dnls
worldline
unsolvable
zooming
9t
ipt
ζ0
nonasymptotic
loglikelihood
smile
holomorphe
gl2
sommets
scharlemann
sachs
∪n
##enberger
serge
floors
e∈γ
1≤i≤r
sticks
nagumo
bockstein
lν
ϵw
##elets
mover
lij
##istance
higman
deterioration
9q
tow
deja
##tsch
switchings
fluctuate
anonymization
announces
purchased
superconductivity
∩y
##k−1
endvertices
trivializing
recurse
si−1
gessel
obscure
e8
mish
r∈z
yτ
±l
∩j
##∼n
##ursive
lisses
johansson
nitsche
q−q
ors
subsonic
homogeneously
collisional
exhausting
gonality
wildly
genealogy
pachner
p∇
##xponential
##orr
equipping
relie
maximisation
brink
renamed
##0100
q∈d
cesa
##chaft
dϖ
dither
smax
ϵ−
10s
s11
tcs
x−2
→s
##iu
exac
heard
comparably
selfsim
pdl
threaded
##hof
trρ
posing
permissions
−αx
ethere
daub
50000
h×
kag
n00014
uν
φw
sober
##occo
utter
−−−−−→
ackermann
cousin
foci
η∇
stubs
paraph
10q
speculative
lowner
bald
skeleta
pentagonal
imitate
coauth
revelation
δδ
νh
∪u
##esse
isosp
swimmer
subcube
n∈n0
atlases
mpt
##sop
##lementary
dtds
srm
amazing
trinomial
recycling
γ∆
residuated
syntactical
##voy
actuated
gul
mφ
unal
agt
handler
superfield
layouts
racine
brenier
nick
¨y
##riter
elementarily
ulrich
rulings
alarms
b∪
##w2
isps
##itsi
##plog
algebraicity
−4n
unknots
coboundaries
cospectral
smeared
bism
eη
wah
ρ→0
larges
hybridization
customized
vazirani
##eco
ungraded
decon
discret
factorisations
reinforce
quotes
hove
±ε
η→0
##fang
##spin
##kova
nagata
1⩽j⩽
extremity
shearing
exposures
juxtaposition
npt
−ℏ
async
pseudop
−iωt
hatcher
qip
ωλ
isentropic
##anth
##ritically
##ermion
showcase
monogenic
vershik
lone
sund
##ouk
ala
coroots
facilitating
##eparable
unacceptable
6f
##asure
##ulable
##ectable
emits
26a
baer
circumvented
lamplighter
night
△u
realtime
268
radically
ef1
##×2n
genealogical
icosahedron
χp
⊕h
##fellow
decoy
latencies
pev
v∈m
##awal
plethys
≥p
⊕a
resampled
derniere
realvalued
fejer
mutable
responding
aaronson
mose
sjo
χ∥
ana
16e
∂x1
##holz
gros
bookkeeping
frictionless
presumed
cure
##1−1
sixteen
tgt
regulators
folk
corpora
a⊤
idr
18c
classique
explorations
∥du∥
ethereum
θ−θ
σθ
##otto
entit
primitivity
orienti
32π
2−a
irreflexive
enjoying
skyrm
conveyed
hps
dimensionally
revise
mrd
delocalized
krieger
icl
vix
##orbit
stee
gla
dubrov
α∂
recht
2πim
dnc
preorders
honda
ηδ
##sets
abab
glide
##ovski
engend
affirm
##tins
dynamique
2πy
−nt
misre
martine
permanently
h6
##usch
subhyper
unifier
ccd
droites
compensates
##greedy
jξ
pfs
wls
×3
##maj
prp
semig
hyperbolically
searcher
lipschitzian
blackboard
2α−2
ucp
pleated
interventional
fundamentals
kro
l∈s
tse
¨p
±u
##wami
guer
paire
cofree
rwre
yosi
sri
zβ
ηρ
∪w
csl
sqp
sesh
victor
8η
kollar
##stu
compte
interess
lmp
´p1
##anz
deposit
coord
barth
fixons
centro
cfa
pta
fleet
noncontextual
uniruled
i∼
mra
##anari
grundy
extender
pseudospectral
−∆v
##klis
wlp
sparsified
auch
ϵϵ
≥c
##esign
##roff
##ofunction
epg
morally
x−t
cva
rbc
jackknife
j⊆
lls
ℓd
stc
##romes
breach
synchronously
cvp
plaque
b∈a
∃h
##imark
cohn
266
hardening
hoped
wsns
[...]
